{"PAD": 0, "!": 1, "\"": 2, "#": 3, "$": 4, "%": 5, "&": 6, "'": 7, "(": 8, ")": 9, "*": 10, "+": 11, ",": 12, "-": 13, ".": 14, "/": 15, "0": 16, "1": 17, "2": 18, "3": 19, "4": 20, "5": 21, "6": 22, "7": 23, "8": 24, "9": 25, ":": 26, ";": 27, "<": 28, "=": 29, ">": 30, "?": 31, "@": 32, "A": 33, "B": 34, "C": 35, "D": 36, "E": 37, "F": 38, "G": 39, "H": 40, "I": 41, "J": 42, "K": 43, "L": 44, "M": 45, "N": 46, "O": 47, "P": 48, "Q": 49, "R": 50, "S": 51, "T": 52, "U": 53, "V": 54, "W": 55, "X": 56, "Y": 57, "Z": 58, "[": 59, "\\": 60, "]": 61, "^": 62, "_": 63, "`": 64, "a": 65, "b": 66, "c": 67, "d": 68, "e": 69, "f": 70, "g": 71, "h": 72, "i": 73, "j": 74, "k": 75, "l": 76, "m": 77, "n": 78, "o": 79, "p": 80, "q": 81, "r": 82, "s": 83, "t": 84, "u": 85, "v": 86, "w": 87, "x": 88, "y": 89, "z": 90, "{": 91, "|": 92, "}": 93, "~": 94, "\u00a1": 95, "\u00a2": 96, "\u00a3": 97, "\u00a4": 98, "\u00a5": 99, "\u00a6": 100, "\u00a7": 101, "\u00a8": 102, "\u00a9": 103, "\u00aa": 104, "\u00ab": 105, "\u00ac": 106, "\u00ae": 107, "\u00af": 108, "\u00b0": 109, "\u00b1": 110, "\u00b2": 111, "\u00b3": 112, "\u00b4": 113, "\u00b5": 114, "\u00b6": 115, "\u00b7": 116, "\u00b8": 117, "\u00b9": 118, "\u00ba": 119, "\u00bb": 120, "\u00bc": 121, "\u00bd": 122, "\u00be": 123, "\u00bf": 124, "\u00c0": 125, "\u00c1": 126, "\u00c2": 127, "\u00c3": 128, "\u00c4": 129, "\u00c5": 130, "\u00c6": 131, "\u00c7": 132, "\u00c8": 133, "\u00c9": 134, "\u00ca": 135, "\u00cb": 136, "\u00cc": 137, "\u00cd": 138, "\u00ce": 139, "\u00cf": 140, "\u00d0": 141, "\u00d1": 142, "\u00d2": 143, "\u00d3": 144, "\u00d4": 145, "\u00d5": 146, "\u00d6": 147, "\u00d7": 148, "\u00d8": 149, "\u00d9": 150, "\u00da": 151, "\u00db": 152, "\u00dc": 153, "\u00dd": 154, "\u00de": 155, "\u00df": 156, "\u00e0": 157, "\u00e1": 158, "\u00e2": 159, "\u00e3": 160, "\u00e4": 161, "\u00e5": 162, "\u00e6": 163, "\u00e7": 164, "\u00e8": 165, "\u00e9": 166, "\u00ea": 167, "\u00eb": 168, "\u00ec": 169, "\u00ed": 170, "\u00ee": 171, "\u00ef": 172, "\u00f0": 173, "\u00f1": 174, "\u00f2": 175, "\u00f3": 176, "\u00f4": 177, "\u00f5": 178, "\u00f6": 179, "\u00f7": 180, "\u00f8": 181, "\u00f9": 182, "\u00fa": 183, "\u00fb": 184, "\u00fc": 185, "\u00fd": 186, "\u00fe": 187, "\u00ff": 188, "\u0100": 189, "\u0101": 190, "\u0102": 191, "\u0103": 192, "\u0104": 193, "\u0105": 194, "\u0106": 195, "\u0107": 196, "\u0108": 197, "\u0109": 198, "\u010a": 199, "\u010b": 200, "\u010c": 201, "\u010d": 202, "\u010e": 203, "\u010f": 204, "\u0110": 205, "\u0111": 206, "\u0112": 207, "\u0113": 208, "\u0114": 209, "\u0115": 210, "\u0116": 211, "\u0117": 212, "\u0118": 213, "\u0119": 214, "\u011a": 215, "\u011b": 216, "\u011c": 217, "\u011d": 218, "\u011e": 219, "\u011f": 220, "\u0120": 221, "\u0121": 222, "\u0122": 223, "\u0123": 224, "\u0124": 225, "\u0125": 226, "\u0126": 227, "\u0127": 228, "\u0128": 229, "\u0129": 230, "\u012a": 231, "\u012b": 232, "\u012c": 233, "\u012d": 234, "\u012e": 235, "\u012f": 236, "\u0130": 237, "\u0131": 238, "\u0132": 239, "\u0133": 240, "\u0134": 241, "\u0135": 242, "\u0136": 243, "\u0137": 244, "\u0138": 245, "\u0139": 246, "\u013a": 247, "\u013b": 248, "\u013c": 249, "\u013d": 250, "\u013e": 251, "\u013f": 252, "\u0140": 253, "\u0141": 254, "\u0142": 255, "\u0143": 256, "\u0120\u00ec": 257, "\u00ec\u013f": 258, "\u0120\u00eb": 259, "\u0120\u00ea": 260, "\u00ed\u0137": 261, "\u00eb\u012d": 262, "\u0120\u00ed": 263, "\u00ec\u0139": 264, "\u00ec\u0140": 265, "\u00ec\u0142": 266, "\u00ea\u00b3": 267, "\u013f\u00b4": 268, "\u00ea\u00b0": 269, "\u00eb\u012d\u00a4": 270, "\u012d\u00a4": 271, "\u00ec\u0126": 272, "\u0120.": 273, "\u00eb\u012c": 274, "\u00ec\u00a7": 275, "\u00ec\u013f\u00b4": 276, "\u00eb\u012c\u0136": 277, "\u0139\u0132": 278, "\u00ec\u0139\u0132": 279, "\u012c\u0136": 280, "\u00ec\u012d": 281, "\u00ec\u0137": 282, "\u00eb\u00a1": 283, "\u00ea\u00b8": 284, "\u00ec\u013e": 285, "\u00ea\u00b2": 286, "\u013f\u0126": 287, "\u00ec\u013f\u0126": 288, "\u013f\u013a": 289, "\u00eb\u0131": 290, "\u00ec\u0124": 291, "\u00eb\u0124": 292, "\u00eb\u00b0": 293, "\u00ec\u013f\u013a": 294, "\u00eb\u00a7": 295, "\u0120\u00ec\u0140": 296, "\u00ed\u0137\u013a": 297, "\u0137\u013a": 298, "\u00eb\u00a1\u013e": 299, "\u00ed\u0137\u013e": 300, "\u00ea\u00b5": 301, "\u00eb\u00a5": 302, "\u0120\u00ec\u0142": 303, "\u00ea\u00b3\u0142": 304, "\u00eb\u00b6": 305, "\u013f\u00bc": 306, "\u00eb\u0135": 307, "\u00ec\u013c": 308, "\u00b0\u0122": 309, "\u012e\u0122": 310, "\u00a1\u013e": 311, "\u00ec\u013a": 312, "\u00ea\u00b0\u0122": 313, "\u00b3\u0142": 314, "\u00eb\u00a6": 315, "\u0137\u013e": 316, "\u00ec\u0138": 317, "\u00ec\u013d": 318, "\u00eb\u00b3": 319, "\u00ec\u00a7\u0122": 320, "\u013f\u0122": 321, "\u00ec\u013f\u0122": 322, "\u00a7\u0122": 323, "\u00ec\u0125": 324, "\u00a5\u00bc": 325, "\u00ec\u012c": 326, "\u00ec\u012a": 327, "\u00ec\u0126\u013e": 328, "\u00eb\u00a5\u00bc": 329, "\u0120\u00ec\u013f\u00b4": 330, "\u00bc\u00eb": 331, "\u0120\u00eb\u00b0": 332, "\u0120E": 333, "\u00ed\u0138": 334, "\u00ed\u0137\u00b4": 335, "\u00eb\u0131\u0126": 336, "\u0120\u00ec\u0137": 337, "\u0120\u00eb\u00a7": 338, "\u00ea\u00b8\u00b0": 339, "\u0120\u00ea\u00b2": 340, "\u00eb\u00ac": 341, "\u00ed\u013b": 342, "\u013f\u00b8": 343, "\u00b8\u00b0": 344, "\u00eb\u0142": 345, "\u0120\u00ec\u0139": 346, "\u00eb\u00a9": 347, "\u00ec\u00b2": 348, "\u01201": 349, "\u00eb\u00aa": 350, "\u00ed\u013a": 351, "\u00ea\u00b7": 352, "\u0120\u00ec\u0126": 353, "\u00eb\u00a6\u00ac": 354, "\u00eb\u012e": 355, "\u0120\u00ea\u00b0": 356, "\u00ec\u0128": 357, "\u0120\u00ec\u0140\u012a": 358, "\u00ec\u00a3": 359, "\u0120\u00ec\u012d": 360, "\u00ec\u013f\u00b8": 361, "\u00ec\u013e\u00bc": 362, "\u0120\u00eb\u012e\u0122": 363, "\u00eb\u0132": 364, "\u0120\u00ec\u013a": 365, "\u0120\u00ec\u0124": 366, "\u0120\u00eb\u0124": 367, "\u01202": 368, "\u00ec\u013e\u00bc\u00eb\u00a1\u013e": 369, "\u00ec\u0140\u0132": 370, "\u00ec\u0140\u00a5": 371, "\u0131\u0126": 372, "\u00ec\u0124\u00ac": 373, "\u00ec\u012d\u013e": 374, "\u00ec\u013b": 375, "\u0120\u00e2": 376, "\u00ec\u013d\u0132": 377, "\u00ec\u012c\u00a4": 378, "\u00ec\u00b0": 379, "\u00eb\u0127": 380, "\u00ec\u00a4": 381, "\u0137\u00b4": 382, "\u0120\u00eb\u00b6": 383, "\u00ec\u00b9": 384, "\u00eb\u00b2": 385, "\u00ec\u0139\u0132\u00ec\u0126\u013e": 386, "\u00ed\u013c": 387, "\u00ec\u0138\u00b4": 388, "\u0120\u00ec\u012a": 389, "\u00eb\u013f\u00bc": 390, "\u00e2\u0122": 391, "\u0138\u012a": 392, "\u0120\u00ea\u00b5": 393, "\u00eb\u012f": 394, "\u00ec\u00a1": 395, "\u00eb\u00af": 396, "\u0120\u00e2\u0122": 397, "\u0120\u00ec\u013f\u00bc": 398, "\u00ea\u00b4": 399, "\u0120\u00ea\u00b3": 400, "\u00ea\u00b3\u00bc": 401, "\u0120\u00eb\u00b3": 402, "\u00eb\u00b9": 403, "\u0120\u00ec\u013e": 404, "\u00ed\u0138\u012a": 405, "\u00ec\u00b6": 406, "\u00eb\u012e\u0122": 407, "\u0120\u00ec\u0124\u00ac": 408, "\u00ea\u00b1": 409, "\u00ec\u0142\u0137": 410, "\u00eb\u00b6\u0122": 411, "\u0120\u00ec\u00a7\u0122": 412, "\u0120\u00ec\u012a\u013a": 413, "\u0120\u00ea\u00b8\u00b0": 414, "\u0120\u00ea\u00b7": 415, "\u00eb\u0140": 416, "\u0120\u00eb\u0135": 417, "\u00ed\u0125": 418, "\u0120\u00ec\u0142\u0126": 419, "\u00ed\u012c": 420, "\u0120\u00eb\u00aa": 421, "\u00ec\u0125\u0123": 422, "\u00eb\u0135\u00a4": 423, "\u00eb\u0141": 424, "\u0120\u00ec\u0125": 425, "\u0120\u00eb\u0127": 426, "\u00eb\u00a9\u00b4": 427, "\u0120\u00ea\u00b0\u0122": 428, "\u0120\u00ec\u012d\u013e": 429, "\u0120,": 430, "\u00b3\u00bc": 431, "\u00eb\u0124\u013a": 432, "\u0120\u00ed\u0137\u013e": 433, "\u00ed\u012e": 434, "\u00ea\u00b2\u012e": 435, "\u00ea\u00b5\u0143": 436, "\u00ec\u0126\u00b1": 437, "\u0138\u00b4": 438, "\u00ed\u0131": 439, "\u00ec\u0142\u013e": 440, "\u0135\u00a4": 441, "\u0120\u00ec\u013d": 442, "\u0120\u00ea\u00b7\u00b8": 443, "\u00ec\u0142\u0123": 444, "\u0120\u00eb\u00ac": 445, "\u00eb\u012d\u012a": 446, "\u00ed\u013c\u012e": 447, "\u0120\u00ed\u013b": 448, "\u0120\u00eb\u012d": 449, "\u0120\u00ed\u0137": 450, "\u00ec\u012a\u013a": 451, "\u00ec\u0139\u0127": 452, "\u00ed\u0128": 453, "\u0120\u00ed\u013a": 454, "\u00ec\u00a3\u00bc": 455, "\u00ec\u0142\u0126": 456, "\u00ea\u00b9": 457, "\u0120\u00ec\u00a4": 458, "\u00eb\u00b3\u00b4": 459, "\u0120\u00ea\u00b2\u0125": 460, "\u0120\u00ec\u0142\u0137": 461, "\u00a3\u00bc": 462, "\u00ec\u013b\u0122": 463, "\u00ec\u0137\u0126": 464, "\u00ed\u013b\u0136": 465, "\u0120\u00eb\u0135\u00b1": 466, "\u00b4\u00ec": 467, "\u0120\u00ed\u0137\u013a": 468, "\u00ed\u0136": 469, "\u0120\u00ec\u00b0": 470, "\u0120\u00ec\u013c": 471, "\u0120\u00ec\u0137\u0126": 472, "\u0120\u00eb\u00b3\u00b4": 473, "\u01203": 474, "\u00eb\u00a7\u012e": 475, "\u0120\u00ec\u0128": 476, "\u0120\u00ec\u00a7": 477, "\u0120\u00ec\u0142\u013e": 478, "\u00eb\u0131\u013b": 479, "\u00ed\u012c\u00b8": 480, "\u00ea\u00b5\u00ac": 481, "\u0120\u00ec\u00b2": 482, "\u00ed\u0126": 483, "\u012e\u00ec": 484, "\u0132\u013a": 485, "\u013b\u0122": 486, "\u00ed\u013d": 487, "\u0120\u00ea\u00b3\u00b5": 488, "\u00ec\u013c\u00a9": 489, "\u0120\u00ec\u00b6": 490, "\u0142\u0123": 491, "20": 492, "\u0120\u00ec\u013e\u0126": 493, "\u00b2\u012e": 494, "\u0120\u00ea\u00b2\u00bd": 495, "\u0120\u00ea\u00b0\u013e": 496, "\u0120\u00ec\u00a4\u0133": 497, "\u0120\u00eb\u0127\u0126": 498, "\u0120\u00ec\u013f\u00b8": 499, "\u0120\u00eb\u00b9": 500, "\u0120\u00ec\u0140\u0132": 501, "\u00ec\u00b9\u013a": 502, "\u0120\u00eb\u0131": 503, "\u0122\u00ec": 504, "\u012020": 505, "\u0120\u00ea\u00b4": 506, "\u0120\u00ea\u00b1": 507, "\u0120\u00ea\u00b5\u0143": 508, "\u0120\u00ec\u00a3\u00bc": 509, "\u00ea\u00b3\u0126": 510, "\u0139\u012a": 511, "\u0137\u0142": 512, "\u00ec\u00a7\u0126": 513, "\u0120\u00ec\u0125\u0123": 514, "\u0120\u00eb\u0124\u013a": 515, "\u00eb\u0126": 516, "\u00eb\u0135\u013e": 517, "\u00ed\u0126\u00b0": 518, "\u0120\u00eb\u00af": 519, "\u00a9\u00b4": 520, "\u0120\u00eb\u00a7\u012e": 521, "\u00ec\u0124\u00b0": 522, "\u0120\u00ec\u013a\u00a4": 523, "\u0120\u00eb\u012d\u00a4": 524, "\u0120\u00ec\u00a1": 525, "\u0120\u00ed\u0131": 526, "\u00ec\u00b4": 527, "\u00eb\u00ac\u00b8": 528, "\u0120\u00eb\u00b6\u0122": 529, "\u00ed\u0123": 530, "\u00ec\u00a2": 531, "\u00eb\u012d\u00b9": 532, "\u00eb\u00b9\u0126": 533, "\u00eb\u012d\u00a4\u00ea\u00b3\u0142": 534, "\u00eb\u0136": 535, "\u00ec\u00a6": 536, "\u00ed\u0137\u0142": 537, "\u0120\u00ea\u00b3\u0142": 538, "\u0120\u00ec\u0138": 539, "\u00ec\u0128\u012e": 540, "\u00ec\u0139\u012a": 541, "\u00ea\u00b4\u0122": 542, "\u0126\u013e": 543, "\u00ed\u0133": 544, "\u00eb\u00a3": 545, "\u00eb\u013f": 546, "\u00eb\u00a9\u00b0": 547, "\u00ea\u00b0\u0126": 548, "\u00ea\u00b3\u00b5": 549, "\u00ed\u0138\u012b": 550, "\u012c\u00a4": 551, "\u00ed\u0140": 552, "\u00a9\u00b0": 553, "\u00ec\u0126\u0142": 554, "\u0120\u00ec\u0139\u00ac": 555, "\u00ec\u013e\u0126": 556, "\u0120\u00ec\u00a1\u00b0": 557, "\u0120\u00ed\u012e": 558, "\u0120\u00c2": 559, "\u0120\u00ec\u013f\u013a": 560, "\u00ec\u00b5": 561, "\u012a\u00ec": 562, "\u00b0\u00ec": 563, "\u01205": 564, "\u00eb\u0141\u00ac": 565, "\u00ec\u0140\u00ac": 566, "\u00eb\u0132\u013a": 567, "\u0137\u0126": 568, "\u00ac\u00ec": 569, "\u0120\u00eb\u0124\u00b4": 570, "\u01204": 571, "\u0120\u00eb\u00b2": 572, "\u0120\u00ec\u013e\u0142": 573, "\u0120\u00ea\u00b4\u0122": 574, "\u0140\u0132": 575, "\u00c2\u00b7": 576, "OS": 577, "EO": 578, "\u0120EOS": 579, "ST": 580, "AR": 581, "TA": 582, "ART": 583, "START": 584, "\u0120\u00eb\u00aa\u00a8": 585, "\u0120\u00ec\u0128\u012e": 586, "\u00ec\u013f\u00bc": 587, "\u0120\u00c2\u00b7": 588, "\u00ec\u013c\u00b0": 589, "\u0120\u00ec\u0126\u013e": 590, "\u0120\u00eb\u012f": 591, "\u00ec\u00b2\u00b4": 592, "\u00ec\u013a\u0123": 593, "\u012d\u012a": 594, "\u0120\u00eb\u00b9\u0126": 595, "\u00ec\u012d\u0142": 596, "\u00eb\u0132\u013e": 597, "\u00eb\u0142\u00a5": 598, "00": 599, "\u013e\u00ec": 600, "\u00eb\u012d\u00a8": 601, "\u0120\u00ed\u0128": 602, "\u0120\u00ec\u00b5": 603, "\u0120\u00ec\u00b5\u013e": 604, "\u0120\u00eb\u00af\u00b8": 605, "\u00ec\u0137\u00bc": 606, "\u00ed\u0130": 607, "\u00eb\u0142\u00a4": 608, "\u0120\u00ec\u013d\u0136": 609, "\u00eb\u012f\u00b0": 610, "\u0120\u00ea\u00b9": 611, "\u0126\u00ec": 612, "\u00eb\u0133": 613, "\u0132\u013e": 614, "\u00ec\u00a1\u00b0": 615, "\u00ec\u013c\u0136": 616, "\u0120\u00eb\u00a7\u012a": 617, "\u00ec\u0137\u012a": 618, "\u00ed\u0128\u00b5": 619, "\u00ed\u0133\u013e": 620, "\u0140\u00a5": 621, "\u00ed\u0134": 622, "\u0120\u00ea\u00b8": 623, "\u00eb\u012d\u012a\u00eb\u012d\u00a4": 624, "\u00ec\u0126\u00b8": 625, "\u0120\u00ec\u012d\u0142": 626, "\u0120\u00ed\u0137\u00b4": 627, "\u0120%": 628, "\u0120\u00ec\u0139\u00b0": 629, "\u00eb\u0137": 630, "\u00ea\u00b9\u012e": 631, "\u00eb\u00aa\u0127": 632, "\u0120\u00ec\u0126\u0142": 633, "\u00ec\u0139\u00ac": 634, "\u00eb\u00ac\u00b4": 635, "\u00bc\u00ec": 636, "\u00ea\u00b8\u012a": 637, "\u00ec\u012d\u013f": 638, "\u0120\u00ed\u0136": 639, "\u00eb\u00af\u00b8": 640, "\u00ec\u00b1": 641, "\u00ec\u0139\u0143": 642, "\u00ea\u00b6": 643, "\u00ea\u00b1\u00b0": 644, "\u00eb\u0124\u00b4": 645, "\u012a\u00eb": 646, "\u0120\u00ed\u013c": 647, "\u0120\u00eb\u0131\u0126": 648, "\u00eb\u0124\u013e": 649, "\u0120\u00eb\u00b0\u013e": 650, "\u0120\u00eb\u00ac\u00b8": 651, "\u0120\u00eb\u00b6\u0126": 652, "\u00eb\u00a5\u00b4": 653, "\u00eb\u00a7\u012a": 654, "\u0120\u00ec\u00b9": 655, "\u0132\u00ec": 656, "\u013a\u00ec": 657, "\u00ed\u0140\u012a": 658, "\u0120\u00ea\u00b0\u0137": 659, "\u0120\u00eb\u0136": 660, "\u0120\u00ed\u012c": 661, "\u00ea\u00b5\u0132": 662, "\u0120201": 663, "\u00eb\u0140\u013a": 664, "\u0120\u00ec\u013d\u0132": 665, "\u0120\u00ec\u013b": 666, "\u00ec\u00bd": 667, "\u0120\u00ec\u0126\u00b8": 668, "\u00eb\u00af\u00bc": 669, "\u0120\u00ec\u00b4": 670, "\u012d\u013e": 671, "\u0120\u00ed\u0125": 672, "\u0120\u00ec\u013a\u0123": 673, "\u00ea\u00b2\u00bd": 674, "\u00eb\u0128": 675, "\u00b6\u0122": 676, "\u00ed\u0139": 677, "\u0120\u00ea\u00b5\u00ac": 678, "\u0120\u00eb\u00a7\u0132": 679, "\u00ec\u013e\u0142": 680, "\u00ed\u0137\u013b": 681, "\u01206": 682, "\u0120\u00eb\u0131\u013b": 683, "\u0137\u012e": 684, "10": 685, "\u00ec\u00a7\u0122\u00eb\u00a7\u012e": 686, "\u0120\u00ec\u0137\u012c": 687, "\u0120\u00eb\u00b0\u00a9": 688, "\u0120\u00ed\u0128\u00b5": 689, "\u0120\u00ec\u0139\u0128": 690, "\u00ec\u013c\u00b4": 691, "\u0120\u00ec\u0138\u00b4": 692, "\u0137\u013b": 693, "\u00ed\u0124": 694, "\u00ed\u0137\u013e\u00eb\u012d\u00a4": 695, "\u0120-": 696, "\u00ed\u013d\u0126": 697, "\u0120\u00ea\u00b9\u0122": 698, "\u0120\u00ec\u00a2": 699, "\u00ec\u0125\u013f": 700, "\u0120\u00ec\u012c\u00a4": 701, "\u0120\u00ed\u013d": 702, "\u0120\u00ec\u0137\u012a": 703, "\u00ed\u0127": 704, "\u00eb\u00b6\u0126": 705, "\u00ec\u012c\u00b5": 706, "\u0120\u00ec\u013c\u00b0": 707, "\u0120\u00eb\u00b0\u0136": 708, "\u00ec\u00a4\u0133": 709, "\u00ec\u013c\u00b8": 710, "\u0120\u00ec\u0140\u00a5": 711, "\u0120\u00eb\u0137\u012e": 712, "\u00ed\u012a": 713, "\u0120\u00ec\u0126\u00b1": 714, "\u00eb\u00b0\u00a9": 715, "\u00ec\u0139\u00b0": 716, "\u0120\u00e2\u0122\u013b": 717, "\u0120\u00ec\u00b0\u00a8": 718, "\u0120\u00ed\u013a\u0126": 719, "\u0124\u013a": 720, "\u00ed\u0125\u0122": 721, "\u0120\u00eb\u0128": 722, "\u00ec\u0128\u012f": 723, "\u0120\u00eb\u0126": 724, "\u0120\u00e2\u0122\u013a": 725, "\u00ea\u00b9\u012e\u00ec\u00a7\u0122": 726, "\u0126\u00b1": 727, "\u0120\u00eb\u00ac\u00b4": 728, "\u0120\u00ec\u00a7\u0126": 729, "\u0120\u00ec\u012d\u00a4": 730, "\u0120\u00e2\u0122\u013e": 731, "\u0120\u00ec\u013a\u012a": 732, "\u00ec\u00b0\u00a8": 733, "\u0120\u00eb\u00aa\u0127": 734, "\u00bc\u00ea": 735, "\u00ec\u013a\u00a4": 736, "\u01207": 737, "\u00a6\u00ac": 738, "\u00eb\u00a1\u013f": 739, "\u013d\u0132": 740, "\u00eb\u00b0\u013e": 741, "\u00ec\u00b6\u013e": 742, "\u00eb\u012f\u013a": 743, "\u0120\u00e2\u0122\u013f": 744, "\u00eb\u00a6\u00b0": 745, "\u0120\u00ed\u013c\u012e": 746, "\u0120\u00ec\u00b6\u0136": 747, "\u0139\u0127": 748, "\u00ec\u0138\u0133": 749, "\u00ec\u0140\u0127": 750, "\u0120\u00ea\u00b1\u00b0": 751, "\u0120\u00eb\u012d\u00b9": 752, "\u00eb\u00ac\u00bc": 753, "\u0120\u00eb\u00b0\u013a": 754, "\u00ed\u0134\u012a": 755, "\u00ec\u0140\u0126": 756, "\u0120\u00ed\u013d\u0126": 757, "\u00eb\u00b8": 758, "\u0137\u00a8": 759, "\u00ea\u00b6\u012e": 760, "\u00b8\u00ec": 761, "\u00eb\u012d\u00a4\u00eb\u012c\u0136": 762, "\u00ea\u00b2\u00a9": 763, "\u00eb\u0142\u00b9": 764, "\u00ed\u012d": 765, "\u0120\u00ec\u0125\u013f": 766, "\u01208": 767, "\u012f\u013a": 768, "\u00eb\u013f\u00bc\u00ea\u00b3\u0142": 769, "\u00eb\u00aa\u00a8": 770, "\u0120\u00ec\u0142\u0123": 771, "\u00ec\u0139\u0132\u00ea\u00b2\u012e": 772, "\u00eb\u00b0\u013a": 773, "\u0124\u00ac": 774, "\u00ed\u013f": 775, "\u00ec\u00b2\u0143": 776, "\u00ec\u0126\u013f": 777, "\u00ec\u0142\u0132": 778, "\u0120\u00ec\u00a7\u0122\u00eb\u0124\u013e": 779, "\u00ec\u013f\u012e": 780, "\u0120\u00ed\u012c\u00b9": 781, "\u00eb\u013a": 782, "\u00ec\u00a4\u0122": 783, "\u00b2\u0142": 784, "\u0126\u00eb": 785, "\u0120\u00eb\u00a7\u00a4": 786, "\u0120\u00eb\u013a": 787, "\u013f\u012e": 788, "\u00eb\u00b6\u0122\u00ed\u0126\u00b0": 789, "\u00eb\u00a5\u00b8": 790, "\u0120\u00eb\u0127\u00b8": 791, "\u00eb\u012c\u00a5": 792, "\u00ec\u0140\u0133": 793, "\u00b5\u00ed": 794, "\u00eb\u00a9\u00b4\u00ec\u0126\u013e": 795, "\u00eb\u012b": 796, "\u0120\u00ed\u0138": 797, "\u00ea\u00b2\u0142": 798, "\u012d\u00b9": 799, "\u013e\u00bc": 800, "\u0142\u0137": 801, "\u00ea\u00b8\u012b": 802, "\u0120\u00ea\u00b5\u0132": 803, "\u00a4\u00ec": 804, "\u00eb\u0142\u00a8": 805, "\u01209": 806, "\u0120\u00eb\u012f\u0136": 807, "\u00eb\u00b2\u0137": 808, "\u00eb\u0142\u012a": 809, "\u0120\u00eb\u0136\u00b0": 810, "\u0120\u00ea\u00b3\u0126": 811, "\u0120\u00eb\u013a\u0132": 812, "\u0120\u00ec\u0140\u00ac": 813, "\u0120\u00ec\u00a6": 814, "\u00ed\u0123\u00ac": 815, "\u0120\u00ea\u00b2\u00b0": 816, "\u0120\u00ed\u0123": 817, "\u0120\u00eb\u00b6\u012a": 818, "\u00ed\u013a\u00b8": 819, "\u00a7\u012e": 820, "\u013e\u00eb": 821, "\u00ec\u012d\u00ac": 822, "\u00b5\u00eb": 823, "\u00b4\u00eb": 824, "\u0142\u00ec": 825, "\u00ea\u00b0\u0123": 826, "\u00ec\u013e\u00bc\u00eb": 827, "\u00ea\u00b0\u0132": 828, "\u00eb\u00a8": 829, "\u01200": 830, "\u00ea\u00b0\u013e": 831, "\u00ec\u0126\u00a4": 832, "\u012d\u00a8": 833, "\u012010": 834, "\u0120\u00eb\u012e\u0122\u00ed\u0137\u013e": 835, "\u0120\u00ed\u013b\u0137": 836, "\u00ec\u012d\u00a4": 837, "\u00ea\u00b1\u00b4": 838, "\u0120\u00ec\u013a\u00ac": 839, "\u00ec\u013a\u0122": 840, "\u0136\u00ec": 841, "\u00ed\u0137\u00a9": 842, "\u0120\u00ed\u0131\u012b": 843, "\u0120\u00ec\u0139\u00b4": 844, "\u00ed\u0136\u0126": 845, "\u0120\u00ec\u0126\u013e\u00ec\u013c\u00b8": 846, "\u0120\u00eb\u0124\u00a8": 847, "\u0120\u00eb\u012d\u00a8": 848, "\u0120\u00ec\u00b6\u013e": 849, "\u013b\u0136": 850, "\u0120\u00ec\u0126\u00a4": 851, "\u0120\u00ed\u0130": 852, "\u00eb\u00a3\u012e": 853, "\u0120\u00ec\u0139\u0132": 854, "\u0120\u00ea\u00b1\u00b4": 855, "\u0120\u00ed\u0137\u013e\u00ea\u00b5\u0143": 856, "\u0120\u00ec\u00b0\u00b8": 857, "\u0120\u00ec\u0138\u00b5": 858, "\u0122\u00eb": 859, "\u00ec\u0137\u013a": 860, "\u00eb\u00a1\u0142": 861, "\u00ec\u00bb": 862, "\u00ed\u013a\u0137": 863, "\u00ec\u012c\u00b5\u00eb\u012d\u012a\u00eb\u012d\u00a4": 864, "\u0120\u00eb\u00b0\u013d": 865, "\u0120\u00eb\u00b0\u013f": 866, "\u00b3\u0126": 867, "\u00ec\u00a2\u0127": 868, "\u00ec\u00a7\u0123": 869, "\u0120\u00ed\u0131\u00ac": 870, "\u00eb\u0127\u0126": 871, "\u0120\u00eb\u0132\u013a": 872, "\u00eb\u00a7\u00a4": 873, "\u012b\u00b4": 874, "\u00ec\u00b8": 875, "\u00ec\u012a\u0142": 876, "\u0120\u00ec\u00bd": 877, "\u0142\u013e": 878, "\u0132\u0132": 879, "\u00eb\u00b3\u00b8": 880, "\u00eb\u00a6\u00bd": 881, "\u0120\u00eb\u012b\u00b4": 882, "19": 883, "\u0120\u00eb\u0133": 884, "\u00eb\u012a": 885, "\u0120\u00ed\u0138\u012a": 886, "\u0120\u00ec\u013e\u0126\u00ed\u0137\u00b4": 887, "\u00ec\u0137\u00bd": 888, "\u0137\u00ec": 889, "\u013e\u0126": 890, "\u00eb\u0124\u00a8": 891, "\u00eb\u012d\u00b4": 892, "\u0142\u0126": 893, "\u0120\u00ed\u013b\u0136": 894, "\u00ec\u0127": 895, "\u012019": 896, "\u0120\u00ec\u0140\u0127": 897, "\u0120'": 898, "\u00ea\u00bb": 899, "\u00eb\u0123": 900, "\u0120\u00eb\u00b0\u00b0": 901, "\u0120:": 902, "\u0120\u00ec\u00b2\u0143": 903, "\u0137\u00a9": 904, "\u00ed\u0128\u0142": 905, "\u0120\u00ea\u00b8\u012a": 906, "\u00eb\u0124\u0142": 907, "\u0120\u00ed\u012e\u0132": 908, "\u0120s": 909, "\u00ea\u00b7\u00b8": 910, "\u00eb\u00b2\u0126": 911, "\u00ec\u0136": 912, "\u0127\u00ec": 913, "\u00eb\u0140\u012e": 914, "\u0120\u00ed\u012a": 915, "\u0120\u00eb\u00b0\u013f\u00ed\u013a": 916, "\u0120\u00e3": 917, "\u00ea\u00b7\u00bc": 918, "\u00ed\u012e\u012e": 919, "\u0120\u00eb\u00b6\u0123": 920, "\u0120\u00ec\u00b1": 921, "\u00ed\u0131\u00ac": 922, "\u00ed\u0128\u00b5\u00eb\u0142\u00b9": 923, "\u00ea\u00b5\u00b0": 924, "\u0120\u00ea\u00b0\u0132": 925, "\u00eb\u012c\u0136\u00eb\u012f\u00b0": 926, "\u0120\u00eb\u00a7\u0130": 927, "\u0120\u00ec\u0139\u0143": 928, "\u00eb\u012d\u00ac": 929, "\u0139\u00ac": 930, "\u0120\u00eb\u012d\u00ac": 931, "\u0120\u00eb\u012c": 932, "\u00eb\u00b2\u012a": 933, "\u0120c": 934, "\u0120\u00ec\u0140\u0133": 935, "\u0120\u00ed\u012a\u00ac": 936, "\u00b6\u012e": 937, "\u00ec\u00b9\u00b4": 938, "\u0120\u00ec\u0137\u012e": 939, "\u00ed\u0125\u013e": 940, "\u00eb\u0141\u012b": 941, "\u0120\u00ea\u00b0\u013b": 942, "\u00ec\u00b2\u013e": 943, "\u0120\u00eb\u012e\u0122\u00ed\u0128\u00b5\u00eb\u0142\u00b9": 944, "\u0120\u00ec\u00a6\u013f": 945, "\u0120\u00ec\u00a3": 946, "\u0120\u00ea\u00b3\u00bc": 947, "\u00eb\u0133\u0132": 948, "\u00eb\u00b6\u0123": 949, "\u00ec\u00b2\u013a": 950, "\u0120\u00ed\u0137\u00a8": 951, "\u0120\u00ec\u013c\u00b4": 952, "\u00eb\u0132\u0132": 953, "\u0120\u00ec\u013b\u00b8": 954, "\u0133\u00ec": 955, "\u00ea\u00bb\u013a": 956, "\u0120\u00eb\u013f\u00bc": 957, "\u0120\u00eb\u00b0\u013f\u00ed\u013a\u0136": 958, "\u00ed\u0139\u013a": 959, "\u0120a": 960, "\u0120\u00ed\u0138\u012b": 961, "\u00ec\u012c\u00b9": 962, "\u00eb\u00a3\u00a8": 963, "\u00eb\u0138": 964, "\u00ed\u013b\u013a": 965, "\u0120\u00ec\u0142\u0132": 966, "\u0120\u00eb\u00b0\u0131": 967, "\u00ed\u0124\u00a4": 968, "\u0120\u00ed\u0136\u0126": 969, "30": 970, "\u00ec\u00a7\u012a": 971, "\u0120\u00eb\u00a9": 972, "\u0120\u00ed\u012e\u012e": 973, "\u00ec\u013e\u00a1": 974, "\u00ea\u00b2\u00b0": 975, "\u00eb\u00a5\u013a": 976, "\u00eb\u00b4": 977, "\u0120\u00ec\u00a2\u0127": 978, "\u0120\u00eb\u0135\u00a4": 979, "\u0120\u00ec\u00b4\u012a": 980, "\u00ec\u00b1\u0127": 981, "\u00ec\u0138\u00b8": 982, "11": 983, "\u0120\u00ec\u00a7\u0123": 984, "\u00eb\u00b3\u0126": 985, "\u0120m": 986, "\u0120\u00eb\u0128\u0134": 987, "\u00ec\u013e\u0126\u00ec\u013d\u0132": 988, "\u0120\u00ed\u0128\u00b5\u00ed\u0137\u00b4": 989, "\u00ec\u0142\u0122": 990, "12": 991, "\u0120\u00eb\u00b0\u0137": 992, "\u00b1\u00ec": 993, "\u0120\u00ec\u0137\u0140": 994, "\u0120\u00eb\u00a1\u013e": 995, "\u00b3\u00b5": 996, "\u00ec\u013b\u00b8": 997, "\u0120\u00eb\u0137\u012e\u00eb\u00ac\u00b8": 998, "\u00ed\u012d\u00b0": 999, "\u00ec\u00bc": 1000, "\u00b5\u00ec": 1001, "\u0120\u00ed\u0137\u013b": 1002, "\u00b0\u00eb": 1003, "\u00ed\u012e\u0132": 1004, "\u00eb\u00a7\u013f": 1005, "\u0120\u00eb\u00b3\u00b8": 1006, "\u0120\u00ec\u0142\u0137\u00eb\u00b6\u0122": 1007, "\u0120\u00eb\u012a": 1008, "\u00eb\u0125": 1009, "\u00eb\u0136\u0136": 1010, "\u00eb\u00b0\u0136": 1011, "\u0120\u00eb\u0133\u0132": 1012, "\u0120\u00ec\u00b4\u013f": 1013, "\u0120\u00ec\u013c\u0136": 1014, "\u0120\u00ed\u013a\u00b8": 1015, "\u00eb\u0135\u0142": 1016, "\u00ed\u0138\u00a5": 1017, "\u0120\u00ed\u0136\u00bc": 1018, "\u00eb\u00b3\u00b5": 1019, "\u00b7\u00a8": 1020, "\u00ec\u013e\u00bc\u00eb\u00a9\u00b0": 1021, "\u0120\u00ec\u0142\u0122": 1022, "\u0120\u00ec\u00bd\u0136": 1023, "\u0120\u00eb\u012e\u0122\u00ed\u0133\u013e": 1024, "\u0120\u00ed\u013b\u013e": 1025, "\u00ed\u0136\u00bc": 1026, "\u0120\u00ec\u0140\u0126": 1027, "\u0120\u00ec\u012c": 1028, "\u00eb\u013f\u00bc\u00eb\u012c\u0136": 1029, "\u00b3\u00b4": 1030, "\u00b8\u00eb": 1031, "\u0120\u00ec\u0124\u00b0": 1032, "\u00eb\u0127\u00b8": 1033, "\u00ed\u013c\u012f": 1034, "\u00eb\u0132\u013e\u00eb\u012d\u00a4": 1035, "\u0136\u00a8": 1036, "\u0120\u00ed\u0137\u013e\u00eb\u012d\u00a4": 1037, "\u0120\u00eb\u00af\u00bc": 1038, "50": 1039, "\u0120\u00ea\u00b2\u00bd\u00ec\u013c\u00b0": 1040, "\u0120\u00ed\u013f": 1041, "\u0120\u00ed\u0137\u0142": 1042, "\u0137\u0143": 1043, "\u00ec\u013a\u00a8": 1044, "\u00ed\u013a\u0126": 1045, "\u0120\u00eb\u00b8": 1046, "\u0120t": 1047, "\u0120\u00ed\u0137\u00a8\u00ea\u00bb\u013a": 1048, "\u00eb\u0140\u0133": 1049, "\u00ec\u00b0\u00b0": 1050, "\u0120\u00ec\u0137\u0126\u00eb\u012d\u012a": 1051, "\u00ed\u0137\u0143": 1052, "\u013a\u0122": 1053, "\u00ed\u0125\u013f": 1054, "\u00eb\u00b3\u00b4\u00eb\u012d\u00a4": 1055, "\u0120\u00ea\u00b4\u0122\u00eb\u0142\u00a8": 1056, "\u012012": 1057, "\u0120\u00eb\u00ac\u00bc": 1058, "\u0136\u00eb": 1059, "\u0132\u0142": 1060, "\u0120\u00ea\u00b2\u012e": 1061, "\u0142\u012a": 1062, "\u0120\u00ec\u0138\u0133": 1063, "\u00eb\u00a6\u0126": 1064, "\u00ea\u00b0\u0137": 1065, "\u00ec\u00a6\u012a": 1066, "\u0120\u00eb\u012e\u0122\u00ed\u0137\u00b4": 1067, "\u013b\u00ec": 1068, "\u00ec\u013e\u00a8": 1069, "\u0120\u00ec\u00a7\u0122\u00ec\u0139\u0143": 1070, "\u012011": 1071, "\u0120\u00eb\u00aa\u00bb": 1072, "\u0120\u00ec\u00b9\u00b4": 1073, "\u0120\u00ec\u0139\u0127": 1074, "\u00ec\u00a1\u012e": 1075, "\u0120\u00eb\u00af\u00b8\u00ea\u00b5\u0143": 1076, "\u0120\u00ec\u013f\u00b4\u00eb\u00b2\u012a": 1077, "\u0120\u00ea\u00b0\u0126": 1078, "\u00eb\u0141\u00b0": 1079, "\u0137\u00bc": 1080, "\u00a1\u013f": 1081, "\u0120\u00ec\u00bb": 1082, "\u0120\u00ed\u013a\u0133": 1083, "\u0120\u00ec\u00a7\u0133": 1084, "\u00ed\u013b\u00a9": 1085, "\u0120\u00eb\u0132\u013e": 1086, "\u0125\u0123": 1087, "\u012e\u00eb": 1088, "\u0143\u00ec": 1089, "\u0120\u00ed\u0137\u0126": 1090, "\u0120\u00ea\u00b0\u0122\u00eb\u012c\u00a5": 1091, "\u00ed\u0130\u00b8": 1092, "\u0120\u00ec\u013f\u00b4\u00ed\u013d\u0126": 1093, "\u00a9\u00ec": 1094, "\u0120k": 1095, "\u00ec\u00a6\u013f": 1096, "\u0120\u00ec\u012d\u00ac": 1097, "\u00ed\u012a\u00ac": 1098, "\u0120\u00eb\u0131\u0127": 1099, "\u00ec\u00ba": 1100, "\u00ed\u013a\u0133": 1101, "\u00ec\u00a1\u00b1": 1102, "\u0120\u00ec\u013c\u00b0\u00eb\u00a6\u00ac": 1103, "\u00ec\u013f\u00b5": 1104, "\u0120\u00ea\u00b0\u0123": 1105, "\u00ed\u0137\u00a8": 1106, "\u00eb\u00b3\u0133": 1107, "\u00eb\u0141\u00bc": 1108, "\u0120\u00ec\u00b2\u013e": 1109, "\u00eb\u0140\u0122": 1110, "\u0120\u00ec\u00b2\u00b4": 1111, "\u0120\u00ec\u00a7\u0126\u00ed\u0138\u012b": 1112, "\u0120\u00ed\u0125\u0122": 1113, "\u0120\u00ec\u0125\u012a": 1114, "\u00eb\u0135\u00b1": 1115, "\u0120b": 1116, "\u0120\u00eb\u0123": 1117, "\u00ec\u00b6\u0137": 1118, "\u0120\u00eb\u00a6\u00ac": 1119, "\u0120\u00ea\u00b4\u0122\u00ea\u00b3\u0126": 1120, "\u00a8\u00ec": 1121, "\u0120\u00eb\u00a7\u0140": 1122, "\u00eb\u0134": 1123, "\u0120l": 1124, "\u00ec\u00b7": 1125, "\u00eb\u00aa\u00a9": 1126, "\u0120\u00ec\u013f\u013a\u00ec\u013d\u0132": 1127, "\u0120\u00eb\u00b2\u012a": 1128, "\u0120\u00eb\u00b3\u0122": 1129, "\u0120\u00ec\u013e\u0126\u00ed\u0137\u013e": 1130, "\u0120\u00ec\u00b2\u013a": 1131, "\u0120\u00e2\u0122\u00a6": 1132, "\u00ea\u00b7\u00b9": 1133, "\u0120p": 1134, "\u00ec\u013d\u012e": 1135, "\u0120\u00ea\u00b4\u0133": 1136, "\u0120i": 1137, "\u0120\u00ec\u0124\u00ac\u00eb\u0140\u012e": 1138, "\u00eb\u013f\u00bd": 1139, "\u0120\u00eb\u00a8": 1140, "\u0120\u00ec\u00a2\u012d": 1141, "\u0120\u00eb\u00aa\u00a9": 1142, "\u0120\"": 1143, "\u0120\u00ec\u013f\u00b4\u00ec\u0125\u0123": 1144, "\u0120\u00ec\u0137\u00bd": 1145, "\u0120\u00ec\u0124\u00ac\u00ec\u013c\u00a9": 1146, "\u0120\u00ec\u00a7\u0122\u00ec\u013d\u0132": 1147, "\u00eb\u00a6\u00bc": 1148, "15": 1149, "\u00bc\u00ed": 1150, "..": 1151, "\u0120\u00ec\u0124\u00bc": 1152, "\u00ea\u00b2\u00ac": 1153, "\u0120\u00eb\u0134": 1154, "\u00ec\u012d\u013e\u00ec\u012c\u00a4": 1155, "\u0120\u00ea\u00b5\u0143\u00ed\u013c\u012e": 1156, "\u00b0\u0126": 1157, "\u0120\u00ed\u0123\u00ac": 1158, "\u0120w": 1159, "\u0120\u00ec\u0124\u00ac\u00ec\u0139\u0127": 1160, "\u0120\u00ec\u00b7\u00a8": 1161, "\u0132\u00eb": 1162, "\u0120\u00ea\u00b7\u013e": 1163, "\u0120\u00ed\u0133": 1164, "\u00ea\u00b4\u0133": 1165, "\u0120\u00eb\u012f\u00b0": 1166, "\u0120\u00ed\u013b\u013a": 1167, "\u0120\u00ed\u0130\u00b8": 1168, "\u0120\u00ea\u00b2\u0122": 1169, "\u0122\u00ed": 1170, "\u00ec\u00b4\u012a": 1171, "\u0120\u00ec\u00b8": 1172, "\u00eb\u012d\u00a4\u00eb\u00a9\u00b0": 1173, "\u0120\u00ec\u00a3\u00bc\u00eb": 1174, "\u0120\u00ea\u00b8\u00b0\u00ec\u0139\u0127": 1175, "\u0120\u00ec\u0124\u00b4": 1176, "\u00ec\u013e\u00b5": 1177, "\u00eb\u0131\u0126\u00eb\u00a1\u013f": 1178, "\u0120\u00eb\u00ac\u00b8\u00ec\u0142\u013e": 1179, "\u0120\u00ea\u00b2\u00bd\u00ea\u00b8\u00b0": 1180, "\u00ec\u00bd\u0136": 1181, "\u0120\u00ec\u012a\u013e": 1182, "\u0120\u00ed\u0137\u00a9": 1183, "\u012030": 1184, "\u0120\u00ec\u0124\u00ac\u00ec\u00a7\u0126": 1185, "\u0120\u00ed\u0140": 1186, "th": 1187, "\u00b0\u013e": 1188, "\u0120\u00eb\u00b2\u0137": 1189, "\u0139\u0143": 1190, "\u00eb\u00b8\u012e": 1191, "\u0120\u00ec\u013f\u00b4\u00eb\u0124\u0142": 1192, "\u0139\u00b0": 1193, "\u0120\u00ec\u00b1\u0126": 1194, "\u00ea\u00b7\u013e": 1195, "\u00eb\u012f\u0136": 1196, "\u00eb\u00b0\u00b0": 1197, "\u0120\u00eb\u0135\u013e": 1198, "\u00ec\u0142\u00b8": 1199, "\u00ec\u0128\u00a1": 1200, "\u0131\u013b": 1201, "\u0120\u00ec\u0128\u012f": 1202, "\u0120\u00ec\u0139\u00ac\u00eb\u0141\u00ac": 1203, "\u00ea\u00b0\u013f": 1204, "\u00ec\u0135": 1205, "\u012d\u00b4": 1206, "\u0120\u00ea\u00b5\u00b0": 1207, "\u0123\u00ec": 1208, "\u0126\u0142": 1209, "\u00ec\u0136\u00a8": 1210, "\u0120\u00ec\u00b6\u00a9": 1211, "\u00ec\u0142\u012a": 1212, "\u0120\u00eb\u0136\u00b0\u00eb\u013f\u00bc": 1213, "\u0120\u00ec\u00b9\u013a": 1214, "\u00eb\u0126\u00a4": 1215, "\u0120\u00eb\u0131\u012e": 1216, "\u00ec\u0127\u013a": 1217, "\u0141\u0123": 1218, "\u0120\u00eb\u0138": 1219, "\u013f\u0133": 1220, "\u0120\u00ec\u00b0\u00bd": 1221, "\u0126\u00a4": 1222, "\u00ed\u0127\u012e": 1223, "\u0120\u00ec\u0139\u00b4\u00eb\u00a6\u00b0": 1224, "\u0120\u00ea\u00b5\u0143\u00eb\u00af\u00bc": 1225, "\u0120\u00ed\u012a\u00ac\u00ec\u0140\u0132": 1226, "18": 1227, "\u00e3\u0123": 1228, "\u0120d": 1229, "\u00eb\u0126\u012a": 1230, "\u0120\u00ec\u012d\u013e\u00ec\u0140\u0133": 1231, "\u00ec\u013d\u0136": 1232, "\u0120\u00ec\u012d\u013e\u00ec\u0140\u00a5": 1233, "000": 1234, "\u0120\u00ed\u013a\u0126\u00ec\u0140\u00ac": 1235, "\u00ed\u013b\u013e": 1236, "\u00ac\u00ed": 1237, "\u0120\u00eb\u0134\u00a4": 1238, "13": 1239, "\u0120\u00ed\u0134": 1240, "\u00ed\u0131\u012b": 1241, "\u0120\u00ec\u00ba": 1242, "\u0120g": 1243, "\u00ed\u013e": 1244, "\u0120\u00ec\u00a4\u0133\u00ea\u00b5\u0143": 1245, "\u012015": 1246, "\u0120\u00ec\u012d\u013e\u00ea\u00b0\u0126": 1247, "\u0120200": 1248, "\u00ec\u012c\u00a4\u00ed\u012c\u00b8": 1249, "\u00eb\u00b3\u0122": 1250, "\u0120\u00ed\u012c\u00b8": 1251, "\u00ec\u00a7\u0133": 1252, "\u0120\u00ec\u013a\u00a4\u00ed\u013d\u0126": 1253, "\u0120\u00eb\u00b6\u0123\u00ed\u0137\u013e": 1254, "\u00a7\u012a": 1255, "\u0120\u00ec\u013a\u00a4\u00ec\u0142\u0126": 1256, "\u00ec\u013f\u00b4\u00eb\u0124\u013a": 1257, "\u00eb\u00a1\u0122": 1258, "\u00eb\u00a5\u0142": 1259, "\u0120\u00eb\u0142\u012a": 1260, "\u0120\u00ec\u013a\u00ac\u00ed\u0137\u00b4": 1261, "\u0135\u013e": 1262, "\u0120\u00ea\u00b8\u00b0\u00eb\u00a1\u013f": 1263, "\u0120\u00ea\u00b5\u0143\u00eb\u0124\u00b4": 1264, "\u0120\u00ea\u00b0\u0122\u00ec\u0140\u00a5": 1265, "\u0120\u00ec\u00a7\u0122\u00eb\u0124\u013e\u00ed\u0137\u00b4": 1266, "\u00ea\u00b8\u00b0\u00ec\u0139\u0127": 1267, "\u0120\u00eb\u012b\u00b4\u00ec\u012c\u00a4": 1268, "\u00e3\u0122": 1269, "\u00ed\u013c\u012e\u00ec\u013f\u013a": 1270, "\u00eb\u00b0\u0137": 1271, "\u0120\u00ed\u013d\u0126\u00eb\u00b3\u00b4": 1272, "\u012018": 1273, "\u012b\u00ec": 1274, "\u0120\u00ec\u0135": 1275, "\u00ec\u00b0\u00bd": 1276, "\u00eb\u00b6\u012a": 1277, "\u01202018": 1278, "\u0120\u00ec\u013b\u0126": 1279, "\u0120\u00eb\u00a9\u0136": 1280, "\u00eb\u0140\u013e": 1281, "\u00eb\u0142\u012a\u00ec\u013f\u00b4": 1282, "\u0120\u00ea\u00b7\u00b8\u00eb\u0141\u00ac": 1283, "\u0120!": 1284, "\u00ec\u00a1\u00b4": 1285, "25": 1286, "\u0120\u00ea\u00b2\u00bd\u00ec\u0142\u013e": 1287, "\u0120\u00ed\u0133\u013e": 1288, "\u0120\u00eb\u012d\u00a4\u00eb\u00a5\u00b8": 1289, "\u00ec\u0137\u00a1": 1290, "\u0120\u00ec\u013a\u012a\u00ec\u0142\u0137": 1291, "\u00ec\u013a\u012a": 1292, "\u00ec\u00b2\u0142": 1293, "\u012d\u0142": 1294, "\u0120\u00eb\u00aa\u00a8\u00eb\u0133\u0132": 1295, "\u00eb\u00a7\u0132": 1296, "\u0120\u00eb\u012b\u00b4\u00ec\u012d\u013e\u00ec\u012c\u00a4": 1297, "\u0120\u00ed\u0137\u0126\u00ec\u013c\u0136": 1298, "\u00ed\u0130\u013a": 1299, "\u0120\u00ec\u0128\u0132": 1300, "\u0120\u00ea\u00b3\u00b3": 1301, "\u00b9\u00ec": 1302, "\u012013": 1303, "\u0120\u00e3\u0122": 1304, "\u0120\u00ec\u00a4\u0126": 1305, "14": 1306, "\u012d\u00ac": 1307, "\u0120\u00eb\u00b8\u012e": 1308, "\u0120\u00ed\u012e\u00a8": 1309, "\u00ec\u00bf": 1310, "\u00ac\u00eb": 1311, "\u0137\u012a": 1312, "\u0120\u00eb\u0126\u012a": 1313, "\u00b2\u013a": 1314, "\u00eb\u00b9\u0126\u00ec\u012c\u00a4": 1315, "in": 1316, "\u0120\u00ed\u0136\u0126\u00eb\u00a1\u013e": 1317, "\u0120\u00ec\u00b5\u013e\u00ea\u00b7\u00bc": 1318, "\u0120\u00ec\u0137\u0126\u00ec\u013f\u00b4": 1319, "\u0120\u00ec\u0140\u013a": 1320, "\u0120\u00ed\u013b\u012f": 1321, "\u0120\u00ea\u00b4\u0122\u00ea\u00b3\u0126\u00ec\u0140\u0132": 1322, "\u0120\u00eb\u0128\u012f": 1323, "\u00eb\u0135\u013f": 1324, "\u00ec\u0126\u00bc": 1325, "16": 1326, "\u0120\u00ed\u0128\u0142": 1327, "\u0126\u00b8": 1328, "\u0120?": 1329, "\u0120\u00ea\u00b3\u0126\u00ed\u013c\u012f": 1330, "\u0120\u00ec\u00a6\u013f\u00ea\u00b0\u0122": 1331, "\u0120\u00ed\u0137\u013a\u00eb\u0124\u013a": 1332, "\u0120\u00ec\u0138\u00b8": 1333, "\u0120\u00ec\u0125\u013f\u00ea\u00b0\u0123": 1334, "\u0120\u00eb\u00b3\u00b5": 1335, "\u00ed\u0137\u00b4\u00ec\u0137\u00bc": 1336, "40": 1337, "\u0120\u00ec\u0125\u0123\u00ed\u013b\u00a9": 1338, "\u00eb\u0131\u0127": 1339, "\u0120\u00ec\u00b0\u00be": 1340, "\u0120f": 1341, "\u00ec\u012d\u013e\u00ec\u0140\u00a5": 1342, "\u00ec\u0137\u0127": 1343, "\u00ec\u0142\u0133": 1344, "\u00b3\u0132": 1345, "\u0120\u00eb\u0136\u0136": 1346, "\u0120\u00ed\u0137\u0143": 1347, "\u0120\u00ec\u012c\u00b9": 1348, "\u0120\u00eb\u00a7\u012e\u00eb\u0135\u00a4": 1349, "\u0120\u00eb\u012c\u013a": 1350, "\u0120\u00eb\u00b2\u0126": 1351, "\u00ea\u00b8\u00b8": 1352, "\u0120\u00eb\u0124\u0142": 1353, "\u013a\u0137": 1354, "\u0120n": 1355, "\u00eb\u00a9\u0136": 1356, "\u0127\u00eb": 1357, "\u00eb\u00b0\u013d": 1358, "\u0120\u00ec\u013c\u00b4\u00ec\u013a\u0123": 1359, "\u00eb\u012e\u0122\u00eb\u00a1\u013e": 1360, "\u00ec\u013e\u0126\u00ec\u013d\u0132\u00ed\u013c\u012e": 1361, "\u0120\u00ea\u00b7\u00b8\u00eb\u00a6\u00ac": 1362, "\u00ed\u012f": 1363, "\u013f\u00b5": 1364, "\u00eb\u0132\u0142": 1365, "\u01202017": 1366, "\u0140\u00ac": 1367, "\u0120/": 1368, "\u0120\u00eb\u00a5\u00bc": 1369, "\u00eb\u00b2\u012e": 1370, "\u00ec\u013d\u0122": 1371, "\u0120\u00ec\u013f\u0122": 1372, "\u0120\u00ec\u0126\u00b8\u00ea\u00b3\u0126": 1373, "\u00a5\u00ec": 1374, "\u013e\u00a8": 1375, "\u0120\u00ed\u0125\u013e": 1376, "\u0120\u00eb\u0132\u013e\u00eb\u012d\u00a4": 1377, "\u0120\u00ec\u00a4\u0122": 1378, "\u0120\u00ec\u0142\u0137\u00eb\u0131\u0126": 1379, "\u0120\u00ec\u0126\u00a4\u00eb\u00aa\u0127": 1380, "17": 1381, "\u0120\u00ea\u00b1\u00b8": 1382, "\u0120\u00eb\u012d\u00b4": 1383, "\u0120\u00ec\u0124\u00ac\u00ec\u012d\u00a4": 1384, "\u0122\u00eb\u00a1\u013e": 1385, "\u00ec\u0141\u0123": 1386, "\u012016": 1387, "ne": 1388, "\u0120\u00ec\u0142\u0123\u00ea\u00b7\u00b9": 1389, "\u0120\u00eb\u0126\u013a": 1390, "\u0120\u00ec\u013f\u012e": 1391, "\u0120\u00ed\u012c\u00b9\u00ed\u0140\u012a": 1392, "\u012014": 1393, "\u0120\u00ea\u00b5\u0132\u00ec\u013e\u00a1": 1394, "\u0120\u00ea\u00b6\u012e": 1395, "\u0131\u00bc": 1396, "\u00eb\u013f\u00bc\u00eb\u00a9\u00b0": 1397, "\u00ed\u0137\u013b\u00ea\u00b5\u0132": 1398, "\u0120\u00ec\u0125\u0123\u00ec\u012c\u00b9": 1399, "\u0120\u00ed\u013a\u0137": 1400, "\u00ec\u0140\u012a": 1401, "\u0120\u00ed\u0131\u0143": 1402, "\u0120100": 1403, "\u0120\u00ea\u00b8\u00b0\u00eb\u012d\u00a4": 1404, "\u0120\u00ed\u0123\u00b0": 1405, "\u0120\u00ea\u00b8\u012a\u00ec\u013e\u00b5": 1406, "\u0120\u00eb\u012a\u012a": 1407, "\u0120\u00ea\u00b1\u00b0\u00eb\u0140\u013a": 1408, "\u0120\u00eb\u0136\u00b0\u00eb\u00a5\u00b4": 1409, "\u0120\u00eb\u012e\u0122\u00ec\u0125\u0123": 1410, "\u0120\u00ec\u013f\u00bc\u00eb\u00b3\u00b8": 1411, "\u012a\u013a": 1412, "\u00eb\u0142\u00b8": 1413, "\u00ec\u012b": 1414, "\u00a1\u0142": 1415, "\u00eb\u00b2\u0136": 1416, "\u0120\u00ec\u013f\u00b4\u00ec\u013c\u00a9": 1417, "\u0120\u00eb\u00b4": 1418, "\u012025": 1419, "\u00ec\u0125\u012b": 1420, "\u0120\u00ea\u00b5\u0143\u00ea\u00b0\u0122": 1421, "\u0120\u00ed\u013c\u00a8": 1422, "\u00a7\u0126": 1423, "\u0120\u00ec\u012d\u013f": 1424, "\u00eb\u0131\u00bc": 1425, "\u00ec\u00b6\u0136": 1426, "\u00b8\u012a": 1427, "\u0120\u00eb\u012d\u00a4\u00ec\u0138\u0133": 1428, "\u00ec\u012a\u013e": 1429, "\u00ed\u0136\u012e": 1430, "is": 1431, "\u0120\u00ea\u00b8\u00b0\u00ec\u012a\u0142": 1432, "\u0120\u00ec\u013a\u00a8": 1433, "\u0120\u00ea\u00b0\u013e\u00eb\u00b0\u013e": 1434, "\u00bd\u00ec": 1435, "\u0120\u00eb\u00a9\u00b4": 1436, "\u00ec\u0124\u00ac\u00ec\u0139\u0127": 1437, "\u00ac\u00b8": 1438, "\u0120\u00ed\u0138\u00a5": 1439, "\u012017": 1440, "21": 1441, "\u0120\u00eb\u0126\u00a4": 1442, "\u0120\u00ea\u00b7\u00bc": 1443, "\u0120\u00ec\u0139\u00b0\u00ea\u00b5\u00ac": 1444, "\u0120\u00ed\u0127": 1445, "22": 1446, "\u0120\u00ed\u0136\u012e": 1447, "\u0120\u00eb\u00b2\u0142": 1448, "\u00eb\u00bf": 1449, "\u0137\u00b5": 1450, "\u0120\u00eb\u0124\u013a\u00ed\u0125\u0122": 1451, "\u00ea\u00b1\u00b0\u00eb\u0124\u013a": 1452, "\u0120\u00ea\u00b2\u00b0\u00ea\u00b3\u00bc": 1453, "24": 1454, "\u0120\u00ed\u012e\u0132\u00eb\u012d\u00a8": 1455, "\u00ec\u013e\u00bc\u00eb\u0124\u013a": 1456, "\u013a\u0123": 1457, "\u0120\u00ec\u0124\u00ac\u00ed\u013c\u012e": 1458, "\u0120\u00eb\u013a\u0132\u00eb\u012c\u0136": 1459, "\u0120\u00ec\u00b6\u0136\u00ec\u00a7\u0126": 1460, "\u00ec\u0139\u00b4": 1461, "\u0140\u012a": 1462, "\u0120\u00eb\u012d\u00a4\u00ec\u012d\u013e": 1463, "\u0120h": 1464, "\u012d\u013f": 1465, "\u00eb\u012d\u00a4\u00ea\u00b0\u0122": 1466, "\u0120\u00eb\u012a\u0126": 1467, "\u00ec\u0139\u0136": 1468, "\u00aa\u00bd": 1469, "\u0120\u00eb\u00b6\u0122\u00ec\u0124\u00b0": 1470, "co": 1471, "\u00a4\u00eb": 1472, "\u00eb\u0142\u0129": 1473, "\u00b8\u0142": 1474, "\u0120\u00ec\u013c\u00a9": 1475, "\u00ed\u0137\u00b4\u00ec\u0126\u013e": 1476, "\u00ea\u00b2\u0122": 1477, "\u0120\u00eb\u00b0\u013e\u00ed\u0133\u013e": 1478, "er": 1479, "\u00eb\u012c\u013a": 1480, "\u00eb\u012c\u0136\u00eb\u012d\u00a4": 1481, "\u0120\u00ec\u0137\u00bc": 1482, "\u00eb\u012e\u0122\u00ed\u0133\u013e": 1483, "\u0120\u00ed\u0139": 1484, "\u0120\u00ec\u013a\u0123\u00ec\u0125\u0123": 1485, "\u00b5\u00ac": 1486, "\u0120e": 1487, "\u0120\u00ea\u00b0\u0122\u00ec\u00b9\u013a": 1488, "\u0120\u00ec\u0137\u0142": 1489, "\u00eb\u00a7\u012b": 1490, "\u0120\u00ec\u0139\u00ac\u00eb\u0141\u00ac\u00eb\u00b6\u0126": 1491, "\u00ec\u013f\u0133": 1492, "\u0142\u0132": 1493, "\u00ec\u013b\u0136": 1494, "\u0120\u00ec\u0142\u012a": 1495, "\u013f\u00ec": 1496, "\u013c\u00a9": 1497, "\u00ea\u00b7\u0142": 1498, "\u0120o": 1499, "\u0120\u00ec\u00b6\u0136\u00ea\u00b0\u0122": 1500, "\u0141\u00ac": 1501, "23": 1502, "\u00ec\u00a7\u00b8": 1503, "\u0120\u00ec\u00b2\u0142": 1504, "\u0120\u00ed\u0140\u013a": 1505, "\u00eb\u013e": 1506, "\u0120\u00ec\u0140\u00a5\u00ea\u00b4\u0122": 1507, "\u00ec\u013e\u00bc\u00eb\u00a9\u00b4": 1508, "\u00ed\u0125\u0126": 1509, "\u0120\u00eb\u00b0\u013a\u00ec\u013a\u0123": 1510, "\u0120\u00ec\u00b8\u00a1": 1511, "\u0120\u00ea\u00b8\u00b0\u00ec\u00a4\u0122": 1512, "\u0126\u00bc": 1513, "\u0120\u00ed\u013b\u0137\u00eb\u012e\u0122": 1514, "wi": 1515, "\u0120\u00ec\u0142\u0126\u00eb\u00ac\u00b8": 1516, "\u0120\u00ed\u013a\u0126\u00eb\u012e\u0122": 1517, "\u0120\u00ec\u00b2\u00ab": 1518, "\u00eb\u0126\u0132": 1519, "\u0120\u00eb\u00a9\u00b0": 1520, "\u0120=": 1521, "\u0122\u00ea": 1522, "\u00ec\u0138\u00b4\u00ec\u0126\u013e": 1523, "\u0124\u00a4": 1524, "\u0120\u00ed\u012e\u0132\u00eb\u00a7\u00a4": 1525, "\u00ec\u0126\u00bc\u00ed\u0126\u00b0": 1526, "\u00ec\u00b9\u00a8": 1527, "\u00eb\u0124\u00ac": 1528, "\u0120\u00eb\u012e\u0122\u00eb\u00b9\u0126": 1529, "\u0120\u00ec\u0140\u0132\u00ec\u013e\u0142": 1530, "\u00ec\u00a3\u00bc\u00eb\u012d\u00b9": 1531, "\u00ec\u0140\u0127\u00eb\u012d\u012a\u00eb\u012d\u00a4": 1532, "\u00ec\u00b4\u013f": 1533, "\u0120\u00ec\u00b9\u013e": 1534, "\u0120\u00ec\u0142\u0137\u00ec\u00b1\u0127": 1535, "\u00eb\u0127\u0132": 1536, "\u00b2\u00bd": 1537, "\u0120\u00ec\u0135\u00b0": 1538, "\u00ed\u0127\u013e": 1539, "\u0120\u00ec\u0124\u00ac\u00eb\u0140\u0133": 1540, "\u0120\u00ec\u0142\u013e\u00eb\u00b3\u00b4": 1541, "60": 1542, "\u00ec\u00b5\u013e": 1543, "\u0120\u00ec\u00b0\u00b8\u00ec\u0139\u00ac": 1544, "\u00ec\u00b2\u013a\u00eb\u0141\u00bc": 1545, "\u00eb\u00a6\u00bd\u00eb\u012d\u012a\u00eb\u012d\u00a4": 1546, "om": 1547, "\u0120\u00ec\u00a1\u00b0\u00ec\u0124\u00ac": 1548, "\u00ea\u00b2\u00a8": 1549, "\u00eb\u0140\u013e\u00eb\u0135\u013e": 1550, "\u0120\u00eb\u00b0\u00b1": 1551, "\u0120\u00eb\u0124\u013e": 1552, "\u0120S": 1553, "\u0120\u00ec\u0124\u00ac\u00ec\u013f\u00b4": 1554, "\u0120\u00ec\u0124\u00bc\u00ec\u0126\u00b1": 1555, "\u0120\u00eb\u00aa\u00a8\u00eb\u0135\u0142": 1556, "\u00eb\u0127\u0122": 1557, "\u0120\u00ec\u00b6\u0137": 1558, "\u0120\u00ec\u0138\u00b4\u00eb\u0138": 1559, "an": 1560, "\u00ec\u012d\u013e\u00ec\u0137\u0126": 1561, "\u0140\u0126": 1562, "\u00ec\u0140\u00ac\u00ec\u013f\u00b8": 1563, "\u0120\u00ec\u00a7\u012a": 1564, "\u0120\u00ec\u0142\u013e\u00ea\u00b3\u00b5": 1565, "\u012024": 1566, "\u00eb\u00a8\u00b8": 1567, "\u013c\u0136": 1568, "\u00b0\u013d": 1569, "\u0120\u00ec\u0142\u0133": 1570, "\u0120\u00ea\u00b8\u012b": 1571, "\u0120\u00ec\u0124\u00b0\u00ec\u0139\u0127": 1572, "\u00ed\u013f\u00ac": 1573, "\u0120\u00ea\u00b0\u0137\u00ed\u013b\u0136": 1574, "\u0120\u00ea\u00b8\u00b0\u00ec\u0140\u0132": 1575, "\u0125\u013f": 1576, "\u0120\u00eb\u012d\u00b9\u00ec\u012d\u013e": 1577, "\u0120\u00ed\u0131\u012b\u00ea\u00b0\u0122": 1578, "\u00a5\u0142": 1579, "\u0120\u00eb\u00ac\u00b8\u00ec\u0140\u00ac\u00ec\u013f\u00b8": 1580, "\u0120\u00eb\u00b3\u00b4\u00eb\u0124\u00b4": 1581, "\u0120\u00eb\u0124\u00ae": 1582, "\u00ec\u0137\u0142": 1583, "\u00ec\u013a\u0123\u00ec\u0125\u0123": 1584, "\u00ea\u00bc": 1585, "\u0120\u00ec\u0126\u00b1\u00ec\u0140\u00a5": 1586, "\u0120\u00ec\u012a\u013a\u00ec\u00a4\u0122": 1587, "\u0120\u00ed\u0139\u012a": 1588, "\u0120\u00eb\u00aa\u00a8\u00ec\u012c\u00b5": 1589, "\u0120\u00ea\u00b7\u00b8\u00eb\u00a6\u00ac\u00ea\u00b3\u0142": 1590, "\u0120\u00ea\u00b8\u00b0\u00eb\u012d\u00a4\u00eb\u00a6\u00bd\u00eb\u012d\u012a\u00eb\u012d\u00a4": 1591, "\u00ed\u013a\u0123": 1592, "id": 1593, "\u0120\u00eb\u0135\u00a4\u00ec\u0138\u00b4": 1594, "\u0120\u00ec\u013f\u00b8\u00ec\u0124\u00ac": 1595, "\u0120\u00ea\u00b0\u0122\u00ec\u00a7\u0122": 1596, "\u0120\u00eb\u013a\u0132\u00ed\u0137\u013e": 1597, "27": 1598, "\u0120START": 1599, "\u0120\u00ec\u013f\u0126": 1600, "\u0120\u00eb\u0132\u0142": 1601, "\u0120\u00eb\u00b3\u00b4\u00ec\u013f\u00b4": 1602, "\u0120\u00ec\u00b5\u013e\u00eb\u012e\u0122": 1603, "on": 1604, "\u0120\u00eb\u0123\u013f": 1605, "\u0120\u00eb\u012d\u00a4\u00ec\u013f\u012e": 1606, "\u00ea\u00b2\u0125": 1607, "\u0120\u00ec\u00b0\u00b8\u00ec\u0126\u013f": 1608, "\u00ea\u00be": 1609, "\u0120r": 1610, "\u0120\u00ed\u013e": 1611, "\u0120\u00ea\u00b0\u0138": 1612, "\u00eb\u0141\u00bd": 1613, "\u0120\u00ea\u00b8\u00b0\u00eb\u012e\u0122": 1614, "\u00e2\u0138": 1615, "\u00ec\u0137\u013b": 1616, "\u0120\u00eb\u00b3\u0133": 1617, "\u013e\u00a1": 1618, "\u0120\u00ec\u00ba\u0132": 1619, "\u00bc\u0122": 1620, "\u00ed\u0123\u00bc": 1621, "\u0120\u00eb\u00b0\u013e\u00ec\u0125\u013f": 1622, "\u00ed\u0137\u013e\u00eb\u012d\u00a4\u00ea\u00b3\u0142": 1623, "\u0120\u00ec\u0126\u013e\u00eb\u00b9\u0126\u00ec\u012c\u00a4": 1624, "\u0120\u00ec\u00bb\u00a4": 1625, "\u0120\u00eb\u00a7\u012b": 1626, "\u0120\u00ea\u00b3\u00b5\u00ea\u00b2\u00a9": 1627, "\u012023": 1628, "\u0120\u00eb\u0127\u00bc": 1629, "\u0120\u00ea\u00b7\u013e\u00eb\u00aa\u00a8": 1630, "\u0120\u00ec\u00b5\u013e\u00ea\u00b3\u0142": 1631, "28": 1632, "\u00eb\u00a1\u013e\u00ec\u013c\u00b4": 1633, "\u0120\u00ec\u013f\u00b4\u00ec\u0138\u00b4": 1634, "\u0120\u00ec\u00b1\u0127": 1635, "\u00ec\u00b0\u00a9": 1636, "\u0120\u00ec\u0142\u0137\u00ec\u0125\u0123": 1637, "\u0120\u00eb\u0135\u00b1\u00ec\u013f\u013a": 1638, "\u00aa\u0127": 1639, "\u012050": 1640, "26": 1641, "\u0120\u00ed\u0136\u00bc\u00ed\u0137\u00b4": 1642, "\u0120\u00ec\u00a7\u0122\u00ea\u00b8\u012a": 1643, "\u0120\u00ec\u0140\u00a1": 1644, "\u00ec\u00b9\u013e": 1645, "\u00eb\u00a3\u00b9": 1646, "\u00ec\u0129": 1647, "\u00eb\u012c\u0132": 1648, "\u0120\u00ec\u0142\u0126\u00ea\u00b5\u0143": 1649, "\u00eb\u00b0\u00b1": 1650, "\u0124\u00b0": 1651, "\u00eb\u0137\u012e": 1652, "\u0120\u00ec\u013e\u0126\u00ec\u013d\u0132": 1653, "\u00bf\u0132": 1654, "\u0120\u00eb\u00a7\u012a\u00eb\u0142\u00a8": 1655, "\u013a\u00ea": 1656, "\u0120\u00ec\u00b2\u0143\u00ec\u013b\u0122": 1657, "\u0140\u0122": 1658, "\u00eb\u0140\u00b5": 1659, "\u00ea\u00b0\u012a": 1660, "\u013a\u00eb": 1661, "\u00eb\u0125\u0132": 1662, "\u00e3\u0130": 1663, "\u0120\u00ed\u0138\u012b\u00ec\u0124\u00ac": 1664, "\u0120\u00eb\u0135\u00b1\u00ec\u013f\u00b4": 1665, "\u0143\u00eb": 1666, "\u0120\u00eb\u00b8\u0136": 1667, "80": 1668, "\u00ec\u013a\u00ac": 1669, "\u0120\u00ea\u00b2\u00b0\u00ec\u0142\u0137": 1670, "\u00ec\u012f": 1671, "\u00a8\u00ec\u0138\u00b4": 1672, "\u0120\u00eb\u00ac\u00b8\u00ed\u013b\u0136": 1673, "\u0120\u00ea\u00b2\u00bd\u00ec\u00b0\u00b0": 1674, "\u0120\u00ec\u0142\u013e\u00ed\u0134\u012a": 1675, "\u0120\u00ed\u0137\u00b5": 1676, "\u0120\u00e3\u0130": 1677, "\u00ec\u013c\u00b4\u00eb\u012f\u00b0": 1678, "\u00ec\u013f\u0122\u00ed\u0138\u012b": 1679, "70": 1680, "\u00ec\u013f\u00b8\u00eb\u012d\u00a4": 1681, "\u0120\u00eb\u00b9\u0142": 1682, "\u0120\u00ec\u0142\u0126\u00eb\u00a7\u013f": 1683, "\u0120\u00ea\u00b8\u00b8": 1684, "\u0120\u00ec\u013f\u00b4\u00eb\u0141\u00b0": 1685, "\u00ec\u00b0\u00ac": 1686, "\u0120\u00ec\u00b2\u0143\u00ec\u013b\u0122\u00eb\u012e\u0122": 1687, "\u0120\u00ec\u00a3\u00bd": 1688, "\u0120\u00eb\u00b3\u0126": 1689, "\u00eb\u00a6\u0143": 1690, "\u00ec\u0140\u0132\u00eb\u00a6\u00ac": 1691, "\u00ed\u0131\u0143": 1692, "\u0120\u00ed\u013b\u0137\u00ec\u013f\u00b8": 1693, "\u00a7\u00b8": 1694, "\u00b9\u013a": 1695, "\u00a4\u0126": 1696, "\u00eb\u00a6\u00b4": 1697, "\u0120\u00e2\u0138": 1698, "ou": 1699, "\u0120\u00ec\u013c\u00b8": 1700, "\u0120\u00eb\u00b3\u00bc": 1701, "\u0120\u00ea\u00b0\u0137\u00ec\u00a1\u00b0": 1702, "\u0120\u00ec\u0140\u0132\u00ec\u012d\u0142": 1703, "he": 1704, "\u0120\u00ea\u00b3\u00b5\u00ea\u00b0\u0132": 1705, "\u00a3\u00a8": 1706, "\u0120\u00ea\u00b7\u00b8\u00eb\u0141\u00ac\u00eb\u0124\u013a": 1707, "\u0120\u00eb\u012c\u0136": 1708, "\u0120\u00ec\u013b\u0122": 1709, "\u012027": 1710, "\u0124\u00b4": 1711, "\u0120\u00eb\u00b0\u00a9\u00eb\u00ac\u00b8": 1712, "\u0120\u00eb\u0124\u00a8\u00eb\u00b6\u0123": 1713, "\u0120...": 1714, "\u00b0\u00a8": 1715, "\u0120\u00ec\u00bd\u0136\u00ec\u012c\u00a4": 1716, "\u0120\u00ed\u0124\u00a4": 1717, "\u0120\u00ec\u00b2\u013a\u00ec\u013f\u012e": 1718, "\u0129\u00b4": 1719, "\u0120\u00ec\u013f\u00bc\u00eb\u00b6\u0122": 1720, "\u00ea\u00b8\u00b4": 1721, "\u00eb\u00b2\u0142": 1722, "\u0120\u00ea\u00b0\u0122\u00ec\u013c\u00b4\u00eb\u012f\u00b0": 1723, "\u0120\u00ec\u00a1\u00b4": 1724, "\u0120\u00eb\u00a1": 1725, "\u013a\u00a4": 1726, "\u0120\u00ec\u00a7\u0122\u00eb\u00b0\u00a9": 1727, "\u00ec\u0139\u0128": 1728, "\u0120\u00ec\u0142\u0137\u00ec\u00b9\u013a": 1729, "\u00ec\u00bc\u0122": 1730, "\u0120\u00ed\u013b\u00a9": 1731, "\u0120\u00ea\u00b5\u00ac\u00ec\u0126\u00b1": 1732, "\u0130\u00ec": 1733, "\u00ec\u013f\u00b4\u00ed\u012c\u00b8": 1734, "\u0120\u00ed\u0131\u00ac\u00ed\u0137\u00a8": 1735, "\u00ea\u00b8\u0122": 1736, "\u0120\u00ec\u013f\u00b4\u00ec\u013e\u0142": 1737, "\u0120\u00ec\u013f\u00b4\u00eb\u00a6\u0126": 1738, "\u0120\u00ec\u0140\u0127\u00ec\u0140\u00a5": 1739, "\u00b5\u0132": 1740, "ws": 1741, "\u0120\u00ec\u0142\u0126\u00ec\u00b2\u00b4": 1742, "\u0120\u00eb\u0124\u00b4\u00ec\u013c\u00a9": 1743, "\u00eb\u012d\u012e": 1744, "\u0120\u00ec\u00a7\u0122\u00ec\u0128\u012f": 1745, "st": 1746, "\u00ed\u012f\u00bc": 1747, "29": 1748, "\u00ea\u00b5\u0132\u00ec\u013e\u00a1": 1749, "\u0120\u00eb\u00a7\u0130\u00ec\u013f\u00b4": 1750, "\u0120\u00eb\u0135\u00b1\u00ec\u0140\u00a5": 1751, "\u0120\u00ec\u013d\u0132\u00eb\u0124\u00b4": 1752, "\u012021": 1753, "\u00b0\u0132": 1754, "\u0120\u00eb\u00b6\u0126\u00ec\u0126\u013f": 1755, "\u0120y": 1756, "\u00b0\u00ea": 1757, "\u0120\u00ea\u00bc": 1758, "\u00ea\u00b3\u00a1": 1759, "\u0139\u0136": 1760, "\u0142\u00a4": 1761, "\u00ec\u0124\u00b0\u00ec\u0139\u0127": 1762, "\u0120\u00ec\u00a3\u00bc\u00ec\u0140\u00a5": 1763, "\u00b0\u00a9": 1764, "\u0120\u00ec\u012b": 1765, "\u0120\u00ea\u00b7\u00b8\u00eb\u0141\u00b0": 1766, "\u00ec\u0142\u0126\u00ec\u0140\u0132": 1767, "\u0120\u00ea\u00b0\u013e\u00ec\u0126\u0142": 1768, "\u0120\u00ed\u0137\u00b4\u00eb\u012d\u00b9": 1769, "\u00ed\u013c\u012e\u00eb\u012d\u00b4": 1770, "\u0120\u00ea\u00b0\u012a": 1771, "\u00eb\u00a6\u00ac\u00ec\u0137\u0126": 1772, "\u0120\u00ec\u0137\u012e\u00eb\u0142\u00a4": 1773, "\u00eb\u0140\u00a8": 1774, "\u0120\u00ed\u0127\u012e": 1775, "\u0120\u00ed\u0130\u013a": 1776, "\u0120\u00ec\u0125\u0123\u00eb\u012e\u0122": 1777, "\u0120\u00ed\u013b\u013e\u00eb\u0131\u013b": 1778, "\u00ec\u0140\u0132\u00ec\u013f\u013a": 1779, "\u0120\u00eb\u0131\u0127\u00ec\u0140\u0132": 1780, "\u00b0\u0137": 1781, "\u0120\u00ed\u013c\u012e\u00ec\u0140\u00a5": 1782, "\u012028": 1783, "\u00ea\u00bf": 1784, "\u0120com": 1785, "\u0120\u00ea\u00b5\u0143\u00ec\u0142\u013e": 1786, "\u00ea\u00bd": 1787, "\u0120\u00eb\u0124\u013a\u00ec\u013a\u00a4": 1788, "\u0120\u00ec\u00a7\u0123\u00ec\u0142\u0133": 1789, "\u012026": 1790, "\u0120\u00ed\u0123\u00b4": 1791, "\u0120\u00ec\u0128\u00a1": 1792, "\u00eb\u00a7\u012a\u00ed\u012c\u00b8": 1793, "\u00b4\u00ea": 1794, "\u00ec\u00a7\u0137": 1795, "\u0120\u00eb\u00b2\u012e": 1796, "\u00ec\u00a3\u00bc\u00ec\u013f\u013a": 1797, "\u0120\u00ea\u00b0\u013e\u00ec\u00b5\u013e": 1798, "\u0120\u00ec\u00a3\u00bc\u00ec\u013c\u0136": 1799, "\u00eb\u012d\u013a": 1800, "\u013e\u00ea": 1801, "\u00af\u00bc": 1802, "\u0120\u00ea\u00b3\u00b5\u00eb\u0131\u013b": 1803, "\u0120\u00ed\u0137\u013a\u00eb\u013f\u00bd": 1804, "\u0120\u00ec\u013a\u0123\u00ed\u0138\u00a5": 1805, "\u0120\u00eb\u00b6\u0126\u00ea\u00b8\u00b0": 1806, "\u0120\u00ec\u013a\u012a\u00ec\u0125\u0123": 1807, "\u00ec\u0124\u00b4": 1808, "\u0120~": 1809, "\u0120\u00ec\u012d\u00a4\u00ec\u012d\u013e": 1810, "\u0120\u00ec\u0137\u0127": 1811, "\u0120\u00ec\u0128\u012e\u00ec\u00a4\u0133": 1812, "\u00ed\u0127\u0136": 1813, "\u0120\u00ea\u00b8\u00b0\u00ea\u00b0\u0126": 1814, "\u0120\u00ec\u013f\u00b4\u00eb\u00af\u00b8": 1815, "\u00eb\u012d\u00a4\u00eb\u00a9\u00b4": 1816, "\u00e3\u0124": 1817, "\u00eb\u013f\u00bc\u00eb\u0131\u0126": 1818, "\u0120\u00ec\u0140\u0132\u00eb\u00a6\u00ac": 1819, "\u0120\u00eb\u012c\u0132": 1820, "\u0120\u00ec\u0125\u0123\u00ed\u0125\u013e": 1821, "\u0120\u00ec\u0125\u013f\u00ec\u0124\u00b0": 1822, "\u0120\u00eb\u00a7\u00a4\u00ec\u00b6\u013e": 1823, "\u00b7\u00b8": 1824, "\u0120wid": 1825, "\u0120width": 1826, "\u00a6\u013f": 1827, "\u012022": 1828, "\u0120\u00ec\u013f\u00bc\u00eb\u00b0\u013a": 1829, "\u00ed\u012e\u00a8": 1830, "\u0120\u00ea\u00b0\u013e\u00ec\u013d\u0136": 1831, "\u0126\u00b0": 1832, "\u00ed\u013b\u0137": 1833, "\u0120\u00ed\u013b\u0136\u00ec\u0142\u013e": 1834, "\u00ed\u012e\u0127": 1835, "ar": 1836, "\u0120\u00ed\u013c\u00a8\u00ea\u00b3\u00bc": 1837, "\u0120\u00ea\u00b0\u0122\u00ea\u00b2\u00a9": 1838, "\u0120\u00ed\u0137\u013e\u00ed\u0130\u00b8": 1839, "to": 1840, "\u0120\u00ec\u0138\u00bc": 1841, "\u00a7\u0123": 1842, "\u00af\u00b8": 1843, "\u00eb\u00a7\u0123": 1844, "\u00ea\u00b8\u00b0\u00ea\u00b4\u0122": 1845, "31": 1846, "\u0120\u00eb\u00a8\u00b9": 1847, "\u00ec\u013c\u00b1": 1848, "\u0120\u00ea\u00b3\u0142\u00ea\u00b0\u013f": 1849, "\u00eb\u00b2\u00a4": 1850, "\u0120\u00ed\u013b\u013e\u00ec\u013c\u00a9": 1851, "\u0120\u00ea\u00b2\u012e\u00ec\u0140\u0126": 1852, "\u0120\u00ed\u0137\u00b4\u00ec\u013b\u00b8": 1853, "\u0120\u00ea\u00b3\u00bc\u00ec\u0142\u0137": 1854, "\u00ed\u0137\u0133": 1855, "\u00eb\u00a8\u00bc": 1856, "\u00ed\u013d\u012a": 1857, "\u00ec\u013f\u00b4\u00ec\u012c\u00a4": 1858, "\u0120\u00ec\u013e\u0126\u00ec\u00b9\u013a": 1859, "\u00ed\u012e\u0122": 1860, "\u0142\u00a5": 1861, "\u0120\u00ec\u012d\u013e\u00eb\u00af\u00bc": 1862, "\u0120\u00ec\u012a\u013a\u00eb\u0131\u0126": 1863, "\u0120\u00ec\u0142\u0137\u00eb\u00b3\u00b4": 1864, "\u0120\u00eb\u012f\u0136\u00eb\u00b6\u012a": 1865, "\u0120\u00ec\u0142\u0123\u00ec\u013c\u00a9": 1866, "le": 1867, "\u00ec\u012d\u0142\u00ec\u013f\u013a": 1868, "\u0120\u00ec\u013a\u0123\u00ec\u0139\u0127": 1869, "\u00ec\u0138\u00b8\u00eb\u00a1\u0142": 1870, "\u012029": 1871, "\u0120\u00ec\u013a\u00a4\u00eb\u012c\u013a": 1872, "\u00eb\u0131\u012e": 1873, "\u012040": 1874, "\u0120\u00ec\u0124\u00ac\u00ea\u00b1\u00b4": 1875, "\u0120\u00eb\u012d\u00a4\u00eb\u00a7\u012e": 1876, "\u00ec\u00a7\u0122\u00ec\u0139\u0143": 1877, "\u0120\u00ea\u00b3\u00b5\u00ea\u00b0\u013e": 1878, "\u0120\u00eb\u0138\u0142": 1879, "\u00c2\u0142": 1880, "\u00ea\u00b7\u00b8\u00eb\u0140\u00a8": 1881, "\u00eb\u00a1\u00af": 1882, "\u00eb\u00b6\u0122\u00eb\u00a1\u013e": 1883, "\u00ea\u00b1\u00b0\u00eb\u00a6\u00ac": 1884, "\u00ed\u0125\u012a": 1885, "\u0120\u00eb\u0131\u0126\u00ec\u012d\u013e": 1886, "\u0120\u00eb\u00b2\u0136": 1887, "\u00ec\u00b1\u0126": 1888, "\u00ea\u00b0\u013b": 1889, "\u0120\u00ec\u013e\u00a1": 1890, "\u0120\u00ed\u013b\u013a\u00ea\u00b2\u00bd": 1891, "\u0120\u00ea\u00b4\u0133\u00ec\u00a3\u00bc": 1892, "90": 1893, "\u0120\u00ec\u0127": 1894, "\u0120\u00ed\u0137\u013b\u00ec\u0125\u013f": 1895, "\u00e3\u0125": 1896, "\u00bf\u0142": 1897, "\u0120\u00ec\u00a7\u0122\u00ec\u0142\u0123": 1898, "\u00a4\u0133": 1899, "\u0120\u00ec\u0139\u00ac\u00ec\u0126\u00b1": 1900, "\u00a5\u013a": 1901, "\u0120\u00c2\u0142": 1902, "\u0120\u00ec\u00b6\u013e\u00ec\u012d\u013e": 1903, "\u0120\u00ec\u0128\u012e\u00eb\u00b9\u0126": 1904, "\u0120\u00ec\u013c\u0136\u00ea\u00b5\u00ac": 1905, "\u00eb\u00b8\u0136": 1906, "\u0120\u00ea\u00b4\u0122\u00eb\u00a6\u00ac": 1907, "\u0120\u00ec\u012d\u00a4\u00ec\u0142\u013e": 1908, "\u0128\u012e": 1909, "\u0120\u00eb\u00b0\u0122": 1910, "\u013e\u0142": 1911, "\u0140\u0133": 1912, "\u0120\u00eb\u0132\u0132": 1913, "\u00eb\u00b4\u012b": 1914, "\u0120\u00ea\u00b3\u00a8": 1915, "\u0120\u00ec\u0125\u012a\u00eb\u00a1\u013e\u00ec\u013c\u00b4": 1916, "\u00eb\u00b0\u0122": 1917, "\u0142\u00eb": 1918, "\u0120\u00ed\u0125\u0126": 1919, "\u0120\u00ea\u00b3\u0126\u00ec\u0128\u012f": 1920, "\u0120\u00ec\u0137\u012a\u00ec\u0142\u0126": 1921, "\u0120\u00ea\u00b7\u00b9": 1922, "\u0120\u00ec\u0126\u0142\u00ea\u00b1\u00b0": 1923, "\u0120\u00ec\u0142\u013e\u00ec\u00a3\u00bc": 1924, "\u00eb\u012c\u0136\u00ec\u00a7\u0122": 1925, "or": 1926, "\u00eb\u0131\u013b\u00ec\u00b0\u00a8": 1927, "\u00ec\u012c\u00a4\u00ed\u0126\u00b0": 1928, "\u00e2\u0128": 1929, "\u00eb\u012f\u00b8": 1930, "wsis": 1931, "\u0120\u00eb\u00aa\u00b0": 1932, "\u0120\u00ec\u0139\u0143\u00ec\u012d\u013e": 1933, "\u0120\u00eb\u00b3\u00b4\u00ec\u0139\u00ac": 1934, "\u0120\u00eb\u00ac\u00bc\u00eb\u00a1\u0142": 1935, "\u012c\u00b8": 1936, "\u0120\u00ec\u012d\u00b6": 1937, "\u0120\u00ec\u0140\u0142": 1938, "\u00ed\u013a\u013e": 1939, "\u00ed\u0136\u00bd": 1940, "\u0120\u00ec\u0138\u00b4\u00eb\u0142\u00a4": 1941, "\u0120\u00ec\u00a4\u0133\u00ec\u013c\u0136": 1942, "\u0120\u00ec\u0126\u0142\u00ec\u0142\u0137": 1943, "\u0132\u00ec\u013f\u013a": 1944, "\u00a8\u00eb": 1945, "\u0120\u00ec\u012c\u00a4\u00ed\u0125\u0122": 1946, "\u0120\u00eb\u0138\u00a8\u00ec\u0138\u00b4": 1947, "\u0120\u00eb\u0131\u013b\u00ec\u0137\u012a": 1948, "\u0120\u00ed\u012c\u00b9\u00eb\u00b3\u0126": 1949, "\u00aa\u00a8": 1950, "\u0120\u00ed\u012e\u0122": 1951, "\u0120\u00ea\u00b0\u013e\u00ec\u013f\u00b8": 1952, "\u00eb\u013f\u00bc\u00ec\u013f\u00b8": 1953, "\u00ec\u0139\u00b0\u00ea\u00b5\u00ac": 1954, "\u0120\u00eb\u0124\u013a\u00ec\u013a\u00a8": 1955, "\u00b3\u00a4": 1956, "\u00ec\u0139\u00bc": 1957, "\u01202016": 1958, "\u00ea\u00b4\u0122\u00eb\u00a6\u00ac": 1959, "\u00ec\u013b\u0137": 1960, "\u0120\u00ec\u013d\u0132\u00eb\u0124\u00b4\u00eb\u012e\u0122\u00ed\u0133\u013e": 1961, "\u0122\u00eb\u00a1\u013e\u00eb\u00b2\u012e": 1962, "\u0120\u00eb\u00a7\u012a\u00ec\u013f\u012e": 1963, "\u00ec\u013e\u0126\u00ec\u013d\u0132\u00ec\u0140\u00a5": 1964, "\u0120\u00e2\u0138\u00b3": 1965, "\u0120\u00eb\u0131\u012e\u00ec\u0137\u0126": 1966, "\u00ea\u00b2\u00bd\u00ec\u0142\u013e": 1967, "\u0120\u00eb\u013e": 1968, "\u0120\u00eb\u00a1\u00af": 1969, "\u00ed\u012e\u012e\u00ed\u012c\u00b8": 1970, "\u00ed\u012c\u00b9": 1971, "\u0120\u00ec\u0139\u0128\u00ec\u013f\u00b4": 1972, "\u0120\u00ed\u013a\u0123": 1973, "\u0120\u00eb\u00af\u00b8\u00eb\u0140\u013a": 1974, "\u00eb\u00af\u00bc\u00ea\u00b5\u0143": 1975, "\u00eb\u00ac\u00b8\u00ed\u013b\u0136": 1976, "\u0120\u00ea\u00b8\u00b0\u00ec\u00a1\u00b4": 1977, "\u0120\u00ec\u013b\u00b8\u00ea\u00b5\u0143": 1978, "\u0120\u00eb\u00a8\u00b8": 1979, "\u0120\u00ec\u00a4\u0122\u00eb\u00b9\u0126": 1980, "\u0120\u00eb\u0127\u00bc\u00ec\u013f\u013a": 1981, "\u0120\u00ec\u013b\u0137": 1982, "\u012d\u00b0": 1983, "\u0120\u00eb\u0124\u00b4\u00eb\u0127\u0126": 1984, "\u0120\u00ea\u00b0\u0132\u00ec\u0128\u012e": 1985, "\u0120\u00ec\u00a4\u0133\u00ec\u0128\u012e": 1986, "\u00ed\u012a\u00ac\u00ec\u0140\u0132": 1987, "\u0120\u00ec\u0137\u0126\u00eb\u012d\u012e": 1988, "\u0120\u00ec\u0126\u00b1\u00ea\u00b3\u00b5": 1989, "\u00ed\u0124\u00ac": 1990, "\u0120\u00ec\u013e\u0142\u00ec\u00a7\u0122": 1991, "\u00ec\u00b8\u00a1": 1992, "\u0120\u00ed\u013c\u012e\u00ec\u0124\u00ac": 1993, "\u0120\u00ea\u00b4\u0122\u00ec\u012d\u00ac": 1994, "\u0120\u00ec\u00a4\u0133\u00ec\u012d\u00ac": 1995, "\u0120\u00ed\u013b\u012a": 1996, "\u0120\u00eb\u00b6\u0126\u00ec\u0137\u00bc": 1997, "\u0120\u00ec\u0139\u0126": 1998, "\u00ec\u0137\u00bc\u00ea\u00b8\u00b0": 1999, "\u0120\u00ea\u00b7\u00b8\u00eb\u0142\u0129": 2000, "\u0120\u00eb\u0127\u00b8\u00eb\u0142\u00a5": 2001, "\u0120\u00ec\u00b8\u00b5": 2002, "\u0120\u00eb\u00b9\u0126\u00eb\u00a1\u00af": 2003, "\u0120\u00ec\u013f\u00b8\u00ec\u00b2\u013e": 2004, "\u00ec\u013f\u00b8\u00ed\u012c\u00b8": 2005, "\u0120\u00ed\u0131\u0132": 2006, "\u00eb\u013f\u00bc\u00ec\u013f\u00b4": 2007, "\u00ea\u00b5\u0143\u00eb\u012d\u00b9": 2008, "\u0120\u00ec\u0139\u0132\u00ec\u0126\u013e": 2009, "\u0120\u00ec\u0126\u00a4\u00ec\u00b9\u013a": 2010, "\u0120\u00ed\u013a\u0132\u00ec\u013f\u013a": 2011, "\u0120\u00ec\u0139\u0127\u00eb\u00ac\u00b4": 2012, "\u00ec\u00a7\u0126\u00eb\u012d\u00a4": 2013, "\u00ea\u00b5\u00b4": 2014, "\u0120\u00eb\u012e\u0122\u00ed\u0137\u013b": 2015, "\u0120\u00eb\u012e\u0122\u00ea\u00b5\u00ac": 2016, "\u00ec\u012e": 2017, "it": 2018, "\u0120\u00ea\u00b0\u0123\u00ea\u00b0\u0123": 2019, "\u0120\u00ed\u0125\u012a": 2020, "\u00b4\u013f": 2021, "\u0120\u00eb\u00b8\u012e\u00eb\u0140\u013e\u00eb\u0135\u013e": 2022, "\u0120\u00ec\u013e\u00a4": 2023, "\u0120\u00eb\u00a1\u00af\u00eb\u012f\u00b0": 2024, "\u00ea\u00b3\u00b5\u00ec\u0124\u00ac": 2025, "\u00ec\u00a1\u00b0\u00ec\u0124\u00ac": 2026, "\u00ec\u00a6\u012e": 2027, "\u0120\u00eb\u012e\u0122\u00ed\u0137\u013e\u00eb\u00af\u00bc\u00ea\u00b5\u0143": 2028, "\u0120\u00ea\u00b5\u0132\u00ec\u012a\u013a": 2029, "\u00ed\u0125\u0123": 2030, "\u0120\u00ed\u013f\u00ac": 2031, "\u0120\u00ea\u00b8\u0122\u00eb\u00a1\u013e\u00eb\u00b2\u012e": 2032, "\u00eb\u00a4\u0126": 2033, "\u0120\u00eb\u00b6\u0122\u00eb\u00b6\u0126": 2034, "\u0120\u00ed\u013a\u0126\u00ec\u0140\u00a5": 2035, "\u00b5\u00b0": 2036, "\u00ec\u00a7\u0122\u00ec\u013d\u0132": 2037, "\u0120\u00eb\u00a7\u012e\u00ed\u0123\u00bc": 2038, "\u0120\u00ec\u0138\u00bb": 2039, "\u00ec\u00bc\u013e": 2040, "\u0120\u00ec\u013f\u00b4\u00ec\u0137\u00bc\u00ea\u00b8\u00b0": 2041, "\u0120\u00ec\u013f\u013a\u00eb\u00af\u00b8": 2042, "tv": 2043, "\u00ec\u013f\u00b4\u00ec\u00a7\u0122": 2044, "\u00ed\u013c\u00a8": 2045, "\u0120\u00ec\u013f\u00bc\u00ec\u0140\u0132\u00eb\u00a6\u00ac": 2046, "\u0120\u00ea\u00b2\u00b0\u00ea\u00b5\u0143": 2047, "\u0120\u00ea\u00b2\u00bd\u00ec\u0141\u0123": 2048, "\u00ec\u012d\u013e\u00ed\u0124\u00a4": 2049, "\u00b5\u0143": 2050, "\u00ec\u0138\u00b4\u00eb\u0124\u013a": 2051, "\u0120\u00eb\u0128\u0135": 2052, "\u00ea\u00b7\u00b8\u00eb\u00a3\u00b9": 2053, "\u00ed\u0137\u00b5": 2054, "\u0120\u00eb\u00b0\u0136\u00eb\u00a1\u013e": 2055, "\u013c\u00b4": 2056, "\u0120\u00eb\u00a3\u00a8": 2057, "\u0120\u00ec\u0125\u0123\u00eb\u012d\u00b9": 2058, "\u0120&": 2059, "\u00eb\u012d\u00a5": 2060, "\u00aa\u00a9": 2061, "\u0120\u00ec\u0137\u0140\u00ec\u0126\u013e": 2062, "\u0120\u00eb\u00a7\u00a1": 2063, "\u0120\u00ea\u00b8\u00b0\u00ea\u00b4\u0122": 2064, "\u0120\u00eb\u00b3\u00b4\u00ec\u013f\u00b8\u00eb\u012d\u00a4": 2065, "\u00ec\u013f\u00b4\u00ec\u013f\u00b5": 2066, "al": 2067, "\u0120\u00ec\u012a\u013a\u00ec\u013f\u00b5": 2068, "\u0120u": 2069, "\u0120\u00eb\u00a7\u012e\u00eb\u0124\u013a": 2070, "\u0120\u00ea\u00b7\u00b8\u00eb\u0140\u013a": 2071, "\u00eb\u00b6\u0122\u00eb\u00b6\u0126": 2072, "\u0120\u00ec\u0125\u0123\u00ed\u0134\u012a": 2073, "\u00ec\u0138\u00b5": 2074, "\u00eb\u012b\u00b4": 2075, "\u0120\u00ed\u013a\u0133\u00eb\u0142\u00a5": 2076, "\u0120\u00ea\u00b7\u0122": 2077, "\u0120\u00ec\u013f\u00b8\u00ed\u0126\u00b0": 2078, "\u00ec\u00b6\u00a9": 2079, "\u00ec\u012d\u013e\u00ec\u0126\u00a4": 2080, "\u00ec\u0142\u0137\u00eb\u00b6\u0122": 2081, "\u00bd\u0136": 2082, "at": 2083, "\u00b8\u012b": 2084, "\u00ed\u012d\u0122": 2085, "\u0120\u00eb\u012c\u00a5": 2086, "\u0120v": 2087, "\u012e\u00ea": 2088, "\u00eb\u0126\u012a\u00ec\u00a7\u0122": 2089, "\u00ea\u00b8\u00b0\u00ec\u012a\u0142": 2090, "\u0120\u00ed\u013e\u00b4": 2091, "\u0120\u00eb\u012e\u0122\u00ed\u0137\u00b4\u00ec\u0126\u013e": 2092, "re": 2093, "\u0120\u00ec\u0139\u00ac\u00ea\u00b8\u00b0": 2094, "\u0120\u00eb\u012d\u00b5": 2095, "\u0120\u00ec\u00a1\u00b0\u00ec\u0126\u00b1": 2096, "\u0120\u00eb\u0133\u013a": 2097, "35": 2098, "sk": 2099, "\u00ea\u00b1\u00b8": 2100, "\u0120\u00ed\u0134\u0122": 2101, "\u0120\u00ec\u013a\u0123\u00ed\u013b\u0136": 2102, "\u01202015": 2103, "\u0133\u00eb": 2104, "\u0120\u00ec\u0140\u0132\u00ec\u00b2\u00b4": 2105, "\u00a7\u00a4": 2106, "\u00eb\u00af\u00bc\u00ec\u00a3\u00bc\u00eb\u012d\u00b9": 2107, "\u0120\u00ed\u0136\u0126\u00eb\u00a1\u013e\u00ea\u00b7\u00b8\u00eb\u0140\u00a8": 2108, "\u0120199": 2109, "\u00b0\u00ed": 2110, "\u0120\u00eb\u00aa\u0127\u00ec\u013f\u00b4": 2111, "\u0120+": 2112, "\u0120\u00ec\u013f\u0133": 2113, "\u0120\u00eb\u0127\u00b8\u00eb\u0131\u013b": 2114, "\u0120\u00ec\u013e\u0126\u00ec\u013d\u0132\u00ec\u0140\u00a5": 2115, "\u00ec\u0140\u00a1": 2116, "\u0120\u00eb\u00a7\u00a4\u00ec\u013c\u00b0": 2117, "\u00ed\u0134\u012f": 2118, "\u00ed\u013a\u00b9": 2119, "\u00ed\u013a\u0122": 2120, "\u0120\u00ec\u0139\u0143\u00ed\u0137\u0142": 2121, "\u0120\u00e2\u0128": 2122, "\u0120\u00ed\u0137\u013b\u00ea\u00b5\u0132": 2123, "\u00eb\u00a6\u00ac\u00ec\u012c\u00a4": 2124, "\u00ed\u0124\u00a8": 2125, "\u0120\u00ea\u00b2\u0122\u00ec\u00b0\u00b0": 2126, "\u00ec\u013f\u00b4\u00ed\u0126\u00b0": 2127, "\u00eb\u0128\u0135": 2128, "\u0120\u00ed\u0131\u012b\u00ed\u013b\u0136": 2129, "\u0120\u00ec\u012a\u013a\u00ec\u00b6\u013e": 2130, "ho": 2131, "\u0128\u012f": 2132, "\u0120\u00ec\u012a\u013a\u00ec\u0124\u00ac": 2133, "\u0120\u00ea\u00b8\u00b0\u00eb\u0127\u0132": 2134, "\u0120\u00ed\u0131\u012b\u00ea\u00b7\u0142": 2135, "\u00ec\u00bb\u00a4": 2136, "\u0120\u00ec\u013f\u013a\u00ea\u00b2\u00ac": 2137, "\u00ed\u013f\u00a5": 2138, "\u00b8\u00a1": 2139, "\u0120\u00ec\u0139\u0136": 2140, "\u0120\u00ec\u00a3\u00bc\u00eb\u00af\u00bc": 2141, "\u0120\u00ec\u0126\u0142\u00ec\u012a\u013a": 2142, "\u00ed\u0126\u00b4": 2143, "\u0120\u00ec\u013c\u00b0\u00eb\u0142\u00a4": 2144, "\u0120\u00ec\u0136\u00a8": 2145, "\u0120sk": 2146, "\u0120\u00ec\u0137\u0137": 2147, "\u0120\u00ea\u00b2\u00bd\u00ec\u013a\u0123": 2148, "\u0120\u00ea\u00bd": 2149, "\u0120\u00ed\u0140\u012a": 2150, "\u00ec\u013f\u00b8\u00ec\u00a7\u0122": 2151, "\u0120\u00ea\u00b1\u00b4\u00ec\u0126\u00a4": 2152, "\u0120\u00ec\u0126\u013f": 2153, "\u0120\u00ec\u00b0\u00a8\u00eb\u0141\u012b": 2154, "\u0120\u00ed\u0137\u00a9\u00ec\u013f\u013a": 2155, "\u00eb\u012d\u00b5": 2156, "\u013c\u012e": 2157, "\u0120\u00ec\u013f\u00b4\u00eb\u00a4\u0126": 2158, "\u00ec\u00aa\u00bd": 2159, "\u00ea\u00b8\u00b0\u00ec\u0139\u0132": 2160, "\u0120\u00ea\u00b8\u00b0\u00eb\u00b3\u00b8": 2161, "\u0120\u00ec\u0139\u0143\u00ec\u0124\u00ac": 2162, "\u012031": 2163, "\u00a4\u00ea": 2164, "\u00eb\u00b2\u00a8": 2165, "\u0120\u00eb\u013f\u00bc\u00ea\u00b3\u0142": 2166, "\u0120\u00ed\u0137\u013e\u00eb\u012d\u00a4\u00ea\u00b3\u0142": 2167, "\u0120\u00eb\u0131\u0126\u00ec\u0140\u0127": 2168, "\u00ea\u00b0\u013e\u00eb\u00b0\u013e": 2169, "\u00bc\u00eb\u0140\u0122": 2170, "\u0120\u00eb\u00b0\u00a9\u00ec\u0128\u00a1": 2171, "\u00ed\u0131\u0132": 2172, "\u0120\u00ec\u00b9\u00b4\u00eb\u0135\u013e": 2173, "\u00ec\u0140\u00a5\u00ec\u013f\u013a": 2174, "\u0120\u00ea\u00b3\u0142\u00eb\u0142\u00a4": 2175, "\u0120\u00eb\u00b0\u013e\u00ec\u0142\u0126": 2176, "\u0120\u00ea\u00b8\u00b4": 2177, "\u0120\u00ec\u0140\u0133\u00ed\u0134\u012a": 2178, "\u00ec\u013f\u00b8\u00eb\u012f\u00b0": 2179, "\u0120\u00ed\u013a\u0123\u00ec\u012d\u0142": 2180, "lg": 2181, "\u00ec\u00b8\u00b5": 2182, "\u0120\u00ec\u00a3\u00bc\u00ea\u00b0\u0122": 2183, "\u0120\u00eb\u0124\u013a\u00eb\u012a": 2184, "\u0120\u00eb\u012e\u0122\u00eb\u00b6\u0122\u00eb\u00b6\u0126": 2185, "\u00ed\u0139\u012e": 2186, "\u00ec\u00b9\u0143": 2187, "\u00ac\u00ea": 2188, "\u00eb\u0143": 2189, "\u00ea\u00b5\u0143\u00ec\u013f\u013a": 2190, "\u0136\u00a9": 2191, "\u0120\u00eb\u013e\u00bb": 2192, "\u012d\u013a": 2193, "\u00eb\u0124\u00b8": 2194, "\u0134\u00ec": 2195, "\u0120\u00eb\u00b0\u0136\u00eb\u00a5\u00b8": 2196, "\u0120\u00eb\u012f\u0136\u00ec\u013c\u00b1": 2197, "\u012f\u00bc": 2198, "\u0120\u00ec\u012d\u013e\u00ec\u012c\u00a4": 2199, "\u00eb\u0128\u012f": 2200, "\u0120\u00ec\u0142\u013e\u00ec\u0140\u0133": 2201, "\u00ec\u012a\u013b": 2202, "\u0120\u00ea\u00b4\u0122\u00ea\u00b4\u0133": 2203, "\u0120lg": 2204, "\u0120\u00ea\u00b3\u00b5\u00ea\u00b8\u012b": 2205, "\u00b9\u0126": 2206, "\u0127\u00b8": 2207, "\u0126\u00ed": 2208, "\u0120\u00ed\u013b\u0137\u00eb\u00b3\u00b4": 2209, "\u0120\u00ed\u013c\u012e\u00ec\u013f\u013a": 2210, "\u0120\u00eb\u00a8\u00bc": 2211, "\u013a\u0133": 2212, "\u0120\u00eb\u00b6\u0126\u00eb\u00a5\u013a": 2213, "\u0126\u00ec\u012d\u00a4": 2214, "\u00eb\u00b6\u013b": 2215, "\u0120\u00ec\u00a6\u0132": 2216, "\u0120\u00ea\u00b1\u00b4\u00ea\u00b0\u0137": 2217, "\u00eb\u0125\u012a": 2218, "\u00b2\u012a": 2219, "\u00ec\u0128\u0132": 2220, "\u00ec\u013f\u013a\u00ec\u013d\u0132": 2221, "ve": 2222, "yo": 2223, "\u00ec\u0139\u0132\u00ec\u0126\u0142": 2224, "\u0120\u00eb\u00bf\u0132": 2225, "\u0120\u00ea\u00b5\u0143\u00ec\u0142\u0137": 2226, "\u00ac\u00b4": 2227, "\u00ed\u013a\u00bc": 2228, "\u013d\u00b0": 2229, "\u0120\u00eb\u00af\u00bc\u00ec\u00a3\u00bc": 2230, "\u0120\u00ec\u00a6\u012b": 2231, "\u00ec\u0142\u0137\u00ec\u00b1\u0127": 2232, "\u0120\u00eb\u0136\u00b0\u00eb\u00a5\u00b8": 2233, "\u0120\u00ed\u0134\u012f": 2234, "\u0120\u00ed\u0138\u012b\u00ec\u0142\u0137": 2235, "\u0120\u00ec\u00b0\u00b8\u00ea\u00b0\u0122": 2236, "\u0120\u00ec\u012d\u013e\u00ec\u012c\u00a4\u00ed\u0127\u013e": 2237, "\u00ec\u00a3\u0126": 2238, "\u0120\u00eb\u0135\u00af": 2239, "\u00eb\u0124\u013a\u00eb\u013f\u00bc": 2240, "\u0120\u00ec\u0137\u0126\u00ec\u00a7\u0123": 2241, "\u00ec\u0126\u0142\u00ea\u00b1\u00b0": 2242, "\u00eb\u0141\u00bc\u00ed\u0136\u0126": 2243, "\u0120\u00ec\u00a7\u0123\u00ec\u013d\u0132": 2244, "\u0120\u00ea\u00bf": 2245, "\u0120\u00ec\u013f\u00b8\u00ec\u0125\u0123": 2246, "\u0120\u00ea\u00b0\u0137\u00ec\u013d\u0132": 2247, "\u00ec\u0139\u0127\u00ec\u00b2\u00b4": 2248, "\u00eb\u012d\u00a8\u00ec\u00b2\u00b4": 2249, "\u00eb\u0125\u00a5": 2250, "\u0120\u00ed\u0126\u00b0": 2251, "\u0120\u00ea\u00b3\u00b5\u00ec\u012d\u013f": 2252, "\u00ed\u0131\u00b0": 2253, "\u00eb\u0136\u00a9": 2254, "\u0120\u00eb\u00a7\u012a\u00ec": 2255, "me": 2256, "\u0120\u00ec\u0125\u013f\u00ed\u013b\u013e": 2257, "\u0120\u00ea\u00b3\u0142\u00ec\u013c\u00a9": 2258, "\u0120\u00ed\u0131\u00ac\u00ec\u013f\u00b8\u00ed\u012c\u00b8": 2259, "\u0120\u00eb\u012e\u0122\u00ed\u013b\u0136": 2260, "\u00eb\u0131\u013b\u00ec\u0137\u012a": 2261, "\u0120\u00ec\u012d\u013e\u00ec\u00a6\u012e": 2262, "\u00eb\u00b3\u00b8\u00eb\u00b6\u0122": 2263, "\u0120\u00ec\u013f\u00b4\u00ec\u0142\u0126": 2264, "\u00ec\u0142\u0126\u00ed\u0140\u012a": 2265, "\u00eb\u00a6\u0143\u00ed\u0126\u00b0": 2266, "\u0120\u00ec\u012d\u013e\u00ed\u0138\u012b": 2267, "\u0120\u00ec\u00bb\u00a8": 2268, "\u0120\u00ec\u00a3\u00bc\u00ed\u0125\u013f": 2269, "\u00a5\u00b4": 2270, "\u0120\u00ed\u012c\u00b8\u00eb\u0141\u00bc\u00ed\u0136\u0126": 2271, "\u0120\u00ec\u013a\u012a\u00ec\u0124\u00b0": 2272, "\u00ed\u013b\u013a\u00ea\u00b2\u00bd": 2273, "\u0120\u00ec\u0124\u00ac\u00ea\u00b3\u0142": 2274, "ce": 2275, "\u0120\u00eb\u00b0\u00a9\u00ec\u0137\u012a": 2276, "\u012060": 2277, "\u00eb\u00b0\u013a\u00ea\u00b8\u00b0": 2278, "\u00ed\u0140\u012e": 2279, "\u0120\u00eb\u012d\u00ac\u00eb\u0141\u00ac": 2280, "\u00eb\u013d": 2281, "\u0120\u00ec\u00a4\u0133\u00ec\u0137\u013b": 2282, "\u00ed\u0137\u013e\u00eb\u012d\u00a4\u00eb\u012c\u0136": 2283, "\u00ec\u0142\u0137\u00eb\u00b3\u00b4": 2284, "\u0120\u00ea\u00b2\u00bd\u00ea\u00b8\u00b0\u00eb\u0131\u0126": 2285, "\u00ed\u0123\u00b4": 2286, "\u0129\u00bc": 2287, "\u0120\u00ec\u0137\u0126\u00ed\u012e\u012e\u00ed\u012c\u00b8": 2288, "\u0120\u00eb\u012d\u00a8\u00ea\u00b3\u0126": 2289, "\u00ec\u0124\u00ac\u00ed\u013c\u012e": 2290, "\u0120\u00ec\u0138\u00b4\u00eb\u00a6\u00b0": 2291, "\u0120\u00ec\u00b5\u013e\u00ec\u00a2\u0127": 2292, "\u0120\u00eb\u00aa\u00a9\u00ed\u0133\u013e": 2293, "\u0120\u00ec\u00b9\u00a8": 2294, "\u0120\u00ea\u00b2\u00a9": 2295, "\u00b8\u00b8": 2296, "\u00ed\u0137\u0126": 2297, "\u0120\u00eb\u0126\u012a\u00eb\u00ac\u00b4": 2298, "\u0120\u00ea\u00b9\u0122\u00ec\u0142\u0137": 2299, "\u0120\u00ec\u00a1\u00b0\u00ec\u0126\u0142": 2300, "\u00ec\u0131": 2301, "\u0120\u00ec\u00a1\u00b4\u00ec\u0140\u00ac": 2302, "\u00eb\u00a6\u00bc\u00ed\u0136\u00bd": 2303, "\u0120\u00ec\u012c\u00a4\u00eb\u00a7\u012a\u00ed\u012c\u00b8": 2304, "\u0120\u00ec\u0137\u0126\u00eb\u00ac\u00b4": 2305, "\u00e2\u012a": 2306, "\u0120\u00eb\u00b0\u00a9\u00ec\u012d\u013f": 2307, "\u00ea\u00b8\u012a\u00ec\u013e\u00b5": 2308, "\u00eb\u0131\u013b\u00ec\u0124\u00b0": 2309, "\u00ec\u00a6\u013f\u00ea\u00b6\u012e": 2310, "\u0120\u00ec\u00a7\u0122\u00ec\u00a7\u0122": 2311, "\u0120\u00ec\u0138\u00b4\u00eb\u0138\u00a4": 2312, "\u0120\u00ec\u00ba\u0132\u00eb\u00a6\u0143\u00ed\u0126\u00b0": 2313, "\u0120\u00e2\u012a": 2314, "\u00eb\u00a1\u0143": 2315, "\u0120\u00ec\u00a7\u0122\u00eb\u0124\u013e\u00eb\u012d\u00ac": 2316, "\u0120\u00eb\u00aa\u00a8\u00eb\u012f\u00b8": 2317, "\u0120\u00ed\u013a\u00bc": 2318, "\u00ec\u012c\u00ac": 2319, "\u0120\u00eb\u012c\u00a5\u00eb\u0142\u00a5": 2320, "\u00a6\u012a": 2321, "\u0120\u00eb\u0141\u00ac": 2322, "\u0120\u00ea\u00b5\u00ac\u00ec\u00a1\u00b0": 2323, "\u0120\u00ec\u0142\u0126\u00eb\u0127\u0126": 2324, "\u0120\u00ec\u00b5\u013e\u00ec\u0142\u0122": 2325, "\u0120\u00ec\u013b\u00b8\u00ea\u00b5\u0132": 2326, "\u0120\u00ec\u013b\u00b8\u00ea\u00b5\u0143\u00ec\u013f\u00b8": 2327, "\u00ec\u00a7\u0122\u00eb\u00a7\u012b": 2328, "\u0136\u00ed": 2329, "\u0120\u00ec\u00b1\u0127\u00ec\u0140\u0126": 2330, "\u0120\u00ec\u00a2\u0127\u00eb\u00aa\u00a9": 2331, "\u0120\u00eb\u0140": 2332, "\u0120\u00ec\u013f\u00b4\u00ec\u0142\u013e": 2333, "\u00ec\u0137\u0136": 2334, "\u0120\u00ea\u00b3\u0126\u00ec\u0137\u00bd": 2335, "\u00b0\u00b0": 2336, "\u0137\u00bd": 2337, "\u0120\u00ec\u00a7\u0133\u00ec\u00a4\u0133": 2338, "\u0120\u00ec\u0138\u00b4\u00eb\u012c\u0132": 2339, "\u0120you": 2340, "\u0120\u00ed\u012e\u0136": 2341, "\u0120\u00ea\u00b0\u013b\u00ec\u013f\u00b4": 2342, "\u0142\u0122": 2343, "\u013c\u00b0": 2344, "\u00ec\u0139\u0126": 2345, "\u00eb\u012e\u0122\u00ec\u013f\u013a": 2346, "\u0120\u00eb\u013f\u00bc\u00ec\u013f\u00b4": 2347, "\u0120\u00eb\u00aa\u00b8": 2348, "\u0120\u00ec\u0142\u0126\u00eb\u0140\u00b5": 2349, "\u0120\u00ec\u012b\u00bd": 2350, "\u0120\u00ea\u00b0\u0122\u00ec\u00a1\u00b1": 2351, "\u0120\u00ea\u00b3\u00b5\u00ea\u00b3\u00b5": 2352, "\u0120\u00eb\u00b3\u0122\u00ed\u013b\u0136": 2353, "\u00eb\u012f\u0137": 2354, "\u0120\u00ea\u00b8\u00b0\u00ec\u0124\u00ac": 2355, "\u0120\u00ed\u0137\u013a\u00eb\u00a3\u00a8": 2356, "\u00eb\u00a6\u00ac\u00ec\u00a6\u012a": 2357, "ma": 2358, "\u0120\u00ec\u0142\u0126\u00ea\u00b8\u00b0": 2359, "\u00ed\u013c\u012e\u00ec\u0124\u00ac": 2360, "\u00eb\u0142\u012e": 2361, "\u00ec\u00b0\u00b8": 2362, "\u00ec\u0128\u012e\u00eb\u00a6\u00ac": 2363, "\u0120\u00eb\u00aa\u0127\u00ec\u013f\u013a": 2364, "\u0120\u00ec\u0137\u0136": 2365, "\u0120\u00ec\u00b2\u0143\u00eb\u0127\u0126": 2366, "\u0120the": 2367, "\u00eb\u00b3\u00bc": 2368, "\u00ed\u0129\u00b4": 2369, "\u00eb\u00a7\u00b9": 2370, "\u0120\u00ec\u012d\u00a4\u00ec\u0142\u0123": 2371, "\u0120\u00ec\u00a2\u0122": 2372, "\u0120\u00ec\u013a\u00ac\u00eb\u013f\u00bc": 2373, "\u0120\u00eb\u00b0\u0136\u00ec\u013f\u00b4": 2374, "\u00ed\u0139\u012a": 2375, "\u0120\u00ec\u013d\u012e": 2376, "\u0120\u00eb\u0125": 2377, "\u0135\u00b1": 2378, "\u0120\u00ed\u0134\u012a": 2379, "\u00ec\u00bf\u0142": 2380, "\u0120\u00ec\u00bd\u013a": 2381, "\u00ea\u00b1\u00b0\u00eb\u0140\u013a": 2382, "\u0120\u00eb\u00b3\u00b4\u00ec\u013e\u0142": 2383, "\u012b\u00ea": 2384, "\u0120\u00ec\u013f\u00b4\u00eb\u0131\u013b": 2385, "\u0120\u00eb\u00b0\u013e\u00ec\u0138\u00b8": 2386, "\u0120\u00ec\u012d\u0142\u00ec\u00b2\u0143": 2387, "\u0120\u00eb\u00af\u00bc\u00ec\u00a3\u00bc\u00eb\u012d\u00b9": 2388, "\u0120\u00ef": 2389, "\u00eb\u0131\u0126\u00ec\u012d\u013e": 2390, "\u00eb\u0140\u0132": 2391, "\u0120\u00ec\u0126\u0142\u00ed\u0125\u013f": 2392, "\u0120\u00eb\u00a7\u012a\u00ec\u00a7\u0122\u00eb\u00a7\u012b": 2393, "\u0120\u00eb\u00b4\u012b": 2394, "\u0120\u00ec\u00b0\u00a9": 2395, "\u00b8\u00ea": 2396, "\u00b0\u0136": 2397, "\u0120j": 2398, "\u0120\u00eb\u00b6\u013b": 2399, "\u00b2\u0137": 2400, "\u0120\u00ec\u0137\u012a\u00ec\u0142\u0137": 2401, "\u0120\u00ea\u00b5\u00ac\u00ec\u00b6\u0137": 2402, "\u0120\u00ed\u0137\u00b4\u00ea\u00b2\u00b0": 2403, "\u00ec\u012d\u0143": 2404, "\u0120\u00ec\u00b4\u012b": 2405, "\u00eb\u00b2\u00a4\u00ed\u012c\u00b8": 2406, "\u00eb\u00b7": 2407, "\u0120\u00eb\u00b6\u0122\u00eb\u012d\u00b4": 2408, "\u0120\u00eb\u013d\u00b0": 2409, "\u00ec\u00b6\u013a": 2410, "\u0120\u00eb\u0131\u012a": 2411, "\u0120\u00e2\u012a\u00bc": 2412, "\u0120\u00ec\u0139\u00ac\u00ec\u013f\u013a": 2413, "\u0120\u00ec\u013f\u00b4\u00eb\u0142\u0129": 2414, "\u013a\u00b8": 2415, "\u0120\u00ec\u0142\u0126\u00ed\u0138\u012a": 2416, "\u00ea\u00b3\u00b3": 2417, "\u00ea\u00b0\u0136": 2418, "\u00ec\u00a3\u0142": 2419, "\u0120\u00ea\u00b0\u0122\u00ea\u00b5\u00ac": 2420, "\u00eb\u00b0\u013a\u00eb\u0131\u0126": 2421, "\u0120\u00ec\u0139\u0127\u00ec\u00b2\u00b4": 2422, "\u0120\u00eb\u012d\u00ac\u00eb\u00a6\u00ac": 2423, "\u0120\u00ec\u013f\u00b8\u00ec\u0142\u0137": 2424, "\u0120\u00ec\u00bc\u0122": 2425, "\u0120\u00ed\u0139\u00a4": 2426, "\u00e2\u0139": 2427, "\u0120\u00ec\u0131": 2428, "\u00ec\u012c\u00a8": 2429, "\u00ec\u013f\u013a\u00ed\u013c\u012e": 2430, "\u0126\u013f": 2431, "\u0120\u00eb\u012e\u0122\u00ec\u013f\u0133": 2432, "\u0120\u00ed\u0137\u00b5\u00ec\u012d\u00ac": 2433, "\u00ec\u00a4\u0126": 2434, "\u012f\u00ec": 2435, "\u00b1\u00b0": 2436, "\u00eb\u00a1\u013e\u00ec\u0126\u013e": 2437, "\u0120\u00ec\u013f\u00b4\u00ed\u0137\u00b4": 2438, "\u0120\u00ec\u0128\u012e\u00ec\u0128\u012f": 2439, "\u00eb\u00a7\u012a\u00eb\u012d\u00a4": 2440, "la": 2441, "\u0120\u00eb\u0124\u013a\u00ed\u0125\u0122\u00eb\u0124\u00ac": 2442, "\u0120\u00ec\u013f\u00b8\u00ea\u00b8\u00b0": 2443, "\u00eb\u012d\u012a\u00ea\u00b9\u012e": 2444, "45": 2445, "\u0120\u00ea\u00b2\u00bd\u00eb\u0124\u00a8": 2446, "\u0120\u00eb\u0143": 2447, "\u00eb\u0123\u00bc": 2448, "\u0120\u00ec\u0140\u0132\u00eb\u0131\u013b\u00ec\u00b0\u00a8": 2449, "\u00ec\u0138\u00b4\u00eb\u0124\u013e": 2450, "\u0120\u00ec\u0142\u013e\u00ec\u013b\u00b8": 2451, "\u00ea\u00b4\u0122\u00ea\u00b3\u0126": 2452, "\u0120\u00ec\u013f\u00b4\u00eb\u00b2\u00a4\u00ed\u012c\u00b8": 2453, "en": 2454, "\u0127\u0126": 2455, "\u0120\u00ec\u0139\u00ac\u00ec\u013f\u013a\u00eb\u0131\u0126": 2456, "\u00ec\u00b6\u00b0": 2457, "\u00b4\u0122": 2458, "\u0120\u00e5": 2459, "\u0140\u0127": 2460, "li": 2461, "\u0120\u00ec\u012e": 2462, "\u0120\u00ea\u00b3\u00b5\u00ec\u0139\u00b0": 2463, "\u00ea\u00b7\u0122": 2464, "\u0120\u00eb\u00b0\u00a9\u00eb\u00b2\u0137": 2465, "\u0120\u00ea\u00be": 2466, "\u0120\u00ec\u013f\u00bc\u00ec\u0142\u0137": 2467, "\u0120\u00ec\u012d\u00b8": 2468, "newsis": 2469, "\u01202014": 2470, "\u00ec\u0139\u0128\u00ec\u013f\u00b4": 2471, "\u00b6\u0126": 2472, "lo": 2473, "\u00b1\u0127": 2474, "\u0120\u00eb\u00b0\u00a4": 2475, "\u0120\u00ec\u0126\u0142\u00eb\u00b3\u00b4": 2476, "\u0120\u00eb\u00b6\u0122\u00eb\u0131\u013b\u00ec\u0124\u00b0": 2477, "\u0120\u00eb\u0127\u00bc\u00eb\u0140\u0122": 2478, "\u0120\u00eb\u012e\u0122\u00ec\u012d\u0142": 2479, "\u00ec\u013b\u0122\u00ec\u013f\u013a": 2480, "\u00ec\u013e\u0126\u00ea\u00b8\u00b0": 2481, "\u00ec\u012d\u013e\u00ea\u00b0\u0126": 2482, "\u0120\u00ec\u0138\u00b8\u00ea\u00b8\u012b": 2483, "\u00a2\u00b0": 2484, "\u00eb\u012e\u0122\u00ed\u013c\u012e": 2485, "\u00eb\u0142\u00b5": 2486, "\u0120\u00ed\u0139\u012e": 2487, "32": 2488, "\u0120\u00ec\u012c\u012a": 2489, "\u00eb\u00a6\u00b0\u00eb\u012d\u00a4": 2490, "\u0120\u00eb\u00b9\u0126\u00ed\u012e\u0132": 2491, "\u0126\u00ea": 2492, "\u0120\u00ec\u00a7\u0122\u00ec\u0142\u0137": 2493, "\u0120\u00ea\u00b0\u013e\u00ec\u0142\u0137": 2494, "\u0120\u00ea\u00b8\u00b0\u00ed\u013c\u012f": 2495, "\u0120\u00ec\u012a\u00a8": 2496, "\u0120ne": 2497, "\u0120\u00ea\u00b3\u00b5\u00ec\u0142\u0137": 2498, "\u00eb\u00b2\u00bd": 2499, "\u0120\u00ec\u00a2\u0127\u00ed\u0137\u00a9": 2500, "\u00ec\u0125\u012a": 2501, "\u00ec\u00a3\u00bc\u00ed\u0125\u013f": 2502, "\u012035": 2503, "\u0120\u00ea\u00b8\u00b0\u00eb\u012c\u00a5": 2504, "\u0120\u00eb\u0131\u013b\u00ec\u012d\u013e": 2505, "\u0120\u00ea\u00b9\u012e": 2506, "\u00b6\u0123": 2507, "\u0120\u00ec\u013f\u00b8\u00ed\u0137\u00b4": 2508, "\u0120\u00eb\u00b0\u013a\u00eb\u00a9\u00b4": 2509, "\u00ed\u0122": 2510, "\u0120\u00ec\u0138\u00b4\u00eb\u0138\u00bb": 2511, "\u0120\u00ec\u0128\u012e\u00eb\u00b9\u0126\u00ec\u0140\u0132": 2512, "\u0120\u00e6": 2513, "\u0120\u00ea\u00b0\u0132\u00ec\u0124\u00ac": 2514, "\u00ec\u00aa": 2515, "\u00ec\u013f\u00b4\u00ec\u0127\u013a": 2516, "\u0120\u00eb\u012e\u0122\u00ec\u0142\u0126": 2517, "\u0120\u00ec\u013c\u00b0\u00ec\u012a\u013a": 2518, "\u00ea\u00b0\u0122\u00ec\u00a7\u0122": 2519, "\u0120\u00eb\u00b9\u0126\u00ea\u00b5\u0132": 2520, "\u00a3\u0142": 2521, "\u0120\u00ed\u0131\u012b\u00ec\u00b0\u00bd": 2522, "\u0120\u00eb\u0135\u013e\u00eb\u0141\u00ac": 2523, "\u00ed\u0125\u0137": 2524, "\u00ec\u0140\u0132\u00ec\u013f\u00b8": 2525, "\u0120\u00ec\u00a4\u0133\u00ec\u0128\u012e\u00ea\u00b8\u00b0\u00ec\u0139\u0127": 2526, "\u0120\u00eb\u0123\u012e": 2527, "\u0120\u00ec\u0142\u0126\u00ed\u013b\u013a": 2528, "\u0120\u00ec\u013f\u013a\u00ed\u013a\u00b9": 2529, "\u0120\u00ed\u0136\u012e\u00eb\u0142\u012a\u00ec\u013f\u00b4": 2530, "\u00eb\u0129": 2531, "\u0120\u00ec\u00b0\u00a8\u00ec\u00a7\u0122": 2532, "\u00ec\u013f\u00b4\u00eb\u0135\u013e": 2533, "\u0120\u00ec\u0140\u0132\u00ea\u00b8\u00b0": 2534, "\u0120\u00eb\u00b6\u0122\u00ec": 2535, "\u0120\u00ec\u0142\u0126\u00ed\u012a\u00ac": 2536, "\u00ec\u0136\u00a9": 2537, "\u00eb\u00a1\u013e\u00eb\u00b6\u0122\u00ed\u0126\u00b0": 2538, "\u0120\u00ec\u013e\u00bc": 2539, "\u0120\u00ec\u00a7\u0122\u00eb\u0124\u013a": 2540, "\u00ae\u00a4": 2541, "\u012070": 2542, "\u01202019": 2543, "\u00ed\u0137\u00a9\u00eb\u012d\u012a\u00eb\u012d\u00a4": 2544, "\u0120\u00ea\u00b5\u0143\u00eb\u00b0\u00a9": 2545, "ic": 2546, "\u0120\u00ea\u00b3\u00bc\u00ea\u00b1\u00b0": 2547, "\u00ec\u0138\u00b4\u00ec\u0137\u00bc": 2548, "\u0120\u00eb\u012f\u00a7": 2549, "\u00eb\u0135\u00af": 2550, "\u00ec\u00b4\u012e": 2551, "\u0120\u00ed\u0136\u0126\u00eb\u00a6\u00ac": 2552, "\u00eb\u0140\u013b": 2553, "\u00eb\u00a8\u00bc\u00ec\u00a7\u0122": 2554, "\u00eb\u00a2\u00b0": 2555, "\u0120\u00ec\u0124\u00ac\u00ec\u0140\u00a5": 2556, "\u00ec\u00a7\u013e": 2557, "\u0120\u00ec\u013b\u013e": 2558, "\u00ed\u0131\u012b\u00ea\u00b0\u0122": 2559, "\u0120\u00ed\u0137\u013e\u00eb\u00b0\u013a\u00eb\u0131\u0126": 2560, "\u00eb\u00b0\u0138": 2561, "\u0120\u00ec\u00b6\u013e\u00ec\u012d\u0142": 2562, "\u0120\u00ec\u012d\u0142\u00ea\u00b7\u013e": 2563, "\u0120\u00ec\u0142\u0126\u00eb\u012d\u00ac": 2564, "\u0120\u00ec\u0142\u013e\u00eb\u0131\u0126": 2565, "\u0141\u012b": 2566, "\u0120\u00e3\u0130\u00a1": 2567, "\u0120\u00ec\u012d\u013e\u00eb\u00a6\u00ac\u00ec\u00a6\u012a": 2568, "\u0120\u00eb\u0131\u0126\u00ec\u013d\u0122": 2569, "\u0120\u00eb\u00aa\u0129": 2570, "\u0120\u00ec\u00b2\u013a\u00eb\u00a6\u00ac": 2571, "\u00ec\u013c\u0137": 2572, "\u0120\u00ec\u012a\u013a\u00ec\u013c\u0136": 2573, "\u00eb\u00ac\u00b4\u00ec": 2574, "\u00ec\u00b8\u0142": 2575, "36": 2576, "\u0120\u00eb\u00b0\u0136\u00eb\u0140\u012e": 2577, "\u0120\u00ec\u00b5\u013e\u00ec\u00b4\u012a": 2578, "\u0120\u00ea\u00b5\u00ac\u00eb\u00a7\u00a4": 2579, "\u012f\u00b0": 2580, "\u0137\u00a1": 2581, "\u00eb\u00b3\u0133\u00ec\u013d\u0132": 2582, "\u0120\u00ec\u00b9\u013a\u00eb\u00a3\u012e": 2583, "\u00ed\u013e\u00b4": 2584, "\u00ed\u0124\u00b9": 2585, "\u0120\u00ec\u013c\u00b8\u00ec\u0124\u00b0": 2586, "ing": 2587, "\u00ea\u00b3\u00a8": 2588, "\u0120\u00eb\u00b3\u00b8\u00ea\u00b2\u00a9": 2589, "\u0120\u00ec\u0124\u00bc\u00ec\u0126\u00b1\u00ec\u0142\u0126\u00ec\u0140\u0132": 2590, "\u0120\u00ea\u00b1\u00b0\u00ec": 2591, "\u0120\u00ea\u00b7\u013e\u00ec\u0142\u013e": 2592, "\u0120\u00eb\u0131\u00bc": 2593, "33": 2594, "\u00eb\u012d\u00b4\u00ed\u013c\u012e": 2595, "\u00eb\u0126\u00b7": 2596, "\u00ea\u00b3\u00a4": 2597, "\u0120\u00eb\u0124\u013a\u00ec\u013b\u0136": 2598, "\u0120\u00ea\u00b2\u0122\u00ed\u0128\u0142": 2599, "\u0120\u00ea\u00b7\u00bc\u00eb": 2600, "\u0120\u00ea\u00bf\u012a": 2601, "\u0125\u0132": 2602, "\u0120\u00eb\u012f\u00a7\u00eb\u00b6\u013b": 2603, "\u0120\u00ea\u00b2\u00a8": 2604, "\u00eb\u013f\u00bc\u00eb\u00a9\u00b4": 2605, "\u0120\u00ec\u00a1\u00b0\u00ec\u00b9\u013a": 2606, "\u0120\u00eb\u00af\u00b8\u00ec\u0126\u00b8": 2607, "\u0120\u00ec\u0142\u0126\u00eb\u00ac\u00b8\u00ea\u00b0\u0122": 2608, "\u0120\u00e2\u0128\u0134": 2609, "\u00eb\u00ac\u00b4\u00ec\u013d\u0132": 2610, "\u0120\u00ec\u0142\u0126\u00ec\u012d\u013e": 2611, "\u00eb\u00bf\u0132": 2612, "\u00ec\u0138\u00bc": 2613, "\u0120\u00ea\u00b1\u00b0\u00ec\u013f\u013a": 2614, "\u0120\u00ed\u0128\u00b5\u00ed\u0137\u00a9": 2615, "\u0137\u00eb": 2616, "\u0120\u00ea\u00b8\u0122": 2617, "\u0120\u00eb\u0124\u00b4\u00eb\u0142\u00a4": 2618, "\u0120\u00eb\u00b0\u013a\u00eb\u012e\u0122": 2619, "\u0120\u00ec\u0139\u00b0\u00ea\u00b2\u00b0": 2620, "\u0120\u00ea\u00be\u00b8": 2621, "\u0120\u00ec\u013a\u00a4\u00eb\u00a5\u00b8": 2622, "\u0120\u00ec\u00bf\u0142": 2623, "\u0120\u00ea\u00b2\u00ac": 2624, "\u0120\u00eb\u00a8\u00bc\u00ec\u0142\u0122": 2625, "\u0120\u00eb\u0128\u0134\u00ec\u013f\u00b4": 2626, "\u00ac\u00bc": 2627, "\u0120\u00ec\u013e\u0142\u00eb\u0141\u00bd": 2628, "\u00ed\u013b\u013e\u00eb\u0131\u013b": 2629, "\u0120\u00ec\u00a3\u00bc\u00ec\u013f\u00b8": 2630, "\u00ed\u0138\u012a\u00ec\u013e\u00bc\u00eb\u00a9\u00b0": 2631, "kb": 2632, "\u00ed\u0126\u00b8": 2633, "\u0120500": 2634, "\u00ec\u0124\u00bc": 2635, "\u0120\u00ec\u013e\u0126\u00ed\u0137\u00b4\u00ec\u0126\u013e": 2636, "\u0120\u00ec\u013f\u00b8\u00eb\u0131\u0126": 2637, "\u0120\u00ec\u0128\u012e\u00ea\u00b0\u013e": 2638, "\u0120\u00ec\u0139\u00b0\u00ec\u0128\u012f": 2639, "\u0120\u00eb\u012e\u0122\u00ec\u00b1\u0127": 2640, "\u0120x": 2641, "\u00a5\u00ed": 2642, "\u0120\u00ec\u013e\u00bc\u00eb\u00a1\u013e": 2643, "\u00ec\u012c\u012a": 2644, "\u0120\u00eb\u00b0\u013e\u00ea\u00b2\u00ac": 2645, "\u0120\u00eb\u012d\u00a8\u00ec\u00a7\u0122": 2646, "\u00ec\u012c\u00b7": 2647, "\u0120\u00ec\u013f\u0122\u00ed\u0138\u012b": 2648, "\u0120\u00ec\u0126\u00b1\u00ea\u00b3\u00bc": 2649, "\u0120\u00eb\u00b3\u00b4\u00eb\u0131\u0126": 2650, "\u0120\u00eb\u012e\u0122\u00ed\u013a\u0137": 2651, "\u0120\u00ea\u00b2\u00bd\u00ed\u0139\u013a": 2652, "\u00ec\u0140\u0126\u00ea\u00b8\u012a": 2653, "\u0120\u00ec\u0126\u00a4\u00ec\u0142\u0137": 2654, "\u0120\u00ec\u00a7\u0137": 2655, "\u0122\u00eb\u0135\u013e": 2656, "\u0120\u00eb\u0124\u013a\u00ea\u00b0\u0122": 2657, "\u01202000": 2658, "\u00ed\u0136\u012a": 2659, "\u0135\u0142": 2660, "\u0120\u00ea\u00b8\u00b0\u00ed\u013c\u012e": 2661, "\u0120\u00ed\u013b\u013e\u00ec\u0126\u00b1": 2662, "\u0120\u00ec\u0126\u00a4\u00eb\u00a6\u00bd": 2663, "\u00ec\u013b\u0126": 2664, "\u00ec\u0124\u00ac\u00ec\u013f\u013a": 2665, "\u0120\u00ec\u00a1\u00b0\u00ec\u00a7\u0123": 2666, "ai": 2667, "\u00bb\u013a": 2668, "\u0120\u00eb\u00b9\u0126\u00ec\u012c\u00b7": 2669, "\u00ec\u00b9\u013b": 2670, "\u0120\u00eb\u00a7\u012e\u00eb\u0135\u0142": 2671, "\u0120\u00eb\u00b6\u0126\u00ec\u0138\u0133": 2672, "\u00ed\u013c\u012e\u00ec\u0140\u00a5": 2673, "\u0137\u0127": 2674, "\u0120\u00ea\u00b0\u013e\u00ec\u013f\u013a": 2675, "\u0120\u00ec\u013c\u00b0\u00ec\u0126\u0142": 2676, "\u0120\u00ec\u00b1\u0126\u00ec\u013c\u00a9": 2677, "\u013a\u00a8": 2678, "\u0120\u00ea\u00b3\u00b5\u00ea\u00b0\u0126": 2679, "34": 2680, "\u0120\u00ed\u0138\u00a5\u00ed\u013d\u0126": 2681, "\u0120\u00eb\u00b6\u0123\u00eb\u00af\u00b8": 2682, "\u00ec\u0123": 2683, "\u0127\u013a": 2684, "\u00ea\u00b2\u00bc": 2685, "\u0120\u00ea\u00b5\u0132\u00ed\u0128\u00b5": 2686, "\u0120\u00ea\u00b3\u00a1": 2687, "\u00ec\u0137\u0126\u00ec\u0126\u013e": 2688, "\u0120\u00ec\u0126\u00bc": 2689, "\u00ed\u0129": 2690, "\u0120\u00ea\u00b0\u0122\u00ea\u00b9\u012e": 2691, "\u0123\u00eb": 2692, "\u0120\u00ec\u0142\u0137\u00ec\u013f\u013a": 2693, "\u0120\u00ed\u0129\u00b4": 2694, "\u0120\u00eb\u00b3\u00b4\u00ed\u0139\u013a": 2695, "\u0120\u00ec\u0139\u00ac\u00ed\u0138\u012b": 2696, "\u0120\u00eb\u00b3\u00b4\u00ed\u013a\u00b8": 2697, "\u0120\u00eb\u012f\u00a7\u00eb\u00b6\u013b\u00ec\u013a\u0122": 2698, "\u0123\u00ac": 2699, "\u0120\u00ec\u00ba\u0142": 2700, "\u0120\u00eb\u00b9\u0126\u00ed\u0137\u00b4": 2701, "\u0120\u00eb\u00b6\u0122\u00ec\u00a1\u00b1": 2702, "\u0120\u00ea\u00b7\u00bc\u00eb\u00a1\u013e": 2703, "\u0120\u00ec\u00a3\u00bc\u00ec\u012d\u013f": 2704, "\u0120\u00eb\u0124\u013b": 2705, "\u0120\u00ec\u0142\u013e\u00ec\u012d\u013e": 2706, "\u0120\u00ec\u0125\u0123\u00ec\u0140\u00a5": 2707, "\u0137\u0133": 2708, "\u00b2\u00ac": 2709, "\u00ec\u012c\u00a4\u00ed\u0123\u00ac": 2710, "\u0120\u00ed\u013f\u0132": 2711, "\u00ec\u013a\u00a5": 2712, "\u013a\u00ea\u00b8\u00b0": 2713, "\u0120\u00eb\u00a7\u013d": 2714, "\u00ec\u0142\u0137\u00ec\u0125\u0123": 2715, "\u00ec\u012c\u00a4\u00ed\u0125\u0122": 2716, "\u0120\u00ec\u00a7\u0122\u00ea\u00b8\u012b": 2717, "\u00ea\u00b4\u00b4": 2718, "\u0120\u00eb\u0124\u013a\u00ec\u013a\u00a8\u00eb\u012d\u00a4": 2719, "\u0120\u00ec\u013f\u013a\u00eb\u00a3\u012e": 2720, "\u00ea\u00b3\u0142\u00ec\u0126\u013e": 2721, "\u00ea\u00be\u00b8": 2722, "\u0120\u00ec\u00b0\u00be\u00ec\u0137\u0126": 2723, "\u0120\u00ec\u013e\u0126\u00ed\u0139\u013a": 2724, "\u00eb\u00b3\u00b4\u00ed\u0139\u013a": 2725, "\u0120\u00ec\u0137\u012e\u00eb\u0142\u00a4\u00ec\u00a1\u012e": 2726, "\u0120\u00ec\u0124\u00ac\u00eb\u00a7\u013f": 2727, "\u0120kb": 2728, "\u0120\u00ea\u00b0\u0132\u00eb\u0131\u0127": 2729, "\u0120\u00eb\u0131\u0127\u00ec\u013f\u00bc": 2730, "\u0120\u00ea\u00b5\u0143\u00ed\u0128\u0142": 2731, "\u0120\u00eb\u0128\u0122": 2732, "\u0120\u00ec\u00a1\u00b0\u00ea\u00b8\u012a": 2733, "\u0120\u00ec\u013b\u0136": 2734, "\u0120\u00eb\u012d\u012a": 2735, "\u00ec\u012f\u00a8": 2736, "\u00eb\u00aa\u00ac": 2737, "\u0120\u00ec\u013a\u0123\u00ea\u00b5\u0143": 2738, "\u00eb\u00b2\u0126\u00ec\u012c\u00a4": 2739, "\u012080": 2740, "\u0120\u00eb\u00af\u00b8\u00ec\u0126\u00b8\u00eb\u00a8\u00bc\u00ec\u00a7\u0122": 2741, "\u0120\u00ec\u00a7\u0126\u00ec\u00b6\u013e": 2742, "\u0120\u00ea\u00b8\u00b0\u00eb\u00b0\u013a": 2743, "\u0120\u00eb\u0124\u013a\u00eb\u013f\u00bc": 2744, "\u0120\u00eb\u0136\u0136\u00ec\u0140\u0132\u00ec\u013f\u00b8": 2745, "ig": 2746, "\u0120\u00ec\u013f\u00b4\u00eb\u00a3\u00a8": 2747, "\u00ec\u013d\u0142": 2748, "\u0120\u00ec\u00a3\u00bc\u00ec\u0142\u013e": 2749, "\u0120\u00ec\u0128\u012f\u00eb\u0131\u0126": 2750, "\u0120\u00ec\u012d\u013e\u00ec\u0126\u00a4": 2751, "\u0120\u00ec\u0139\u00ac\u00eb\u00b6\u0122": 2752, "\u0120\u00ec\u0129\u00bc": 2753, "\u0120\u00eb\u0131\u0126\u00eb\u00a1\u013e": 2754, "\u0120\u00ec\u0139\u0127\u00ea\u00b3\u0126": 2755, "\u0120\u00ec\u00a4\u0133\u00ec\u013f\u00b8": 2756, "\u0120\u00ec\u00b2\u00b4\u00ed\u0139\u013a": 2757, "\u0124\u00a8": 2758, "\u0120\u00ec\u012c\u00ac": 2759, "\u0120\u00eb\u0124\u013a\u00ec\u013f\u013a": 2760, "\u0120\u00ec\u0142\u0126\u00ec\u013c\u00a9": 2761, "\u00eb\u0136\u0136\u00ec\u0138\u00b4": 2762, "\u00ec\u0137\u0137": 2763, "\u00ec\u0126\u00b0": 2764, "\u0120\u00eb\u00b0\u00a9\u00ed\u0138\u00a5": 2765, "52": 2766, "\u00ed\u013a\u0133\u00ed\u013c\u012e": 2767, "\u0120\u00ec\u00a3\u00bc\u00eb\u00b3\u0122": 2768, "\u0120\u00ec\u0140\u0132\u00ec\u0139\u00b0": 2769, "\u0120\u00ec\u013f\u00b8\u00ea\u00b0\u0126": 2770, "\u00ec\u013d\u00a8": 2771, "\u0120\u00ea\u00b7\u00b8\u00eb\u012e\u0122\u00eb\u00a1\u013e": 2772, "\u00eb\u00b3\u00b5\u00ec\u00a7\u0122": 2773, "\u0120\u00eb\u012f\u0137": 2774, "\u00ec\u00b9\u00b4\u00eb\u0135\u013e": 2775, "\u0120\u00ec\u013c\u0136\u00ec\u00b2\u0143": 2776, "\u0120\u00eb\u00af\u00bc\u00ea\u00b0\u0126": 2777, "\u00ec\u00b9\u0142": 2778, "\u0120\u00ec\u0142\u013e\u00ea\u00b8\u00b0": 2779, "\u0120\u00ec\u0124\u00ac\u00ec\u0142\u0126": 2780, "\u0120\u00ec\u013a\u00a8\u00eb\u013f\u00bc\u00ec\u013f\u00b8": 2781, "\u0120\u00ec\u0138\u00b4\u00eb\u0142\u00b5": 2782, "\u00ec\u013c\u00b4\u00eb\u0131\u013b": 2783, "\u0120\u00ec\u012d\u013e\u00eb\u012e\u0122": 2784, "\u0120\u00ec\u013f\u00b4\u00eb\u0141\u00ac": 2785, "\u0120\u00ea\u00b0\u0133": 2786, "\u0120\u00eb\u00b0\u00a9\u00ec\u00b9\u00a8": 2787, "\u00eb\u0140\u00ab": 2788, "\u0132\u00ea": 2789, "\u0120\u00ed\u0136\u0126\u00eb\u0140\u0133": 2790, "\u0120\u00ed\u012e\u00ac": 2791, "ad": 2792, "\u0120\u00ed\u013c\u012e\u00eb\u00b3\u00b5": 2793, "\u0120\u00eb\u00b0\u0138": 2794, "\u0120\u00ec\u0142\u013e\u00eb\u012e\u0122\u00eb\u00a1\u013e": 2795, "\u0120300": 2796, "\u00eb\u00aa\u00b0": 2797, "\u012c\u00a5": 2798, "\u0120\u00ec\u012a\u013b": 2799, "\u0120\u00ec\u0140\u00ac\u00ed\u012e\u0132": 2800, "\u0120\u00ec\u0139\u013a": 2801, "\u01201000": 2802, "\u00ec\u0126\u0143": 2803, "\u0120\u00ec\u00bd\u0136\u00ec\u012c\u00a4\u00eb\u012d\u00a5": 2804, "\u0120\u00ec\u00b2\u00b4\u00ea\u00b2\u00b0": 2805, "\u00ec\u0124\u00ac\u00ec\u0140\u00a5": 2806, "se": 2807, "\u00eb\u00b3\u0122\u00ec\u013f\u00b8": 2808, "\u00eb\u0142\u012b": 2809, "\u00ec\u013c\u00b0\u00ec\u012c\u00a4": 2810, "\u0120\u00ec\u0138\u00b4\u00eb\u00a6\u00b0\u00ec\u013f\u00b4": 2811, "\u00ea\u00b0\u013b\u00ec\u013f\u00b4": 2812, "\u00ea\u00b8\u00b0\u00ea\u00b0\u0126": 2813, "\u0120\u00ec\u0140\u0133\u00ec\u0139\u0127": 2814, "\u0137\u0122": 2815, "\u00ec\u013f\u00b4\u00ed\u0123\u00ac": 2816, "no": 2817, "\u01202013": 2818, "\u0120\u00ec\u00a1\u00b0\u00ec\u0142\u0137": 2819, "\u0120\u00ed\u013a\u0133\u00ec\u0125\u0123": 2820, "\u0120\u00ec\u0124\u00b6": 2821, "\u0120\u00ed\u0125\u0133": 2822, "\u00ea\u00b1\u00b4\u00ec\u0126\u00a4": 2823, "\u0120\u00ec\u0139\u0132\u00eb\u0126\u012a\u00ec\u00a7\u0122": 2824, "\u012f\u00a8": 2825, "\u0120\u00ec\u012a\u013a\u00ec\u0125\u0123": 2826, "\u00ec\u00a2\u012e": 2827, "\u0120\u00eb\u0135\u00a3": 2828, "\u0120\u00eb\u00b3\u0122\u00ea\u00b2\u00bd": 2829, "\u0120\u00ec\u012c\u00a4\u00ed\u0124\u00ac": 2830, "\u0120\u00ec\u0139\u00b4\u00eb\u00a6\u00ac": 2831, "\u0120\u00ec\u0126\u013e\u00ec\u013c\u00b8\u00ec\u012d\u013e": 2832, "\u0120\u00ec\u013e\u0142\u00eb\u00aa\u0127": 2833, "\u0120\u00ed\u0137\u0143\u00ea\u00b3\u00b5": 2834, "\u0120\u00ec\u00a7\u0122\u00ed\u0137\u013a": 2835, "\u00ea\u00b0\u0122\u00eb\u012c\u00a5": 2836, "\u00ec\u0129\u00bc": 2837, "\u00a1\u00ec": 2838, "\u0120\u00eb\u0127\u00b9": 2839, "\u0120\u00ed\u0137\u013e\u00eb\u012d\u00a4\u00eb\u012c\u0136": 2840, ".\u00e2": 2841, "\u0120\u00ed\u012d\u00b0": 2842, "\u0120\u00ec\u013d\u0125": 2843, "\u0120\u00eb\u012e\u0122\u00ec\u00b6\u013e": 2844, "\u0120\u00ec\u00b0\u00a8\u00ec\u013f\u00b4": 2845, "\u00a7\u0133": 2846, "\u0120\u00ec\u013f\u012e\u00ec\u0137\u0127": 2847, "\u00eb\u00a7\u00a8": 2848, "\u0120\u00ec\u013f\u00b8\u00ea\u00b7\u00bc": 2849, "\u00eb\u012d\u013f": 2850, "\u00ec\u00a7\u0122\u00ec\u0124\u00ac": 2851, "\u0120\u00ec\u00b0\u00bd\u00ec\u0139\u0127": 2852, "\u0120\u00ec\u00a3\u00bc\u00eb\u00aa\u00a9": 2853, "\u0120\u00eb\u00b3\u00b4\u00ec\u013a\u0122": 2854, "\u00b4\u013f\u00eb\u00a6\u00ac": 2855, "\u00ea\u00b0\u0133": 2856, "\u00ea\u00b5\u0132\u00ed\u0128\u00b5": 2857, "\u0120\u00ec\u0142\u013e\u00ec\u00a1\u00b0": 2858, "\u0120\u00ed\u012f\u00bc": 2859, "\u0120\u00eb\u00a6": 2860, "\u0120\u00ea\u00b2\u00bd\u00eb\u00b6\u0123": 2861, "\u013d\u012e": 2862, "\u00eb\u0141\u00ac\u00ec\u012c\u00a4": 2863, "\u0120\u00ec\u0126\u013e\u00eb\u00a1\u013e": 2864, "\u0128\u00ec": 2865, "\u0136\u00ea": 2866, "\u0120\u00ea\u00b1\u00b0\u00ec\u00b3\u0132": 2867, "\u0120\u00eb\u00b9\u012a": 2868, "\u0120\u00eb\u00a7\u013f": 2869, "\u0120\u00eb\u00b9\u00a8": 2870, "\u0120\u00ec\u013f\u00b8\u00eb\u00ac\u00bc": 2871, "\u00eb\u0142\u012a\u00ec\u012c\u00a4": 2872, "\u00ea\u00b3\u00b5\u00ed\u0137\u0143": 2873, "\u00eb\u013c": 2874, "\u00ea\u00b3\u0126\u00ed\u013c\u012f": 2875, "\u00eb\u012d\u012b": 2876, "\u0120\u00eb\u00ac\u00bc\u00eb": 2877, "\u00eb\u00b7\u00b0": 2878, "37": 2879, "\u00eb\u0122": 2880, "38": 2881, "\u0120\u00ec\u012d\u00a4\u00ec\u0142\u013e\u00eb\u00a1\u013e": 2882, "\u013f\u00bd": 2883, "si": 2884, "\u0120\u00ec\u012d\u0142\u00ea\u00b3\u0142": 2885, "\u0120\u00ed\u013f\u0136": 2886, "\u0120\u00eb\u00ac\u00b4\u00ea\u00b8\u00b0": 2887, "\u0120\u00ea\u00b1\u00b4\u00eb\u00ac\u00bc": 2888, "\u0120\u00ec\u012d\u00b1": 2889, "\u0120\u00ec\u013f\u013a\u00ed\u0137\u00b4": 2890, "\u00ec\u013f\u00b4\u00eb\u00b2\u0126": 2891, "\u0120\u00eb\u012d\u00b4\u00eb\u012d\u00b9": 2892, "\u00ea\u00ba": 2893, "\u00eb\u00b2\u0126\u00ec\u00a7\u0122": 2894, "\u0120\u00ec\u0126\u00b8\u00eb\u012e\u0122": 2895, "\u0120\u00ec\u0138\u013a\u00ea\u00b8\u00b0": 2896, "\u00eb\u00ae": 2897, "fo": 2898, "\u00eb\u00b4\u0129": 2899, "\u0120\u00ed\u013a\u0133\u00ec\u013f\u013a": 2900, "\u00ec\u0126\u013e\u00eb\u00b9\u0126\u00ec\u012c\u00a4": 2901, "\u0120\u00ec\u0140\u0136": 2902, "75": 2903, "\u00bc\u0135": 2904, "\u0120\u00ed\u0128\u00b5\u00ed\u0137\u013e": 2905, "\u013a\u012a": 2906, "\u00ea\u00b7\u013e\u00eb\u00aa\u00a8": 2907, "\u0120\u00eb\u00b9\u012e": 2908, "\u0120\u00eb\u0124\u00b4\u00eb\u00b6\u0122": 2909, "\u00eb\u00b9\u012a": 2910, "\u0120\u00ea\u00b0\u0137\u00eb\u0124\u00a8": 2911, "\u0120\u00ea\u00b0\u0122\u00ec\u00a7\u0126": 2912, "\u00b2\u0122": 2913, "\u00ec\u00b2\u013b": 2914, "\u0120it": 2915, "\u0127\u00ed": 2916, "\u00eb\u012e\u0122\u00ec\u00b1\u0127": 2917, "\u0120\u00ec\u0142\u013e\u00ed\u0137\u013e": 2918, "\u00ea\u00b3\u00b5\u00ec\u013d\u0132": 2919, "\u0120\u00e2\u0139": 2920, "\u00b8\u00b5": 2921, "65": 2922, "\u0120\u00eb\u00b0\u00b0\u00ec\u013c\u00b0": 2923, "\u00eb\u00af\u00b8\u00eb\u0140\u013a": 2924, "\u0120\u00eb\u012c\u0132\u00eb\u0124": 2925, "\u0120198": 2926, "\u0120\u00ea\u00b0\u0137\u00eb\u0142\u00a5": 2927, "\u0120\u00ec\u0142\u0126\u00eb\u0124\u00a8": 2928, "\u0120\u00ea\u00b0\u0123\u00ec\u00a2\u0127": 2929, "\u00eb\u012d\u00a4\u00eb\u00a9\u00b4\u00ec\u0126\u013e": 2930, "\u0120\u00ed\u013b\u013a\u00ec\u0140\u0132": 2931, "\u0120\u00ec\u0142\u013e\u00ec\u0137\u012a": 2932, "\u0120\u00ea\u00b9\u00a8": 2933, "\u00ed\u0136\u0126\u00ed\u012c\u00b8": 2934, "\u0120\u00ec\u00b4\u013f\u00eb\u00a6\u00ac": 2935, "\u0120\u00e3\u0122\u012d": 2936, "\u0120\u00eb\u00ac\u00b4\u00ec\u0139\u0143": 2937, "\u0120\u00eb\u00b6\u0126\u00ec\u013e\u0126\u00ea\u00b8\u00b0": 2938, "\u0120\u00ec\u0140\u0133\u00ec\u0126\u00b1": 2939, "\u0120\u00ec\u0137\u0126\u00ec\u012d\u013e\u00ec\u0137\u0126": 2940, "\u0120\u00ea\u00b5\u0143\u00eb\u00ac\u00b4": 2941, "\u0120\u00ec\u00b0\u00ac": 2942, "\u0120\u00ec\u00bd\u0136\u00ec\u012c\u00a4\u00ed\u0136\u00bc": 2943, "\u0120\u00ed\u0137\u0142\u00ec\u013f\u00b8": 2944, "\u00ed\u0128\u0142\u00eb\u00a6\u00ac": 2945, "\u0120\u00ea\u00b1\u00b0\u00eb\u00a6\u00ac": 2946, "\u00ec\u013f\u00b4\u00ec\u0138\u00b4": 2947, "\u0120\u00ea\u00b8\u012a\u00eb\u00a6\u00ac": 2948, "\u00ac\u00ec\u00b8\u0142": 2949, "\u0120\u00ec\u0142\u0126\u00eb\u0124\u0142": 2950, "\u00ef\u00bc": 2951, "\u0120\u00ec\u0142\u013e\u00ec\u00b6\u013e": 2952, "\u00ec\u0124\u00ac\u00ec\u013f\u00bc": 2953, "\u0120st": 2954, "\u0120\u00ec\u00a3\u00bc\u00eb\u00a1\u013e": 2955, "\u0120\u00ed\u012c\u00b9\u00ec\u012a\u013a": 2956, "\u0120\u00ed\u013b\u0137\u00ec\u0142\u0137": 2957, "\u0120\u00eb\u00b9\u0126\u00ec\u013c\u00a9": 2958, "\u0120\u00ed\u0138\u012b\u00eb\u00b3\u00b5": 2959, "\u0120\u00ec\u0139\u0127\u00ec\u00a2\u0127": 2960, "\u00ec\u0139\u0129": 2961, "\u0120\u00eb\u00b0\u0136\u00eb\u0122": 2962, "48": 2963, "\u0120\u00eb\u00b9\u0126\u00ec\u00a4\u0133": 2964, "\u0120\u00ec\u00a7\u012a\u00eb\u00ac\u00b8": 2965, "\u00ed\u0130\u013a\u00ec\u013f\u00b4\u00ec\u00a7\u0122": 2966, "\u0120\u00eb\u00aa\u00a9\u00ec\u0128\u012e\u00eb\u00a6\u00ac": 2967, "\u0120#": 2968, "\u00ec\u0128\u012e\u00eb\u0127\u0126": 2969, "\u0120\u00e3\u0122\u012c": 2970, "\u00ed\u0137\u0143\u00ea\u00b3\u00b5": 2971, "\u00ed\u013e\u013a": 2972, "\u0120\u00ec\u00a3\u00bc\u00eb\u0127\u0126": 2973, "\u00ed\u0128\u00b5\u00ec\u012d\u0142": 2974, "\u0120\u00ec\u013c\u00b4\u00eb\u0131\u013b": 2975, "55": 2976, "\u0142\u00b8": 2977, "nd": 2978, "\u00ed\u0130\u013a\u00ec\u013f\u00b8": 2979, "\u0120\u00ec\u0142\u0126\u00ec\u0141\u0123": 2980, "\u0120\u00ed\u013f\u00ac\u00eb\u00a7\u013f": 2981, "\u0120\u00ea\u00b2\u00b8": 2982, "\u0120\u00ec\u0140\u0133\u00ea\u00b0\u0122": 2983, "\u0120\u00ec\u0140\u0132\u00ec\u0126\u00b8": 2984, "\u0120tv": 2985, "\u0120\u00ec\u0124\u00ac\u00eb\u00a1\u0122": 2986, "\u00ed\u012c\u00b8\u00eb\u0124\u00a8": 2987, "\u0120\u00eb\u013f\u00bc\u00eb\u012c\u0136": 2988, "\u0120\u00eb\u012a\u0126\u00ea\u00b5\u00ac": 2989, "\u0120\u00ed\u013a\u0126\u00ec\u012d\u00a4": 2990, "\u0120\u00ec\u0126\u00b8\u00ec\u0125\u0123": 2991, "\u0120\u00ea\u00b3\u00b5\u00ec\u012d\u013e": 2992, "\u0120\u00ec\u0128\u0136": 2993, "\u00ec\u0142\u0142": 2994, "\u00ec\u013e\u00bc\u00eb\u012d\u012a": 2995, "\u0120\u00ed\u0136\u0126\u00eb\u0140\u0133\u00ec\u012c\u00a4": 2996, "\u0120\u00ed\u0128\u00b5\u00ec\u013f\u00bc": 2997, "\u00eb\u0142\u00a4\u00ea\u00b3\u0142": 2998, "\u0120\u00ec\u0140\u0132\u00eb\u00a3\u012e": 2999, "\u00ec\u013e\u00a4": 3000, "\u00eb\u012e\u0122\u00ed\u0137\u013b": 3001, "\u0120\u00ea\u00b8\u012a\u00ec\u00a7\u0122": 3002, "\u0120\u00ec\u0142\u0132\u00ec\u012a\u013a": 3003, "\u0120\u00ed\u0133\u00b8": 3004, "\u00eb\u00b0\u013e\u00ec\u0142\u0126": 3005, "\u00eb\u00b0\u0136\u00ec\u013f\u00b4": 3006, "\u0120\u00ec\u00a7\u0122\u00eb\u0131\u0126": 3007, "\u0120\u00ed\u013a\u013e": 3008, "\u013a\u00ac": 3009, "\u0120\u00eb\u0127\u00b8\u00eb\u0140\u013a": 3010, "\u0120\u00eb\u00aa\u00a8\u00eb\u00a5\u00b4": 3011, "\u0120\u00eb\u00b3\u00b4\u00ec\u012a\u013a": 3012, "\u00ec\u00bd\u013a": 3013, "\u00eb\u00aa\u00bb": 3014, "\u0120\u00ed\u0130\u00b8\u00ec\u013f\u013a": 3015, "\u0120\u00ec\u0140\u0133\u00eb\u0127\u0126": 3016, "\u0120\u00ec\u00b9\u013e\u00ea\u00b5\u00ac": 3017, "es": 3018, "\u00ed\u0137\u00b5\u00ed\u013b\u0136": 3019, "ba": 3020, "\u0120\u00ec\u0126\u00ac": 3021, "\u0120\u00ec\u00b6\u013e\u00ec\u0139\u00b0": 3022, "\u0120\u00eb\u0124\u00a9": 3023, "\u0120\u00eb\u00a7\u00a5": 3024, "\u00ec\u013f\u00b8\u00ec\u013f\u013a": 3025, "\u0120\u00ce": 3026, "\u0120\u00ec\u0128\u012e\u00eb\u0135\u013f": 3027, "et": 3028, "\u00ec\u00b7\u00a8": 3029, "\u0120\u00ec\u0139\u00ac\u00ec\u0140\u0132": 3030, "\u01202012": 3031, "\u0120\u00ec\u012d\u013e\u00ea\u00b8\u00b0": 3032, "\u0120\u00eb\u0126\u00a3": 3033, "\u0120\u00ec\u00b8\u00a1\u00eb\u00a9\u00b4": 3034, "\u0120\u00ec\u0125\u0123\u00ec\u013e\u0126": 3035, "\u00ed\u013a\u0133\u00eb\u0142\u00a5": 3036, "\u0120\u00ed\u013d\u012a": 3037, "\u0120\u00eb\u0135\u00a4\u00ec\u0138\u00b4\u00ea\u00b0\u0122": 3038, "\u00ed\u013c\u012e\u00ea\u00b2\u00ac": 3039, "\u0120\u00ec\u013d\u0122": 3040, "\u0120\u00ec\u00b0\u00b8\u00ea\u00b3\u0142": 3041, "\u00eb\u00a8\u00b8\u00eb\u012d\u012a": 3042, "\u0120\u00eb\u00b9\u0126\u00ed\u0137\u00b5\u00ed\u013b\u0136": 3043, "\u00eb\u00b6\u0122\u00ec\u013f\u013a": 3044, "\u0120\u00ec\u0142\u0137\u00ec\u012d\u0142": 3045, "\u0120\u00ed\u013b\u012f\u00eb\u00b3\u00b4": 3046, "\u0120\u00ea\u00b0\u0122\u00ec\u0140\u0127": 3047, "\u00ec\u00a4\u0133\u00ec\u0137\u013b": 3048, "\u00ed\u0131\u00bc": 3049, "\u0120\u00ef\u00bc": 3050, "\u0120\u00ec\u00b0\u00a8\u00eb\u00a1\u0122": 3051, "\u0120\u00eb\u0141\u00ac\u00ec\u012d\u013e\u00ec\u0137\u0126": 3052, "\u00ec\u0138\u00b4\u00eb\u0131\u0126": 3053, "\u0120\u00ec\u0138\u00bc\u00eb\u00a7\u012a": 3054, "\u0120\u00ec\u012a\u013a\u00ec\u0140\u0127": 3055, "\u0120\u00ea\u00b9\u0122\u00ec\u0142\u0137\u00ec\u013f\u0122": 3056, "\u00ed\u0137\u00b4\u00ec\u00a1\u012e": 3057, "\u0120\u00ec\u0142\u0137\u00ed\u013b\u0137": 3058, "\u0138\u00ec": 3059, "\u0120\u00eb\u00b2\u0142\u00ed\u012c\u00b8\u00eb\u0124\u00a8": 3060, "\u00ec\u0137\u012a\u00ec\u0142\u0126": 3061, "\u0120\u00ec\u00aa\u00bd": 3062, "\u0120\u00ec\u012d\u013e\u00ec\u0142\u012a": 3063, "\u00eb\u00bd": 3064, "\u0142\u00ea": 3065, "\u00b2\u0143": 3066, "\u00eb\u012f\u0136\u00eb\u013f\u00bc\u00eb\u0131\u0126": 3067, "\u0120\u00eb\u012d\u00a8\u00ec\u00b2\u00b4": 3068, "\u00eb\u0131\u0126\u00ec\u013f\u013a": 3069, "\u0120\u00ed\u0133\u013e\u00ed\u013a\u0126": 3070, "\u0120\u00ec\u0138\u00b8\u00eb\u00a1\u0142": 3071, "\u0120\u00ea\u00b7\u00b8\u00eb\u0141\u00b0\u00eb\u012f\u00b0": 3072, "\u0120\u00eb\u012d\u00a4\u00eb\u00a5\u00b4": 3073, "\u00ec\u013f\u00bc\u00eb": 3074, "\u00b0\u013a": 3075, "\u00eb\u00a7\u012e\u00ed\u0123\u00bc": 3076, "\u0120\u00ea\u00b7\u00b8\u00eb\u00a3\u00b9": 3077, "\u012c\u0132": 3078, "39": 3079, "\u0120\u00eb\u00af\u00bf": 3080, "\u0120\u00ec\u00a4\u0133\u00eb\u012d\u00a8": 3081, "\u00eb\u012b\u00b4\u00ec\u012c\u00a4": 3082, "\u0120\u00eb\u0142\u012a\u00eb\u00b2\u00a8": 3083, "\u0120\u00ec\u013f\u013a\u00ec\u0124\u00ac": 3084, "\u0120\u00ed\u013b\u012a\u00ed\u0130\u013a\u00ec\u013f\u00b4\u00ec\u00a7\u0122": 3085, "\u012a\u00ea": 3086, "\u0120\u00ec\u013f\u00b4\u00eb\u0123": 3087, "\u00ed\u0127\u0132\u00ec": 3088, "\u0120\u00ec\u0142\u0137\u00eb\u00a7\u0132": 3089, "42": 3090, "\u0120\u00ed\u0137\u00b4\u00ec\u0137\u00bc": 3091, "\u00ec\u0142\u013f": 3092, "\u0120\u00ea\u00b3\u00b5\u00ec\u0124\u00ac": 3093, "\u0120\u00ea\u00b7\u00b8\u00eb\u0125\u00a5": 3094, "\u00ec\u00a7\u0122\u00ec\u012a\u013a": 3095, "\u00eb\u0142\u00a4\u00eb\u012c\u0136": 3096, "\u00ec\u0138\u00b4\u00ec\u013c\u0136": 3097, "ro": 3098, "\u0120\u00ea\u00b9\u012c": 3099, "\u0120\u00eb\u012e\u0122\u00ec\u00b2\u00b4": 3100, "\u0120\u00ea\u00b5\u00ac\u00ec\u00b2\u00b4": 3101, "\u0120\u00ea\u00b7\u00b8\u00ea\u00b2\u0125": 3102, "\u00b2\u00b4": 3103, "kt": 3104, "\u0120\u00eb\u00a7\u012a\u00ec\u013f\u0126": 3105, "\u00eb\u00b0\u0138\u00ec\u0139\u0132": 3106, "\u0120\u00ed\u013a\u0126\u00ec\u00a7\u0122": 3107, "\u0120\u00ea\u00b7\u00b8\u00eb\u0131\u013b\u00ec\u0137\u012a": 3108, "\u0120\u00ec\u0142\u0126\u00ed\u0128\u00b5": 3109, "\u0120\u00ea\u00b8\u00b0\u00ec\u0138\u00b5": 3110, "\u00ce\u00b4": 3111, "mo": 3112, "ch": 3113, "\u00ec\u013d\u0125": 3114, "\u012045": 3115, "\u00b1\u00b4": 3116, "\u00eb\u0127\u00b8\u00eb\u0131\u013b": 3117, "\u0120\u00ec\u013f\u00b4\u00ea\u00b2\u0125": 3118, "\u0120\u00ec\u0140\u00a5\u00ec\u0137\u0142": 3119, "\u00ed\u0127\u0132\u00ec\u00b8\u0142": 3120, "\u0120\u00eb\u012e\u0122\u00ed\u013c\u012e": 3121, "\u0120\u00ec\u0142\u0132\u00ea\u00b2\u0122": 3122, "\u0120\u00eb\u00b0\u0136\u00eb\u013f\u00bc": 3123, "\u00b9\u00b4": 3124, "\u0120\u00ec\u013d\u0122\u00ec\u00a7\u0123": 3125, "\u00ec\u0126\u00b8\u00ea\u00b3\u0126": 3126, "\u0120\u00ec\u0142\u0126\u00ec\u0140\u0132": 3127, "\u0120\u00ea\u00b2\u00aa": 3128, "\u0120\u00ec\u013e\u0142\u00ed\u0128\u00b5": 3129, "be": 3130, "\u0120\u00ec\u00a1\u00b8": 3131, "ll": 3132, "\u0120\u00ec\u00b5\u013e\u00ec\u0128\u012e": 3133, "\u0120\u00ec\u0140\u00a5\u00ea\u00b8\u00b0": 3134, "\u0120\u00ec\u0140\u0132\u00ea\u00b8\u012a": 3135, "\u0120\u00ea\u00b4\u0122\u00ed\u0137\u013e": 3136, "\u00b8\u00b4": 3137, "\u00ac\u00ec\u013a\u0123": 3138, "\u00ec\u013f\u00b4\u00eb\u0140\u0122": 3139, "\u00ec\u012d\u00b1": 3140, "\u0120\u00eb\u00aa\u00a9\u00ec\u0142\u0123": 3141, "\u00ea\u00b0\u0134": 3142, "\u00ec\u012c\u00a4\u00ec\u00bd\u0136": 3143, "\u0120\u00ec\u0125\u012b": 3144, "\u00eb\u00a6\u012b": 3145, "\u0120\u00ea\u00b5\u00b0\u00ec\u0124\u00ac": 3146, "\u00eb\u0142\u00b4": 3147, "\u0120\u00ec\u00b7\u00a8\u00ec\u0139\u0127": 3148, "\u0133\u00ea": 3149, "\u00ec\u0139\u013a": 3150, "\u00eb\u0141\u00b4": 3151, "\u0120\u00ea\u00b5\u0143\u00eb\u00a6\u00bd": 3152, "\u00ec\u012d\u013e\u00ec\u00bc\u013e": 3153, "\u0120\u00eb\u00b3\u00b8\u00ec\u013f\u00b8": 3154, "\u00eb\u012e\u0122\u00ed\u0137\u013b\u00ea\u00b5\u0132": 3155, "\u00b2\u0125": 3156, "\u0120\u00ec\u013e\u0142\u00ec\u00b9\u013a": 3157, "\u0120\u00ec\u00b0\u00a8\u00ec\u013d\u0132": 3158, "\u0120\u00ed\u012d": 3159, "\u0120\u00ec\u00a3\u00bc\u00ec\u013f\u013a": 3160, "\u00ed\u012c\u00b8\u00eb\u00a6\u00ac": 3161, "ed": 3162, "\u00eb\u0136\u0136\u00ec\u013a\u00a4": 3163, "\u0120\u00ed\u013a\u00b9": 3164, "\u0120\u00eb\u00b0\u00a9\u00ec\u0138\u00b4": 3165, "\u0120\u00ce\u00b4": 3166, "44": 3167, "\u00ec\u0125\u0123\u00ec\u013f\u013a": 3168, "\u00ec\u0142\u013f\u00ed\u012c\u00b8": 3169, "\u0120\u00ec\u00b4\u012b\u00ea\u00b5\u00ac": 3170, "\u0120\u00ea\u00b7\u00b8\u00eb\u012e\u0122": 3171, "\u0120\u00ec\u0128\u012e\u00ec\u0140\u00ac": 3172, "\u0120\u00ec\u00b0\u012f": 3173, "\u0120\u00eb\u00ac\u00b4\u00ec\u0139\u0129": 3174, "43": 3175, "\u00ea\u00b6\u0123": 3176, "\u0120\u00ec\u00b6\u00a9\u00eb\u00b6\u0126": 3177, "\u00ed\u0131\u00ac\u00ec\u00b8\u0142": 3178, "\u00ec\u013f\u00b4\u00ec\u0124\u00ac": 3179, "\u00ed\u013a\u012a": 3180, "\u0120\u00eb\u00b4\u0132": 3181, "\u0120\u00ed\u012c\u00b9\u00ec\u00a7\u0137": 3182, "\u012e\u0132": 3183, "\u0120\u00ec\u00b1\u0126\u00eb\u0126\u0132": 3184, "\u0120\u00eb\u0131\u0127\u00eb\u00a6\u00bd": 3185, "\u0120\u00eb\u00b6\u012a\u00eb\u00b2\u0137": 3186, "ra": 3187, "\u0120\u00ea\u00b3\u00bc\u00ed\u0137\u013b": 3188, "\u00b1\u0126": 3189, "\u00ea\u00b2\u00bd\u00ec\u00b0\u00b0": 3190, "\u00ec\u00a7\u0122\u00eb\u00b0\u00a9": 3191, "\u00eb\u00af\u0122\u00eb\u00a1\u013e": 3192, "\u0120\u00ec\u013d\u0132\u00ec\u013f\u00b8": 3193, "\u00eb\u0124\u013a\u00ea\u00b0\u0122": 3194, "\u0120\u00ea\u00bd\u0125": 3195, "\u00ea\u00b3\u0142\u00ec\u0140\u0132": 3196, "\u00ec\u0126\u013e\u00ea\u00b4\u0122": 3197, "\u012090": 3198, "\u0120\u00ec\u0128\u012e\u00eb\u00a6\u00ac": 3199, "\u0120kt": 3200, "\u00eb\u0141\u0143": 3201, "\u00eb\u0124\u013b": 3202, "\u00ed\u0127\u012f": 3203, "\u0120\u00ea\u00b5\u00ac\u00ec\u0128\u012f": 3204, "\u00ec\u013d\u0132\u00ec\u0140\u00a5": 3205, "\u0120\u00ed\u0137\u00b4\u00eb\u0131\u0126": 3206, "\u0120\u00ec\u00a2\u012e": 3207, "\u0120\u00eb\u00a9\u0122": 3208, "\u0120\u00ec\u013f\u00b8\u00ec\u012a\u013a": 3209, "\u00ed\u013b\u0122": 3210, "\u012f\u00eb": 3211, "\u00ec\u013d\u0127": 3212, "\u00b0\u013b": 3213, "\u0120\u00ec\u013f\u00b4\u00ec\u0125\u0123\u00ec\u013f\u013a": 3214, "\u0124\u00b9": 3215, "\u00eb\u00a5\u013b": 3216, "\u0120\u00ec\u0140\u0126\u00eb\u00aa\u0127": 3217, "\u0120\u00ec\u013f\u00b4\u00eb\u012d\u00ac": 3218, "\u0120\u00ec\u012c\u00b9\u00eb\u00a6\u00ac": 3219, "\u0120\u00ec\u0137\u0140\u00eb\u0133\u0132": 3220, "\u0120\u00ec\u00b0\u00bd\u00ec\u00b6\u013e": 3221, "\u00ec\u0140\u0132\u00ec\u013d\u0132": 3222, "\u00eb\u00a9\u013a": 3223, "\u0120\u00ec\u0139\u00ac\u00ec\u0142\u0126\u00ed\u0140\u012a": 3224, "\u0120\u00eb\u0142\u012a\u00ec\u013f\u00b4": 3225, "ph": 3226, "\u00eb\u0131\u0126\u00eb\u00a1\u013e": 3227, "\u01205000": 3228, "51": 3229, "\u0120\u00ec\u013a\u00a4\u00eb\u00a5\u00b4": 3230, "\u0120\u00eb\u00a8\u00b8\u00eb\u00a6\u00ac": 3231, "\u0120\u00ed\u012c\u00b9\u00ec\u0126\u00b1": 3232, "\u0120\u00ec\u00b5\u013e\u00ec\u0142\u0122\u00ec\u0140\u0126\u00ea\u00b8\u012a": 3233, "\u0120\u00ec\u013a\u00a4\u00ed\u0140\u012a": 3234, "\u0120\u00ea\u00b3\u00b5\u00ec\u013e\u0142": 3235, "\u0120\u00ec\u0124\u00ac\u00eb\u013f\u00bc": 3236, "\u0120\u00eb\u0126\u013a\u00ec\u0138\u00b4": 3237, "\u0120\u00ec\u013f\u012e\u00ec\u012d\u013f": 3238, "\u0120\u00eb\u00b9\u013d": 3239, "\u0120\u00eb\u012d\u00ac\u00ec\u0126\u00b1": 3240, "46": 3241, "\u0120\u00ec\u013a\u00a4\u00ed\u0140\u012a\u00eb\u0142\u00a4": 3242, "\u00b1\u00ea": 3243, "\u00b9\u00eb": 3244, "\u0120\u00ed\u0128\u00b5\u00ea\u00b3\u00bc": 3245, "\u0120\u00ec\u0140\u0129": 3246, "\u0120\u00ec\u0142\u0126\u00eb\u00b6\u0123": 3247, "so": 3248, "\u00a1\u012e": 3249, "\u0120\u00ec\u012a\u013a\u00ed\u0138\u012b": 3250, "\u0120\u00eb\u00bd": 3251, "\u0120\u00ec\u0138\u00b4\u00eb\u0136\u0136": 3252, "\u00ec\u013c\u00b4\u00eb\u0135\u013e": 3253, "\u0120\u00ed\u012a\u00ac\u00ed\u0133\u013e": 3254, "\u0120\u00ec\u00a1\u00b0\u00ec\u013d\u0132": 3255, "ht": 3256, "\u0141\u00b0": 3257, "\u0120\u00ed\u013a\u0126\u00eb\u012e\u0122\u00ec\u00b0\u00a8": 3258, "\u0120\u00ec\u0126\u0142\u00ec\u0138\u00b8": 3259, "\u00ed\u013b\u012f": 3260, "go": 3261, "\u00ec\u00a4\u0122\u00eb\u012d\u00a4": 3262, "\u00eb\u00af\u00b8\u00ec\u00a7\u0122": 3263, "\u0120\u00ea\u00b3\u0126\u00ea\u00b8\u00b0": 3264, "41": 3265, "ti": 3266, "\u00bb\u00a4": 3267, "\u0120\u00eb\u00b6\u0122\u00eb\u00ac\u00b8": 3268, "\u00e2\u0122\u013f": 3269, "\u0120\u00ea\u00b3\u00b5\u00ec\u0140\u00a5": 3270, "\u0120\u00eb\u0135\u00b1\u00eb\u00a1\u013f": 3271, "\u00eb\u012d\u012a\u00ec\u012c\u00a4": 3272, "\u0120\u00ec\u013f\u00b8\u00ec\u012d\u013f": 3273, "ca": 3274, "\u0120\u00ec\u0139\u00ac\u00eb\u00a6\u0126": 3275, "\u0120\u00ec\u0139\u00ac\u00ec\u0137\u00bc": 3276, "\u0120\u00eb\u0124\u00a8\u00ec\u0140\u0132": 3277, "\u00eb\u00b0\u0136\u00ec\u013f\u00bc": 3278, "\u00ec\u0140\u00ac\u00eb\u012d\u00a8": 3279, "\u00eb\u00b4\u0132": 3280, "\u00ec\u0137\u0126\u00ec\u0137\u00bc": 3281, "\u0120\u00ec\u013d\u0132\u00ec\u0139\u0132": 3282, "\u0120\u00ed\u0137\u013e\u00eb\u00af\u00b8": 3283, "\u00eb\u00a6\u00ac\u00ec\u0138\u00b4": 3284, "\u0120\u00eb\u00b3\u00b4\u00ed\u0128\u00b5": 3285, "\u00ec\u00af": 3286, "\u0120\u00ec\u013f\u013a\u00ec\u00a7\u0122": 3287, "da": 3288, "wa": 3289, "\u00ed\u0137\u013b\u00ec\u0125\u013f": 3290, "\u0120\u00ec\u013e\u0126\u00eb\u00b0\u013a": 3291, "\u00ec\u00b4\u012b": 3292, "ng": 3293, "\u00eb\u012c\u0132\u00eb\u0125\u0132": 3294, "\u0120\u00ed\u013a\u00b8\u00ed\u0127\u0136": 3295, "\u0120\u00eb\u00b3\u0133\u00ec\u013d\u0132": 3296, "\u00ec\u013e\u00bc\u00eb\u00a1\u013e\u00ec\u0126\u013e": 3297, "\u0120\u00eb\u0126\u0132": 3298, "\u0120\u00ec\u013f\u00b5": 3299, "\u0120\u00ec\u00b6\u0136\u00ec\u0142\u0137": 3300, "km": 3301, "\u0120\u00eb\u0126\u00a4\u00ec\u013f\u00b4\u00eb\u00b2\u0126": 3302, "\u00ec\u012d\u013f\u00ed\u0134\u012a": 3303, "\u0120\u00ec\u013f\u00b8\u00ea\u00b5\u00ac": 3304, "\u0120\u00ea\u00b7\u00b8\u00eb\u0140\u013a\u00ec\u0126\u013e": 3305, "\u0127\u012e": 3306, "\u0120\u00eb\u00b0\u013a\u00ec\u013f\u0133": 3307, "\u0120\u00eb\u0127\u00b8\u00ec\u0126\u0142": 3308, "\u0120\u00ec\u0137\u0126\u00eb\u00b2\u0126\u00ec\u00a7\u0122": 3309, "\u0120to": 3310, "\u0120\u00eb\u012f\u013a": 3311, "\u0120\u00ec\u013f\u00b4\u00ec\u0138\u00b4\u00ec\u00a7\u0122": 3312, "\u0120\u00ea\u00bc\u00bd": 3313, "\u00ec\u0126\u013e\u00ec\u013f\u013a": 3314, "hoto": 3315, "\u0120\u00ec\u013f\u00b4\u00eb\u00a5\u00b4": 3316, "\u0120\u00eb\u00b9\u0127": 3317, "\u0120\u00ea\u00b6\u0123": 3318, "ta": 3319, "ke": 3320, "\u0120\u00ec\u0139\u00b0\u00ea\u00b5\u00ac\u00ec\u013d\u0132": 3321, "\u0120\u00ec\u013f\u00b8\u00ed\u0126\u00b0\u00eb\u0126\u00b7": 3322, "\u0120\u00ea\u00b4\u00b4": 3323, "\u00eb\u00a3\u00a1": 3324, "\u00ec\u012c\u00a4\u00eb\u00a1\u013e": 3325, "\u0135\u00af": 3326, "\u0120\u00eb\u00b2\u0126\u00ec\u012c\u00a4": 3327, "\u0120\u00eb\u012e\u0122\u00eb\u00b6\u0123": 3328, "47": 3329, "\u0138\u012b": 3330, "\u00eb\u0133\u0136": 3331, "pa": 3332, "\u00ec\u00b3\u0132": 3333, "\u00ec\u00a4\u013a": 3334, "do": 3335, "\u0120\u00ed\u0137\u013a\u00ec\u013f\u00b4": 3336, "\u0120\u00ec\u0137\u0126\u00eb\u0135\u00a4": 3337, "\u00ec\u0140\u00a5\u00ea\u00b4\u0122": 3338, "\u0120\u00ec\u0125\u0123\u00eb\u012d\u00b9\u00ed\u0140\u012a": 3339, "\u00b8\u00ed": 3340, "\u0120\u00ec\u0137\u00bd\u00ec\u0128\u012f": 3341, "\u0120\u00ed\u013f\u0133": 3342, "\u0120\u00ec\u0139\u00b0\u00ea\u00b8\u00b0": 3343, "\u012e\u012e": 3344, "\u0120\u00ec\u013a\u012a\u00eb\u00b0\u00a9": 3345, "\u0120\u00ea\u00b3\u00b5\u00eb\u00aa\u00a8": 3346, "\u0120\u00ec\u00a1\u00b0\u00ea\u00b1\u00b4": 3347, "\u00ec\u0142\u0137\u00eb\u012d\u00b9": 3348, "\u0120\u00ea\u00b7\u013e\u00ec\u0142\u0137": 3349, "\u0120\u00ec\u00a7\u0122\u00eb\u00b6\u0126": 3350, "\u0120\u00ec\u012d\u013e\u00ed\u0139\u013a": 3351, "\u00a4\u0122": 3352, "\u0120\u00ec\u00bf": 3353, "\u0120\u00ec\u00a7\u0126\u00eb\u012d\u00a8": 3354, "\u012036": 3355, "\u00eb\u0141\u00ac\u00ec\u013c\u00b4": 3356, "\u0120\u00ec\u00b6\u0136\u00ec\u00b2\u013e": 3357, "\u0120\u00ed\u013c\u00a8\u00ec\u013e\u00a8": 3358, "\u00ec\u0137\u0126\u00ea\u00b0\u0122": 3359, "\u00b9\u00ed": 3360, "\u0120\u00eb\u012e\u0122\u00eb\u00b3\u0122\u00ec\u013f\u00b8": 3361, "\u0120\u00ed\u013c\u012e\u00eb\u012d\u00b4": 3362, "\u0120\u00ed\u0125\u013f": 3363, "\u00eb\u00b2\u0126\u00eb\u00a6\u00ac": 3364, "\u0120\u00ec\u0137\u00a1": 3365, "\u00ec\u013e\u00bc\u00eb\u00a1\u013e\u00eb\u00b6\u0122\u00ed\u0126\u00b0": 3366, "\u0120\u00ec\u0142\u0126\u00ec\u013f\u00bc": 3367, "am": 3368, "\u0120\u00ea\u00b7\u00bc\u00eb\u00ac\u00b4": 3369, "\u0122\u013f": 3370, "\u00ec\u0124\u00ac\u00ea\u00b3\u0142": 3371, "\u0120\u00ec\u00b6\u013e\u00eb\u00b0\u013e": 3372, "\u0120\u00ec\u0142\u012a\u00ec\u00b0\u00a8": 3373, "\u0120\u00ec\u0137\u0126\u00eb\u0140\u013a": 3374, "\u0120\u00eb\u00b3\u00b4\u00ec": 3375, "\u00a7\u0132": 3376, "\u0120\u00ec\u013a\u00ac\u00eb\u0140\u0132": 3377, "49": 3378, "\u00ec\u0128\u012e\u00eb\u0135\u013f": 3379, "\u0120\u00ec\u013e\u0126\u00ea\u00b8\u00b0": 3380, "\u00ec\u012d\u013e\u00ec\u013f\u013a": 3381, "\u012b\u00ec\u0140\u00a5": 3382, "\u00eb\u012d\u00a8\u00ec\u00a7\u0122": 3383, "\u0120\u00eb\u00ac\u00b8\u00ec\u0126\u013e": 3384, "\u0120\u00eb\u00ac\u00bb": 3385, "\u0120\u00ed\u013a\u0137\u00ed\u0125\u013e": 3386, "\u0120\u00ed\u0140\u013a\u00eb\u0135\u00a4": 3387, "\u00ea\u00b8\u00b0\u00ec\u013f\u013a": 3388, "\u0120\u00ec\u012d\u013e\u00eb\u0131\u0126": 3389, "\u0120\u00ec\u00b6\u00a9\u00eb\u00b6\u0123": 3390, "\u0120\u00ec\u0138\u00b8\u00ec\u0142\u013e": 3391, "\u0120\u00ec\u012d\u00ac\u00ec\u0124\u00ac": 3392, "\u0120\u00ec\u00a3\u00bc\u00ec\u013f\u00b8\u00ea\u00b3\u00b5": 3393, "\u0120\u00ec\u0126\u0142\u00eb\u00ac\u00bc": 3394, "\u0120\u00ec\u0140\u0126\u00eb\u012e\u0122": 3395, "\u012a\u013e": 3396, "\u0120\u00ec\u012a\u013a\u00ec\u0126\u013f": 3397, "\u00ec\u0142\u013e\u00ed\u0134\u012a": 3398, "\u0120\u00eb\u00a7\u00a4\u00ec\u0140\u00a5": 3399, "\u0120\u00ea\u00b0\u0122\u00ec\u0142\u0137": 3400, "\u0120\u00eb\u0133\u0136": 3401, "\u0120\u00ec\u013a\u012a\u00ec\u012a\u0142": 3402, "\u0120km": 3403, "\u0120\u00ed\u013a\u013e\u00ed\u0125\u013f": 3404, "\u0120\u00ec\u0138\u00b4\u00eb\u0142\u00a4\u00ec\u013c\u00b4": 3405, "\u0120\u00eb\u00a7\u00a4\u00ec\u012a\u013a": 3406, "bc": 3407, "\u0120\u00ed\u0136\u0126\u00eb\u00a1\u013e\u00ec\u0142\u013f\u00ed\u012c\u00b8": 3408, "\u00ec\u00a3\u00bc\u00eb": 3409, "\u00a6\u00b0": 3410, "\u0120\u00ed\u0128\u0142\u00eb\u00a1\u0142": 3411, "\u0120\u00ec\u0126\u0142\u00eb\u00b0\u013e": 3412, "\u00ec\u012c\u00b4": 3413, "\u00ec\u00a6\u013a": 3414, "\u0120\u00eb\u00b0\u0136\u00ed\u0125\u0137": 3415, "\u0120\u00ea\u00b2\u0122\u00ec\u0124\u00ac": 3416, "\u0124\u0142": 3417, "\u00eb\u00a8\u00b9": 3418, "\u00ec\u00b6\u00a4": 3419, "\u00ed\u012d\u00b1": 3420, "\u0120\u00eb\u0131\u013b\u00ec\u013a\u0123\u00ec\u0125\u0123": 3421, "\u00ec\u0126\u00b1\u00ec\u013f\u013a": 3422, "\u00ec\u0139\u00b0\u00ea\u00b5\u00ac\u00ec\u013d\u0132": 3423, "\u0120th": 3424, "\u0120\u00eb\u0127\u00b8\u00ec\u00a1\u00b0": 3425, "\u0120\u00eb\u012d\u00b9\u00ec\u012d\u0142": 3426, "05": 3427, "\u0120\u00ea\u00b8\u00b0\u00ed\u0125\u0122": 3428, "\u0120\u00ec\u00a4\u0133\u00ea\u00b5\u00ac": 3429, "\u0120\u00ed\u0125\u0122\u00ec\u013f\u00b4": 3430, "\u0120\u00eb\u00ac\u013a": 3431, "\u00ed\u013b\u0136\u00ec\u0142\u0132": 3432, "\u0120\u00ec\u0128\u012e\u00eb\u00b0\u00a9": 3433, "\u0120\u00ec\u0140\u0125": 3434, "\u012032": 3435, "\u0120\u00ed\u012a\u00ac\u00ec\u0140\u0127": 3436, "\u00ec\u00bc\u00b0": 3437, "\u0129\u012e": 3438, "\u0120\u00ed\u0138\u012b\u00eb\u0131\u013b": 3439, "\u00eb\u00a6\u00bf": 3440, "\u0120\u00eb\u00b9\u0142\u00eb\u00a5\u00b4": 3441, "\u0120\u00ea\u00b3\u0126\u00ec\u0139\u00b4": 3442, "\u00ec\u013a\u00ac\u00eb\u00a6\u00bc\u00ed\u0136\u00bd": 3443, "\u00ed\u0135": 3444, "\u00eb\u00ac\u00b4\u00eb\u00a6\u00ac": 3445, "\u0120\u00eb\u00aa\u00a8\u00eb\u00b0\u0136\u00ec\u013f\u00bc": 3446, "us": 3447, "\u0120\u00ed\u013b\u0136\u00ec\u0140\u00ac": 3448, "\u00ea\u00b8\u012a\u00eb\u00a6\u00ac": 3449, "\u0120\u00ed\u0122": 3450, "\u00eb\u00aa\u0127\u00ec\u013f\u013a": 3451, "\u0120\u00eb\u00a7\u012a\u00eb\u00b2\u0137": 3452, "\u0120\u00ec\u013a\u00a5": 3453, "\u00eb\u00b6\u0126\u00eb\u00a5\u013a": 3454, "99": 3455, "\u00ea\u00b3\u00b5\u00eb\u012d\u00a8": 3456, "\u0120\u00eb\u012e\u0122\u00ec\u0126\u0142": 3457, "\u0120\u00ec\u012d\u013e\u00ec\u0142\u0132": 3458, "\u0132\u00ec\u012d\u00a4": 3459, "\u00ec\u012d\u013e\u00ec\u012c\u00a4\u00ed\u0127\u013e": 3460, "\u0120\u00ea\u00b9\u0122\u00ec\u013a\u0123": 3461, "\u0120\u00ec\u00b8\u00a1\u00ec\u013f\u0122": 3462, "\u01202010": 3463, "\u00af\u00a4": 3464, "\u00ed\u012c\u013e": 3465, "\u00eb\u012a\u0126": 3466, "\u0120\u00ec\u013a\u00a4\u00ed\u0136\u012a": 3467, "\u0120\u00eb\u012e\u0122\u00ec\u0124\u00ac": 3468, "\u00ec\u012d\u00a4\u00ec\u0140\u00a5": 3469, "\u0120\u00ec\u00a7\u0122\u00ec\u012a\u013a": 3470, "\u0120\u00ec\u013f\u00b4\u00ec\u013e\u0142\u00eb\u00a1\u013e": 3471, "\u012038": 3472, "\u0120\u00eb\u0124\u00b4\u00eb\u00a6\u00ac": 3473, "\u0120\u00ec\u0137\u0126\u00ec\u013c\u00b8": 3474, "\u00ec\u00a7\u013f": 3475, "\u0120\u00ed\u012e\u012e\u00ec\u0137\u0127": 3476, "\u00ec\u0139\u00b0\u00ed\u0137\u00a9": 3477, "\u00ec\u00a7\u0123\u00ec\u013d\u0132": 3478, "\u0120\u00ec\u013a\u012a\u00eb\u00b9\u0126": 3479, "\u00ed\u0137\u00b4\u00eb\u0131\u0126": 3480, "\u00ea\u00b3\u0142\u00ec\u013f\u013a": 3481, "\u0120\u00ec\u00b7\u00a8\u00ec\u0140\u0126": 3482, "\u013f\u00ed": 3483, "\u00ec\u00a5": 3484, "01": 3485, "\u0120\u00eb\u00a7\u012e\u00ed\u013b\u0136": 3486, "\u0120\u00ec\u00a4\u0126\u00ec\u0138\u00b4": 3487, "\u0120\u00eb\u00a7\u00a4\u00ec\u00b6\u013e\u00ec\u0137\u00a1": 3488, "\u0120\u00ed\u013f\u00a5": 3489, "\u0120\u00ea\u00b5\u0143\u00ed\u013c\u012e\u00ec\u013f\u013a\u00ec\u013d\u0132": 3490, "\u00ec\u0125\u013f\u00ed\u013b\u013e": 3491, "\u01202011": 3492, "px": 3493, "\u0120\u00ec\u00a1\u00b0\u00ed\u0137\u00a9": 3494, "\u0120\u00eb\u0131\u013b\u00ec\u013f\u00bc": 3495, "\u0120newsis": 3496, "\u0120\u00eb\u0124\u00a8\u00ec\u0126\u00b1": 3497, "\u0120\u00eb\u0142": 3498, "\u0120\u00ec\u00bd\u013e": 3499, "\u0139\u00b4": 3500, "\u0120\u00ec\u0138\u00bc\u00ea\u00b5\u00b4": 3501, "\u0120\u00ec\u0140\u00a5\u00eb\u00b9\u0126": 3502, "\u00eb\u012d\u00ac\u00eb\u0141\u00ac": 3503, "\u0120\u00eb\u0136\u0136\u00ec\u00a7\u0122": 3504, "\u00ec\u0137\u00a4": 3505, "\u0120\u00eb\u0138\u0142\u00eb\u0124\u013a": 3506, "\u0120\u00eb\u00b2\u0139": 3507, "\u00e2\u013a": 3508, "\u0120\u00ec\u00b6\u00a9\u00eb\u0124\u00a8": 3509, "\u0120\u00ec\u0140\u0132\u00ec\u00a3\u00bc": 3510, "\u0120\u00ed\u0139\u00ac": 3511, "\u00ed\u0138\u012b\u00ec\u0124\u00ac": 3512, "\u00ec\u00a1\u00b0\u00ec\u0142\u0137": 3513, "\u0120\u00e7": 3514, "\u0120\u00ec\u013f\u00b8\u00ea\u00b3\u00b5": 3515, "\u00ec\u012b\u00ac": 3516, "\u0120\u00eb\u00b6\u012a\u00eb\u00a6\u00ac": 3517, "\u0120\u00eb\u0136\u00b8": 3518, "\u00eb\u00b9\u012e": 3519, "\u0120\u00ea\u00ba": 3520, "ol": 3521, "\u0120\u00ed\u0137\u013a\u00eb\u012c\u013a": 3522, "\u00ec\u0142\u013e\u00eb\u0131\u0126": 3523, "\u0125\u0122": 3524, "\u0120\u00eb\u00b0\u013e\u00ec\u0124\u00ac": 3525, "\u0120\u00eb\u00a7\u012a\u00ea\u00b0\u0132": 3526, "\u0120\u00ec\u00a3\u00bc\u00eb\u0131\u0126": 3527, "\u0125\u012a": 3528, "\u0120\u00ec\u013a\u00ac\u00eb\u00a6\u00ac": 3529, "\u0120\u00ec\u0142\u0137\u00eb\u012d\u00b9": 3530, "\u0120\u00eb\u0124\u013a\u00eb\u012a\u0126": 3531, "\u0129\u0126": 3532, "\u0120px": 3533, "\u0120\u00ec\u0137\u0126\u00ec\u00b9\u00a8": 3534, "\u00ec\u0139\u0127\u00ec\u013f\u013a": 3535, "\u0120\u00ec\u013e\u0142\u00ec\u013f\u00bc": 3536, "\u0120\u00ea\u00b0\u0126\u00eb\u012d\u00b4\u00ed\u013c\u012e": 3537, "\u00ed\u0136\u0126\u00eb\u013f\u00bc": 3538, "\u00a4\u00eb\u00b2\u0126": 3539, "na": 3540, "\u00eb\u00a6\u00ac\u00ec\u00b9\u00b4": 3541, "\u00ed\u0133\u00b8": 3542, "\u00ec\u012a\u013a\u00ec\u013f\u013a": 3543, "\u0120ai": 3544, "\u0120\u00ea\u00b8\u00b0\u00ec\u0139\u00ac": 3545, "\u00ec\u00a3\u00bc\u00ec\u012d\u013e": 3546, "\u00ec\u012d\u00b8": 3547, "\u0123\u00ea": 3548, "\u012b\u00ed": 3549, "\u0120\u00ec\u0140\u013a\u00eb\u00aa\u00bb": 3550, "\u0120\u00eb\u0126\u0135": 3551, "\u0120\u00ec\u013f\u00b4\u00ec\u0140\u00ac": 3552, "\u0120\u00ea\u00b0\u013e\u00ed\u0130\u00b8": 3553, "\u0120\u00ed\u013c\u012e\u00ec\u013d\u0132": 3554, "\u00eb\u0136\u00b0": 3555, "\u0120\u00ec\u0126\u00b8\u00ec\u00a2\u0127": 3556, "\u00ec\u00bb\u00ac": 3557, "\u00ec\u0140\u0132\u00ea\u00b8\u012a": 3558, "\u0120\u00ea\u00b0\u013e\u00ed\u013a\u0123": 3559, "\u0122\u00ec\u00a6\u013f": 3560, "\u0120\u00eb\u00b0\u00b0\u00ec\u00b9\u013a": 3561, "\u0120\u00ec\u013f\u00bc\u00eb\u012d\u00a8": 3562, "56": 3563, "\u00ec\u0126\u00b8\u00ec\u013c\u0136": 3564, "\u0120\u00eb\u012e": 3565, "\u0120\u00ec\u0139\u00b0\u00ea\u00b3\u0126": 3566, "\u00ec\u0138\u00b4\u00ec\u00a7\u0126": 3567, "\u00e3\u0128\u012f": 3568, "\u0120\u00eb\u00a7\u00a4\u00eb\u0127\u0126": 3569, "\u0120\u00eb\u00b0\u013a\u00eb\u0131\u0126": 3570, "ha": 3571, "\u0120\u00ec\u013d\u0132\u00eb\u0140\u013a": 3572, "\u012e\u00ed": 3573, "\u0120\u00ed\u012a\u00ac\u00ec\u0140\u0132\u00ec\u0140\u0132": 3574, "\u0120\u00eb\u00a7\u012a\u00eb\u00ac\u00b4\u00eb\u00a6\u00ac": 3575, "\u00ec\u012a\u013a\u00eb\u00a1\u013f": 3576, "di": 3577, "\u0120\u00ec\u00b4\u012a\u00ea\u00b8\u00b0": 3578, "mb": 3579, "\u0120\u00ec\u0140\u012c": 3580, "\u0120\u00ec\u013f\u00b8\u00ed\u0126\u00b0\u00eb\u00b7\u00b0": 3581, "\u012009": 3582, "\u0120\u00eb\u00b0\u0136\u00eb\u0140\u0122": 3583, "\u0120\u00ea\u00b8\u00b0\u00ec\u00b4\u012a": 3584, "\u0120\u00ea\u00b5\u0143\u00eb\u00b0\u00a9\u00eb\u00b6\u0122": 3585, "ck": 3586, "\u0120\u00eb\u00a7\u012a\u00ec\u00b9\u013a": 3587, "\u0120\u00ed\u012c\u00b9\u00ec\u0142\u0137": 3588, "59": 3589, "\u0120\u00eb\u012e\u0122\u00ea\u00b8\u00b0": 3590, "\u0120\u00eb\u00b3\u00b5\u00ec\u00a7\u0122": 3591, "\u0120\u00eb\u00b4\u0126": 3592, "\u0120\u00ea\u00b3\u00b5\u00eb\u00ac\u00b4\u00ec\u013d\u0132": 3593, "\u0120\u00eb\u0124\u013a\u00ec\u0126\u0142": 3594, "\u00bc\u0122\u00ed\u012e\u0127": 3595, "\u00a9\u00eb": 3596, "\u0120\u00eb\u013c": 3597, "as": 3598, "09": 3599, "\u00eb\u012e\u0122\u00ec\u0125\u0123": 3600, "\u0120\u00ea\u00b0\u0122\u00ec\u0142\u00b8": 3601, "\u0120\u00ec\u0137\u0126\u00ec\u013c\u00b8\u00eb\u0141\u00ac": 3602, "ot": 3603, "\u0120\u00ec\u0124\u00ac\u00ec\u0125\u0123": 3604, "\u0120\u00ec\u013f\u00b4\u00eb\u0123\u012e": 3605, "mm": 3606, "\u0143\u00ea": 3607, "\u0120\u00ed\u0131\u012b\u00ec\u0138\u0133": 3608, "\u0120\u00eb\u00b3\u00b4\u00ec\u0140\u00a5": 3609, "\u00eb\u012d\u00b9\u00ec\u013f\u013a": 3610, "\u0120\u00ec\u013f\u00b4\u00eb\u00af\u00b8\u00ec\u00a7\u0122": 3611, "\u0120\u00eb\u0124\u00b4\u00eb\u0128\u0135": 3612, "\u0120\u00ed\u0137\u013a\u00eb\u00b0\u013a\u00ea\u00b8\u00b0": 3613, "\u0120\u00eb\u0137\u0127": 3614, "\u0120\u00ea\u00b2\u00bd\u00ec\u0141\u0123\u00eb\u0142\u00a5": 3615, "\u0120\u00ec\u012c\u00a4\u00ec\u012c\u00a4\u00eb\u00a1\u013e": 3616, "\u00b0\u012a": 3617, "\u0120\u00eb\u00aa\u00a8\u00ec\u00a7\u0133": 3618, "\u0120\u00ec\u0142\u012c": 3619, "\u0120\u00ec\u00a6\u013f\u00ea\u00b6\u012e": 3620, "\u012037": 3621, "\u0120\u00ec\u0128\u012e\u00ed\u0128\u00b5": 3622, "\u0120\u00ec\u0139\u00ac\u00eb\u00aa\u0127": 3623, "\u0120\u00ec\u012d\u0142\u00eb\u00a2\u00b0": 3624, "\u00ec\u00a7\u0135": 3625, "\u0120\u00ec\u0135\u00b8": 3626, "\u0120\u00e2\u0139\u0129": 3627, "\u00ec\u0137\u0126\u00eb\u0135\u00a4": 3628, "\u0120\u00ed\u0136\u012e\u00eb\u0140\u00ab": 3629, "\u00ec\u0138\u00b4\u00ec\u00a7\u0122": 3630, "\u0120\u00ec\u0137\u0142\u00eb\u012d\u012a": 3631, "\u00ea\u00b0\u0122\u00ec\u013f\u013a": 3632, "\u0120\u00ec\u0126\u00a4\u00ea\u00b3\u0126": 3633, "\u0120\u00ed\u0137\u00b4\u00ec\u0128\u012e": 3634, "\u00a9\u0136": 3635, "\u0120\u00eb\u013f\u00bc\u00ec\u013f\u00b8": 3636, "\u0120\u00eb\u012d\u00a8\u00ec\u012a\u013e": 3637, "\u0120in": 3638, "\u0120\u00ed\u013c\u012f": 3639, "\u0120\u00ed\u0128\u00b5\u00ec\u012d\u0142": 3640, "07": 3641, "\u0120\u00ec\u013b\u0126\u00ed\u013b\u0136": 3642, "53": 3643, "\u0120\u00eb\u0129\u012e": 3644, "\u0120\u00ed\u0136\u0126\u00eb\u00a6\u00ac\u00eb\u00af\u00b8": 3645, "\u0120\u00ec\u0140\u0132\u00ec\u0124\u00b0": 3646, "\u0120\u00ec\u0142\u0126\u00ed\u013a\u0122": 3647, "\u0120\u00ec\u00b2\u0142\u00eb\u0131\u0126": 3648, "\u0120\u00eb\u00b2\u00a4": 3649, "\u0120\u00ec\u013d\u0136\u00eb\u0135\u013e": 3650, "\u0128\u0135": 3651, "\u00ed\u0138\u012a\u00ec\u013e\u00bc\u00eb\u0124\u013a": 3652, "\u0120\u00ed\u0137\u013b\u00eb\u0127\u0126": 3653, "\u0120\u00ec\u0124\u00b4\u00ed\u0130": 3654, "\u0142\u00a8": 3655, "\u0120\u00eb\u00a7\u012a\u00ec\u00b0\u00ac": 3656, "\u0120\u00eb\u00b9\u00bc": 3657, "\u0120\u00ec\u012a\u0142": 3658, "64": 3659, "\u0120\u00ed\u0128\u00b5\u00ed\u013b\u0136": 3660, "\u00eb\u00b2\u0137\u00ec\u013f\u00b8": 3661, "\u00ec\u012c\u00a4\u00eb\u0141\u00bd": 3662, "\u0120\u00ec\u0140\u0127\u00ec\u00a3\u00bc": 3663, "\u0120\u00eb\u00a7\u012a\u00ec\u00b0\u00ac\u00ea\u00b0\u0122\u00ec\u00a7\u0122": 3664, "\u00ec\u00b3\u00a4": 3665, "ki": 3666, "\u00eb\u012d\u00a4\u00ec\u013c\u00b4": 3667, "\u00eb\u00b9\u0142": 3668, "\u0120\u00eb\u012f\u00b0\u00ec\u013f\u00b4\u00ed\u0126\u00b0": 3669, "\u0120\u00eb\u00b0\u013a\u00eb\u0131\u0126\u00ec\u00b2\u00b4": 3670, "\u00ec\u0139\u0127\u00ea\u00b3\u0126": 3671, "\u0120\u00eb\u00b0\u0136\u00eb\u012d\u00a4": 3672, "\u00ed\u0127\u012e\u00ed\u0123\u00ac": 3673, "\u0120\u00ec\u0137\u0126\u00eb\u00a6\u0126": 3674, "pe": 3675, "te": 3676, "\u012048": 3677, "\u0120\u00ea\u00b9\u0122\u00eb\u0131\u013b": 3678, "\u012034": 3679, "\u0120\u00ec\u013f\u00b8\u00ed\u0137\u013e": 3680, "\u0120\u00ec\u012d\u00a4\u00ec\u012d\u013e\u00ea\u00b0\u0126": 3681, "\u0120\u00eb\u00b6\u0122\u00ec\u0142\u0137": 3682, "\u00eb\u013f\u00bc\u00eb\u00a7\u012a": 3683, "\u00ec\u00af\u00a4": 3684, "\u00ea\u00b9\u0122": 3685, "\u0120\u00eb\u00a9\u00a4\u00eb\u00b2\u0126": 3686, "\u0120lo": 3687, "\u0120\u00eb\u00a7\u012e\u00eb\u0135\u013e": 3688, "\u0120\u00ed\u0130\u00bc\u00ec": 3689, "08": 3690, "\u0120\u00ec\u012b\u00ac": 3691, "\u0133\u0132": 3692, "\u00ec\u0142\u013e\u00ec\u013f\u013a": 3693, "\u00a8\u00ea": 3694, "\u0120\u00eb\u0133\u013a\u00eb\u0141\u00ac": 3695, "\u00ed\u0134\u0122": 3696, "su": 3697, "\u0120\u00ec\u0125\u0123\u00eb\u00b0\u013a\u00ea\u00b8\u00b0": 3698, "\u00eb\u012d\u013d": 3699, "\u0120\u00eb\u0124\u013a\u00ec\u013b\u0122": 3700, "\u00ed\u012c\u00b9\u00eb\u00b3\u0126": 3701, "\u0120\u00ec\u013e\u00a1\u00ec\u0126\u00b1": 3702, "\u0120\u00ec\u00b6\u013e\u00eb\u00b2\u0136": 3703, "\u00ea\u00b5\u00ac\u00ec\u00a1\u00b0": 3704, "\u0120\u00eb\u00b6\u0122\u00eb\u00a5\u00b4": 3705, "\u00ed\u0136\u012e\u00eb\u0142\u012a\u00ec\u013f\u00b4": 3706, "\u0120\u00eb\u00b0\u013f\u00ed\u013a\u0122": 3707, "\u0120\u00ed\u0125\u0132": 3708, "\u0120\u00ec\u0127\u0122": 3709, "\u00eb\u00a1\u00b1": 3710, "\u0120\u00eb\u00ae\u00a4": 3711, "\u00ec\u00bb\u00a8": 3712, "\u0120\u00ea\u00b3\u00a7": 3713, "\u0120\u00ec\u013a\u00ae": 3714, "\u0120\u00eb\u00a7\u012a\u00eb\u00a6\u00ac": 3715, "ight": 3716, "\u00ec\u013f\u0126\u00ea\u00b9\u012e": 3717, "57": 3718, "\u0120\u00eb\u00aa\u00ac": 3719, "\u00ec\u0137\u012e": 3720, "\u0120\u00ec\u013f\u013a\u00ec\u0140\u00a5": 3721, "\u0120\u00e9": 3722, "\u0120\u00eb\u0143\u0132": 3723, "\u0120\u00ec\u0139\u00b0\u00ec\u0140\u00a5": 3724, "\u0120\u00eb\u00b6\u012a\u00ea\u00b3\u00bc": 3725, "\u0120\u00ec\u00a7\u0122\u00ea\u00b5\u00ac": 3726, "\u0120\u00ec\u00b6\u013e\u00eb\u00a7\u012a": 3727, "\u0120\u00ec\u00b4\u012a\u00eb\u00b0\u013a": 3728, "72": 3729, "\u0120\u00ec\u00a7\u0122\u00ec\u00bc\u013e": 3730, "\u0120\u00ea\u00b2\u00a8\u00ec\u013c\u00b8": 3731, "\u0120\u00eb\u00b9\u0126\u00ec\u013e\u00a8": 3732, "\u0120\u00ea\u00b3\u0142\u00ec\u013e\u0126": 3733, "\u00eb\u0124\u00a9": 3734, "\u0120\u00eb\u00b0\u0136\u00eb\u0122\u012e": 3735, "\u00ea\u00b8\u00b0\u00ec\u00a4\u0122": 3736, "\u00ea\u00b3\u00bc\u00ec\u0142\u0137": 3737, "\u012052": 3738, "\u00ec\u0140\u0132\u00eb\u0131\u013b\u00ec\u00b0\u00a8": 3739, "\u0120\u00ec\u012d\u00a4\u00ed\u012e\u00a8": 3740, "\u012033": 3741, "\u00eb\u0131\u012a": 3742, "\u00eb\u00a7\u012a\u00ec\u013f\u0126": 3743, "\u0120\u00eb\u0124\u013a\u00ec\u013f\u00b4": 3744, "\u0120\u00ec\u012a\u013e\u00ea\u00b0\u0126": 3745, "\u0120\u00ea\u00b3\u0142\u00eb\u00af\u00bc": 3746, "\u0120\u00ed\u013e\u013a": 3747, "\u0120\u00ec\u0139\u00b0\u00ed\u0137\u00a9": 3748, "\u00ed\u013a\u00b8\u00ec\u0124\u00ac": 3749, "\u0120\u00ec\u013b\u00b8\u00eb\u00b6\u0122": 3750, "\u0120\u00eb\u012e\u0122\u00eb\u00b2\u0137": 3751, "\u0120\u00ed\u013a\u012a": 3752, "\u0120\u00ed\u0137\u00b4\u00ec\u0138\u0133": 3753, "\u0120\u00ed\u0136\u00bc\u00ed\u0137\u00b4\u00ec\u0140\u0132": 3754, "\u0120\u00ec\u00a1\u00b8\u00ec\u0139\u0127": 3755, "\u0120\u00ec\u00b6\u0137\u00ec\u0142\u013e": 3756, "\u0120\u00ea\u00b7\u00b8\u00eb\u00a6\u00bc": 3757, "\u0120\u00ec\u0128\u012e\u00ec\u012d\u013f": 3758, "sp": 3759, "\u0120\u00ec\u00b9\u00bc": 3760, "\u0120\u00ed\u0138\u012b\u00ec\u013e\u0126": 3761, "\u00ec\u0137\u0126\u00ec\u013f\u013a": 3762, "\u0120\u00ed\u013b\u0137\u00ec\u0124\u00b0": 3763, "\u0127\u0122": 3764, "bo": 3765, "\u0120me": 3766, "\u00ec\u00b2\u0143\u00ec\u0140\u00a5": 3767, "\u00ec\u00a7\u0122\u00ea\u00b5\u00ac": 3768, "\u0120\u00ec\u013f\u00bd": 3769, "\u0120photo": 3770, "\u0120\u00eb\u00ac\u00b4\u00eb\u00a3\u012e": 3771, "\u0120\u00ec\u00b2\u0143\u00ec\u0128\u012e\u00eb\u0127\u0126": 3772, "\u0120\u00ea\u00b0\u0137\u00ed\u0137\u013e": 3773, "\u00ec\u0126\u00b1\u00ec\u0140\u00a5": 3774, "\u0120\u00eb\u00b8\u0136\u00eb\u0140\u013b": 3775, "\u00eb\u012d\u012a\u00ec\u0137\u0126": 3776, "\u0120\u00eb\u0136\u0136\u00ec\u00a7\u0122\u00ed\u0126\u00b8": 3777, "\u00ec\u00b2\u0143\u00ec\u0124\u00ac": 3778, "\u00ec\u0140\u0132\u00ec\u00b2\u00b4": 3779, "\u0120\u00ec\u012d\u0142\u00ec\u013c\u00a9": 3780, "\u0120\u00eb\u00b9\u0126\u00ec\u0125\u0123": 3781, "\u00ec\u0140\u0132\u00ec\u0124\u00b0": 3782, "\u0120\u00ec\u012e\u0135": 3783, "\u0120\u00ec\u013b\u0126\u00ec\u0126\u00b1": 3784, "06": 3785, "\u00eb\u00a5\u00b8\u00eb\u012d\u00a4": 3786, "\u0120\u00eb\u012d\u00ac\u00eb\u013f\u00bc": 3787, "\u00ea\u00bd\u0125": 3788, "\u00ed\u012d\u00b4": 3789, "\u00ea\u00b5\u00b0\u00ec\u013f\u013a": 3790, "\u0120\u00ea\u00b9\u012e\u00ec\u00a7\u0122": 3791, "\u00eb\u00b9\u013b": 3792, "\u0120\u00ec\u00a3\u00bc\u00ea\u00b1\u00b0": 3793, "ri": 3794, "\u0120\u00ec\u0140\u0126\u00ec\u012d\u013e": 3795, "\u00eb\u00a7\u00a5": 3796, "\u0142\u00ed": 3797, "54": 3798, "\u0120\u00ec\u0142\u013e\u00ec\u0140\u00ac": 3799, "\u0120\u00ec\u0142\u0133\u00ea\u00b7\u00bc": 3800, "de": 3801, "\u0120\u00ed\u013b\u0136\u00ec\u0140\u00a5": 3802, "\u00ed\u012c\u00bc": 3803, "mi": 3804, "\u0120\u00ed\u0137\u00b4\u00ec\u0126\u013e": 3805, "\u0120\u00ec\u0140\u00ac\u00ec\u0142\u0137": 3806, "\u0120\u00ea\u00b1\u00b0\u00eb\u0140\u013a\u00ec\u013f\u00bc": 3807, "\u00eb\u00a9\u00b4\u00ec\u0126\u013e\u00eb\u0131\u0126": 3808, "\u0120\u00ec\u00b6\u0136\u00ec\u0126\u00b8": 3809, "\u013a\u00ed": 3810, "\u00eb\u00b0\u00a9\u00ec\u0128\u00a1": 3811, "\u00eb\u00b9\u013d": 3812, "\u00eb\u012c\u00a5\u00eb\u0142\u00a5": 3813, "\u0120\u00ec\u0140\u00a5\u00eb\u00a9\u00b4": 3814, "\u0120\u00ec\u0139\u00ac\u00eb\u00a1\u0142": 3815, "\u0136\u0122": 3816, "\u0120\u00ec\u013c\u00b0\u00ec\u012c\u00b9": 3817, "\u00ed\u0128\u00a4": 3818, "\u0120\u00ec\u012c\u012a\u00ed\u012f\u00bc": 3819, "\u0120\u00eb\u00b0\u013e\u00ea\u00b5\u00b4": 3820, "\u00ec\u00b2\u00b4\u00ec\u013f\u013a": 3821, "\u00eb\u00a7\u00a4\u00ec\u012a\u013a": 3822, "\u0120\u00eb\u0136\u00b0\u00eb\u013f\u00bc\u00ec\u0126\u013e": 3823, "\u0120\u00ec\u0127\u012a": 3824, "sh": 3825, "\u0120\u00eb\u00bd\u0133": 3826, "\u0120\u00ea\u00b8\u012f": 3827, "\u0120\u00eb\u0124\u00b4\u00ec\u013f\u00bc": 3828, "58": 3829, "\u0120\u00eb\u012c\u00a6": 3830, "\u00ec\u0128\u0136": 3831, "\u0120\u00eb\u012d\u00b9\u00ec\u0139\u00b0": 3832, "\u0120\u00ec\u012a\u013a\u00ea\u00b0\u0122": 3833, "\u0120\u00ed\u0131\u00b4": 3834, "\u00ec\u013f\u00b8\u00ea\u00b0\u0122": 3835, "\u012039": 3836, "\u013e\u00ed": 3837, "\u0120\u00ec\u0142\u0137\u00ea\u00b8\u00b0": 3838, "\u0120\u00eb\u0123\u012c": 3839, "\u0120\u00ed\u013f\u013a": 3840, "\u0120\u00eb\u00af\u00b8\u00ec\u0124\u00ac\u00ec\u013f\u00bc": 3841, "\u0120\u00ec\u0124\u00b4\u00ed\u0130\u00b4": 3842, "\u0120\u00ea\u00b1\u00b4\u00ec\u00b6\u0137": 3843, "\u0120\u00ec\u0140\u0132\u00eb\u0131\u013b": 3844, "\u0120\u00ec\u00a3\u00bc\u00eb\u00ac\u00b8": 3845, "\u0120\u00ea\u00b9\u0122\u00ec\u0126\u00b1": 3846, "\u0120\u00ea\u00be\u00b8\u00ec\u00a4\u0122": 3847, "\u0120\u00ec\u013b\u0126\u00eb\u00a3\u012e": 3848, "\u0120\u00ec\u012f\u00a8": 3849, "\u00ea\u00b4\u0122\u00ea\u00b4\u0133": 3850, "\u0120\u00eb\u00bf": 3851, "77": 3852, "\u0120\u00ec\u012a\u013a\u00ec\u013d\u0132": 3853, "\u0120\u00ec\u0137\u00a8": 3854, "\u00ec\u013c\u0136\u00ec\u013f\u00bc": 3855, "\u0120\u00ec\u0126\u00b1\u00eb\u012c\u00a5": 3856, "\u0120\u00ec\u0140\u0132\u00ec\u013e\u00a8": 3857, "\u00ec\u0142\u0126\u00eb\u00ac\u00b8": 3858, "\u0120\u00ec\u013a\u0123\u00ec\u0138\u00b4": 3859, "62": 3860, "\u0120\u00ed\u013d\u012a\u00eb\u0142\u00a8": 3861, "\u00ec\u00a7\u0122\u00eb\u0131\u0126": 3862, "\u00ea\u00b4\u0126": 3863, "\u0120\u00eb\u0124\u013a\u00ec\u0126\u00b0": 3864, "\u0127\u013e": 3865, "\u0120\u00ec\u013f\u00b8\u00ec\u00a6\u013f": 3866, "\u0120\u00ec\u00bb\u00b4": 3867, "\u0120\u00eb\u0124\u013a\u00ed\u0125\u0122\u00eb\u0124\u013a": 3868, "\u00ec\u013f\u012f": 3869, "\u0120\u00ec\u0142\u0126\u00eb\u00b0\u013a": 3870, "\u0138\u0133": 3871, "\u0120\u00eb\u00a7\u0140\u00ec\u00b6\u00b0": 3872, "\u00ed\u0123\u0132": 3873, "\u012008": 3874, "\u0120\u00ea\u00b5\u00ac\u00ea\u00b0\u0126": 3875, "\u0120\u00ec\u00b2\u013b": 3876, "\u00ed\u0136\u00bc\u00ec\u012c\u00a4": 3877, "\u0120\u00eb\u00b0\u0136\u00ec\u013f\u00b4\u00ec\u013a\u00a4": 3878, "\u0120\u00eb\u012d\u00b9\u00ec\u0126\u0142": 3879, "\u0120\u00ec\u0139\u0143\u00eb\u012e\u0122": 3880, "\u00ec\u013e\u00bc\u00eb\u00a9\u00b4\u00ec\u0126\u013e": 3881, "\u00eb\u0135\u00b1\u00ed\u0137\u013b\u00ea\u00b5\u0132": 3882, "\u00eb\u0142\u00ac": 3883, "\u0120for": 3884, "\u00a1\u0143": 3885, "\u00ec\u013e\u00bc\u00eb\u00a1\u013e\u00ec\u012f\u00a8": 3886, "\u0120\u00ec\u013a\u00ac\u00eb\u00a6\u00bc\u00ed\u0136\u00bd": 3887, "\u0120\u00ec\u0142\u0137\u00ea\u00b6\u012e": 3888, "\u00ec\u012d\u013e\u00ed\u0124\u00a8": 3889, "\u0120be": 3890, "\u0120\u00ec\u00b0\u00a8\u00ea\u00b4\u0122": 3891, "\u012007": 3892, "66": 3893, "\u00eb\u00a7\u012e\u00ec\u013f\u013a": 3894, "\u0120\u00ec\u0142\u0126\u00eb\u00b6\u0122": 3895, "\u0120\u00ea\u00b0\u0137\u00ec\u013d\u0132\u00eb\u0131\u0126": 3896, "\u00ec\u0139\u00b0\u00ea\u00b8\u012a": 3897, "\u00eb\u0131\u013b\u00ec\u013f\u013a": 3898, "\u0120\u00eb\u013e\u00a8": 3899, "\u0120\u00ec\u013c\u00b4\u00ed\u0138\u012b": 3900, "\u0120\u00ec\u012d\u013f\u00ed\u0134\u012a": 3901, "\u00eb\u012e\u0122\u00ec\u00b6\u013e": 3902, "\u00ec\u0125\u0123\u00ed\u0134\u012a": 3903, "\u0120\u00ea\u00b0\u0122\u00ec\u012c\u00b4": 3904, "\u0120\u00ea\u00b0\u012a\u00eb\u0135\u00b1": 3905, "\u0120\u00ec\u0142\u0126\u00ed\u013b\u0136": 3906, "\u00ec\u00bb\u00b5": 3907, "68": 3908, "\u00ec\u0124\u00ac\u00ed\u0137\u0143": 3909, "\u00eb\u00b4\u00a4": 3910, "\u0120\u00ec\u0137\u0126\u00ec\u013f\u00b4\u00ed\u0127\u013e": 3911, "\u0120\u00ec\u0137\u00bc\u00eb\u012d\u00b9": 3912, "\u00ea\u00b5\u0143\u00ec\u0142\u013e": 3913, "\u0120\u00ec\u0137\u0126\u00eb\u00a7\u012a": 3914, "\u0120\u00ec\u0126\u0142\u00ea\u00b3\u0142": 3915, "ge": 3916, "\u0120\u00ec\u0125\u013f\u00eb\u00aa\u0127": 3917, "\u0120\u00eb\u0138\u00a8\u00ec\u0138\u00b4\u00ec\u00a7\u0122": 3918, "my": 3919, "\u0120\u00ea\u00b4\u0133\u00ea\u00b3\u0142": 3920, "\u0120\u00ec\u0142\u0126\u00eb\u0142\u00a5": 3921, "\u0120\u00ed\u0130\u00bc": 3922, "\u0120\u00eb\u0134\u00b7": 3923, "76": 3924, "bs": 3925, "\u0120\u00ec\u012c\u00a4\u00ed\u0131\u00ac\u00ec\u00b8\u0142": 3926, "\u0120\u00ed\u013f\u00a1": 3927, "71": 3928, "\u0120\u00ea\u00b8\u012f\u00ec\u0142\u0137": 3929, "\u0120he": 3930, "of": 3931, "\u0120\u00ec\u00b5\u013e\u00ec\u012d\u0142": 3932, "\u0120\u00ec\u012d\u0142\u00ed\u0137\u013e": 3933, "\u0120\u00eb\u00ac\u00b4\u00eb\u012e\u0122": 3934, "cj": 3935, "\u00a1\u00b0": 3936, "\u0120\u00ec\u013f\u00b4\u00ec\u013c\u00a9\u00ed\u0137\u00b4": 3937, "\u0120\u00eb\u0124\u013a\u00eb\u00a8\u00b8": 3938, "\u00ea\u00b0\u0126\u00eb\u012d\u00a4": 3939, "\u0120\u00ed\u013b\u0137\u00ec\u0140\u00a5": 3940, "\u012b\u00eb": 3941, "\u012005": 3942, "\u0120\u00ed\u0136\u0126\u00eb\u00a6\u00ac\u00eb\u00af\u00b8\u00ec\u0139\u0126": 3943, "\u0120\u00ec\u00a2\u0127\u00eb\u00a1\u013e": 3944, "\u0141\u00bc": 3945, "\u00ea\u00b3\u0126\u00ec\u0137\u00bd": 3946, "\u0120\u00eb\u012d\u00b9\u00eb\u00b6\u0122": 3947, "\u0120\u00ec\u00a7\u0133\u00ea\u00b3\u0126": 3948, "63": 3949, "\u0120\u00eb\u0124\u013a\u00eb\u00a8\u00b8\u00ec\u00a7\u0122": 3950, "\u00ed\u012e\u012e\u00ed\u0123\u00ac": 3951, "\u0120\u00eb\u00b3\u00b4\u00ea\u00b1\u00b4": 3952, "\u0120\u00ec\u0135\u00b4": 3953, "\u00b3\u00a1": 3954, "69": 3955, "\u0120\u00ec\u013a\u012a\u00ec": 3956, "\u00eb\u012d\u00a8\u00ec\u013f\u013a": 3957, "ns": 3958, "\u0120\u00ea\u00b7\u00b8\u00eb\u0127\u0122": 3959, "\u0120\u00ec\u0139\u0126\u00ec\u00b2\u0143": 3960, "\u0120\u00eb\u0131\u0126\u00ec\u00b0\u00a9": 3961, "\u00eb\u00a6\u00ac\u00ec\u013f\u013a": 3962, "\u00ec\u00ba\u0132": 3963, "67": 3964, "\u0120\u00ed\u0136\u00bc\u00eb\u00b6\u0122": 3965, "\u0120\u00ec\u013b\u0126\u00ec\u0142\u0126\u00ed\u0140\u012a": 3966, "\u0120\u00ec\u00b6\u013a": 3967, "\u00ec\u00b2\u00b4\u00ec\u013e\u00a1": 3968, "\u0120\u00ec\u013f\u00b8\u00eb\u0142\u00a5": 3969, "\u0120\u00ec\u00bd\u013a\u00ed\u0127\u0132\u00ec\u00b8\u0142": 3970, "\u0120\u00eb\u0131\u013b\u00ea\u00b8\u00b0": 3971, "\u00ec\u013f\u013a\u00ec\u0140\u00a5": 3972, "\u0120cj": 3973, "61": 3974, "\u00eb\u00bb": 3975, "\u0120\u00ec\u00b6\u0137\u00ea\u00b5\u00ac": 3976, "\u0120\u00ec\u0142\u0133\u00ec\u012a\u013a": 3977, "\u0120\u00ea\u00b0\u00a4": 3978, "\u00eb\u00a1\u00a4": 3979, "\u00ec\u0124\u00b0\u00eb\u00ac\u00bc": 3980, "\u0120\u00ec\u012d\u0142\u00ec\u0126\u00a4": 3981, "\u0120\u00ea\u00bc\u0143": 3982, "\u00ec\u013a\u012a\u00ec\u012a\u0142": 3983, "\u0120\u00ec\u0139\u00b0\u00ea\u00b0\u0126": 3984, "85": 3985, "\u00ea\u00b7\u013e\u00ec\u00a7\u0123": 3986, "\u0120wi": 3987, "\u0120\u00ed\u0138\u00a5\u00ec\u0125\u0123": 3988, "\u0120\u00eb\u00b0\u00b0\u00ea\u00b2\u00bd": 3989, "\u0120\u00ec\u012d\u013e\u00ea\u00b0\u0123": 3990, "\u0120\u00eb\u00b0\u0137\u00ea\u00b7\u00bc": 3991, "\u0120\u00ec\u0137\u0126\u00ec\u00a3\u00bc": 3992, "\u0120\u00eb\u0125\u012b": 3993, "\u0120\u00eb\u00a7\u00ba": 3994, "\u0120\u00ec\u0138\u00b4\u00eb\u0142\u00a4\u00ec\u013d\u0122": 3995, "\u00ea\u00b3\u00bc\u00ed\u0137\u013b": 3996, "\u0120\u00ea\u00b0\u0122\u00ec\u0125\u0123": 3997, "\u00ea\u00b0\u0122\u00ea\u00b2\u00a9": 3998, "\u00ec\u012c\u00a4\u00ed\u012d\u00b0": 3999, "\u012a\u0142": 4000, "ss": 4001, "\u00ec\u00b2\u00a8": 4002, "\u0120\u00ed\u0131\u00ac\u00ed\u0137\u0143": 4003, "\u0120\u00eb\u00a7\u012a\u00ec\u00bc\u0122\u00ed\u012e\u0127": 4004, "84": 4005, "\u00eb\u00a9\u00b8": 4006, "\u0120\u00eb\u00b2\u0137\u00ec\u013d\u0132": 4007, "\u00eb\u013f\u00bc\u00ec\u012c\u00a4": 4008, "\u0120\u00ed\u0139\u012e\u00eb\u00b2\u0137": 4009, "\u0120\u00ec\u013f\u00bc\u00ec\u013e\u00bc": 4010, "\u012f\u0136": 4011, "\u0120\u00eb\u012a\u012a\u00eb\u00ac\u00bc": 4012, "\u0120\u00eb\u00b6\u012a\u00ea\u00b5\u00ac": 4013, "\u0120\u00ea\u00b5\u0132\u00ec\u00b2\u00b4": 4014, "\u0120\u00ec\u00b0\u00a8\u00eb\u00b3\u0126": 4015, "\u0120\u00eb\u00a7\u012a\u00ec\u013f\u00b4": 4016, "\u0120\u00ec\u00a7\u0135": 4017, "\u01202008": 4018, "ur": 4019, "\u00eb\u0142\u00a4\u00eb\u00a9\u00b4": 4020, "\u00b1\u00ec\u0142\u0137": 4021, "\u0120\u00ec\u012d\u00ac\u00ea\u00b0\u0123": 4022, "\u0120\u00eb\u00b3\u00b4\u00ea\u00b3\u0142": 4023, "\u00eb\u0135\u013e\u00ec\u012d\u013e": 4024, "\u0120\u00ec\u013f\u00b4\u00ec\u013f\u00b5": 4025, "\u0120\u00eb\u0124\u00b4\u00eb\u00a6\u00b0": 4026, "\u0120\u00ea\u00b3\u00b5\u00ea\u00b8\u00b0": 4027, "\u00ec\u0140\u0132\u00ec\u00b9\u013a": 4028, "\u0120my": 4029, "\u00ec\u013d\u012e\u00ed\u0123\u00ac": 4030, "\u0120\u00ec\u013e\u0142\u00eb\u00a6\u00ac": 4031, "\u0120\u00eb\u0136\u013e": 4032, "\u00ea\u00b0\u0132\u00eb\u0131\u0127": 4033, "\u00ed\u013d\u0126\u00eb\u00b3\u00b4": 4034, "\u0120\u00eb\u00aa\u00a8\u00ec\u0138\u0133": 4035, "\u012d\u00b1": 4036, "\u0120\u00ec\u0137\u012e\u00eb\u00a6\u00ac": 4037, "\u00ec\u013d\u00a8\u00ec\u013f\u00b4": 4038, "\u0120\u00eb\u00b0\u013a\u00eb\u0135\u013e\u00ec\u012d\u013e": 4039, "\u0120\u00ec\u012d\u013e\u00ec\u00b2\u0143": 4040, "\u0120\u00eb\u00b8\u0136\u00eb\u00a1\u013f": 4041, "\u00ea\u00b2\u0132": 4042, "\u0120\u00eb\u00b6\u0122\u00ec\u00a7\u0126": 4043, "\u0120\u00ec\u0140\u0126\u00ea\u00b8\u012a": 4044, "\u0120\u00eb\u00b6\u0122\u00ed\u013c\u012e\u00ec\u0140\u00a5": 4045, "\u00ec\u0138\u00b4\u00eb\u0124\u00ac": 4046, "\u0120no": 4047, "\u0120\u00ec\u00b2\u00b4\u00eb\u0142\u00a5": 4048, "78": 4049, "\u0120\u00eb\u00b6\u0122\u00ec\u013f\u00b8": 4050, "\u0120\u00ec\u0140\u00a5\u00ec\u0128\u012e": 4051, "73": 4052, "\u00ea\u00b3\u0126\u00ec\u013f\u013a": 4053, "\u0120\u00ec\u00a7\u0122\u00ed\u0124\u00a4": 4054, "\u0120\u00eb\u0131\u0126\u00ec\u0142\u0126": 4055, "\u00ec\u00a1\u00b0\u00ed\u0137\u00a9": 4056, "\u01203000": 4057, "\u0120\u00ec\u013a\u00a4\u00eb\u0140\u013a": 4058, "\u00ea\u00b0\u0132\u00ec\u0124\u00ac": 4059, "\u00ec\u0142\u0137\u00ec\u013f\u013a": 4060, "\u0120\u00eb\u00b2\u0136\u00ec\u013e\u0126": 4061, "\u00ec\u00a7\u0132": 4062, "\u00ea\u00b5\u0132\u00ec\u013e\u00a1\u00ec\u00b2\u0143": 4063, "\u0120\u00eb\u00a6\u00ac\u00ea\u00b7\u00b8": 4064, "\u012006": 4065, "\u00eb\u00a7\u0140": 4066, "\u0120\u00ea\u00b5\u012b\u00ec\u0140\u00a5": 4067, "02": 4068, "\u00ea\u00b3\u00b5\u00ec\u0140\u00a5": 4069, "\u0120\u00ec\u013e\u0126\u00eb\u00a1\u013e": 4070, "\u0120\u00ec\u012e\u012f": 4071, "\u0120\u00ec\u0125\u00a4": 4072, "\u0120\u00ec\u00a7\u0122\u00ec\u012d\u013e": 4073, "\u00ec\u00b9\u00b4\u00ec\u013a\u00a4": 4074, "\u0120\u00ea\u00bc\u00ac": 4075, "\u0120\u00ed\u013a\u00bc\u00ec\u0140\u0132": 4076, "\u0120\u00ec\u012d\u00a4\u00ec\u00a7\u012a": 4077, "\u0120\u00ec\u012a\u013a\u00ec\u00b9\u013a": 4078, "\u00a9\u00eb\u012d\u012a\u00eb\u012d\u00a4": 4079, "\u0120\u00ec\u013f\u00b4\u00ea\u00b3\u00b3": 4080, "\u00ea\u00b0\u0122\u00ec\u00a1\u00b1": 4081, "\u0120\u00eb\u0131\u012e\u00ed\u012e\u012e": 4082, "\u00ec\u00b6\u0137\u00ec\u0142\u013e": 4083, "\u0120\u00eb\u00a7\u0132\u00ec": 4084, "\u0120\u00eb\u00b8\u012e\u00eb\u00a6\u00ac": 4085, "\u0120\u00ec\u00a4\u0133\u00ea\u00b0\u0126": 4086, "\u00eb\u012e\u0122\u00eb\u00b9\u0126": 4087, "\u0120\u00ec\u013a\u0128": 4088, "\u0120\u00ec\u0125\u012a\u00eb\u00a1\u013e": 4089, "\u0120\u00eb\u0135\u00b1\u00ea\u00b8\u012b": 4090, "\u0120\u00ec\u0124\u00ac\u00ea\u00b3\u00bc": 4091, "\u00ed\u013a\u0123\u00eb\u00aa\u0127": 4092, "03": 4093, "fa": 4094, "74": 4095, "\u0137\u00a4": 4096, "\u0120\u00ea\u00b2\u00b0\u00ed\u013a\u00bc": 4097, "\u0120\u00ea\u00b1\u00b1\u00ec\u0142\u0137": 4098, "\u0124\u013e": 4099, "\u0120\u00eb\u00b0\u0137\u00ea\u00b7\u00bc\u00ed\u013a\u013e": 4100, "\u0133\u013e": 4101, "\u0120\u00ea\u00b3\u0142\u00ec\u0138\u0133": 4102, "\u00eb\u0123\u0136": 4103, "\u00ed\u0131\u012b\u00ed\u013b\u0136": 4104, "\u0120\u00ec\u013f\u00b4\u00eb\u0137\u012e": 4105, "\u00ed\u012d\u00b0\u00eb\u00b8\u012e": 4106, "\u0120\u00ec\u00bc": 4107, "\u0120\u00ec\u00b4\u012a\u00ec\u00b2\u0143": 4108, "\u00eb\u0140\u0126": 4109, "\u00ec\u012d\u013e\u00ec\u00a7\u0122": 4110, "\u0120\u00ec\u00bb\u00ac": 4111, "\u0120\u00ec\u00b0\u00bd\u00ec\u013d\u0132": 4112, "\u00ea\u00b0\u0126\u00ec\u013f\u013a": 4113, "\u01202009": 4114, "\u0120400": 4115, "\u0120\u00ec\u0128\u012e\u00ed\u013b\u013a": 4116, "\u00ed\u013c\u012e\u00ea\u00b4\u0122": 4117, "\u00a2\u0127": 4118, "ay": 4119, "\u0120\u00eb\u0124\u013a\u00ec\u0123": 4120, "\u0120\u00eb\u012d\u00a4\u00ea\u00b0\u0122": 4121, "\u0120\u00ed\u013d\u0126\u00eb\u00b3\u00b4\u00ec\u0140\u0132": 4122, "\u00ea\u00b0\u013e\u00ed\u013a\u0123": 4123, "\u0120\u00ec\u012a\u013e\u00ec\u013e\u0126": 4124, "\u0120\u00ec\u012c\u00a4\u00eb\u00a7\u012a\u00ed\u012c\u00b8\u00ed\u0131\u00b0": 4125, "\u0120\u00ed\u0137\u00b4\u00ec\u0126\u013f": 4126, "\u0120\u00ec\u013f\u013a\u00eb\u00ac\u00b4": 4127, "\u0120\u00ea\u00b8\u00b0\u00ec\u013a\u00a8": 4128, "ab": 4129, "\u0120\u00ed\u0137\u0143\u00eb\u00aa\u00a9": 4130, "\u0120\u00ed\u0125\u013e\u00ec\u0138\u0133": 4131, "\u00eb\u0124\u00bc": 4132, "\u0120\u00eb\u00b2\u0137\u00eb\u00a5\u0142": 4133, "\u0120\u00eb\u00b0\u013e\u00ed\u0138\u012b": 4134, "\u0120\u00ea\u00b3\u00b5\u00ea\u00b2\u00a9\u00eb\u0142\u00a5": 4135, "\u0120\u00ec\u013c\u00b4\u00ec\u013c\u00a9": 4136, "\u0120\u00eb\u0131\u013b\u00eb\u00ac\u00bc": 4137, "\u0120q": 4138, "\u00ea\u00b3\u00b5\u00ec\u0139\u0127": 4139, "\u0120\u00ec\u00a7\u0122\u00ec\u0124\u00ac": 4140, "\u0120\u00ea\u00b4\u0122\u00eb\u0140\u012e": 4141, "\u0120\u00eb\u00a9\u00b4\u00ec\u0126\u013e": 4142, "\u0120\u00ec\u00b2\u00b4\u00ea\u00b3\u0126": 4143, "\u00eb\u00a6\u00ac\u00ec\u013a\u00a4": 4144, "gm": 4145, "\u00b8\u00ec\u00b3\u0132": 4146, "\u00ec\u0124\u00ac\u00ec\u0140\u0132": 4147, "\u012075": 4148, "\u0120\u00eb\u0135\u013e\u00eb\u013f\u00bc\u00eb\u00a7\u012a": 4149, "\u0120\u00ec\u00a3\u00bc\u00ec\u00b0\u00a8": 4150, "\u0120\u00ec\u00a7\u0123\u00ed\u013d\u0126": 4151, "\u0120\u00ea\u00b0\u0137\u00ed\u0137\u013a": 4152, "\u0120\u00eb\u00b2\u0136\u00ec\u00a3\u0126": 4153, "\u0120150": 4154, "\u0120\u00eb\u00b0\u013d\u00ec\u0137\u0126\u00eb\u0135\u00a4": 4155, "\u0120\u00eb\u0123\u00bc": 4156, "\u00ec\u00b3": 4157, "\u00ec\u0126\u013e\u00ec\u013c\u00b8": 4158, "\u0136\u0126": 4159, "\u00eb\u012d\u0132": 4160, "\u00b7\u0136": 4161, "\u0120\u00eb\u00a5\u013a": 4162, "\u0120\u00eb\u00b2\u0137\u00ec\u013f\u00b8": 4163, "\u0120\u00eb\u00b6\u0122\u00ec\u0125\u0123": 4164, "\u00ec\u0126\u00b8\u00eb\u012e\u0122": 4165, "\u00ed\u013a\u0123\u00ec\u012d\u0142": 4166, "\u0120\u00ed\u0137\u013e\u00ec\u0142\u0137": 4167, "cc": 4168, "\u0120\u00ec\u0124\u00ac\u00ed\u0137\u0143": 4169, "\u0120\u00eb\u00a7\u00a4\u00ec\u013f\u00bc": 4170, "\u0120\u00ec\u012c\u00a4\u00ed\u0128\u0142\u00eb\u00a6\u00ac": 4171, "\u0122\u00ec\u00b8\u00a1": 4172, "\u0120\u00eb\u00b6\u012a\u00eb\u0141\u00ac": 4173, "\u0120\u00ea\u00b3\u00bc\u00ec\u0142\u013e": 4174, "\u0120\u00ec\u0139\u00bc": 4175, "\u0120\u00ec\u013b\u00b8\u00ea\u00b5\u0132\u00eb\u00b6\u0122": 4176, "oo": 4177, "\u00b3\u0133": 4178, "\u0120\u00ed\u0137\u0122": 4179, "\u00ea\u00b2\u00bd\u00ec\u013a\u0123": 4180, "\u00ed\u0136\u0126\u00eb\u00a1\u013e": 4181, "\u0120\u00ec\u0126\u00b8\u00ec\u013d\u0136": 4182, "\u00eb\u0142\u012a\u00ec\u013f\u00b4\u00eb\u0135\u013e": 4183, "pc": 4184, "\u00b0\u0123": 4185, "\u00ec\u00a1\u00b0\u00ec\u00b0\u00a8": 4186, "wh": 4187, "\u0120\u00ec\u0139\u0143\u00eb\u0141\u012b": 4188, "\u0120\u00eb\u00b6\u0122\u00ec\u0139\u00ac": 4189, "\u00be\u012e": 4190, "\u0120\u00ed\u0131\u0132\u00ec\u00a7\u0122": 4191, "\u00eb\u00b3\u00b8\u00ec\u013f\u013a": 4192, "\u013d\u0126": 4193, "\u0120\u00eb\u00b0\u013a\u00eb\u00b0\u013e": 4194, "\u00ec\u00a7\u0122\u00eb\u012c\u00a5": 4195, "\u0120\u00ec\u013f\u00b4\u00ed\u0125\u012a": 4196, "we": 4197, "\u0120\u00ec\u012d\u0142\u00ea\u00b2\u00bd": 4198, "\u0120\u00eb\u00b6\u0126\u00eb\u00aa\u0127": 4199, "\u0120\u00ec\u012c\u00a4\u00ed\u0127\u012e": 4200, "\u00ed\u0130\u0122\u00eb\u0135\u013e": 4201, "\u00ed\u0131\u00b4": 4202, "\u0120\u00eb\u00a7\u0132\u00ec\u0136\u0122": 4203, "\u00bd\u00ea": 4204, "\u00ec\u00a1\u00b0\u00ec\u0126\u0142": 4205, "\u00ea\u00b1\u00b4\u00ec\u00b6\u0137": 4206, "\u0120\u00ec\u00b2\u00a8": 4207, "\u0120\u00ed\u012e\u012e\u00ea\u00b4\u00b4": 4208, "\u0120\u00ec\u0138\u0133\u00ea\u00b5\u0143": 4209, "\u0120\u00ed\u013a\u0126\u00ec\u0125\u0123": 4210, "\u00ec\u012d\u013e\u00ed\u012d\u00b0": 4211, "\u00eb\u00a3\u00b8": 4212, "sa": 4213, "\u0120\u00ed\u0128\u00b5\u00ec\u0125\u0123": 4214, "\u01202020": 4215, "ver": 4216, "\u0120\u00ec\u0142\u0126\u00eb\u00a9\u00b4": 4217, "\u0120su": 4218, "\u0120\u00eb\u012e\u0122\u00ec\u00a4\u0133": 4219, "\u00bd\u00a4": 4220, "\u00ed\u0138\u012b\u00ec\u013e\u0126": 4221, "\u0120\u00eb\u00b0\u013f\u00ed\u0140\u012a": 4222, "04": 4223, "\u0120\u00eb\u00b0\u013e\u00eb\u00a7\u00a4": 4224, "\u00ec\u013f\u00b4\u00ec\u00a6\u012a": 4225, "\u0120\u00eb\u00a7\u00a4\u00ea\u00b0\u0123": 4226, "\u0120\u00ec\u0142\u0137\u00eb\u00a6\u00ac": 4227, "\u00eb\u00b6\u0122\u00eb\u00ac\u00b8": 4228, "\u0120\u00ed\u0130\u0122\u00eb\u0135\u013e": 4229, "\u0120\u00ec\u0142\u0137\u00ec\u013f\u013a\u00eb\u012d\u00b9": 4230, "\u00ec\u00b0\u00ae": 4231, "\u0120\u00eb\u00b8\u012e\u00eb\u013f\u00bc": 4232, "\u0120\u00eb\u00b3\u00b4\u00ec\u0125\u0123": 4233, "\u0120\u00ec\u00a7\u0126\u00ec\u0140\u0127": 4234, "\u00ec\u0127\u00a8": 4235, "\u0120\u00ec\u00a7\u0133\u00ed\u0138\u012b": 4236, "\u00bd\u013e": 4237, "\u0120\u00eb\u012b\u00b4\u00ec\u013c\u0137": 4238, "\u00ec\u013d\u0132\u00ec\u013f\u013a": 4239, "\u0120\u00ec\u013e\u0142\u00ec\u0142\u0122": 4240, "\u0120of": 4241, "\u0120\u00ec\u00a3\u00bc\u00eb\u0142\u00a5": 4242, "\u00ec\u0136\u00ac": 4243, "\u0120\u00ed\u012d\u0122": 4244, "\u0120\u00ed\u013a\u00b9\u00ec\u013f\u0122": 4245, "\u0120\u00ed\u013f\u0132\u00eb\u00a6\u0126": 4246, "\u0120\u00ed\u0137\u013e\u00ed\u013b\u0136": 4247, "\u0120\u00ec\u00a4\u0126\u00ec\u013f\u00b4": 4248, "\u0120\u00ec\u0126\u00b1\u00ea\u00b2\u00a9": 4249, "\u0120\u00eb\u012c\u013a\u00ec\u0138\u00b4\u00eb\u0124\u013a": 4250, "\u0120\u00ed\u013b\u0137\u00ec\u012d\u00a4": 4251, "\u0120\u00ec\u0126\u0142\u00eb\u00b3\u00b4\u00ec\u013f\u00b4": 4252, "\u00ec\u0137\u0126\u00ec\u013c\u0136": 4253, "\u00ed\u0127\u0122": 4254, "\u0120120": 4255, "\u0133\u00ec\u012c\u00a4": 4256, "\u0120\u00ed\u013a\u0137\u00ec\u0126\u00b1": 4257, "\u0120\u00ec\u00b4\u00ac\u00ec\u013a\u0123": 4258, "\u0120\u00ec\u00a7\u0122\u00ec\u0125\u0123": 4259, "\u00eb\u00a7\u012a\u00ec": 4260, "\u0120\u00ea\u00b1\u00b0\u00eb\u0140\u013a\u00eb\u0141\u012b": 4261, "\u0120\u00ec\u0131\u0141": 4262, "\u0120re": 4263, "\u012065": 4264, "\u012055": 4265, "\u0120\u00ec\u00a6\u013f\u00ec\u012d\u013e": 4266, "\u0120\u00eb\u00b6\u012a\u00ea\u00b0\u0122": 4267, "\u00eb\u00a6\u00ac\u00ea\u00b7\u00b8": 4268, "\u0127\u00a8": 4269, "\u0120\u00ed\u0130\u013a\u00ec\u013f\u00b4\u00ec\u012c\u00a4": 4270, "\u0120\u00ed\u0123\u00ac\u00eb\u00a6\u00ac\u00ec\u012c\u00a4": 4271, "\u0120\u00ec\u013c\u0137": 4272, "\u0120\u00eb\u00a7\u012e\u00ec\u00a1\u00b1": 4273, "\u0120\u00ec\u012c\u00b5": 4274, "\u00ec\u00b4\u013f\u00ed\u013c\u012e": 4275, "\u0120\u00ec\u013b\u0126\u00ec\u0142\u0126": 4276, "\u0120\u00ea\u00bd\u00a4": 4277, "\u0120\u00ea\u00b4\u0122\u00ea\u00b4\u0133\u00ea\u00b0\u013f": 4278, "\u0120\u00eb\u00b0\u0136\u00ea\u00bf": 4279, "\u0120\u00ec\u0136": 4280, "\u013f\u012f": 4281, "95": 4282, "\u0120\u00ec\u00b9\u013e\u00ed\u013b\u013a\u00ea\u00b2\u00bd": 4283, "\u0120\u00ec\u013a\u013d": 4284, "\u00ec\u0142\u00a4": 4285, "\u0135\u00b0": 4286, "\u012001": 4287, "\u00ec\u0140\u0136": 4288, "\u0120\u00e3\u0123": 4289, ".\"": 4290, "\u0120\u00ec\u0138\u00b4\u00eb\u00a8\u00b8\u00eb\u012d\u012a": 4291, "\u0120\u00ec\u0124\u00ac\u00ed\u0125\u013e": 4292, "\u0120\u00ec\u012d\u0142\u00ec\u0140\u0126": 4293, "\u0120]": 4294, "\u0120\u00ec\u013f\u00b8\u00ed\u0137\u013a": 4295, "\u00ec\u0141": 4296, "\u0120\u00eb\u0124\u00b8": 4297, "\u0120\u00eb\u00b6\u0122\u00eb\u00aa\u00a8": 4298, "\u0120\u00ec\u0137\u0126\u00eb\u0131\u013b": 4299, "\u00eb\u00a1\u013e\u00ec\u012c\u00a4": 4300, "\u0120\u00ea\u00b5\u012b\u00ec\u0140\u00a5\u00ed\u0140\u012a": 4301, "\u00ea\u00b8\u00b0\u00ea\u00b5\u00ac": 4302, "\u0120\u00ec\u013f\u00b8\u00ea\u00b3\u00b5\u00ec\u00a7\u0122\u00eb\u012c\u00a5": 4303, "sn": 4304, "\u0120\u00ec\u0124\u00ac\u00eb\u00ac\u00b4\u00ec": 4305, "\u0120\u00ec\u0138\u00b4\u00ec": 4306, "\u0120\u00ed\u0130\u00bc\u00ec\u00b3\u0132": 4307, "\u0120\u00ec\u00a1\u00b0\u00ea\u00b8\u00b0": 4308, "\u00ec\u0127\u0136": 4309, "\u00ec\u012c\u00a4\u00eb\u0141\u00ac\u00ec\u013c\u00b4": 4310, "\u00e4\u00b8": 4311, "\u0120\u00eb\u00b2\u0142\u00ec\u013f\u00b4": 4312, "\u00a4\u00ed": 4313, "\u00ec\u012d\u013e\u00ec\u00bc\u00b0": 4314, "\u0120\u00ec\u0142\u0137\u00eb\u00b9\u0126": 4315, "\u0120\u00ec\u00a3\u00bc\u00ec\u00a3\u00bc": 4316, "\u0120\u00eb\u0124\u013a\u00ec\u0126\u013e": 4317, "\u0120\u00ec\u013e\u0126\u00ed\u013a\u0133": 4318, "\u0120\u00ec\u00a7\u00a7": 4319, "\u0131\u0143": 4320, "\u0120\u00ec\u0138\u00bc\u00eb\u00a7\u012a\u00eb\u0124\u013a": 4321, "\u00b2\u013e": 4322, "79": 4323, "\u0120\u00eb\u00aa\u00ac\u00ec\u012c\u00a4\u00ed\u0126\u00b0": 4324, "\u013f\u00ea": 4325, "\u0120\u00ec\u012c\u00a4\u00ed\u0125\u0122\u00ec\u013f\u00bc": 4326, "\u0120.\u00e2\u0122": 4327, "\u00ec\u0129\u00bc\u00ed\u0137\u0133": 4328, "\u0139\u0128": 4329, "\u00ec\u0140\u0138": 4330, "\u0120\u00ec\u0140\u00ac\u00eb\u00ac\u00b4": 4331, "\u00ec\u00bd\u00a9": 4332, "\u00eb\u00ac\u00b8\u00ed\u013c\u012e": 4333, "\u0120\u00eb\u00b6\u0122\u00ea\u00b3\u00bc": 4334, "\u0120\u00ec\u0124\u00ac\u00eb\u00ac\u00b4": 4335, "\u0120\u00ec\u0126\u00b8\u00ed\u012c\u00b8": 4336, "\u0120mm": 4337, "\u0120\u00ea\u00b0\u0137\u00eb\u00a6\u012b": 4338, "\u01202007": 4339, "\u0120\u00ec\u0128\u012e\u00ec\u013e\u0142": 4340, "\u0120\u00ea\u00b4\u0122\u00ec\u00b8\u00a1": 4341, "\u0120\u00ea\u00b1\u00b8\u00ec\u00b3\u0132": 4342, "gs": 4343, "\u00a1\u0122": 4344, "\u00ec\u00a7\u0122\u00ec\u013f\u013a": 4345, "\u0120\u00ec\u00a3\u0126": 4346, "\u0120\u00ea\u00b8\u00b4\u00ea\u00b8\u012b": 4347, "\u0120000": 4348, "ap": 4349, "\u00eb\u00b0\u012f": 4350, "\u00eb\u00b0\u00a5": 4351, "\u00eb\u00b0\u0136\u00ec\u013f\u00b4\u00ec\u013a\u00a4": 4352, "\u0120\u00ea\u00b4\u0122\u00ec\u0126\u00b8": 4353, "\u0120\u00ea\u00b5\u00b3": 4354, "\u0120\u00eb\u00af\u00b8\u00ec\u00b9\u013a": 4355, "\u0120\u00ea\u00b8\u00b0\u00ec\u0137\u0126": 4356, "\u0120\u00ec\u0140\u0132\u00ec\u013d\u0132": 4357, "\u0120\u00ec\u00ba\u0142\u00ed\u0130\u013a\u00ec\u013f\u00b8": 4358, "\u0120\u00ec\u0139\u0136\u00ec\u00a7\u0126": 4359, "\u0120\u00ec\u012d\u00a4\u00ed\u013a\u0126": 4360, "\u0120\u00ea\u00b1\u00b0\u00eb\u00b6\u0122": 4361, "\u0120\u00ec\u00bc\u0122\u00ec\u013f\u00b4": 4362, "\u00eb\u00a7\u00a4\u00eb\u0131\u0126": 4363, "\u00ec\u00b0\u012e": 4364, "\u0120\u00ec\u00b4\u012a\u00eb\u0135\u00b1": 4365, "\u0120\u00ec\u013e\u0142\u00ec\u0139\u0136": 4366, "\u0120\u00eb\u012c\u0132\u00eb\u0124\u012e": 4367, "\u0120\u00eb\u0131\u013b\u00ec\u013f\u013a": 4368, "\u00eb\u0142\u0122": 4369, "\u0120\u00ec\u0124\u00ac\u00eb\u0135\u013e": 4370, "\u00ed\u0125\u0133": 4371, "\u0120\u00eb\u012d\u00a4\u00ec\u0128\u012e": 4372, "\u0120\u00ed\u0125\u0135": 4373, "\u00b2\u0126": 4374, "\u0120\u00ec\u0126\u00b1\u00ec\u013c\u00b0": 4375, "\u0120\u00ec\u0125\u0123\u00eb\u012d\u00b4": 4376, "\u0127\u0136": 4377, "\u0120\u00eb\u00a7\u013a": 4378, "\u00b8\u0122": 4379, "\u00eb\u0136\u013e": 4380, "\u0120\u00eb\u00b3\u00b4\u00ec\u012c\u00a4": 4381, "\u0120\u00ec\u013d\u00a8": 4382, "\u0120\u00ec\u013f\u00b4\u00ed\u0138\u012b": 4383, "\u0120\u00eb\u00b6\u0122\u00eb\u012e\u0122": 4384, "\u0120\u00ec\u0140\u0132\u00ea\u00b2\u00a9": 4385, "\u0120\u00eb\u012d\u00a8\u00eb\u0131\u0127": 4386, "\u0120\u00eb\u013f\u00bc\u00eb\u00a9\u00b0": 4387, "\u0120\u00ec\u013d\u0132\u00ec\u00b9\u013b": 4388, "\u0120\u00eb\u0131\u013b\u00eb\u00b0\u013a": 4389, "\u00eb\u012c\u0136\u00eb\u012f\u00b0\u00ec\u013c\u0136": 4390, "\u0120\u00ec\u0126\u0142\u00ec\u0140\u0126": 4391, "\u0120\u00eb\u00b6\u0122\u00ec\u00b4\u013f\u00eb\u00a6\u00ac": 4392, "\u0120\u00ec\u00b5\u013e\u00ec\u0126\u0142": 4393, "\u00ed\u0128\u00a1": 4394, "\u012059": 4395, "\u00eb\u00b2\u00a4\u00ec\u00b2\u013a": 4396, "\u00ec\u0124\u00ac\u00eb\u00ac\u00b4": 4397, "\u0120\u00ea\u00b1\u00b7": 4398, "\u00eb\u0135\u0143": 4399, "\u0120\u00ec\u00a7\u0122\u00eb\u00b0\u00b0": 4400, "\u0120\u00ea\u00b1\u00b0\u00ea\u00b8\u00b0": 4401, "\u0120\u00ec\u0137\u0126\u00ed\u0136\u0126": 4402, "\u0120.\"": 4403, "\u00eb\u0124\u013a\u00eb\u00ac\u00b4": 4404, "\u0120\u00eb\u012f\u0137\u00eb\u00b6\u0126": 4405, "\u00ec\u00b9\u00bc": 4406, "\u0120\u00eb\u0128\u012f\u00ec\u0139\u0127": 4407, "\u00ec\u012d\u00ac\u00ec\u013f\u013a": 4408, "\u00ea\u00b0\u0122\u00ec\u012c\u00a4": 4409, "\u012049": 4410, "\u0120\u00eb\u00b2\u0126\u00ec\u0142\u0126": 4411, "\u00ec\u00b2\u0142\u00ec\u012a\u013a": 4412, "\u00ec\u00a4\u00ac": 4413, "\u0120\u00eb\u012d\u00b5\u00eb\u00b3\u0122": 4414, "\u0120\u00ec\u013a\u00a4\u00eb\u00a6\u00ac": 4415, "\u0120\u00ea\u00b0\u013e\u00ec\u0142\u0137\u00ec\u0137\u012a": 4416, "\u0120\u00ed\u013d\u00a8": 4417, "\u0120\u00ec\u0142\u012a\u00eb\u012e\u0122": 4418, "\u0120;": 4419, "\u0120\u00eb\u00ac\u00b4\u00eb\u012d\u00a8": 4420, "\u0120\u00eb\u0131\u013b\u00ed\u0137\u00b4": 4421, "\u0120\u00ed\u013a\u00b8\u00ec\u0126\u0142": 4422, "\u0120\u00ec\u0126\u00b1\u00ec\u0142\u0123": 4423, "\u0120\u00ea\u00b0\u0137\u00ec\u0142\u013e": 4424, "\u00eb\u0133\u00a5": 4425, "\u0120\u00eb\u0124\u013a\u00eb\u00ac\u00b4": 4426, "\u012099": 4427, "\u0120\u00ea\u00b7\u00bc\u00ea\u00b1\u00b0": 4428, "\u0120\u00ec\u012a\u013a\u00eb\u00a6\u00bd": 4429, "\u0120ma": 4430, "\u0120\u00ed\u012e\u012e\u00ed\u012c\u00b8": 4431, "\u0120\u00eb\u00b3\u00b4\u00ec\u013f\u00b8": 4432, "\u0120\u00eb\u00a3": 4433, "\u0120\u00ea\u00b0\u0122\u00eb\u00a7\u00b9": 4434, "\u00af\u00ec": 4435, "\u00ed\u0137\u00b4\u00ec\u00a7\u0126": 4436, "\u0120\u00ec\u013f\u00b4\u00eb\u00a5\u00b8": 4437, "\u0120\u00ec\u0137\u0126\u00eb\u00a5\u00b4": 4438, "\u00ed\u0137\u0122": 4439, "\u0120\u00eb\u00b2\u00bd": 4440, "\u0120\u00ec\u012c\u00a4\u00ed\u012c\u00b8": 4441, "\u0120\u00e2\u013a": 4442, "\u0120\u00eb\u012f\u00b0\u00eb\u00af\u00b8\u00ec\u00a7\u0122": 4443, "\u0120\u00eb\u00b9\u0126\u00ed\u0138\u012b": 4444, "\u0120\u00ea\u00b0\u013e\u00ea\u00b5\u0143": 4445, "\u012043": 4446, "\u00a1\u00b1": 4447, "\u0120\u00ec\u0140\u0126\u00ec\u00a7\u0123\u00ec\u013d\u0132": 4448, "\u0120\u00eb\u0124\u013a\u00ea\u00b0\u012a": 4449, "\u00ec\u012d\u013e\u00ed\u0139\u013a": 4450, "ct": 4451, "\u00ec\u00b2\u00b4\u00ea\u00b3\u0126": 4452, "\u0120\u00eb\u00b9\u0142\u00eb\u00a5\u00b8": 4453, "\u0120\u00eb\u00b0\u013f\u00ed\u0140\u012e": 4454, "bi": 4455, "\u00ea\u00b9\u013f": 4456, "\u0120\u00ea\u00b0\u0132\u00ec\u0137\u012a": 4457, "\u0120\u00eb\u00a7\u0140\u00ec\u00b6\u00a4": 4458, "\u0120\u00ea\u00b8\u012a\u00ec\u0137\u00a1": 4459, "\u00ec\u012a\u013a\u00ec\u012a\u013a": 4460, "\u0120\u00eb\u00b3\u00b8\u00ec\u0124\u00ac": 4461, "\u00ec\u012d\u013e\u00eb\u00af\u00bc": 4462, "\u00ec\u012a\u013a\u00ec\u0126\u013f": 4463, "\u0126\u00b4": 4464, "ea": 4465, "\u0120\u00ea\u00b0\u0122\u00eb\u0141\u012b": 4466, "\u00eb\u00a9\u0136\u00ec\u013f\u00b4\u00ec\u0127\u013a": 4467, "\u0120\u00ec\u0140\u0132\u00eb\u00b3\u00b8": 4468, "\u00a8\u00bc": 4469, "\u0120\u00ea\u00b7\u0142": 4470, "\u0120\u00ec\u00a7\u0123\u00ec\u0139\u0127": 4471, "\u00a4\u013a": 4472, "\u0120\u00eb\u00b3\u0122\u00eb\u0131\u013b": 4473, "\u0120\u00ec\u013e\u0142\u00eb\u012d\u013d": 4474, "\u0120\u00ec\u00b9\u00b4\u00ec\u00b9\u00b4\u00ec\u013a\u00a4": 4475, "\u00eb\u0126\u012a\u00ec\u012c\u00a4": 4476, "po": 4477, "\u0140\u00ec": 4478, "\u0120\u00e3\u0130\u0140": 4479, "\u00ed\u013a\u0136": 4480, "\u0120\u00ea\u00b7\u00b8\u00eb\u0140\u013a\u00eb\u0131\u0126": 4481, "\u00eb\u00ac\u00b4\u00ec\u00b4\u013f\u00eb\u00a6\u00ac": 4482, "\u0120\u00ea\u00b0\u013e\u00eb\u00a7\u012b": 4483, "\u0120\u00ec\u012d\u00a4\u00eb\u00ac\u00b4": 4484, "\u0120\u00ed\u013a\u0133\u00ec\u0137\u00bd": 4485, "\u0120\u00ec\u0139\u00ac\u00eb\u012d\u00b9": 4486, "\u0120\u00ec\u012a\u013a\u00ec\u0142\u0137": 4487, "\u0120\u00ea\u00b5\u0143\u00eb\u00ac\u00b4\u00ec\u00b4\u013f\u00eb\u00a6\u00ac": 4488, "\u0120\u00ec\u0126\u00bc\u00ed\u0126\u00b0": 4489, "\u0120\u00ec\u00a2\u0127\u00eb\u00a1\u013e\u00ea\u00b5\u00ac": 4490, "\u0120\u00ea\u00b2\u0122\u00ec\u00a6\u013f": 4491, "\u00b4\u0133": 4492, "\u0120\u00ea\u00b1\u00b0\u00ec\u00a3\u00bc": 4493, "\u0120\u00e4": 4494, "\u0120\u00ed\u0131\u00ac\u00ed\u0128\u0142": 4495, "\u0120\u00ec\u00b2\u00b4\u00ec\u0142\u013e": 4496, "\u00ed\u013a\u00b8\u00ed\u0127\u0136": 4497, "\u0120\u00ec\u0124\u00b4\u00ed\u0130\u00b4\u00eb\u00b3\u00b4": 4498, "\u0120\u00ea\u00b0\u013e\u00ed\u0139\u012e": 4499, "\u0120\u00ea\u00b2\u012e\u00eb\u012d\u00a4\u00ea\u00b0\u0122": 4500, "\u0120\u00ec\u00bb\u00a4\u00ed\u0136\u00bc": 4501, "\u0120\u00ec\u0140\u0132\u00eb\u0140\u0133": 4502, "\u0120\u00ed\u0128\u00b5\u00ea\u00b3\u0126": 4503, "\u00ec\u00b9\u00b4\u00ec\u013f\u00b4": 4504, "\u0120\u00eb\u012c\u013a\u00ec\u0138\u00b4\u00eb\u0124\u013e": 4505, "\u0124\u00bc": 4506, "\u0120\u00ec\u0137\u0137\u00eb\u00b0\u0137": 4507, "\u0127\u012f": 4508, "\u0120\u00eb\u00b3\u0122\u00ed\u013a\u00b8\u00ec\u0124\u00ac": 4509, "\u00b1\u00b8": 4510, "\u0120\u00ec\u013c\u0136\u00ec\u013f\u00b8": 4511, "\u00ec\u00a4\u0122\u00ed\u0133\u013e": 4512, "\u00eb\u0140\u0122\u00eb\u0135\u013e": 4513, "\u00ea\u00b3\u00b5\u00ea\u00b0\u0126": 4514, "\u0120\u00eb\u00b6\u012a\u00ec\u0137\u012a": 4515, "\u0120\u00ed\u012e\u0132\u00eb\u00ac\u00b8": 4516, "\u00ed\u0131\u00ac\u00ea\u00b5\u00ac": 4517, "\u0120\u00ec\u00b7\u00a8\u00ec\u00a7\u0122": 4518, "\u00eb\u0140\u012f": 4519, "\u0120\u00ea\u00b5\u0132\u00eb\u00a5\u013a": 4520, "\u0120\u00eb\u00b4\u00a4": 4521, "\u00ed\u012c\u00b8\u00ec\u013d\u012e\u00ed\u0123\u00ac": 4522, "\u0120\u00eb\u00a1\u013e\u00eb\u00b4\u0129": 4523, "\u0120\u00ec\u0137\u0126\u00ec\u013a\u012a": 4524, "\u0120\u00eb\u00b6\u012a\u00ed\u0130\u00b8": 4525, "\u0120\u00ec\u00b2\u0142\u00ec\u0142\u0122": 4526, "cm": 4527, "\u0120\u00eb\u00a7\u00a4\u00eb\u0142\u00a5": 4528, "\u012000": 4529, "\u00eb\u00b0\u00b1\u00ed\u013b\u0136\u00ec\u0142\u0132": 4530, "\u0120\u00eb\u00b0\u0136\u00ea\u00be\u00b8": 4531, "\u0120\u00ed\u013c\u012f\u00eb\u0135\u013f": 4532, "\u0142\u00ec\u0136\u00a8": 4533, "82": 4534, "\u00ec\u00bd\u0136\u00eb\u00a6\u00ac\u00ec\u0137\u0126": 4535, "\u0120\u00ec\u0126\u00b8\u00ea\u00b8\u00b0": 4536, "\u0120\u00eb\u00aa\u0127\u00ec\u00b9\u0143": 4537, "\u0120\u00ea\u00b4\u0133\u00ec\u0139\u0143": 4538, "\u0120\u00ea\u00b0\u013e\u00ec\u013c\u0136": 4539, "mu": 4540, "\u0120\u00ed\u013d\u00a8\u00ec\u0136\u00ac": 4541, "\u00a8\u00ed": 4542, "\u00eb\u00ac\u00b8\u00ec\u0142\u013e": 4543, "\u0120\u00ec\u0125\u012a\u00eb\u00a1\u0143": 4544, "\u0120\u00ed\u013b\u013e\u00ec\u0137\u00bd": 4545, "\u0120\u00ec\u0142\u012a\u00eb\u00b0\u013a": 4546, "\u0120\u00ed\u0131\u00ac\u00ea\u00b8\u00b0": 4547, "\u0120\u00eb\u0135\u00b1\u00ea\u00b3\u00bc": 4548, "\u00eb\u0124\u013b\u00ec\u0139\u00b0": 4549, "\u0120\u00ec\u013f\u00bc\u00eb\u012e\u0122": 4550, "\u00ed\u013d\u012a\u00eb\u0142\u00a8": 4551, "\u0120\u00ea\u00b0\u0122\u00eb\u0131\u013b": 4552, "\u0120)": 4553, "\u00ed\u013a\u0133\u00ec\u0137\u00bd": 4554, "\u0120\u00ea\u00b5\u0132\u00ec\u013e\u00a1\u00eb\u00b6\u0122": 4555, "\u0120\u00eb\u00b0\u0133": 4556, "\u0120li": 4557, "\u0120\u00ed\u013b\u012f\u00ec\u00a4\u0122\u00ed\u0133\u013e": 4558, "\u0120\u00ec\u013a\u0123\u00ec\u0139\u0143": 4559, "\u0120\u00ed\u0123\u00ac\u00ea\u00b8\u00b0": 4560, "\u0120\u00ea\u00b8\u00b0\u00ea\u00b3\u0126": 4561, "\u0120\u00ec\u013f\u00b4\u00eb\u0124\u013b\u00ec\u0139\u00b0": 4562, "\u00eb\u00b1": 4563, "\u0120\u00ea\u00be\u00b8\u00ec\u00a4\u0122\u00ed\u0140\u012a": 4564, "\u0120\u00ec\u012a\u013a\u00ec\u012a\u013a": 4565, "\u00ea\u00b0\u0122\u00ec\u00b9\u013a": 4566, "\u0120\u00ec\u013f\u00b4\u00eb\u00a4\u0126\u00ec\u00a7\u0122": 4567, "\u0120\u00ea\u00b7\u00bc\u00eb\u00a1\u013e\u00ec\u0140\u0132": 4568, "\u0120_": 4569, "\u00ed\u0137\u013e\u00eb\u012d\u00a4\u00eb\u00a9\u00b4": 4570, "\u00ec\u0126\u0142\u00ec\u013f\u013a": 4571, "83": 4572, "\u0120\u00ec\u0129\u00bc\u00ed\u0137\u0133": 4573, "\u00ec\u0135\u00b0": 4574, "\u012003": 4575, "\u0120\u00ec\u013f\u00b4\u00ec\u0124\u00ac\u00ec\u0140\u00a5": 4576, "\u00ec\u0126\u0142\u00ec\u0138\u00b8": 4577, "\u00ea\u00b2\u012e\u00ec\u0140\u0126": 4578, "\u0120\u00eb\u00bf\u012e": 4579, "\u00eb\u012d\u00b9\u00ea\u00b5\u0143": 4580, "\u0120\u00eb\u0135\u013f": 4581, "\u0120\u00e8": 4582, "\u00ed\u0135\u00a8": 4583, "\u0120\u00ed\u013b\u013a\u00ec\u013e\u00a8": 4584, "\u0120\u00ec\u013c\u00b0\u00ec\u00a3\u00bc": 4585, "\u0120\u00ed\u013d\u0126\u00ec\u013d\u0132": 4586, "\u0140\u00a1": 4587, "\u0120\u00ec\u00a2\u0127\u00eb\u00a3\u012e": 4588, "\u0120\u00ec\u00b6\u00a9\u00eb\u00b6\u0126\u00ed\u0140\u012a": 4589, "\u00ed\u0126\u00b0\u00eb\u00a6\u00ac": 4590, "\u0120\u00ec\u0137\u012a\u00eb\u00b3\u00b4": 4591, "\u0120\u00ec\u013f\u00b4\u00ec\u0124\u00ac": 4592, "\u0120\u00ec\u00a6\u0132\u00ea\u00b8\u00b8": 4593, "\u0120\u00ec\u0125\u0123\u00ed\u013a\u00b8": 4594, "\u00ed\u0130\u013a\u00ec\u013f\u00b4": 4595, "\u00ed\u0131\u00ac\u00eb\u00a5\u00b4": 4596, "\u0120\u00eb\u0127\u00b8\u00ec\u0124\u00ac": 4597, "\u00ea\u00b5\u0143\u00eb\u00af\u00bc": 4598, "\u0120\u00eb\u00a7\u012e\u00eb\u0124\u013e": 4599, "\u00ed\u013a\u0133\u00ec\u013f\u013a\u00ed\u013c\u012e": 4600, "\u0135\u013f": 4601, "88": 4602, "\u00eb\u0135\u013e\u00eb\u00a6\u00ac": 4603, "\u0120\u00ec\u00a7\u0126\u00ec\u0142\u0137": 4604, "\u00eb\u0124\u013a\u00eb\u00a7\u012a": 4605, "\u00ea\u00b4\u0122\u00ec\u013f\u013a": 4606, "\u0120\u00eb\u0131\u0137": 4607, "\u0120\u00eb\u00b2\u0137\u00ec\u0137\u012a": 4608, "\u0120\u00ea\u00b3\u00b5\u00ec\u0137\u00bd": 4609, "\u00eb\u00b9\u0126\u00ec\u013e\u00a8": 4610, "\u0120\u00ec\u013f\u00b8\u00ea\u00b6\u012e": 4611, "\u00b0\u00eb\u00b7\u0136": 4612, "\u0120\u00eb\u012f\u00b0\u00eb\u00b7\u0136": 4613, "\u012002": 4614, "\u00ea\u00b5\u00ac\u00ec\u0139\u0143": 4615, "\u0120\u00ec\u00a3\u00bc\u00eb\u00a7\u0132": 4616, "\u0120\u00ec\u00b2\u013e\u00eb\u00a7\u012e": 4617, "\u0120\u00ea\u00b3\u0142\u00ec\u0128\u012f": 4618, "\u012a\u00ed": 4619, "bm": 4620, "\u0120\u00eb\u0124\u013a\u00ed\u0125\u0122\u00eb\u0124\u00b4": 4621, "\u0120\u00ec\u012d\u00a4\u00ec\u00b2\u013e": 4622, "\u0120\u00ec\u0137\u00b1": 4623, "\u00a9\u013a": 4624, "\u00e3\u0123\u00ae": 4625, "el": 4626, "\u0120\u00eb\u012c\u0132\u00eb\u0123\u00bc": 4627, "\u00ec\u0142\u0126\u00eb\u0140\u00b5": 4628, "\u0120\u00eb\u012d\u00a4\u00ec\u013f\u00b4": 4629, "\u0120\u00ed\u013d\u0126\u00ed\u013c\u012e": 4630, "\u00ec\u00a1\u00b0\u00ea\u00b1\u00b4": 4631, "\u0120\u00ea\u00b4\u013e": 4632, "\u00eb\u00b2\u0126\u00eb\u00a6\u00b0": 4633, "\u00ec\u0137\u0126\u00ec\u013f\u00b4": 4634, "\u0120\u00ec\u013d\u0132\u00ec\u0140\u00a5": 4635, "\u00ed\u012a\u00ac\u00ed\u0133\u013e": 4636, "\u0120\u00ea\u00b5\u00b4": 4637, "\u00eb\u0132\u013e\u00eb\u012d\u00a4\u00ea\u00b3\u0142": 4638, "\u0120\u00ec\u0139\u00b0\u00ec\u00b6\u013e": 4639, "\u0120\u00ec\u0125\u0123\u00ec\u0140\u0126": 4640, "\u0120\u00ed\u012e\u0132\u00eb\u00ac\u00b8\u00ec\u0142\u0132": 4641, "\u0120\u00ec\u013f\u00bc\u00ea\u00b0\u0126": 4642, "\u00ea\u00b3\u0142\u00eb\u00a6\u00ac": 4643, "\u0120\u00eb\u012e\u0122\u00eb\u00a1\u013e": 4644, "\u0120\u00ed\u0131\u0143\u00eb\u00b0\u013e": 4645, "\u0120\u00eb\u0127\u00b8\u00ec\u013f\u00b8": 4646, "\u0136\u00bc": 4647, "\u0120\u00ec\u0124\u00ac\u00eb\u00b2\u0137": 4648, "\u0120\u00eb\u013a\u0133": 4649, "\u0120\u00ec\u00b7\u00a8\u00ec\u0128\u012e": 4650, "\u00ed\u0140\u0132": 4651, "\u0120\u00ec\u012d\u013e\u00ea\u00b0\u0122": 4652, "\u0120\u00ea\u00b0\u0122\u00ec\u013f\u0126": 4653, "\u0120\u00eb\u00b2\u00a8": 4654, "\u0120\u00ed\u0137\u0143\u00ec\u0125\u0123": 4655, "\u0120\u00eb\u00b9\u0142\u00ec\u0142\u00b8": 4656, "\u00ec\u013e\u00bc\u00eb\u0142\u00a4": 4657, "\u0120\u00eb\u00b3\u00b5\u00ed\u0137\u00a9": 4658, "\u0120\u00ea\u00b8\u00b0\u00ec\u0125\u0123": 4659, "\u0120\u00ec\u013f\u00b8\u00ed\u0136\u0126\u00eb\u013f\u00bc": 4660, "\u00ec\u0137\u0126\u00eb\u0131\u0126": 4661, "\u0120\u00ed\u013d\u0126\u00eb\u00b0\u013a": 4662, "\u0120photonewsis": 4663, "\u00eb\u00ac\u013a": 4664, "\u0120\u00ed\u0137\u00a9\u00eb\u012d\u012a\u00eb\u012d\u00a4": 4665, "\u00ea\u00b2\u00b0\u00ea\u00b3\u00bc": 4666, "\u00ec\u0139\u00b0\u00ea\u00b5\u00ac\u00ec\u0128\u012e": 4667, "\u0120\u00ec\u013f\u00b8\u00ec\u0140\u00ac": 4668, "\u0120\u00ec\u0140\u0132\u00eb\u0127\u0122": 4669, "\u00ec\u012d\u013e\u00eb\u012e\u0122": 4670, "\u0120\u00ec\u00a7\u0123\u00ec\u0140\u00a5": 4671, "\u00ec\u0140\u0132\u00ea\u00b8\u00b0": 4672, "\u0120love": 4673, "\u0120\u00ec\u00b6\u0136\u00ec\u0126\u013f": 4674, "\u00ed\u012e\u00a9": 4675, "\u0120\u00eb\u00ac\u00bc\u00eb\u00a6\u00ac": 4676, "\u00b6\u012a": 4677, "\u00ec\u00b2\u0142\u00eb\u0131\u0126": 4678, "\u0120\u00ed\u0137\u00a9\u00eb\u0131\u013b": 4679, "\u012b\u00ac": 4680, "ter": 4681, "\u0120\u00eb\u0124\u00b4\u00ea\u00b2\u012e": 4682, "\u00e6\u0138": 4683, "\u00eb\u00ac\u00bc\u00ea\u00b4\u0122": 4684, "\u00eb\u012f\u00a4": 4685, "\u00ec\u00a2\u0127\u00ec\u013f\u013a": 4686, "\u0120\u00ec\u0142\u0137\u00ec\u00b2\u00b4": 4687, "\u0120\u00ec\u012a\u013a\u00ec\u0128\u012e": 4688, "\u0120\u00ea\u00b5\u0132\u00ec\u0124\u00ac": 4689, "\u0120\u00ec\u00a2\u0127\u00eb\u00a5\u013a": 4690, "\u0120\u00ec\u012a\u013a\u00eb\u00a1\u013f": 4691, "\u00ed\u012e\u0136": 4692, "\u0120\u00ea\u00b8\u00b0\u00ec\u0128\u012e": 4693, "\u0120\u00ec\u012a\u013a\u00ec\u013c\u00a9": 4694, "\u0120\u00ec\u00b2\u0143\u00ec\u0137\u00bd": 4695, "\u0120\u00ec\u013f\u00bc\u00ec\u0138\u00b4\u00eb\u0124\u013a": 4696, "\u0120\u00ec\u0137\u012a\u00ec\u00b2\u0142\u00ec\u012a\u013a": 4697, "\u0120\u00ec\u00a3\u00bc\u00ea\u00b8\u00b0": 4698, "\u0120and": 4699, "\u0120\u00eb\u0124\u0142\u00ec\u0136\u00a8": 4700, "\u00ec\u00a7\u0122\u00ec\u0138\u00b4": 4701, "\u00ea\u00b1\u00b0\u00ec\u013c\u00b4": 4702, "\u0120\u00ec\u012c\u00b9\u00ec\u013f\u00b8": 4703, "\u00ed\u013f\u00a1": 4704, "ir": 4705, "\u0120\u00ec\u0137\u0142\u00eb\u012d\u012a\u00eb\u00a9\u0136\u00ec\u013f\u00b4\u00ec\u0127\u013a": 4706, "\u0120\u00ed\u012c\u00b9\u00ed\u0139\u012a": 4707, "\u00a8\u00b9": 4708, "\u00ec\u0140\u0132\u00eb\u012c\u0136": 4709, "\u0120\u00ec\u00a3\u00bc\u00ec\u00b5\u013e": 4710, "\u0120\u00eb\u012e\u0122\u00ea\u00b0\u0122": 4711, "\u0120\u00ea\u00b5\u00ac\u00ec\u0140\u0127": 4712, "\u00b2\u00a9": 4713, "\u0120\u00ea\u00b0\u0122\u00ea\u00b9\u012e\u00ec\u013c\u00b4": 4714, "\u0120\u00eb\u00a7\u00a8": 4715, "\u0120\u00ec\u013c\u0136\u00eb\u00a6\u00ac": 4716, "\u00ed\u0137\u013a\u00ec\u013f\u00b4": 4717, "\u00ea\u00be\u00bc": 4718, "\u00ec\u00a3\u00bc\u00eb\u00af\u00bc": 4719, "\u0120\u00ec\u0126\u013e\u00ec\u00b4\u012a": 4720, "\u0120\u00ec\u00a7\u0122\u00ec\u012d\u013f": 4721, "vs": 4722, "\u0120\u00eb\u00b3\u00b4\u00ec\u00a1\u00b0": 4723, "\u0120\u00eb\u00b6\u0122\u00ed\u0134\u012a": 4724, "\u0120\u00ea\u00b8\u00b0\u00eb\u00b6\u0122": 4725, "\u0120\u00ec\u013f\u013a\u00ea\u00b2\u00b0": 4726, "\u0120\u00ec\u013a\u00b7": 4727, "\u00ec\u013f\u00b8\u00eb\u00ac\u00bc": 4728, "\u00ed\u0128\u00b5\u00ec\u0125\u0123": 4729, "\u00ec\u0125\u013f\u00eb\u00aa\u0127": 4730, "\u0120\u00ea\u00b3\u00b5\u00ed\u0137\u0143": 4731, "\u013b\u0137": 4732, "ni": 4733, "\u0120gs": 4734, "\u012046": 4735, "\u00ea\u00b3\u0142\u00eb\u0131\u0126": 4736, "\u00eb\u012f\u00b0\u00ec\u013f\u00b4\u00ed\u0126\u00b0": 4737, "\u00eb\u012f\u00b4": 4738, "\u0120\u00eb\u0135\u00b1\u00eb\u0131\u0126": 4739, "\u0120\u00ec\u00a5": 4740, "\u00eb\u00b3\u00b4\u00ed\u013a\u00b8": 4741, "\u0120\u00ec\u012d\u00ab": 4742, "oh": 4743, "\u0120\u00eb\u00b8\u012e\u00eb\u00a6\u00ac\u00ed\u0137\u0133": 4744, "\u00eb\u00b1\u0127": 4745, "\u0120\u00eb\u0123\u012e\u00ec\u0138\u00b4": 4746, "\u0120\u00eb\u00b6\u0123\u00ec\u00b8\u00a1": 4747, "\u0120\u00ec\u00b6\u013e\u00ec\u0126\u013f": 4748, "\u0120\u00ea\u00b6\u012e\u00ed\u0137\u013e": 4749, "\u0120\u00eb\u0128\u0135\u00ec\u00b9\u013a": 4750, "ms": 4751, "\u0120\u00ec\u00a6\u0132\u00ea\u00b8\u00b0": 4752, "\u0120\u00eb\u0131\u012e\u00ec\u0137\u0126\u00ea\u00b0\u0122": 4753, "\u0120\u00ec\u0142\u013e\u00ea\u00b1\u00b0": 4754, "fi": 4755, "\u0120\u00ed\u013b\u0137\u00eb\u00a5\u0142": 4756, "\u00eb\u00a6\u00ac\u00ec\u012c\u00a4\u00ed\u012c\u00b8": 4757, "\u012004": 4758, "\u0120\u00eb\u00a7\u00a4\u00eb\u0131\u0126": 4759, "\u00ea\u00b3\u0142\u00eb\u012c\u0136": 4760, "\u0120\u00ea\u00ba\u00bc": 4761, "\u0120\u00ec\u0125\u0123\u00ec\u00a7\u0137": 4762, "\u0120\u00ea\u00b2\u00b0\u00ec\u0142\u013e": 4763, "\u0120\u00ec\u0142\u013e\u00ec\u00a3\u00bc\u00eb\u0131\u0126": 4764, "\u0120\u00ec\u00b6\u00a9\u00ea\u00b2\u00a9": 4765, "\u0120\u00ec\u0137\u012b": 4766, "81": 4767, "\u00ec\u013c\u00b4\u00ec\u013c\u00a9": 4768, "\u0120\u00ec\u0128\u012e\u00ec\u0126\u00a4": 4769, "\u0120\u00ec\u00b2\u013a\u00eb\u00b2\u012e": 4770, "\u0120\u00ec\u00b6\u0137\u00ec\u0128\u012e": 4771, "\u0120\u00ec\u0125\u0123\u00ec\u0125\u013f": 4772, "\u0120\u00ec\u013e\u00b5": 4773, "hi": 4774, "\u00ec\u013a\u0123\u00ec\u0139\u0127": 4775, "\u0120\u00ec\u013e\u0142\u00eb\u012d\u012a": 4776, "\u0120\u00ea\u00b1\u00b0\u00eb\u0135\u0143": 4777, "\u0120\u00ec\u0139\u00b4\u00eb\u00a6\u00b0\u00eb\u012d\u00a4": 4778, "\u0120\u00ed\u013a\u0126\u00ec\u0137\u012a": 4779, "\u0120\u00ec\u012a\u013a\u00ec\u00a3\u00bc": 4780, "\u00ea\u00b5\u00ac\u00ec\u013f\u013a": 4781, "\u0120\u00ec\u0124\u0143": 4782, "\u00a4\u00ac": 4783, "\u0120\u00ec\u013c\u00b4\u00ec\u0142\u0126": 4784, "\u00ed\u0136\u012e\u00eb\u0141\u00ac\u00ec\u012c\u00a4": 4785, "\u0120\u00ea\u00b0\u0122\u00ea\u00b3\u0126": 4786, "\u00ec\u0137\u00bd\u00ed\u0134\u012a": 4787, "\u0120\u00ec\u0142\u0126\u00ed\u0137\u00b4\u00ec\u00a1\u012e": 4788, "\u0120\u00ec\u013c\u0136\u00ec\u0128\u012e": 4789, "\u0120\u00eb\u00a7\u012e\u00ec\u0137\u00bd": 4790, "\u00ec\u0126\u00b1\u00ea\u00b3\u00bc": 4791, "\u00eb\u00a3\u00ac": 4792, "\u0120\u00ed\u0139\u012a\u00ec\u013c\u00a9": 4793, "\u0120\u00ec\u0137\u0127\u00ed\u013b\u0136": 4794, "\u0120\u00ec\u012d\u0142\u00ec\u0128\u012f": 4795, "\u0120\u00ec\u013f\u013a\u00ec\u012d\u00ac": 4796, "\u0143\u00ed": 4797, "\u0120\u00ec\u013d\u00b9": 4798, "\u0120\u00ea\u00b0\u0132\u00ec\u0142\u0137": 4799, "\u00ec\u0124\u00b0\u00ec\u013f\u013a": 4800, "\u00eb\u012e\u0122\u00ec\u0124\u00ac": 4801, "\u00e2\u0122\u00a6": 4802, "\u00ec\u00a7\u0123\u00ec\u0140\u0132": 4803, "\u0120\u00ec\u012d\u00ac\u00ec\u013f\u013a": 4804, "\u0120\u00eb\u00b0\u013a\u00eb\u00b3\u00b5": 4805, "\u0127\u012d": 4806, "\u0120\u00ec\u013f\u00b4\u00ed\u0137\u013a": 4807, "\u0120\u00eb\u00a6\u00ac\u00eb\u012f\u0136": 4808, "\u00ec\u012d\u00bc": 4809, "\u0120\u00ec\u0140\u00a5\u00ec\u0142\u0132": 4810, "\u0120\u00ec\u0140\u00ac\u00ec\u0124\u00b0": 4811, "ps": 4812, "\u012044": 4813, "\u00eb\u012d\u012b\u00ec\u012c\u00a4": 4814, "fc": 4815, "\u0120\u00eb\u0131\u013b\u00ec\u0137\u0126": 4816, "\u0120\u00ec\u012d\u00ac\u00ec\u00a7\u0122\u00ec\u0138\u00b4": 4817, "\u0120\u00ed\u0133\u013e\u00ec\u00a4\u0122": 4818, "\u0120\u00ec\u00a7\u0122\u00ec\u0140\u0132\u00ec\u00b2\u00b4": 4819, "\u0120\u00ec\u00a7\u0126\u00ed\u013b\u0136": 4820, "\u0120\u00ed\u0131\u012b\u00ec\u0128\u012e": 4821, "\u0142\u0133": 4822, "\u012d\u0143": 4823, "\u0120\u00ed\u0140\u0132": 4824, "\u0120\u00ec\u00a7\u0126\u00ec\u00a7\u013e": 4825, "\u0120\u00eb\u00a7\u00a4\u00eb\u00a7\u00a4": 4826, "\u012042": 4827, "\u00ed\u0127\u0132": 4828, "\u0120\u00ed\u0130\u013a\u00ec\u013f\u00b4\u00ec\u012c\u00a4\u00eb\u00b6\u0123": 4829, "\u0120\u00eb\u00a9\u0136\u00ec\u013f\u00b4": 4830, "\u00ec\u0140\u00ac\u00ec\u0142\u0137\u00eb\u00b6\u0122": 4831, "gi": 4832, "\u00ea\u00b2\u00bd\u00ea\u00b8\u00b0": 4833, "\u00ed\u013b\u0136\u00ed\u0131\u0132": 4834, "\u0120\u00ec\u00a7\u0122\u00ed\u013e\u013a": 4835, "\u0120\u00ed\u0133\u013e\u00ec\u012d\u013e": 4836, "\u0120\u00ec\u0125\u0123\u00ec\u012c\u00b9\u00ec\u0126\u00b8": 4837, "\u00ea\u00b3\u00b5\u00eb\u0131\u013b": 4838, "\u00eb\u00ac\u00bc\u00eb": 4839, "\u0120\u00ec\u00a3\u00bc\u00ea\u00b4\u0122": 4840, "\u00b2\u00b0": 4841, "\u0120\u00ea\u00b9\u0122\u00ed\u013a\u0126": 4842, "\u00ec\u012d\u0142\u00eb\u00ac\u00b8": 4843, "\u0120\u00ec\u0137\u00a8\u00eb\u00b2\u0136": 4844, "\u0120\u00ec\u0139\u0132\u00ec\u0138\u00b4": 4845, "\u00ec\u0142\u0137\u00eb\u0131\u0126": 4846, "\u0120\u00ec\u00b1\u013b": 4847, "\u0120\u00ec\u0125\u013f\u00ea\u00b8\u00b0": 4848, "\u0120\u00ec\u013e\u0126\u00ec\u0137\u012a": 4849, "\u0120\u00ec\u012a\u013a\u00ec\u012a\u0142": 4850, "\u0120\u00ec\u013f\u0133\u00eb\u012d\u00b5": 4851, "\u0120\u00ec\u0139\u00ac\u00ec\u0124\u00ac": 4852, "\u00eb\u00b0\u013e\u00ec\u0138\u00b8": 4853, "\u00ea\u00b2\u0122\u00ec\u0124\u00ac": 4854, "kr": 4855, "\u0120\u00ec\u013f\u00bc\u00ec\u0125\u0123": 4856, "\u012056": 4857, "\u00ec\u012c\u00a4\u00ed\u0128\u0142": 4858, "\u0120\u00e3\u0122\u0122": 4859, "\u00ec\u0126\u00af": 4860, "sc": 4861, "\u00ec\u00b2\u00b4\u00ec\u013f\u00b8": 4862, "\u0120\u00ec\u0128\u012e\u00ec\u0128\u00a1": 4863, "\u00b0\u00b1": 4864, "\u0120\u00eb\u012e\u0122\u00ec\u013c\u00b0": 4865, "\u00ec\u012d\u00ac\u00ec\u0124\u00ac": 4866, "\u00ed\u0134\u012a\u00ec\u013f\u013a": 4867, "\u0120\u00eb\u00a9\u0136\u00ec\u012d\u013e\u00ec\u00a7\u0122": 4868, "\u0120\u00ed\u0137\u013e\u00eb\u012d\u00a4\u00eb\u00a9\u00b0": 4869, "\u0120\u00eb\u012d\u00b9\u00ea\u00b5\u0143": 4870, "\u00eb\u00af\u00b8\u00eb\u0126\u0132": 4871, "\u0120\u00eb\u0136\u00b1": 4872, "\u00ea\u00b0\u0122\u00ed\u0131\u00ac\u00eb\u00a5\u00b4": 4873, "\u00eb\u00b6\u0126\u00ec\u0137\u00bc": 4874, "\u0120\u00ec\u00a7\u0137\u00ec\u0139\u0143": 4875, "\u012d\u012b": 4876, "\u0120\u00eb\u00b3\u00b4\u00ea\u00b3\u0142\u00ec\u0126\u013e": 4877, "\u00eb\u013f\u00bc\u00ec\u0126\u013e": 4878, "\u0120\u00ed\u0131\u0143\u00ec\u0139\u00bc": 4879, "\u00eb\u012c\u0136\u00ea\u00b0\u0122": 4880, "\u00ec\u013c\u00a9\u00ec\u013f\u013a": 4881, "\u0120\u00ec\u012a\u00b2": 4882, "\u0120\u00eb\u00b2\u0137\u00eb\u00ac\u00b4": 4883, "\u0120\u00ec\u0142\u0126\u00ec\u00a3\u00bc": 4884, "\u00eb\u00af\u00b9": 4885, "\u00eb\u00a9\u0136\u00eb\u013f\u00bc": 4886, "\u0120\u00ed\u0136\u012e\u00eb\u0142\u012a\u00ec\u013f\u00b4\u00ec\u0138\u00b4": 4887, "\u00ec\u0126\u00b8\u00ec\u0142\u0132": 4888, "\u0120\u00eb\u0135\u013e\u00eb\u0140\u013a": 4889, "\u0120\u00ec\u013f\u00b4\u00eb\u0124\u00b4": 4890, "\u00eb\u013e\u00a8": 4891, "89": 4892, "\u00ec\u0140\u00a5\u00ec\u013f\u00b4": 4893, "\u0120\u00eb\u00b0\u00a9\u00ec\u00a7\u0122": 4894, "\u00ec\u0125\u0123\u00ed\u013b\u00a9": 4895, "\u0120600": 4896, "\u0120\u00ec\u012a\u013a\u00ec\u00a4\u0122\u00ec\u013f\u013a": 4897, "\u00ec\u012d\u013e\u00ed\u0124\u00ac": 4898, "\u0120\u00ea\u00b0\u0122\u00ea\u00b9\u012e\u00ec\u013f\u00b4": 4899, "\u012047": 4900, "\u0120\u00ed\u012e\u0132\u00ea\u00b2\u00b0": 4901, "\u0120\u00ec\u0125\u013f\u00ed\u0125\u013e": 4902, "\u0120\u00ec\u0124\u00b4\u00ec\u0137\u0126": 4903, "\u0120\u00eb\u0124\u013a\u00ec\u013a\u00ac": 4904, "\u0120\u00ed\u0138\u00a5\u00ed\u0137\u00b4": 4905, "\u0120\u00ec\u0142\u0126\u00ed\u0137\u00b4": 4906, "\u0120\u00ec\u0125\u013f\u00ec\u00a1\u00b4": 4907, "\u0120\u00ec\u012d\u00ac\u00eb\u00a6\u00ac": 4908, "ga": 4909, "\u0120\u00ed\u012e\u00a8\u00ec\u0127\u013a": 4910, "\u0120\u00eb\u012d\u00a4\u00eb\u012d\u012a": 4911, "\u00ec\u013f\u0122\u00eb\u012f\u00b0": 4912, "\u0120\u00ec\u012d\u00b1\u00ea\u00b0\u0122\u00ed\u0131\u00ac\u00eb\u00a5\u00b4": 4913, "\u0120\u00ea\u00b0\u0137\u00ec\u0126\u00b8": 4914, "92": 4915, "\u0120\u00ec\u013e\u0142\u00ec\u0124\u00ac": 4916, "\u00ea\u00b5\u0143\u00ec\u0140\u00a5": 4917, "\u00ed\u0137\u013e\u00eb\u012d\u00a4\u00eb\u00a9\u00b0": 4918, "\u0120sns": 4919, "\u0120\u00ec\u013a\u0123\u00eb\u0135\u00b1": 4920, "\u0120\u00ec\u012d\u0142\u00ec\u0126\u00b8\u00ea\u00b3\u0126": 4921, "\u0120\u00ec\u00b7\u00a8\u00ec\u0137\u00bd": 4922, "\u0120\u00ec\u00a1\u00b0\u00ec\u0140\u0133": 4923, "\u0120\u00ec\u012c\u00a4\u00ed\u0125\u0122\u00ed\u012c\u00b8": 4924, "\u0120\u00ec\u00b7\u00a8\u00ec\u0140\u00ac": 4925, "\u00e3\u012a": 4926, "\u0120\u00ec\u0139\u00b0\u00eb\u00a7\u0132": 4927, "\u0120\u00eb\u00b2\u0137\u00ec\u0142\u0137": 4928, "\u0120\u00eb\u00b0\u00b0\u00ec\u00b6\u013e": 4929, "\u0120\u00ec\u00a6\u013f\u00ea\u00b1\u00b0": 4930, "\u0120\u00ed\u0134\u012a\u00ec\u00a7\u012a": 4931, "\u0120\u00ed\u0137\u0126\u00ec\u012a\u013a": 4932, "\u0120\u00eb\u0138\u00a8\u00ec\u0138\u00b4\u00ec\u00a7\u0126": 4933, "\u0120\u00ec\u00b4\u012a\u00eb\u012e\u0122": 4934, "\u00ed\u0138\u012b\u00ec\u0142\u0137": 4935, "\u0120\u00ec\u0140\u0133\u00ec\u013c\u00a9": 4936, "\u0120\u00eb\u0127\u00b8\u00eb\u0131\u013b\u00ec\u0140\u0132": 4937, "\u00ea\u00bb\u00b4": 4938, "\u0120\u00ec\u00b1\u0126\u00ed\u0125\u013f": 4939, "\u0120\u00eb\u012e\u0122\u00ed\u0131\u0143": 4940, "\u0120\u00ec\u0142\u0126\u00ea\u00b0\u013e": 4941, "fe": 4942, "\u0120\u00ec\u00b2\u0143\u00ec\u00a3\u00bc": 4943, "86": 4944, "\u00eb\u0141\u012b\u00ec\u013f\u013a": 4945, "\u0120\u00ec\u0142\u0126\u00ec\u013d\u0132": 4946, "\u0120\u00ec\u00b6\u0136\u00ea\u00b2\u00bd": 4947, "\u0120\u00ed\u0123\u00b4\u00eb\u0140\u013a": 4948, "\u00ec\u0127\u012d": 4949, "\u00ea\u00b8\u00b0\u00ed\u013c\u012f": 4950, "\u00ec\u00a1\u00b0\u00ec\u00b9\u013a": 4951, "\u0120\u00eb\u00ac\u00b4\u00ec\u012d\u013e": 4952, "\u0120\u00ea\u00b0\u013e\u00ec\u0126\u00b1": 4953, "un": 4954, "\u0120\u00ed\u0131\u00ac\u00ec\u012c\u00a4\u00ec\u00bd\u0136": 4955, "\u0120\u00ed\u0131\u0132\u00ea\u00b8\u00b0": 4956, "\u0120\u00eb\u012d\u00b9\u00ec\u0140\u00a5": 4957, "\u0120\u00ec\u0126\u0142\u00ec\u0125\u013f": 4958, "\u00eb\u00a7\u012a\u00ec\u0142\u0122": 4959, "\u0140\u0138": 4960, "\u0120\u00ec\u0140\u00ac\u00ea\u00b0\u013e": 4961, "\u0120\u00ea\u00b1\u00b4\u00ec\u013f\u013a": 4962, "\u0120\u00eb\u00aa\u0127\u00ec\u013f\u0122": 4963, "\u0120\u00ea\u00b0\u0122\u00eb\u00a6\u00ac": 4964, "\u00ec\u00a3\u00bd": 4965, "\u00b4\u012a": 4966, "\u00eb\u00b9\u0126\u00ec\u013c\u00a9": 4967, "\u0120\u00eb\u00b6\u0122\u00eb\u00b6\u0122": 4968, "\u0120\u00ec\u0142\u0123\u00ec\u0142\u012a": 4969, "\u0120\u00eb\u00af\u00b8\u00eb\u0136\u0136\u00ec\u0138\u00b4": 4970, "\u0120mo": 4971, "\u00ec\u0126\u013e\u00ed\u012c\u00b8": 4972, "\u0120\u00ed\u0137\u013e\u00ea\u00b3\u0126": 4973, "\u00eb\u012f\u00b0\u00ec\u013f\u00b4": 4974, "\u0120\u00eb\u00b9\u00a8\u00eb\u00a6\u00ac": 4975, "\u00eb\u0140\u012e\u00ed\u013c\u012e": 4976, "\u0120\u00eb\u00b9\u013c": 4977, "\u0120\u00ed\u013f\u0136\u00eb\u0135\u00a4": 4978, "\u00ec\u013e\u00bc\u00eb\u00af": 4979, "\u00ec\u013e\u00bc\u00eb\u00af\u0122\u00eb\u00a1\u013e": 4980, "\u00ec\u00a2\u0127\u00ed\u0137\u00a9": 4981, "\u00ec\u00b2\u013a\u00eb\u00a6\u00ac": 4982, "87": 4983, "br": 4984, "\u0120\u00eb\u00ac\u00bc\u00eb\u0141\u012b": 4985, "\u0120\u00eb\u012c\u013a\u00eb\u00a6\u00ac": 4986, "\u0120vs": 4987, "\u0120\u00ea\u00b3\u0142\u00eb\u00b0\u013e": 4988, "\u0120\u00ed\u013e\u00b4\u00eb\u012e\u0122": 4989, "\u00eb\u00b9\u0126\u00ec\u0137\u0126": 4990, "\u00ed\u013a\u0133\u00ec\u0125\u0123": 4991, "\u00ea\u00b3\u00b5\u00ec\u013f\u00b8": 4992, "\u00ea\u00b3\u0142\u00ea\u00b8\u00b0": 4993, "\u0120\u00ec\u012c\u00a4\u00ed\u0130": 4994, "\u0120\u00ec\u0126\u00b8\u00ea\u00b8\u012a": 4995, "\u01202006": 4996, "\u0120\u00ea\u00b0\u0138\u00ec\u00b6\u013a": 4997, "\u0120\u00ec\u013a\u0123\u00ec\u013d\u0127": 4998, "\u0120\u00ec\u00a7\u0122\u00ec\u00a7\u0126": 4999, "\u0120\u00ec\u00a7\u0123\u00ec\u0142\u0126": 5000, "wo": 5001, "\u00eb\u00a9\u00b4\u00ec\u0142\u0123": 5002, "\u00ea\u00b4\u0133\u00ec\u0139\u0143": 5003, "\u0120\u00eb\u00aa\u00a8\u00eb\u0135\u013e": 5004, "\u0120\u00eb\u012d\u00a8\u00ec\u013f\u00bc": 5005, "\u00ec\u013f\u00b4\u00eb\u0131\u0126": 5006, "\u0120\u00eb\u00aa\u0127\u00ec\u013a\u012a": 5007, "\u0120kr": 5008, "\u0120\u00ec\u013f\u00b4\u00ed\u012d\u0122": 5009, "\u0120\u00eb\u00b2\u012e\u00ec\u013f\u00b4": 5010, "\u00ec\u013a\u0122\u00ec\u013e\u00bc\u00eb\u00a9\u00b0": 5011, "\u0120\u00eb\u012d\u00ac\u00eb\u0142\u00a4": 5012, "\u0120\u00ec\u00b9\u00b4\u00ed\u0130\u013a": 5013, "\u0120\u00ec\u0142\u0137\u00ec\u012d\u013f": 5014, "\u00ed\u013b\u0136\u00ed\u0137\u013b": 5015, "\u0120\u00ec\u00b7\u00a8\u00eb\u0135\u013f": 5016, "\u0120\u00ec\u0126\u0142\u00ed\u013a\u00b8": 5017, "\u0120\u00ec\u013e\u0142\u00eb\u0131\u0126": 5018, "\u0139\u00bc": 5019, "ry": 5020, "\u0120\u00eb\u0124\u013a\u00ed\u0125\u0122\u00eb\u0125\u012a": 5021, "\u0120\u00ec\u0138\u0133\u00ec\u0126\u00b1": 5022, "\u0120\u00ec\u0142\u013e\u00eb\u00aa\u00a9": 5023, "\u0120\u00ea\u00b0\u0122\u00ec\u00a1\u012e": 5024, "\u00ec\u0126\u00ac": 5025, "\u0120\u00ed\u012c\u00b8\u00eb\u0142\u012e": 5026, "\u0120\u00eb\u00a5\u00b4": 5027, "\u00ed\u0137\u013e\u00eb\u012f\u00b0": 5028, "91": 5029, "\u0120\u00ed\u0137\u00b4\u00ea\u00b5\u00b0": 5030, "\u0120\u00ed\u013a\u00b8\u00ec\u0128\u012e": 5031, "\u0120\u00ec\u0126\u00b1\u00eb\u0124\u00a8": 5032, "\u0120\u00ec\u0126\u00b8\u00eb\u0142\u00a5": 5033, "\u00eb\u013e\u00bb": 5034, "\u0120\u00ea\u00b0\u013e\u00eb\u0127\u0132": 5035, "\u0120\u00ed\u013a\u0126\u00ea\u00b8\u012a": 5036, "\u00ec\u00a1\u00b4\u00ec\u013f\u013a": 5037, "\u00ec\u013d\u00a8\u00ec\u0138\u00b4": 5038, "\u0120\u00ea\u00b0\u0122\u00eb\u0135\u013f": 5039, "\u0120\u00ec\u012d\u00a4\u00eb\u0142\u00a5": 5040, "\u00ec\u0127\u0122": 5041, "\u00eb\u00b6\u0122\u00eb\u00aa\u00a8": 5042, "\u0120\u00ec\u013f\u00b4\u00ec\u013b\u00b8": 5043, "\u0120\u00ed\u0137\u00b4\u00ec\u0125\u0123": 5044, "\u0120\u00ec\u00b1\u0136": 5045, "\u00ed\u013f\u0132": 5046, "\u0120\u00eb\u00a7\u012a\u00ec\u00b9\u013e": 5047, "\u0120\u00ed\u013a\u0137\u00ec\u0124\u00ac": 5048, "\u00ec\u00ab": 5049, "\u0120\u00e3\u012a\u013e": 5050, "\u0120\u00ec\u0140\u0132\u00ec\u00b9\u013a": 5051, "\u00eb\u012d\u012a\u00ec\u0138\u00b4": 5052, "\u00ec\u0139\u0142": 5053, "\u0120\u00ec\u013a\u00a4\u00eb\u0140\u013e": 5054, "\u0120\u00ea\u00b7\u00b8\u00eb\u00a6\u00b0": 5055, "\u0120\u00ed\u0125\u0133\u00ec\u0140\u00ac": 5056, "\u0120\u00ec\u00b2\u0143\u00ea\u00b5\u00ac": 5057, "\u0120\u00ec\u012a\u013a\u00ea\u00b8\u012b": 5058, "\u0120\u00ec\u0142\u0126\u00ea\u00b8\u00b0\u00ec\u00b0\u00a8": 5059, "\u0120\u00ed\u013b\u013a\u00ec\u013a\u0123": 5060, "\u0120\u00ea\u00b0\u013f": 5061, "\u0120\u00ec\u013f\u00b4\u00ec\u012c\u012a": 5062, "\u00eb\u00a7\u013d": 5063, "ye": 5064, "\u00b9\u012e": 5065, "\u0120\u00eb\u0124\u00b4\u00eb\u0142\u00b8": 5066, "\u012041": 5067, "\u00ea\u00b3\u00b5\u00ea\u00b0\u013e": 5068, "\u0120\u00eb\u0131\u013b\u00eb\u00a3\u012e": 5069, "\u00ec\u013f\u013a\u00eb\u00a3\u012e": 5070, "\u0120\u00ec\u00a3\u00bc\u00ec\u0140\u00ac": 5071, "\u0123\u00ae": 5072, "ft": 5073, "\u00ea\u00b8\u00b0\u00ec\u0140\u0132": 5074, "\u0120\u00ea\u00b9\u0122\u00ec\u0125\u0123": 5075, "\u0120\u00ea\u00b0\u0136": 5076, "\u0120\u00ec\u0137\u0126\u00ec\u012b\u00ac": 5077, "pr": 5078, "ut": 5079, "\u0120\u00eb\u00bb": 5080, "\u01204000": 5081, "\u00ec\u0125\u00a4": 5082, "\u0120\u00eb\u00a9\u012a": 5083, "\u0120\u00ec\u0137\u0126\u00eb\u00a6\u0126\u00eb\u012d\u00a4\u00ec\u013c\u00b4": 5084, "\u0120\u00eb\u0135\u0142": 5085, "\u0120\u00eb\u00af\u00b8\u00eb\u00a6\u00ac": 5086, "\u0120\u00ec\u013f\u00b4\u00eb\u00aa\u0127": 5087, "\u0120kbs": 5088, "\u0120\u00ea\u00b0\u0122\u00ec\u012a\u013a": 5089, "\u00eb\u0127\u0137": 5090, "\u00ec\u0142\u0126\u00ea\u00b8\u00b0": 5091, "\u0120\u00e6\u0138": 5092, "\u00ec\u0140\u00ac\u00ec\u013f\u013a": 5093, "\u0120\u00eb\u00b9\u0126\u00ed\u012c\u00b8": 5094, "\u0120\u00ec\u0137\u00bd\u00ea\u00b0\u0126": 5095, "\u0120\u00ed\u013c\u012e\u00ea\u00b3\u0126": 5096, "\u0120\u00ec\u012d\u013e\u00eb\u00b2\u0136": 5097, "\u0120\u00eb\u00b6\u0126\u00eb\u00a6\u00ac": 5098, "\u00ed\u0137\u00a9\u00ec\u013f\u013a": 5099, "\u0120\u00eb\u013d\u00b0\u00ec\u0138\u00b4": 5100, "\u0120\u00ed\u0130\u00b8\u00ec\u0126\u00b1": 5101, "\u0120\u00eb\u0125\u012a": 5102, "\u0120\u00eb\u00a7\u0123": 5103, "\u00ed\u0125\u0122\u00ec\u0140\u0126": 5104, "\u0120\u00ed\u013c\u00a1": 5105, "98": 5106, "\u00eb\u00b8\u0132": 5107, "\u0120\u00ec\u013f\u00b8\u00ec\u0125\u013f": 5108, "\u0120\u00ec\u0137\u0142\u00ed\u0136\u012e": 5109, "\u00eb\u0126\u0132\u00eb\u0135\u013e": 5110, "\u00ec\u0140\u0132\u00eb\u00a3\u012e": 5111, "\u0120\u00ea\u00b8\u00b0\u00eb\u012d\u00a4\u00eb\u00a6\u00ac": 5112, "\u00eb\u0135\u00ac": 5113, "\u00ed\u013c\u00a8\u00ea\u00b3\u00bc": 5114, "\u0120\u00ea\u00b0\u013e\u00eb\u00b3\u0126": 5115, "\u00eb\u00a6\u00ac\u00ed\u012c\u00b8": 5116, "\u0120\u00ea\u00b3\u00a4": 5117, "\u0120\u00ec\u0138\u00b4\u00ec\u0142\u013e": 5118, "\u00ed\u012d\u00b8": 5119, "\u0120\u00ec\u00a7\u013e": 5120, "im": 5121, "\u00ec\u0139\u0132\u00eb\u0126\u012a\u00ec\u00a7\u0122": 5122, "\u0120\u00ea\u00b3\u0126\u00ec\u0139\u00b4\u00ec\u0124\u00ac": 5123, "\u00eb\u00b2\u0126\u00eb\u0142\u00b8": 5124, "\u0120\u00ea\u00b2\u00bd\u00ec\u0125\u0123": 5125, "\u0120\u00eb\u012e\u0135": 5126, "\u00ec\u012a\u013a\u00ec\u0124\u00ac": 5127, "\u00ec\u0140\u00a5\u00ec\u0137\u0142": 5128, "\u0120\u00ec\u013d\u0132\u00ec\u0142\u0126": 5129, "\u0120\u00ea\u00b0\u0137\u00ea\u00b2\u00bd": 5130, "\u0120\u00eb\u00b9\u0126\u00eb\u0124\u013e": 5131, "\u00ea\u00b6\u012e\u00ec\u0140\u0132": 5132, "lv": 5133, "\u0120\u00ec\u00bd\u0136\u00eb\u00a6\u00ac\u00ec\u0137\u0126": 5134, "\u00b4\u0132": 5135, "\u0120\u00ed\u013f\u00ac\u00ec\u0125\u013f": 5136, "\u0120\u00eb\u00ac\u00b4\u00eb\u00a6\u00ac": 5137, "ip": 5138, "\u0120\u00ed\u012e\u012e\u00ec\u013d\u012e": 5139, "\u0120\u00e3\u0125": 5140, "\u0120\u00ec\u0140\u0126\u00ec\u013d\u0132": 5141, "\u00ec\u00ba\u0142": 5142, "\u012084": 5143, "\u00ea\u00b9\u00a8": 5144, "\u0120\u00ec\u013a\u00a4\u00eb\u00b8\u012e": 5145, "\u0120\u00ea\u00b7\u00b8\u00eb\u0137\u012e": 5146, "\u00ea\u00b0\u013e\u00ec\u0126\u0142": 5147, "\u00b7\u00b0": 5148, "\u0120\u00ec\u013c\u00a9\u00ec\u0124\u00b0": 5149, "\u0120\u00ec\u00b9\u0142": 5150, "\u00ea\u00b3\u0142\u00ec\u0128\u012f": 5151, "\u00ea\u00b3\u00bc\u00ec\u0140\u00a5": 5152, "\u0120\u00ea\u00b8\u012a\u00ea\u00b0\u0132": 5153, "\u00eb\u00a7\u0130": 5154, "\u00eb\u00b0\u00a9\u00ec\u0137\u012a": 5155, "\u0120\u00eb\u0140\u013e": 5156, "\u0120\u00ed\u012e\u012e\u00ec\u013f\u00b4": 5157, "nh": 5158, "\u00ed\u0137\u013e\u00ed\u0127\u012e": 5159, "\u0120\u00ec\u00b7\u00a8\u00ea\u00b8\u012b": 5160, "\u0120\u00ea\u00b2\u00bd\u00ea\u00b3\u0142": 5161, "\u00eb\u00a5\u00b4\u00ec": 5162, "\u00ec\u00b9\u00b8": 5163, "\u0120\u00eb\u00b0\u00b4": 5164, "\u0120\u00ec\u013f\u00bc\u00ec\u0142\u013e": 5165, "\u00b0\u00bd": 5166, "\u00eb\u012d\u00a4\u00eb\u00a5\u00b8": 5167, "\u00ec\u013f\u00bc\u00eb\u00a6\u00ac": 5168, "\u0120\u00ec\u00a7\u0133\u00eb\u012d\u00a8": 5169, "\u00ec\u00a4\u0133\u00ea\u00b3\u00b5\u00ec\u0139\u0127": 5170, "\u0120\u00ec\u013a\u00a4\u00ed\u0136\u0126": 5171, "\u00ec\u012c\u00a4\u00ed\u0136\u012e\u00eb\u0142\u012a\u00ec\u013f\u00b4": 5172, "\u0120\u00eb\u00b3\u0126\u00eb\u0131\u0126": 5173, "\u00ed\u0131\u0143\u00eb\u0142\u00a5": 5174, "\u0120\u00ea\u00b8\u00b8\u00ec\u013f\u00b4": 5175, "\u0120\u00ea\u00b0\u013e\u00eb\u00b0\u00a9": 5176, "\u00ec\u0139\u00ac\u00ec\u0126\u013e": 5177, "\u0120\u00ea\u00b6": 5178, "\u00ec\u012a\u013a\u00ec\u013f\u00b5": 5179, "\u0120\u00ec\u013f\u013a\u00eb\u0131\u0126": 5180, "\u0120\u00ea\u00b3\u00b3\u00ea\u00b3\u00b3": 5181, "\u0120\u00ed\u013b\u0136\u00ec\u0140\u00a5\u00ed\u0134\u012a": 5182, "\u0120\u00eb\u00b6\u0122\u00ec\u00a7\u0122": 5183, "\u0120\u00ec\u0140\u00a5\u00ec\u00b0\u00a9": 5184, "\u0120\u00ed\u0128\u00b5\u00ec\u013f\u00bc\u00eb\u00b6\u0122": 5185, "\u0120\u00ec\u00a3\u00bd\u00ec\u013f\u012e": 5186, "\u0120\u00ec\u012d\u013e\u00eb\u0124\u00b4": 5187, "\u0120\u00ea\u00b0\u0138\u00ec\u00b6\u0136": 5188, "\u0120\u00ed\u013b\u0136\u00ed\u0137\u013b": 5189, "\u012d\u00b5": 5190, "\u0120\u00ec\u00ab": 5191, "\u0120\u00ea\u00b1\u00b4\u00eb\u00a6\u00bd": 5192, "\u00ec\u012d\u013f\u00ec\u013f\u013a": 5193, "\u012057": 5194, "\u0120\u00ec\u013e\u00a1\u00ea\u00b5\u00b0": 5195, "\u0120\u00ea\u00b2\u0123": 5196, "\u00eb\u00b0\u00b0\u00ed\u0131\u00ac": 5197, "\u00b3\u0122": 5198, "\u0120\u00ea\u00b5\u0143\u00eb\u0124\u00b4\u00ec\u013b\u00b8": 5199, "\u00eb\u00b3\u00b4\u00ec\u013f\u00b8\u00eb\u012d\u00a4": 5200, "\u0120cm": 5201, "\u0120\u00eb\u00ac\u00b4\u00ec\u012c\u00a8": 5202, "\u00ed\u0135\u00a8\u00ed\u0126\u00b0": 5203, "\u0120\u00eb\u00b3\u00b8\u00ed\u013c\u012e\u00ec\u013f\u013a": 5204, "\u0120\u00ec\u0125\u012a\u00eb\u00b2\u00bd": 5205, "\u0120\u00eb\u00a9\u0136\u00ec\u013f\u00b8": 5206, "\u0120\u00ec\u00b9\u00b8": 5207, "96": 5208, "\u0120\u00ed\u013d\u0126\u00ec\u0128\u012f": 5209, "\u0120\u00ea\u00b6\u012e\u00eb\u0142\u00a5": 5210, "\u00ed\u0137\u013a\u00eb\u0124\u013a": 5211, "\u00ec\u00bc\u0122\u00ec\u0138\u00b4": 5212, "\u00b0\u00b8": 5213, "\u00ec\u013d\u012e\u00eb\u0135\u013e": 5214, "\u0120\u00ed\u013a\u0133\u00ec\u00a1\u00b0": 5215, "\u0120\u00ec\u0137\u012a\u00ed\u0125\u0122": 5216, "\u012085": 5217, "\u00eb\u0133\u013a": 5218, "\u0120\u00ec\u0137\u0140\u00eb\u0133\u0136": 5219, "\u0120\u00eb\u012f\u013e": 5220, "\u0120\u00ea\u00b3\u0126\u00ec\u0124\u00b0": 5221, "\u0120\u00ec\u00a1\u00b0\u00eb\u00aa\u0127": 5222, "sb": 5223, "\u0120\u00ec\u013f\u00b4\u00ed\u0125\u012a\u00eb\u00a6\u00ac\u00ec\u0137\u0126": 5224, "\u0120\u00eb\u0131\u013b\u00ec\u013d\u0132": 5225, "\u0120\u00ec\u00b5\u013e\u00eb\u012e\u0122\u00ed\u0137\u013e": 5226, "\u0120\u00ec\u013f\u00b8\u00ec\u0124\u00ac\u00eb\u00a7\u0132": 5227, "\u00eb\u0124\u00b8\u00eb\u012d\u00a4": 5228, "\u0120\u00ea\u00b4\u013e\u00ec\u00b0\u00ae": 5229, "\u0120\u00ea\u00b3\u0142\u00ea\u00b8\u012b": 5230, "\u0120\u00ec\u00a4\u0126\u00ec\u0138\u00b4\u00eb\u0135\u00a4": 5231, "\u0120\u00ec\u0142\u013e\u00ec\u0137\u00bd": 5232, "\u00ec\u00bf\u0126": 5233, "\u00ec\u012a\u00a8": 5234, "io": 5235, "\u00ec\u00b4\u013f\u00eb\u00a6\u00ac": 5236, "\u0120\u00ec\u0126\u0142\u00eb\u0131\u0126": 5237, "\u0120\u00ed\u012e\u012e\u00ea\u00b2\u00ac": 5238, "\u0120\u00eb\u00aa\u00a8\u00ec\u0137\u0126": 5239, "\u0120\u00ec\u0137\u012e\u00eb\u0142\u00a4\u00ec\u0142\u00b8": 5240, "\u00ec\u00bb\u00b4": 5241, "\u0120\u00ec\u013a\u0122": 5242, "\u0120\u00ec\u013a\u00ac\u00eb\u0142\u00b8": 5243, "\u0120\u00ea\u00b1\u00b0\u00eb\u012e\u0122": 5244, "\u012064": 5245, "\u0120\u00ea\u00b0\u013e\u00ec\u0140\u00a5": 5246, "\u00ec\u00a7\u0122\u00eb\u012e\u0122": 5247, "cd": 5248, "\u0120\u00ec\u0140\u00ac\u00eb\u00af\u00b8": 5249, "\u0120\u00ea\u00b8\u00b0\u00ec\u013c\u00b8": 5250, "\u0120\u00ec\u00b4\u012a\u00ea\u00b3\u00bc": 5251, "\u0120\u00eb\u012e\u0135\u00ea\u00b8\u0122": 5252, "\u0120\u00eb\u00b3\u00b5\u00ea\u00b7\u0122": 5253, "\u0120\u00ec\u013a\u00ac\u00eb\u0142\u00a4": 5254, "\u00bc\u00ec\u0128\u0132": 5255, "\u0120\u00ec\u00b0\u00a8\u00eb\u012d\u00a8": 5256, "\u0120\u00ec\u012d\u0143": 5257, "\u0120\u00eb\u012d\u00b9\u00ec\u00b4\u012a": 5258, "\u0120\u00ec\u013f\u00b8\u00ec\u0142\u0137\u00eb\u00b0\u013d": 5259, "\u012051": 5260, "\u0120\u00ec\u0140\u0142\u00ec\u012d\u013e": 5261, "\u0120\u00ea\u00b8\u00b0\u00ec\u0140\u00ac": 5262, "\u0120\u00ec\u013a\u012a\u00ec\u00b8\u00a1": 5263, "\u0120\u00ec\u00b6\u013e\u00ec\u0142\u0126": 5264, "\u0120\u00ec\u0126\u0142\u00ec\u00b6\u013e": 5265, "\u00ea\u00b3\u0142\u00ec\u013c\u0136": 5266, "\u0120\u00ea\u00b1\u00b0\u00eb\u00a1\u0142": 5267, "\u0120\u00ed\u012e\u00a8\u00eb\u00b0\u00b0": 5268, "\u0120\u00eb\u0126\u012e": 5269, "\u00eb\u012f\u0136\u00eb\u012d\u012a": 5270, "\u0120\u00ec\u0142\u013e\u00ec\u013f\u00bc": 5271, "\u0120\u00eb\u0124\u00a8\u00eb\u00b6\u0122": 5272, "\u0120\u00ec\u012d\u00a4\u00ed\u0139\u013a": 5273, "\u0120\u00ec\u013d\u0122\u00ec\u00a7\u0123\u00ec\u0140\u0126": 5274, "\u0120\u00eb\u013f\u0126": 5275, "\u00b5\u00ea": 5276, "\u013b\u00ea": 5277, "\u0120\u00eb\u00b3\u00b4\u00ec\u0137\u012a": 5278, "97": 5279, "\u00b1\u00eb": 5280, "\u0120\u00ed\u0125\u0122\u00ea\u00b2\u00a9": 5281, "\u00ed\u0131\u012b\u00ea\u00b7\u0142": 5282, "\u0120\u00ed\u013b\u012f\u00ec\u00bd\u00a9": 5283, "\u00ec\u0138\u00b4\u00ec\u013f\u013a": 5284, "gr": 5285, "\u0120\u00ec\u0140\u00ac\u00ea\u00b1\u00b4\u00ec\u00b6\u0137": 5286, "\u00bb\u00ac": 5287, "\u0120\u00ea\u00b5\u00ac\u00eb\u00b6\u0126": 5288, "\u0120\u00eb\u00b6\u0122\u00ec\u0124\u00b0\u00ec\u012d\u013e": 5289, "\u0120nh": 5290, "\u0120\u00ed\u012e\u012e\u00ed\u012c\u00b8\u00eb\u0126\u012a": 5291, "\u00ec\u0137\u012a\u00ec\u0142\u0137": 5292, "\u0120\u00ed\u0130\u00bc\u00ec\u00b9\u013a": 5293, "\u00ec\u00a3\u00bc\u00ea\u00b0\u0122": 5294, "\u00ec\u00b4\u012a\u00ec\u013f\u013a": 5295, "\u00eb\u00b8\u012e\u00eb\u00a6\u00ac": 5296, "\u00ec\u0140\u012b": 5297, "\u0120\u00eb\u00b3\u00b4\u00ea\u00b8\u012b": 5298, "\u0120\u00eb\u00b2\u00a4\u00ec\u00b2\u013a": 5299, "\u0120\u00ec\u00b5\u013e\u00ec\u013c\u00b0": 5300, "\u0120\u00eb\u0131\u0126\u00eb\u0126\u0132\u00eb\u0135\u013e": 5301, "\u00ec\u013e\u012a": 5302, "\u0120\u00ed\u012e\u00a8\u00ed\u0126\u00b4": 5303, "\u00ea\u00b0\u0126\u00eb\u012d\u00b4\u00ed\u013c\u012e": 5304, "\u0126\u00ec\u0141\u0123": 5305, "\u00eb\u0135\u00af\u00ec\u013f\u00b4": 5306, "\u00ea\u00b5\u0143\u00ea\u00b0\u0122": 5307, "\u00eb\u00a1\u013e\u00eb\u0135\u013e": 5308, "\u01202005": 5309, "\u00eb\u012d\u00a4\u00eb\u012d\u012a": 5310, "\u00a7\u013f": 5311, "\u00ea\u00b6\u012e\u00ec\u013f\u013a": 5312, "\u0120\u00ed\u0125\u013f\u00ec\u012d\u013e": 5313, "eo": 5314, "\u00ea\u00b8\u00b0\u00ec\u0124\u00ac": 5315, "\u00ec\u0142\u0126\u00ec\u0141\u0123": 5316, "\u0120\u00eb\u012d\u00a8\u00ea\u00b8\u00b0": 5317, "94": 5318, "\u0120\u00ec\u0124\u00ac\u00ed\u0129\u00b4": 5319, "\u0120\u00ec\u013f\u013a\u00ed\u0137\u013e": 5320, "\u0120\u00ec\u0137\u012e\u00ec\u0137\u0126": 5321, "\u0120\u00eb\u0135\u00b1\u00ec\u0140\u00a5\u00ec\u013f\u00b8\u00eb\u00ac\u00bc": 5322, "\u012053": 5323, "tr": 5324, "\u00ec\u00a6\u012a\u00eb\u012d\u012a\u00ec\u012c\u00a4": 5325, "\u0120\u00ec\u012a\u013e\u00eb\u00a7\u00a4\u00eb\u0131\u0126": 5326, "\u0120\u00ec\u0125\u013f\u00ea\u00b8\u00b4": 5327, "\u0120\u00ed\u0128\u0142\u00eb\u012e\u0122": 5328, "ew": 5329, "\u0120\u00ed\u0127\u012e\u00eb\u00a7\u012a": 5330, "\u00ed\u013f\u013a": 5331, "\u0120lv": 5332, "\u0120on": 5333,
[...]
