#version: 0.2
Ġ ì
ì Ŀ
Ġ ë
Ġ ê
í ķ
ë ĭ
Ġ í
ì Ĺ
ì ŀ
ì ł
ê ³
Ŀ ´
ê °
ëĭ ¤
ĭ ¤
ì Ħ
Ġ .
ë Ĭ
ì §
ìĿ ´
ëĬ Ķ
Ĺ Ĳ
ìĹ Ĳ
Ĭ Ķ
ì ĭ
ì ķ
ë ¡
ê ¸
ì ľ
ê ²
Ŀ Ħ
ìĿ Ħ
Ŀ ĺ
ë ı
ì Ĥ
ë Ĥ
ë °
ìĿ ĺ
ë §
Ġì ŀ
íķ ĺ
ķ ĺ
ë¡ ľ
íķ ľ
ê µ
ë ¥
Ġì ł
ê³ ł
ë ¶
Ŀ ¼
ë ĵ
ì ļ
° Ģ
Į Ģ
¡ ľ
ì ĺ
ê° Ģ
³ ł
ë ¦
ķ ľ
ì ĸ
ì Ľ
ë ³
ì§ Ģ
Ŀ Ģ
ìĿ Ģ
§ Ģ
ì ĥ
¥ ¼
ì Ĭ
ì Ī
ìĦ ľ
ë¥ ¼
Ġì Ŀ´
¼ ë
Ġë °
Ġ E
í ĸ
íķ ´
ëı Ħ
Ġì ķ
Ġë §
ê¸ °
Ġê ²
ë ¬
í Ļ
Ŀ ¸
¸ °
ë ł
Ġì Ĺ
ë ©
ì ²
Ġ 1
ë ª
í ĺ
ê ·
Ġì Ħ
ë¦ ¬
ë Į
Ġê °
ì Ĩ
Ġìŀ Ī
ì £
Ġì ĭ
ìĿ ¸
ìľ ¼
Ġë ĮĢ
ë Ĳ
Ġì ĺ
Ġì Ĥ
Ġë Ĥ
Ġ 2
ìľ¼ ë¡ľ
ìŀ Ĳ
ìŀ ¥
ı Ħ
ìĤ ¬
ìĭ ľ
ì Ļ
Ġ â
ìĽ Ĳ
ìĬ ¤
ì °
ë ħ
ì ¤
ķ ´
Ġë ¶
ì ¹
ë ²
ìĹĲ ìĦľ
í ļ
ìĸ ´
Ġì Ī
ë Ŀ¼
â Ģ
ĸ Ī
Ġê µ
ë į
ì ¡
ë ¯
Ġâ Ģ
Ġì Ŀ¼
ê ´
Ġê ³
ê³ ¼
Ġë ³
ë ¹
Ġì ľ
íĸ Ī
ì ¶
ë ĮĢ
ĠìĤ ¬
ê ±
ìł ķ
ë¶ Ģ
Ġì §Ģ
ĠìĪ ĺ
Ġê ¸°
Ġê ·
ë ŀ
Ġë ĵ
í ĥ
Ġìł Ħ
í Ĭ
Ġë ª
ìĥ ģ
ëĵ ¤
ë Ł
Ġì ĥ
Ġë ħ
ë© ´
Ġê °Ģ
Ġìĭ ľ
Ġ ,
³ ¼
ëĤ ĺ
Ġ íķľ
í Į
ê² Į
êµ Ń
ìĦ ±
ĸ ´
í ı
ìł ľ
ĵ ¤
Ġì Ľ
Ġê· ¸
ìł ģ
Ġë ¬
ëĭ Ī
íļ Į
Ġí Ļ
Ġë ĭ
Ġ íķ
ìĪ ĺ
ìĹ ħ
í Ĩ
Ġí ĺ
ì£ ¼
ìł Ħ
ê ¹
Ġì ¤
ë³ ´
Ġê² ĥ
Ġìł ķ
£ ¼
ìĻ Ģ
ìķ Ħ
íĻ Ķ
Ġëĵ ±
´ ì
Ġ íķĺ
í Ķ
Ġì °
Ġì ļ
Ġìķ Ħ
Ġë³ ´
Ġ 3
ë§ Į
Ġì Ĩ
Ġì §
Ġìł ľ
ëı Ļ
íĬ ¸
êµ ¬
Ġì ²
í Ħ
Į ì
Ĳ ĺ
Ļ Ģ
í Ľ
Ġê³ µ
ìļ ©
Ġì ¶
ł ģ
2 0
Ġìľ Ħ
² Į
Ġê² ½
Ġê° ľ
Ġì¤ ĳ
Ġëħ Ħ
Ġì Ŀ¸
Ġë ¹
Ġìŀ Ĳ
ì¹ ĺ
Ġë ı
Ģ ì
Ġ2 0
Ġê ´
Ġê ±
Ġêµ Ń
Ġì £¼
ê³ Ħ
Ĺ Ī
ķ ł
ì§ Ħ
Ġìĥ ģ
ĠëĤ ĺ
ë Ħ
ëĵ ľ
íĦ °
Ġë ¯
© ´
Ġë§ Į
ìĤ °
Ġìĺ ¤
Ġë ĭ¤
Ġì ¡
Ġí ı
ì ´
ë¬ ¸
Ġë¶ Ģ
í ģ
ì ¢
ëĭ ¹
ë¹ Ħ
ëĭ¤ ê³ł
ë Ķ
ì ¦
íķ ł
Ġê ³ł
Ġì ĸ
ìĨ Į
ìĹ Ī
ê´ Ģ
Ħ ľ
í ĳ
ë £
ë Ŀ
ë© °
ê° Ħ
ê³ µ
íĸ ī
Ĭ ¤
í ŀ
© °
ìĦ ł
ĠìĹ ¬
ìľ Ħ
Ġì¡ °
Ġí Į
Ġ Â
Ġì Ŀĺ
ì µ
Ī ì
° ì
Ġ 5
ëŁ ¬
ìŀ ¬
ëĲ ĺ
ķ Ħ
¬ ì
ĠëĤ ´
Ġ 4
Ġë ²
Ġìľ ł
Ġê´ Ģ
ŀ Ĳ
Â ·
O S
E O
ĠE OS
S T
A R
T A
AR T
ST ART
Ġëª ¨
ĠìĨ Į
ìĿ ¼
ĠÂ ·
ìļ °
ĠìĦ ľ
Ġë į
ì² ´
ìĺ ģ
ĭ Ī
Ġë¹ Ħ
ìĭ ł
ëĲ ľ
ëł ¥
0 0
ľ ì
ëĭ ¨
Ġí Ĩ
Ġì µ
Ġìµ ľ
Ġë¯ ¸
ìķ ¼
í İ
ëł ¤
ĠìĽ Ķ
ëį °
Ġê ¹
Ħ ì
ë ĳ
Ĳ ľ
ì¡ °
ìļ Ķ
Ġë§ Ī
ìķ Ī
íĨ µ
íĳ ľ
ŀ ¥
í Ĵ
Ġê ¸
ëĭĪ ëĭ¤
ìĦ ¸
Ġìĭ ł
Ġ íķ´
Ġ %
ĠìĹ °
ë ķ
ê¹ Į
ëª ħ
ĠìĦ ł
ìĹ ¬
ë¬ ´
¼ ì
ê¸ Ī
ìĭ Ŀ
Ġí Ķ
ë¯ ¸
ì ±
ìĹ Ń
ê ¶
ê± °
ëĤ ´
Ī ë
Ġí ļ
Ġë ıĦ
ëĤ ľ
Ġë° ľ
Ġë¬ ¸
Ġë¶ Ħ
ë¥ ´
ë§ Ī
Ġì ¹
Ĳ ì
ĺ ì
íŀ Ī
Ġê° ķ
Ġë Ķ
Ġí Ĭ
êµ Ĳ
Ġ20 1
ëŀ ĺ
ĠìĽ Ĳ
Ġì Ļ
ì ½
ĠìĦ ¸
ë¯ ¼
Ġì ´
ĭ ľ
Ġí ĥ
Ġìĺ ģ
ê² ½
ë Ĩ
¶ Ģ
í Ĺ
Ġêµ ¬
Ġë§ Ĳ
ìľ ł
íķ Ļ
Ġ 6
Ġëı Ļ
ķ Į
1 0
ì§Ģ ë§Į
Ġìķ Ĭ
Ġë° ©
ĠíĨ µ
ĠìĹ Ĩ
ìļ ´
Ġì ĸ´
ķ Ļ
í Ĥ
íķľ ëĭ¤
Ġ -
íĽ Ħ
Ġê¹ Ģ
Ġì ¢
ìĥ Ŀ
Ġì Ĭ¤
Ġí Ľ
Ġìķ Ī
í ħ
ë¶ Ħ
ìĬ µ
Ġìļ °
Ġë° Ķ
ì¤ ĳ
ìļ ¸
Ġìŀ ¥
Ġë ķĮ
í Ī
ĠìĦ ±
ë° ©
ìĹ °
ĠâĢ Ļ
Ġì° ¨
Ġíĺ Ħ
Ĥ ĺ
íĥ Ģ
Ġë Ĩ
ìĨ į
Ġë Ħ
ĠâĢ ĺ
ê¹Į ì§Ģ
Ħ ±
Ġë¬ ´
Ġì§ Ħ
Ġì ĭ¤
ĠâĢ ľ
Ġìĺ Ī
ì° ¨
Ġëª ħ
¼ ê
ìĺ ¤
Ġ 7
¦ ¬
ë¡ Ŀ
Ľ Ĳ
ë° ľ
ì¶ ľ
ëį ĺ
ĠâĢ Ŀ
ë¦ °
Ġíļ Į
Ġì¶ Ķ
Ĺ ħ
ìĸ ĳ
ìŀ ħ
Ġê± °
Ġëĭ ¹
ë¬ ¼
Ġë° ĺ
íĴ Ī
ìŀ Ħ
ĠíĽ Ħ
ë ¸
ķ ¨
ê¶ Į
¸ ì
ëĭ¤ ëĬĶ
ê² ©
ëł ¹
í ĭ
Ġìĥ Ŀ
Ġ 8
į ĺ
ëĿ¼ ê³ł
ëª ¨
Ġìł ģ
ìĹĲ ê²Į
ë° ĺ
Ĥ ¬
í Ŀ
ì² Ń
ìĦ Ŀ
ìł Ĳ
Ġì§Ģ ëĤľ
ìĿ Į
ĠíĬ ¹
ë ĺ
ì¤ Ģ
² ł
Ħ ë
Ġë§ ¤
Ġë ĺ
Ŀ Į
ë¶Ģ íĦ°
ë¥ ¸
Ġëħ ¸
ëĬ ¥
ìŀ ĳ
µ í
ë©´ ìĦľ
ë ī
Ġí ĸ
ê² ł
ĭ ¹
ľ ¼
ł ķ
ê¸ ī
Ġêµ Ĳ
¤ ì
ëł ¨
Ġ 9
Ġëį Ķ
ë² ķ
ëł Ī
ĠëĶ °
Ġê³ Ħ
Ġëĺ Ĳ
Ġìŀ ¬
Ġì ¦
íģ ¬
Ġê² °
Ġí ģ
Ġë¶ Ī
íĺ ¸
§ Į
ľ ë
ìĭ ¬
µ ë
´ ë
ł ì
ê° ģ
ìľ ¼ë
ê° Ĳ
ë ¨
Ġ 0
ê° ľ
ìĦ ¤
ĭ ¨
Ġ1 0
ĠëĮĢ íķľ
ĠíĻ ķ
ì ĭ¤
ê± ´
Ġìĺ ¬
ìĺ Ģ
Ķ ì
íķ ©
Ġíı ī
ĠìĹ ´
íĶ Ħ
ĠìĦľ ìļ¸
ĠëĤ ¨
Ġëĭ ¨
Ġì¶ ľ
Ļ Ķ
ĠìĦ ¤
Ġí İ
ë£ Į
Ġì ĹĲ
Ġê± ´
Ġíķľ êµŃ
Ġì° ¸
Ġìĸ µ
Ģ ë
ìķ ĺ
ë¡ ł
ì »
íĺ ķ
ìĬµ ëĭĪëĭ¤
Ġë° Ľ
Ġë° Ŀ
³ Ħ
ì¢ ħ
ì§ ģ
Ġíı ¬
ëħ Ħ
Ġë Ĳĺ
ë§ ¤
ī ´
ì ¸
ìĪ ł
Ġì ½
ł ľ
Ĳ Ĳ
ë³ ¸
ë¦ ½
Ġë ī´
1 9
Ġë ĳ
ë Ī
Ġí ĸĪ
ĠìľĦ íķ´
ìķ ½
ķ ì
ľ Ħ
ëĤ ¨
ëĭ ´
ł Ħ
ĠíĻ Ķ
ì ħ
Ġ1 9
Ġìŀ ħ
Ġ '
ê »
ë ģ
Ġë° °
Ġ :
Ġì² Ń
ķ ©
íĨ ł
Ġê¸ Ī
ëĤ ł
ĠíĮ Ĳ
Ġ s
ê· ¸
ë² Ħ
ì Ķ
ħ ì
ëŀ Į
Ġí Ī
Ġë°Ŀ íĺ
Ġ ã
ê· ¼
íĮ Į
Ġë¶ ģ
Ġì ±
íı ¬
íĨµ ëł¹
êµ °
Ġê° Ĳ
ëĬĶ ëį°
Ġë§ İ
ĠìĹ Ń
ëĭ ¬
Ĺ ¬
Ġëĭ ¬
Ġë Ĭ
ë² Ī
Ġ c
Ġìŀ ĳ
ĠíĪ ¬
¶ Į
ì¹ ´
Ġìķ Į
íĥ ľ
ëŁ ī
Ġê° Ļ
ì² ľ
ĠëĮĢ íĨµëł¹
Ġì¦ Ŀ
Ġì £
Ġê³ ¼
ëĳ Ĳ
ë¶ ģ
ì² ĺ
Ġíķ ¨
Ġìļ ´
ëĲ Ĳ
ĠìĻ ¸
ĳ ì
ê» ĺ
Ġë Ŀ¼
Ġë°Ŀíĺ Ķ
íĹ ĺ
Ġ a
Ġíĸ ī
ìĬ ¹
ë£ ¨
ë ĸ
íĻ ĺ
Ġìł Ĳ
Ġë° ı
íĤ ¤
ĠíĶ Ħ
3 0
ì§ Ī
Ġë ©
ĠíĮ Į
ìľ ¡
ê² °
ë¥ ĺ
ë ´
Ġì¢ ħ
Ġëĵ ¤
Ġì´ Ī
ì± ħ
ìĸ ¸
1 1
Ġì§ ģ
ë³ Ħ
Ġ m
ĠëĨ Ĵ
ìľĦ ìĽĲ
ĠíĨµ íķ´
ìł Ģ
1 2
Ġë° ķ
± ì
Ġìķ ŀ
Ġë ¡ľ
³ µ
ìĻ ¸
ĠëķĮ ë¬¸
íĭ °
ì ¼
µ ì
Ġíķ Ļ
° ë
íĮ Ĳ
ë§ Ŀ
Ġë³ ¸
Ġìłķ ë¶Ģ
Ġë Ī
ë ĥ
ëĶ Ķ
ë° Ķ
Ġëĳ Ĳ
Ġì´ Ŀ
Ġìļ Ķ
Ġíĺ ¸
ëĵ ł
íĸ ¥
ĠíĶ ¼
ë³ µ
· ¨
ìľ¼ë ©°
Ġìł Ģ
Ġì½ Ķ
ĠëĮĢ íĳľ
ĠíĻ ľ
íĶ ¼
Ġìŀ Ħ
Ġì Ĭ
ëĿ¼ ëĬĶ
³ ´
¸ ë
ĠìĤ °
ëħ ¸
íļ į
ëĲľ ëĭ¤
Ķ ¨
Ġíķľ ëĭ¤
Ġë¯ ¼
5 0
Ġê²½ ìļ°
Ġí Ŀ
Ġíķ ł
ķ Ń
ìĺ ¨
íĺ Ħ
Ġë ¸
Ġ t
Ġíķ¨ ê»ĺ
ëŀ ĳ
ì° °
ĠìķĦ ëĭĪ
íķ Ń
ĺ Ģ
íĥ Ŀ
ë³´ ëĭ¤
Ġê´Ģ ëł¨
Ġ1 2
Ġë¬ ¼
Ķ ë
Ĳ ł
Ġê² Į
ł Ī
Ġìĸ ĳ
ë¦ Ħ
ê° ķ
ì¦ Ī
ĠëĮĢ íķ´
Ļ ì
ìľ ¨
Ġì§Ģ ìĹŃ
Ġ1 1
Ġëª »
Ġì¹ ´
ĠìĹ ħ
ì¡ Į
Ġë¯¸ êµŃ
ĠìĿ´ ë²Ī
Ġê° Ħ
ëŁ °
ķ ¼
¡ Ŀ
Ġì »
Ġíĺ ĳ
Ġì§ ĳ
íĻ ©
Ġë Ĳľ
ĥ ģ
Į ë
Ń ì
Ġíķ Ħ
Ġê°Ģ ëĬ¥
íİ ¸
ĠìĿ´ íĽĦ
© ì
Ġ k
ì¦ Ŀ
Ġìĭ ¬
íĪ ¬
Ġëı ħ
ì º
íĺ ĳ
ì¡ ±
Ġìļ° ë¦¬
ìĿ µ
Ġê° ģ
íķ ¨
ë³ ĳ
ëŁ ¼
Ġì² ľ
ëŀ Ģ
Ġì² ´
Ġì§Ħ íĸī
Ġíĥ Ģ
Ġìĥ Ī
ëĵ ±
Ġ b
Ġë ģ
ì¶ ķ
Ġë ¦¬
Ġê´Ģ ê³Ħ
¨ ì
Ġë§ ŀ
ë Ĵ
Ġ l
ì ·
ëª ©
ĠìĿĺ ìĽĲ
Ġë² Ī
Ġë³ Ģ
ĠìľĦ íķľ
Ġì² ĺ
ĠâĢ ¦
ê· ¹
Ġ p
ìĽ Į
Ġê´ ĳ
Ġ i
ĠìĤ¬ ëŀĮ
ëĿ ½
Ġë ¨
Ġì¢ ĭ
Ġëª ©
Ġ "
ĠìĿ´ ìĥģ
Ġìķ ½
ĠìĤ¬ ìļ©
Ġì§Ģ ìĽĲ
ë¦ ¼
1 5
¼ í
. .
ĠìĤ ¼
ê² ¬
Ġë Ĵ
ìĭľ ìĬ¤
ĠêµŃ íļĮ
° Ħ
Ġíģ ¬
Ġ w
ĠìĤ¬ ìĹħ
Ġì ·¨
Ĳ ë
Ġê· ľ
Ġí ĳ
ê´ ĳ
Ġëį °
ĠíĻ ĺ
Ġíİ ¸
Ġê² Ģ
Ģ í
ì´ Ī
Ġì ¸
ëĭ¤ ë©°
Ġì£ ¼ë
Ġê¸° ìĹħ
ĠìĤ ´
ìľ µ
ëıĦ ë¡Ŀ
Ġë¬¸ ìłľ
Ġê²½ ê¸°
ì½ Ķ
ĠìĪ ľ
Ġíķ ©
Ġ3 0
ĠìĤ¬ ì§Ħ
Ġí ŀ
t h
° ľ
Ġë² ķ
Ĺ Ń
ë¸ Į
ĠìĿ´ ëĤł
Ĺ °
Ġì± Ħ
ê· ľ
ëį Ķ
ë° °
Ġëĵ ľ
ìł ¸
ìĨ ¡
ı Ļ
ĠìĨ į
ĠìĹ¬ ëŁ¬
ê° Ŀ
ì ĵ
ĭ ´
Ġêµ °
ģ ì
Ħ ł
ìĶ ¨
Ġì¶ ©
ìł Ī
ĠëĶ° ëĿ¼
Ġì¹ ĺ
ëĦ ¤
Ġëı Į
ìħ ĺ
Ł ģ
Ġë ĸ
Ŀ ĳ
Ġì° ½
Ħ ¤
íħ Į
ĠìĹ´ ë¦°
ĠêµŃ ë¯¼
ĠíĪ¬ ìŀĲ
1 8
ã ģ
Ġ d
ëĦ Ī
Ġìĭľ ìŀĳ
ìĽ Ķ
Ġìĭľ ìŀ¥
00 0
ĠíĺĦ ìŀ¬
íĻ ľ
¬ í
ĠëĴ ¤
1 3
Ġí Ĵ
íı ī
Ġì º
Ġ g
í ľ
Ġì¤ĳ êµŃ
Ġ1 5
Ġìĭľ ê°Ħ
Ġ20 0
ìĬ¤ íĬ¸
ë³ Ģ
ĠíĬ ¸
ì§ ĳ
Ġìĺ¤ íĽĦ
Ġë¶ģ íķľ
§ Ī
Ġìĺ¤ ìłĦ
ìĿ´ ëĤĺ
ë¡ Ģ
ë¥ ł
Ġë łĪ
Ġìĺ¬ íķ´
ĵ ľ
Ġê¸° ë¡Ŀ
ĠêµŃ ëĤ´
Ġê°Ģ ìŀ¥
Ġì§ĢëĤľ íķ´
ê¸° ìĹħ
Ġëī´ ìĬ¤
ã Ģ
íļĮ ìĿĺ
ë° ķ
ĠíĽĦ ë³´
Ġ1 8
ī ì
Ġì ĵ
ì° ½
ë¶ Ī
Ġ201 8
ĠìĻ Ħ
Ġë© Ķ
ëŀ ľ
ëłĪ ìĿ´
Ġê·¸ ëŁ¬
Ġ !
ì¡ ´
2 5
Ġê²½ ìłľ
Ġíĳ ľ
Ġëĭ¤ ë¥¸
ìķ ¡
ĠìĺĪ ìłķ
ìĺ Ī
ì² ł
ĭ ł
Ġëª¨ ëĳĲ
ë§ Ĳ
Ġëī´ ìĭľìĬ¤
ĠíķĦ ìļĶ
íİ ĺ
ĠìĨ Ĳ
Ġê³ ³
¹ ì
Ġ1 3
Ġã Ģ
Ġì¤ Ħ
1 4
ĭ ¬
Ġë¸ Į
ĠíĮ ¨
ì ¿
¬ ë
ķ Ī
ĠëĦ Ī
² ĺ
ë¹Ħ ìĬ¤
i n
ĠíĶĦ ë¡ľ
Ġìµľ ê·¼
ĠìķĦ ìĿ´
Ġìŀ ĺ
ĠíĻ į
Ġê´Ģê³Ħ ìŀĲ
ĠëĨ į
ëĵ Ŀ
ìĦ ¼
1 6
ĠíĨ ł
Ħ ¸
Ġ ?
Ġê³Ħ íļį
Ġì¦Ŀ ê°Ģ
Ġíķĺ ëĤĺ
Ġìĸ ¸
ĠìĥĿ ê°ģ
Ġë³ µ
íķ´ ìķ¼
4 0
Ġìĥģ íĻ©
ëı ħ
Ġì° ¾
Ġ f
ìĭľ ìŀ¥
ìķ ħ
ìł ĳ
³ Ĳ
ĠëĶ Ķ
Ġíķ Ń
ĠìĬ ¹
Ġë§Į ëĵ¤
ĠëĬ ĺ
Ġë² Ħ
ê¸ ¸
ĠëĤ ł
ĺ ķ
Ġ n
ë© Ķ
ħ ë
ë° Ľ
Ġìļ´ ìĺģ
ëĮĢ ë¡ľ
ìľĦìĽĲ íļĮ
Ġê·¸ ë¦¬
í į
Ŀ µ
ëĲ ł
Ġ201 7
ŀ ¬
Ġ /
Ġë ¥¼
ë² Į
ìĽ Ģ
Ġì ĿĢ
ĠìĦ¸ ê³Ħ
¥ ì
ľ ¨
Ġíĥ ľ
ĠëĲľ ëĭ¤
Ġì¤ Ģ
Ġìłķ ëıĦ
ĠìĦ¤ ëªħ
1 7
Ġê± ¸
Ġëĭ ´
ĠìĤ¬ ìĭ¤
Ģ ë¡ľ
ì Łģ
Ġ1 6
n e
Ġìłģ ê·¹
ĠëĦ ĺ
Ġì ĿĮ
ĠíĬ¹ íŀĪ
Ġ1 4
ĠêµĲ ìľ¡
Ġê ¶Į
ı ¼
ëĿ¼ ë©°
íķĻ êµĲ
Ġìĥģ ìĬ¹
Ġíĺ ķ
ìŀ Ī
Ġíı Ń
Ġ1 00
Ġê¸° ëĭ¤
Ġíģ °
Ġê¸Ī ìľµ
ĠëĪ Ī
Ġê±° ëŀĺ
ĠëĶ° ë¥´
ĠëĮĢ ìĥģ
ĠìĿ¼ ë³¸
Ī ĺ
ëł ¸
ì ī
¡ ł
ë² Ķ
ĠìĿ´ ìļ©
Ġë ´
Ġ2 5
ìĥ ī
ĠêµŃ ê°Ģ
Ġíļ ¨
§ Ħ
Ġìĭ Ŀ
ëı ¼
ì¶ Ķ
¸ Ī
Ġëĭ¤ ìĸĳ
ìĪ ľ
íĶ Į
i s
Ġê¸° ìĪł
Ġìĺ ¨
Ġê°ľ ë°ľ
½ ì
Ġë ©´
ìĤ¬ ìĹħ
¬ ¸
Ġíĸ ¥
Ġ1 7
2 1
ĠëĦ ¤
Ġê· ¼
ĠìĹ° êµ¬
Ġí ħ
2 2
ĠíĶ Į
Ġë² ł
ë ¿
ķ µ
ĠëĤĺ íĥĢ
ê±° ëĤĺ
Ġê²° ê³¼
2 4
ĠíĮĲ ëĭ¨
ìľ¼ ëĤĺ
ĺ ģ
ĠìĤ¬ íļĮ
ĠëĺĲ ëĬĶ
Ġì¶Ķ ì§Ħ
ìĹ ´
ŀ Ī
Ġëĭ¤ ìĭľ
Ġ h
ĭ Ŀ
ëĭ¤ ê°Ģ
ĠëĪ Ħ
ìĹ Ķ
ª ½
Ġë¶Ģ ìĤ°
c o
¤ ë
ëł ĩ
¸ ł
Ġìļ ©
íķ´ ìĦľ
ê² Ģ
Ġë°ľ íĳľ
e r
ëĬ ĺ
ëĬĶ ëĭ¤
Ġìķ ¼
ëĮĢ íĳľ
Ġí Ĺ
Ġìĺģ ìĥģ
µ ¬
Ġ e
Ġê°Ģ ì¹ĺ
Ġìķ ł
ë§ ī
ĠìĹ¬ëŁ¬ ë¶Ħ
ìĿ ĳ
ł Ĳ
ìĻ Ķ
Ġìł Ī
Ŀ ì
ļ ©
ê· ł
Ġ o
Ġì¶Ķ ê°Ģ
Ł ¬
2 3
ì§ ¸
Ġì² ł
Ġíŀ ĺ
ë ľ
Ġìŀ¥ ê´Ģ
ìľ¼ë ©´
íĥ Ħ
Ġë°ĺ ìĺģ
Ġì¸ ¡
Ġê¸° ì¤Ģ
Ħ ¼
ĠíĻķ ëĮĢ
w i
ĠìłĦ ë¬¸
ĠíĺĦ ëĮĢ
Ġì² «
ëĦ Ĳ
Ġë ©°
Ġ =
Ģ ê
ìĸ´ ìĦľ
Ĥ ¤
ĠíĮĲ ë§¤
ìĦ¼ íĦ°
ì¹ ¨
ëĤ ¬
ĠëĮĢ ë¹Ħ
ĠìŀĲ ìľł
ì£¼ ëĭ¹
ìŀħ ëĭĪëĭ¤
ì´ Ŀ
Ġì¹ ľ
Ġìłķ ì±ħ
ëħ Ĳ
² ½
Ġìĵ °
íħ ľ
ĠìĤ¬ ëŀĳ
Ġìłľ ë³´
6 0
ìµ ľ
Ġì°¸ ìĹ¬
ì²ĺ ëŁ¼
ë¦½ ëĭĪëĭ¤
o m
Ġì¡° ìĤ¬
ê² ¨
ëŀľ ëĵľ
Ġë° ±
ĠëĤ ľ
Ġ S
ĠìĤ¬ ìĿ´
ĠìĤ¼ ìĦ±
Ġëª¨ ëĵł
ëħ Ģ
Ġì¶ ķ
Ġìĸ´ ëĸ
a n
ìĭľ ìķĦ
ŀ Ħ
ìŀ¬ ìĿ¸
Ġì§ Ī
Ġìłľ ê³µ
Ġ2 4
ë¨ ¸
ļ Ķ
° Ľ
Ġìł ĳ
Ġê¸ ī
ĠìĤ° ìĹħ
íĿ ¬
Ġê°ķ íĻĶ
Ġê¸° ìŀĲ
ĥ Ŀ
Ġëĭ¹ ìĭľ
Ġíıī ê°Ģ
¥ ł
Ġë¬¸ ìŀ¬ìĿ¸
Ġë³´ ëĤ´
ĠëĤ ®
ìķ ł
ìĺģ ìĥģ
ê ¼
ĠìĦ± ìŀ¥
ĠìĪĺ ì¤Ģ
Ġí ĹĪ
Ġëª¨ ìĬµ
Ġê·¸ë¦¬ ê³ł
Ġê¸°ëĭ¤ ë¦½ëĭĪëĭ¤
íĺ ģ
i d
Ġëĵ¤ ìĸ´
ĠìĿ¸ ìĤ¬
Ġê°Ģ ì§Ģ
ĠëĺĲ íķľ
2 7
Ġ START
Ġì ĿĦ
Ġë Ĳł
Ġë³´ ìĿ´
Ġìµľ ëĮĢ
o n
Ġëģ Ŀ
Ġëĭ¤ ìĿĮ
ê² ĥ
Ġì°¸ ìĦĿ
ê ¾
Ġ r
Ġí ľ
Ġê° ĸ
ëŁ ½
Ġê¸° ëĮĢ
â ĸ
ìķ Ļ
Ġë³ ĳ
ľ ¡
Ġìº Ĳ
¼ Ģ
íģ ¼
Ġë°ľ ìĥĿ
íķľ ëĭ¤ê³ł
ĠìĦľ ë¹ĦìĬ¤
Ġì» ¤
Ġë§ ī
Ġê³µ ê²©
Ġ2 3
Ġëħ ¼
Ġê·ľ ëª¨
Ġìµľ ê³ł
2 8
ë¡ľ ìļ´
ĠìĿ´ ìĸ´
Ġì± ħ
ì° ©
Ġìłķ ìĥģ
Ġëĵ± ìĿĺ
ª ħ
Ġ5 0
2 6
ĠíĶ¼ íķ´
Ġì§Ģ ê¸Ī
Ġìŀ ¡
ì¹ ľ
ë£ ¹
ì ĩ
ëĬ Ĳ
ĠìłĦ êµŃ
ë° ±
Ĥ °
ëķ Į
ĠìľĦ ìĽĲ
¿ Ĳ
Ġë§Ī ëł¨
ĺ ê
Ġì²Ń ìĻĢ
ŀ Ģ
ëŀ µ
ê° Ī
ĺ ë
ëĥ Ĳ
ã İ
Ġíĸī ìĤ¬
Ġëĵ± ìĿ´
Ń ë
Ġë¸ Ķ
8 0
ìĺ ¬
Ġê²° ìłķ
ì į
¨ ìĸ´
Ġë¬¸ íĻĶ
Ġê²½ ì°°
Ġìłľ íĴĪ
Ġíķ µ
Ġã İ
ìļ´ ëį°
ìĿĢ íĸī
7 0
ìĿ¸ ëĭ¤
Ġë¹ ł
ĠìłĦ ë§Ŀ
Ġê¸ ¸
ĠìĿ´ ëŁ°
ì° ¬
Ġì²ŃìĻĢ ëĮĢ
Ġì£ ½
Ġë³ Ħ
ë¦ Ń
ìŀĲ ë¦¬
íı Ń
ĠíĻķ ìĿ¸
§ ¸
¹ ĺ
¤ Ħ
ë¦ ´
Ġâ ĸ
o u
Ġìļ ¸
Ġë³ ¼
Ġê°ķ ì¡°
ĠìŀĲ ìĭł
h e
Ġê³µ ê°Ĳ
£ ¨
Ġê·¸ëŁ¬ ëĤĺ
Ġë ĬĶ
Ġì ĻĢ
Ġ2 7
Ĥ ´
Ġë°© ë¬¸
ĠëĤ¨ ë¶ģ
Ġ. ..
° ¨
Ġì½Ķ ìĬ¤
Ġí Ĥ¤
Ġì²ĺ ìĿĮ
ĩ ´
ĠìĿ¼ ë¶Ģ
ê¸ ´
ë² ł
Ġê°Ģ ìļ´ëį°
Ġì¡ ´
Ġë ¡
ĺ ¤
Ġì§Ģ ë°©
ìĹ Ĩ
Ġìłķ ì¹ĺ
ì¼ Ģ
ĠíĻ ©
Ġêµ¬ ìĦ±
İ ì
ìĿ´ íĬ¸
Ġíı¬ íķ¨
ê¸ Ģ
ĠìĿ´ ìľł
ĠìĿ´ ë¦Ħ
Ġìŀħ ìŀ¥
µ Ĳ
w s
ĠìłĦ ì²´
ĠëĤ´ ìļ©
ëĭ Į
Ġì§Ģ ìĨį
s t
íį ¼
2 9
êµĲ ìľ¡
Ġë§İ ìĿ´
Ġëĵ± ìŀ¥
ĠìĽĲ ëĤ´
Ġ2 1
° Ĳ
Ġë¶Ħ ìĦĿ
Ġ y
° ê
Ġê ¼
ê³ ¡
Ĺ Ķ
ł ¤
ìĤ° ìĹħ
Ġì£¼ ìŀ¥
° ©
Ġì ī
Ġê·¸ ëŁ°
ìłĦ ìŀĲ
Ġê°ľ ìĦł
Ġíķ´ ëĭ¹
íļĮ ëĭ´
Ġê° Ī
ë¦¬ ìķĦ
ĠìķĮ ëł¤
ëŀ ¨
Ġíħ Į
Ġíİ ĺ
Ġìĥģ ëĮĢ
ĠíĻľ ëıĻ
ìŀĲ ìĿĺ
Ġëıħ ìŀĲ
° ķ
ĠíļĮ ìŀ¥
Ġ2 8
ê ¿
Ġc om
ĠêµŃ ìłľ
ê ½
ĠëĤĺ ìĺ¤
Ġì§ģ ìłĳ
Ġ2 6
Ġíģ ´
ĠìĨ ¡
ë§Ī íĬ¸
´ ê
ì§ ķ
Ġë ²Į
ì£¼ ìĿĺ
Ġê°ľ ìµľ
Ġì£¼ ìļĶ
ëĭ ĺ
ľ ê
¯ ¼
Ġê³µ ëıĻ
Ġíķĺ ëĿ½
Ġìĺģ íĸ¥
Ġë¶Ħ ê¸°
ĠìĺĪ ìĥģ
ìĤ ´
Ġ ~
Ġìĭ¤ ìĭľ
Ġìķ ħ
ĠìĨĮ ì¤ĳ
íħ Ķ
Ġê¸° ê°Ħ
ĠìĿ´ ë¯¸
ëĭ¤ ë©´
ã Ĥ
ëĿ¼ ëıĦ
ĠìŀĲ ë¦¬
ĠëĬ Ĳ
Ġìĥģ íĥľ
ĠìĥĿ ìĤ°
Ġë§¤ ì¶ľ
· ¸
Ġw id
Ġwid th
¦ Ŀ
Ġ2 2
ĠìĿ¼ ë°ĺ
íĮ ¨
Ġê°ľ ìĽĶ
Ħ °
íĻ ķ
ĠíĻĶ ìłľ
íĮ ħ
a r
Ġíļ¨ ê³¼
Ġê°Ģ ê²©
Ġíķľ íİ¸
t o
Ġìĸ ¼
§ ģ
¯ ¸
ë§ ģ
ê¸° ê´Ģ
3 1
Ġë¨ ¹
ìļ ±
Ġê³ł ê°Ŀ
ë² ¤
ĠíĻľ ìļ©
Ġê²Į ìŀĦ
Ġíķ´ ìĻ¸
Ġê³¼ ìłķ
íķ ĳ
ë¨ ¼
íĽ Ī
ìĿ´ ìĬ¤
ĠìľĦ ì¹ĺ
í ĮĢ
ł ¥
Ġìĭľ ë¯¼
ĠìĪĺ ëıĦ
Ġìłķ ë³´
ĠëįĶ ë¶Ī
Ġìłģ ìļ©
l e
ìĭł ìĿĺ
Ġìĺģ ìĹħ
ìĸ¸ ë¡ł
Ġ2 9
Ġìĺ¤ ëĬĺ
ëı Į
Ġ4 0
ĠìĤ¬ ê±´
Ġëĭ¤ ë§Į
ì§Ģ ìĹŃ
Ġê³µ ê°ľ
Ġëĸ ł
Â ł
ê·¸ ëŀ¨
ë¡ ¯
ë¶Ģ ë¡ľ
ê±° ë¦¬
íĥ Ī
ĠëıĦ ìĭľ
Ġë² Ķ
ì± Ħ
ê° Ļ
Ġìľ ¡
ĠíĻĺ ê²½
Ġê´ĳ ì£¼
9 0
Ġì ħ
ĠíķĻ ìĥĿ
ã ĥ
¿ ł
Ġì§Ģ ìłģ
¤ ĳ
ĠìĹ¬ ìĦ±
¥ ĺ
ĠÂ ł
Ġì¶ľ ìĭľ
ĠìĨĮ ë¹Ħ
ĠìļĶ êµ¬
ë¸ Ķ
Ġê´Ģ ë¦¬
Ġìĭ¤ ìłľ
Ĩ Į
Ġë °Ģ
ľ ł
ŀ ĳ
Ġë ĲĲ
ë´ ī
Ġê³ ¨
ĠìĥĪ ë¡ľìļ´
ë° Ģ
ł ë
Ġíĥ Ħ
Ġê³Ħ ìĨį
ĠìķĪ ìłĦ
Ġê· ¹
ĠìĦł ê±°
Ġìłľ ì£¼
ëĬĶ ì§Ģ
o r
ëıĻ ì°¨
ìĬ¤ íĦ°
â Ĩ
ëį ¸
ws is
Ġëª °
ĠìĹŃ ìĭľ
Ġë³´ ìĹ¬
Ġë¬¼ ë¡ł
Ĭ ¸
Ġìĭ ¶
Ġìŀ ł
íĺ ľ
íĶ ½
Ġìĸ´ ëł¤
Ġì¤ĳ ìļĶ
ĠìĦł ìłķ
Ĳ ìĿĺ
¨ ë
ĠìĬ¤ íĥĢ
Ġëĸ ¨ìĸ´
ĠëıĻ ìķĪ
ĠíĬ¹ ë³Ħ
ª ¨
Ġí ĮĢ
Ġê°ľ ìĿ¸
ëĿ¼ ìĿ¸
ìĹ° êµ¬
ĠëĤĺ ìĺ¨
³ ¤
ìĹ ¼
Ġ201 6
ê´Ģ ë¦¬
ìĻ ķ
ĠìĽĲëĤ´ ëĮĢíĳľ
Ģë¡ľ ë²Į
Ġë§Ī ìĿĮ
ìľĦìĽĲ ìŀ¥
Ġâĸ ³
ĠëıĮ ìķĦ
ê²½ ìłľ
Ġë ľ
Ġë¡ ¯
íĮĮ íĬ¸
íĬ ¹
ĠìĹĨ ìĿ´
Ġíĺ ģ
Ġë¯¸ ëŀĺ
ë¯¼ êµŃ
ë¬¸ íĻĶ
Ġê¸° ì¡´
ĠìĻ¸ êµŃ
Ġë¨ ¸
Ġì¤Ģ ë¹Ħ
Ġëħ¼ ìĿĺ
ĠìĻ ķ
ĭ °
ĠëĤ´ ëħĦ
Ġê°Ĳ ìĨĮ
Ġì¤ĳ ìĨĮ
íĪ¬ ìŀĲ
ĠìķĦ ëĭĮ
ĠìĦ± ê³µ
íĤ ¬
Ġìľł ì§Ģ
ì¸ ¡
ĠíļĮ ìĤ¬
Ġê´Ģ ìĭ¬
Ġì¤ĳ ìĭ¬
ĠíĻ Ī
Ġë¶Ħ ìķ¼
ĠìĹ Ħ
ìķ¼ ê¸°
Ġê·¸ ëłĩ
Ġëħ¸ ëł¥
Ġì¸ µ
Ġë¹Ħ ë¡¯
ĠìĿ¸ ì²ľ
ìĿ¸ íĬ¸
Ġíı Ĳ
ëĿ¼ ìĿ´
êµŃ ëĭ¹
ĠìĹĲ ìĦľ
ĠìĦ¤ ì¹ĺ
Ġíĺ ĲìĿĺ
ĠìĹħ ë¬´
ì§Ħ ëĭ¤
êµ ´
ĠëĮĢ íķĻ
ĠëĮĢ êµ¬
ì Į
i t
Ġê°ģ ê°ģ
Ġíĥ Ī
´ Ŀ
Ġë¸Į ëŀľëĵľ
Ġìľ ¤
Ġë¡¯ ëį°
ê³µ ìĤ¬
ì¡° ìĤ¬
ì¦ Į
ĠëĮĢíķľ ë¯¼êµŃ
ĠêµĲ ìĪĺ
íĥ ģ
ĠíĿ ¬
Ġê¸ Ģë¡ľë²Į
ë ¤Ħ
Ġë¶Ģ ë¶Ħ
ĠíĺĦ ìŀ¥
µ °
ì§Ģ ìĽĲ
Ġë§Į íģ¼
Ġìĸ »
ì¼ ľ
ĠìĿ´ ìķ¼ê¸°
ĠìĿĺ ë¯¸
t v
ìĿ´ ì§Ģ
íļ ¨
ĠìĿ¼ ìŀĲë¦¬
Ġê²° êµŃ
Ġê²½ ìŁģ
ìĭľ íĤ¤
µ Ń
ìĸ´ ëĤĺ
ĠëĨ ĵ
ê·¸ ë£¹
íķ µ
Ġë°Ķ ë¡ľ
ļ ´
Ġë £¨
Ġìĥģ ëĭ¹
Ġ &
ëĭ ¥
ª ©
Ġìķŀ ìĦľ
Ġë§ ¡
Ġê¸° ê´Ģ
Ġë³´ ìĿ¸ëĭ¤
ìĿ´ ìĿµ
a l
ĠìĪĺ ìĿµ
Ġ u
Ġë§Į ëĤĺ
Ġê·¸ ëŀĺ
ë¶Ģ ë¶Ħ
Ġìĥģ íĴĪ
ìĸ µ
ëī ´
Ġíĺĳ ëł¥
Ġê· Ģ
ĠìĿ¸ íĦ°
ì¶ ©
ìĭľ ìĦ¤
ìłķ ë¶Ģ
½ Ķ
a t
¸ ī
íĭ Ģ
ĠëĬ ¥
Ġ v
Į ê
ëĦĪ ì§Ģ
ê¸° ìĪł
Ġíľ ´
ĠëĮĢíķ´ ìĦľ
r e
ĠìĹ¬ ê¸°
Ġëĭ µ
Ġì¡° ìĦ±
Ġëĳ ĺ
3 5
s k
ê± ¸
ĠíĴ Ģ
Ġìĺģ íĻĶ
Ġ201 5
ĳ ë
ĠìŀĲ ì²´
§ ¤
ë¯¼ ì£¼ëĭ¹
ĠíĶĦë¡ľ ê·¸ëŀ¨
Ġ19 9
° í
Ġëªħ ìĿ´
Ġ +
Ġì Ŀĳ
Ġëħ¸ ëıĻ
ĠìľĦìĽĲ ìŀ¥
ìŀ ¡
Ġë§¤ ìļ°
íĴ į
íĺ ¹
íĺ Ģ
ĠìĹŃ íķł
Ġâ Ĩ
ĠíķĻ êµĲ
ë¦¬ ìĬ¤
íĤ ¨
Ġê²Ģ ì°°
ìĿ´ íĦ°
ëĨ ĵ
Ġíıī íĻĶ
ĠìĪĺ ì¶ľ
h o
Ĩ į
ĠìĪĺ ìĤ¬
Ġê¸° ëħĲ
Ġíıī ê·ł
ì» ¤
ĠìĿĺ ê²¬
íĿ ¥
¸ ¡
ĠìĹ Ķ
Ġì£¼ë ¯¼
ĠìĦł ìĪĺ
íĦ ´
Ġìļ° ëł¤
Ġì Ķ¨
Ġs k
Ġìķ ķ
Ġê²½ ìĺģ
Ġê ½
Ġíŀ Ī
ìĿ¸ ì§Ģ
Ġê±´ ìĦ¤
ĠìĦ Ŀ
Ġì°¨ ëŁī
Ġíķ© ìĿĺ
ëĭ µ
ļ Į
ĠìĿ´ ë¤Ħ
ì ª½
ê¸° ìĹĲ
Ġê¸° ë³¸
ĠìĹŃ ìĤ¬
Ġ3 1
¤ ê
ë² ¨
ĠëĿ¼ ê³ł
Ġíķľ ëĭ¤ê³ł
ĠëıĦ ìŀħ
ê°ľ ë°ľ
¼ë ŀĢ
Ġë°© ìĨ¡
íı Ĳ
Ġì¹´ ëĵľ
ìŀ¥ ìĿĺ
Ġê³ł ëł¤
Ġë°ľ ìłĦ
Ġê¸ ´
Ġìŀĳ íĴĪ
ìĿ¸ ëį°
Ġíĺģ ìĭł
l g
ì¸ µ
Ġì£¼ ê°Ģ
ĠëĤĺ ëĪ
ĠëĮĢ ë¶Ģë¶Ħ
íĹ Į
ì¹ Ń
¬ ê
ë Ń
êµŃ ìĿĺ
Ķ ©
Ġëľ »
ĭ ĺ
ëĤ ¸
Ĵ ì
Ġë°Ķ ë¥¸
ĠëįĶ ìļ±
į ¼
Ġìĭľ ìĬ¤
ëĨ į
Ġìłľ ìŀĳ
ìĪ Ļ
Ġê´Ģ ê´ĳ
Ġl g
Ġê³µ ê¸ī
¹ Ħ
ħ ¸
Ħ í
ĠíĻķ ë³´
ĠíļĮ ìĿĺ
Ġë¨ ¼
ĺ ĳ
Ġë¶Ħ ë¥ĺ
Ħì ĭ¤
ë¶ Ļ
Ġì¦ Ĳ
Ġê±´ ê°ķ
ëĥ Ī
² Ī
ìĨ Ĳ
ìĿĺ ìĽĲ
v e
y o
ìĹĲ ìĦł
Ġë ¿Ĳ
ĠêµŃ ìłķ
¬ ´
íĺ ¼
Ľ °
Ġë¯¼ ì£¼
Ġì¦ ī
ìłķ ì±ħ
ĠëĶ° ë¥¸
ĠíĴ į
Ġíĸī ìłķ
Ġì°¸ ê°Ģ
ĠìĭľìĬ¤ íħľ
ì£ Ħ
Ġëĵ ¯
ëĤĺ ëĿ¼
ĠìķĦ ì§ģ
ìĦł ê±°
ëŁ¼ íĶĦ
Ġì§ģ ìĽĲ
Ġê ¿
ĠìĿ¸ ìĥģ
Ġê°ķ ìĽĲ
ìĹħ ì²´
ëĭ¨ ì²´
ëĥ ¥
Ġí Ħ°
Ġê³µ ìĭĿ
íı °
ëĶ ©
Ġë§ Īì
m e
ĠìĥĿ íĻľ
Ġê³ł ìļ©
Ġíı¬ ìĿ¸íĬ¸
ĠëĮĢ íĻĶ
ëıĻ ìķĪ
Ġìĭľ ì¦Į
ë³¸ ë¶Ģ
ĠìĿ´ ìłĦ
ìłĦ íŀĪ
ë¦Ń íĦ°
Ġìĭľ íĸī
Ġì» ¨
Ġì£¼ íĥĿ
¥ ´
ĠíĬ¸ ëŁ¼íĶĦ
ĠìĺĪ ìĤ°
íĻĺ ê²½
ĠìĤ¬ ê³ł
c e
Ġë°© ìķĪ
Ġ6 0
ë°ĺ ê¸°
íŀ Į
Ġëĭ¬ ëŁ¬
ë Ľ
Ġì¤ĳ ìķĻ
íķľëĭ¤ ëĬĶ
ìłķ ë³´
Ġê²½ê¸° ëıĦ
íģ ´
ĩ ¼
ĠìķĦ íĮĮíĬ¸
Ġëĭ¨ ê³Ħ
ìĤ¬ íļĮ
Ġìĸ´ ë¦°
Ġìµľ ì¢ħ
Ġëª© íĳľ
Ġì¹ ¨
Ġê² ©
¸ ¸
íķ Ħ
ĠëĦĪ ë¬´
Ġê¹Ģ ìłķ
Ġì¡° ìĦł
ì ı
Ġì¡´ ìŀ¬
ë¦¼ íĶ½
ĠìĬ¤ ë§ĪíĬ¸
ĠìķĦ ë¬´
â Ī
Ġë°© ìĭĿ
ê¸Ī ìľµ
ëıĻ ìĤ°
ì¦Ŀ ê¶Į
Ġì§Ģ ì§Ģ
Ġìĸ´ëĸ ¤
ĠìºĲ ë¦ŃíĦ°
Ġâ Ī
ë¡ Ń
Ġì§ĢëĤľ ëĭ¬
Ġëª¨ ëį¸
Ġíĺ ¼
ìĬ ¬
ĠëĬ¥ ëł¥
¦ Ī
Ġë Ł¬
Ġêµ¬ ì¡°
ĠìłĦ ëħĦ
Ġìµľ ìłĢ
ĠìĻ¸ êµĲ
ĠìĻ¸êµŃ ìĿ¸
ì§Ģ ë§ī
Ķ í
Ġì±ħ ìŀĦ
Ġì¢ħ ëª©
Ġë ŀ
ĠìĿ´ ìłľ
ìķ Ķ
Ġê³Ħ ìķ½
° °
ķ ½
Ġì§ĳ ì¤ĳ
Ġìĸ´ ëĬĲ
Ġy ou
ĠíĮ Ķ
Ġê°Ļ ìĿ´
ł Ģ
ļ °
ìĹ Ħ
ëĮĢ ìĿĺ
ĠëĿ¼ ìĿ´
Ġëª ¸
ĠìłĦ ëŀµ
Ġìī ½
Ġê°Ģ ì¡±
Ġê³µ ê³µ
Ġë³Ģ íĻĶ
ëį ķ
Ġê¸° ìĤ¬
Ġíķĺ ë£¨
ë¦¬ ì¦Ī
m a
ĠìłĦ ê¸°
íļĮ ìĤ¬
ëł Į
ì° ¸
ìĨĮ ë¦¬
Ġëªħ ìĿĺ
Ġìķ Ķ
Ġì²Ń ëħĦ
Ġt he
ë³ ¼
í ĩ´
ë§ ¹
Ġìĭ¤ ìłģ
Ġì¢ Ģ
Ġìĺ¬ ëĿ¼
Ġë°Ķ ìĿ´
í ĹĪ
ĠìĽ Į
Ġë ĥ
ĵ ±
ĠíĴ Ī
ì¿ ł
Ġì½ ĺ
ê±° ëŀĺ
Ġë³´ ìľł
ī ê
ĠìĿ´ ëıĻ
Ġë°ľ ìĸ¸
Ġìĭł ì²Ń
Ġë¯¼ ì£¼ëĭ¹
Ġ ï
ëıĦ ìĭľ
ëŀ Ĳ
ĠìĦł íĥĿ
Ġë§Ī ì§Ģë§ī
Ġë´ ī
Ġì° ©
¸ ê
° Ķ
Ġ j
Ġë¶ Ļ
² ķ
ĠìķĪ ìłķ
Ġêµ¬ ì¶ķ
Ġíķ´ ê²°
ìĭ Ń
Ġì´ ī
ë²¤ íĬ¸
ë ·
Ġë¶Ģ ëĭ´
Ġë Ľ°
ì¶ ĺ
Ġëı Ī
ĠâĪ ¼
ĠìĹ¬ ìĿĺ
ĠìĿ´ ëłĩ
ĺ ¸
ĠìłĦ íĸĪ
ê³ ³
ê° Ķ
ì£ ł
Ġê°Ģ êµ¬
ë°ĺ ëıĦ
ĠìĹħ ì²´
Ġëĭ¬ ë¦¬
ĠìĿ¸ ìłķ
Ġì ¼Ģ
ĠíĹ ¤
â Ĺ
Ġì ı
ìĬ ¨
ìĿĺ íļĮ
Ħ Ŀ
ĠëĮĢ ìĿĳ
Ġíķµ ìĭ¬
ì¤ Ħ
į ì
± °
ë¡ľ ìĦľ
ĠìĿ´ íķ´
ĠìĨĮ ìĨį
ë§Ī ëĭ¤
l a
ĠëĤĺíĥĢ ëĤ¬
ĠìĿ¸ ê¸°
ëĭĪ ê¹Į
4 5
Ġê²½ ëĤ¨
Ġë Ń
ëģ ¼
ĠìŀĲ ëıĻì°¨
ìĸ´ ëĤľ
Ġìłľ ìĻ¸
ê´Ģ ê³Ħ
ĠìĿ´ ë²¤íĬ¸
e n
ħ Ħ
ĠìĹ¬ìĿĺ ëıĦ
ì¶ °
´ Ģ
Ġ å
ŀ ħ
l i
Ġì Į
Ġê³µ ìĹ°
ê· Ģ
Ġë°© ë²ķ
Ġê ¾
ĠìĿ¼ ìłķ
Ġìĭ ¸
ne wsis
Ġ201 4
ìĹĨ ìĿ´
¶ Ħ
l o
± ħ
Ġë° ¤
ĠìĦł ë³´
Ġë¶Ģ ëıĻìĤ°
Ġëħ ¼ëŀĢ
ĠëĮĢ ìĭł
ìĻĢ ìĿĺ
ìľĦ ê¸°
ìĭľ ê°Ħ
Ġìĸ¸ ê¸ī
¢ °
ëĮĢ íļĮ
ëł µ
ĠíĹ Į
3 2
ĠìĬ Ī
ë¦° ëĭ¤
Ġë¹Ħ íĮĲ
Ħ ê
Ġì§Ģ ìłķ
Ġê°ľ ìłķ
Ġê¸° íļį
ĠìĪ ¨
Ġn e
Ġê³µ ìłķ
ë² ½
Ġì¢ħ íķ©
ìĥ Ī
ì£¼ íĥĿ
Ġ3 5
Ġê¸° ëĬ¥
ĠëıĻ ìĭľ
Ġê¹ Į
¶ ģ
ĠìĿ¸ íķ´
Ġë°ĺ ë©´
í Ģ
Ġìĸ´ëĸ »
ĠìĨĮë¹Ħ ìŀĲ
Ġ æ
Ġê°Ĳ ìĤ¬
ì ª
ìĿ´ ìħĺ
ĠëĮĢ ìłĦ
Ġìļ° ìĪĺ
ê°Ģ ì§Ģ
Ġë¹Ħ êµĲ
£ ł
Ġíıī ì°½
Ġëĵľ ëŁ¬
íĥ ķ
ìŀĲ ìĿ¸
Ġì¤ĳìĨĮ ê¸°ìĹħ
Ġëģ Į
ĠìłĦ íĻĺ
ĠìĿĺ íĺ¹
ĠíĶĮ ëłĪìĿ´
ë ĩ
Ġì°¨ ì§Ģ
ìĿ´ ëĵľ
ĠìŀĲ ê¸°
Ġë¶ Ģì
ĠìłĦ íĪ¬
ìĶ ©
ë¡ľ ë¶ĢíĦ°
Ġìľ ¼
Ġì§Ģ ëĤĺ
® ¤
Ġ7 0
Ġ201 9
íķ© ëĭĪëĭ¤
ĠêµŃ ë°©
i c
Ġê³¼ ê±°
ìĸ´ ìķ¼
Ġëį §
ëĵ ¯
ì´ Į
ĠíĶĦ ë¦¬
ëŀ Ļ
ë¨¼ ì§Ģ
ë ¢°
ĠìĤ¬ ìŀ¥
ì§ ľ
ĠìĻ ľ
íıī ê°Ģ
Ġíķľ ë°ĺëıĦ
ë° ĸ
Ġì¶ľ ìĭł
Ġìĭł ê·ľ
ĠìłĦ ëĭ¬
Ġìłľ ëıĦ
Ł ī
Ġãİ ¡
Ġìĭľ ë¦¬ì¦Ī
ĠëıĦ ìĽĢ
Ġëª ĩ
Ġì²ĺ ë¦¬
ìļ ķ
ĠìĪĺ ìļĶ
ë¬ ´ì
ì¸ ł
3 6
Ġë°Ķ ëŀĮ
Ġìµľ ì´Ī
Ġêµ¬ ë§¤
į °
ķ ¡
ë³ĳ ìĽĲ
Ġì¹ĺ ë£Į
íľ ´
íĤ ¹
Ġìļ¸ ìĤ°
in g
ê³ ¨
Ġë³¸ ê²©
ĠìĤ¼ìĦ± ìłĦìŀĲ
Ġê± °ì
Ġê·ľ ìłľ
Ġëı ¼
3 3
ëĭ´ íļĮ
ëĦ ·
ê³ ¤
ĠëĤĺ ìĻĶ
Ġê²Ģ íĨł
Ġê· ¼ë
Ġê¿ Ī
ĥ Ĳ
Ġëį§ ë¶Ļ
Ġê² ¨
ëĿ¼ ë©´
Ġì¡° ì¹ĺ
Ġë¯¸ ìĦ¸
ĠìłĦë¬¸ ê°Ģ
ĠâĨ Ĵ
ë¬´ ìĽĲ
ĠìłĦ ìĭľ
ë¿ Ĳ
ìĸ ¼
Ġê±° ìĿĺ
ĠíĨµ íķ©
ķ ë
Ġê¸ Ģ
ĠëĤ´ ëł¤
Ġë°ĺ ëĮĢ
ĠìĹ° ê²°
Ġê¾ ¸
Ġìĺ¤ ë¥¸
Ġì ¿ł
Ġê² ¬
Ġë¨¼ ìłĢ
ĠëĨĴ ìĿ´
¬ ¼
Ġìľł ëŁ½
íĻľ ëıĻ
Ġì£¼ ìĿ¸
íĸĪ ìľ¼ë©°
k b
íĦ ¸
Ġ5 00
ìĤ ¼
ĠìľĦíķ´ ìĦľ
ĠìĿ¸ ëıĦ
ĠìĨĮ ê°ľ
ĠìĹ° ìĨį
ĠëĮĢ ì±ħ
Ġ x
¥ í
Ġìľ¼ ë¡ľ
ìĬ Ī
Ġë°ľ ê²¬
Ġëĭ¨ ì§Ģ
ìĬ ·
ĠìĿĢ íĸī
ĠìĦ± ê³¼
Ġë³´ ëıĦ
ĠëĮĢ íĺķ
Ġê²½ íĹĺ
ìŀĦ ê¸Ī
ĠìĦ¤ ìłķ
Ġì§ ķ
Ģ ëĵľ
ĠëĤĺ ê°Ģ
Ġ20 00
íĶ Ī
ĵ ł
Ġê¸° íļĮ
ĠíĻľ ìĦ±
ĠìĦ¤ ë¦½
ìĻ Ħ
ìĤ¬ ìĿĺ
Ġì¡° ì§ģ
a i
» ĺ
Ġë¹Ħ ìĬ·
ì¹ Ļ
Ġë§Į ëĵł
Ġë¶Ħ ìĸĳ
íļĮ ìŀ¥
ķ ħ
Ġê°ľ ìĿĺ
Ġìļ° ìĦł
Ġì±Ħ ìļ©
ĺ ¨
Ġê³µ ê°Ħ
3 4
Ġíĸ¥ íĽĦ
Ġë¶ģ ë¯¸
ì ģ
ħ ĺ
ê² ¼
ĠêµĲ íĨµ
Ġê³ ¡
ìķĦ ìĦľ
ĠìĦ ¼
í ĩ
Ġê°Ģ ê¹Į
ģ ë
Ġìłķ ìĿĺ
Ġí ĩ´
Ġë³´ íĹĺ
ĠìĹ¬ íĸī
Ġë³´ íĺ¸
Ġëį§ë¶Ļ ìĺĢ
ģ ¬
Ġìº ł
Ġë¹Ħ íķ´
Ġë¶Ģ ì¡±
Ġê·¼ ë¡ľ
Ġì£¼ ìĭĿ
ĠëĤ Ļ
Ġìłľ ìĭľ
Ġìĥģ ìŀ¥
ķ ĳ
² ¬
ìĬ¤ íģ¬
ĠíĿ Ĳ
ìĺ ¥
ĺ ê¸°
Ġë§ Ľ
ìłķ ìĥģ
ìĬ¤ íĥĢ
Ġì§Ģ ê¸ī
ê´ ´
ĠëĤĺìĺ¨ ëĭ¤
ĠìĿĺ ë£Į
ê³ł ìĦľ
ê¾ ¸
Ġì°¾ ìķĦ
ĠìľĦ íĹĺ
ë³´ íĹĺ
ĠìķĮëł¤ ì¡Į
ĠìĤ¬ ë§Ŀ
Ġk b
Ġê°Ĳ ëıħ
Ġëıħ ìĿ¼
ĠêµŃ íĨł
ĠëĨ Ģ
Ġì¡° ê¸Ī
ĠìĻ Ķ
Ġëĭ Ī
ìį ¨
ëª ¬
Ġìĺģ êµŃ
ë²Ħ ìĬ¤
Ġ8 0
Ġë¯¸ìĦ¸ ë¨¼ì§Ģ
Ġì§Ħ ì¶ľ
Ġê¸° ë°ĺ
ĠëĤĺ ëĿ¼
ĠëĶĶ ìŀĲìĿ¸
i g
ĠìĿ´ ë£¨
ìĽ ł
Ġì£¼ ìłľ
ĠìĨį ëıĦ
Ġìĭľ ìĦ¤
ĠìĹ¬ ë¶Ģ
Ġì ĩ¼
ĠëıĦ ë¡ľ
ĠìĹħ ê³Ħ
Ġì¤ĳ ìĿ¸
Ġì²´ íĹĺ
Ĥ ¨
ĠìĬ ¬
ĠëĤĺ ìĿĺ
ĠìłĦ ìļ©
ëĶĶ ìĸ´
ìķ ķ
ìĦ °
Ġë°© íĸ¥
5 2
íĺĳ íļĮ
Ġì£¼ ë³Ģ
ĠìŀĲ ìĹ°
ĠìĿ¸ ê°Ħ
ìĽ ¨
Ġê·¸ ëĮĢë¡ľ
ë³µ ì§Ģ
Ġëį ķ
ì¹´ ëĵľ
ĠìļĶ ì²Ń
Ġë¯¼ ê°Ħ
ì¹ ł
Ġìłľ ê¸°
ĠìĤ¬ ìłĦ
Ġìĺ¨ ëĿ¼ìĿ¸
Ġìĸ´ ëłµ
ìļ´ ëıĻ
Ġìĭľ ëĮĢ
ĠìĿ´ ëŁ¬
Ġê° ĳ
Ġë°© ì¹¨
ëŀ «
Ĳ ê
ĠíĶĦ ëŀĳ
ĠíĮ ¬
a d
ĠíļĮ ë³µ
Ġë° ĸ
Ġìłľ ëĮĢë¡ľ
Ġ3 00
ëª °
Ĭ ¥
ĠìĪ Ļ
Ġìŀ¬ íĮĲ
ĠìĹ ĺ
Ġ1 000
ìĦ Ń
Ġì½ĶìĬ¤ ëĭ¥
Ġì²´ ê²°
ìĤ¬ ìŀ¥
s e
ë³Ģ ìĿ¸
ëł ī
ìļ° ìĬ¤
Ġìĸ´ë¦° ìĿ´
ê°Ļ ìĿ´
ê¸° ê°Ħ
Ġìŀĳ ìĹħ
ķ Ģ
ìĿ´ íģ¬
n o
Ġ201 3
Ġì¡° ìłķ
Ġíĺĳ ìĥģ
ĠìĤ ¶
Ġíĥ ĳ
ê±´ ìĦ¤
ĠìĹĲ ëĦĪì§Ģ
į ¨
ĠìĪĺ ìĥģ
ì¢ Į
Ġëĵ £
Ġë³Ģ ê²½
ĠìĬ¤ íĤ¬
ĠìĹ´ ë¦¬
ĠìĦľìļ¸ ìĭľ
Ġìľł ëªħ
ĠíķŃ ê³µ
Ġì§Ģ íķĺ
ê°Ģ ëĬ¥
ìĩ ¼
¡ ì
Ġëħ ¹
Ġíķľ ëĭ¤ëĬĶ
. â
Ġí ĭ°
ĠìĽ ĥ
ĠëĮĢ ì¶ľ
Ġì°¨ ìĿ´
§ ĳ
ĠìĿĮ ìķħ
ë§ ¨
ĠìĿ¸ ê·¼
ëĭ Ŀ
ì§Ģ ìĤ¬
Ġì°½ ìĹħ
Ġì£¼ë ª©
Ġë³´ ìĺĢ
´Ŀ ë¦¬
ê° ĳ
êµĲ íĨµ
Ġìłľ ì¡°
Ġí į¼
Ġë ¦
Ġê²½ ë¶ģ
Ľ Į
ëŁ¬ ìĬ¤
ĠìĦľ ë¡ľ
Ĩ ì
Ķ ê
Ġê±°ì ³Ĳ
Ġë¹ Ī
Ġë§ Ŀ
Ġë¹ ¨
ĠìĿ¸ ë¬¼
ëłĪ ìĬ¤
ê³µ íķŃ
ë ļ
ê³Ħ íļį
ëĭ ī
Ġë¬ ¼ë
ë· °
3 7
ë Ģ
3 8
Ġìĭ¤ìłľ ë¡ľ
Ŀ ½
s i
Ġìĭł ê³ł
ĠíĿ Ķ
Ġë¬´ ê¸°
Ġê±´ ë¬¼
Ġìĭ ±
ĠìĿĺ íķ´
ìĿ´ ë²Ħ
Ġëĭ´ ëĭ¹
ê º
ë²Ħ ì§Ģ
ĠìĦ¸ ëĮĢ
Ġìĸ ĺê¸°
ë ®
f o
ë´ ĩ
Ġíĺĳ ìĿĺ
ìĦľ ë¹ĦìĬ¤
Ġìŀ Ķ
7 5
¼ ĵ
ĠíĨµ íķľ
ĺ Ī
ê·ľ ëª¨
Ġë¹ Į
ĠëĤ´ ë¶Ģ
ë¹ Ī
Ġê°ķ ëĤ¨
Ġê°Ģ ì§Ħ
² Ģ
ì² Ļ
Ġi t
ħ í
ëĮĢ ì±ħ
Ġìłľ íķľ
ê³µ ìĽĲ
Ġâ Ĺ
¸ µ
6 5
Ġë°° ìļ°
ë¯¸ ëŀĺ
ĠëĬĲ ëĤ
Ġ19 8
Ġê°ķ ëł¥
ĠìłĦ ëĤ¨
Ġê°ģ ì¢ħ
ëĭ¤ ë©´ìĦľ
ĠíĻĺ ìŀĲ
Ġìłľ ìķĪ
Ġê¹ ¨
íĶĦ íĬ¸
Ġì´Ŀ ë¦¬
ĠãĢ ĭ
Ġë¬´ ìĹŃ
Ġë¶Ħ ìľĦê¸°
Ġìŀĳ ìĦ±
ĠìķĦ ìĭľìķĦ
ĠêµŃ ë¬´
Ġì° ¬
Ġì½ĶìĬ¤ íĶ¼
Ġíķł ìĿ¸
íĨł ë¦¬
Ġê±° ë¦¬
ìĿ´ ìĸ´
Ġê¸Ī ë¦¬
¬ì ¸ł
ĠìłĦ ëĤł
ï ¼
Ġìłľ ì¶ľ
ìĤ¬ ìĿ¼
Ġs t
Ġì£¼ ë¡ľ
ĠíĬ¹ ìĪĺ
ĠíĻķ ìłķ
Ġë¹Ħ ìļ©
Ġíĸī ë³µ
ĠìĹħ ì¢ħ
ìĹ ĩ
Ġë°Ķ ëĢ
4 8
Ġë¹Ħ ì¤ĳ
Ġì§Ī ë¬¸
íİĺ ìĿ´ì§Ģ
Ġëª© ìĨĮë¦¬
Ġ #
ìĨĮ ëħĦ
ĠãĢ Ĭ
íķŃ ê³µ
íľ ĺ
Ġì£¼ë ħĦ
íĨµ ìĭł
Ġìļ´ ëıĻ
5 5
ł ¸
n d
íİĺ ìĿ¸
ĠìłĦ ìŁģ
ĠíĿ¬ ë§Ŀ
Ġê² ¸
Ġìŀĳ ê°Ģ
ĠìŀĲ ìĦ¸
Ġt v
ĠìĤ¬ ë¡Ģ
íĬ¸ ëĤ¨
ĠëĿ¼ ëĬĶ
ĠëĪĦ êµ¬
Ġíĺ Ħìĭ¤
ĠìĦ¸ ìĥģ
Ġê³µ ìĭľ
ĠìĨ Ķ
ìł ł
ìľ¼ ëĭĪ
ĠíĶĦëŀĳ ìĬ¤
ĠíĨµ ìĿ¼
ëł¤ ê³ł
ĠìŀĲ ë£Į
ìľ ¤
ëĮĢ íķĻ
Ġê¸Ī ì§Ģ
ĠìłĲ ìĪĺ
Ġíĳ ¸
ë°ľ ìłĦ
ë°Ķ ìĿ´
Ġì§Ģ ëıĦ
Ġíĺ ľ
ĺ ¬
Ġëħ¸ ëŀĺ
Ġëª¨ ë¥´
Ġë³´ ìĪĺ
ì½ ĺ
ëª »
Ġíİ¸ ìĿĺ
Ġìŀĳ ëħĦ
Ġì¹ľ êµ¬
e s
íķµ íĻĶ
b a
ĠìĦ ¬
Ġì¶ľ ìĹ°
ĠëĤ ©
Ġë§ ¥
ìĿ¸ ìĿĺ
Ġ Î
ĠìĨĮ ëĵĿ
e t
ì ·¨
ĠìĹ¬ ìŀĲ
Ġ201 2
Ġìĭľ ê¸°
ĠëĦ £
Ġì¸¡ ë©´
Ġìĥģ ìľĦ
íĺĳ ëł¥
ĠíĽ Ī
Ġëĵ¤ìĸ´ ê°Ģ
íļĮ ê²¬
ĠìĽ Ģ
Ġì°¸ ê³ł
ë¨¸ ëĭĪ
Ġë¹Ħ íķµíĻĶ
ë¶Ģ ìĿĺ
Ġìłķ ìĭł
ĠíĻį ë³´
Ġê°Ģ ìŀħ
ì¤ĳ ìķĻ
íı ¼
Ġï ¼
Ġì°¨ ë¡Ģ
ĠëŁ¬ ìĭľìķĦ
ìĸ´ ëıĦ
Ġìĸ¼ ë§Ī
ĠìĪĺ ìŀħ
Ġê¹Ģìłķ ìĿĢ
íķ´ ì¡Į
Ġìłķ íĻķ
ĸ ì
Ġë²ł íĬ¸ëĤ¨
ìķĪ ìłĦ
Ġì ª½
Ġìĭľ ìłĪ
ë ½
ł ê
² Ń
ëįĶ ëĿ¼ëıĦ
Ġëĭ¨ ì²´
ëıĦ ìĿĺ
Ġíĳľ íĺĦ
Ġìĸ¸ ë¡ł
Ġê·¸ëŁ° ëį°
Ġëĭ¤ ë¥´
ìĿ ¼ë
° ĺ
ë§Į íģ¼
Ġê·¸ ë£¹
Ĭ Ĳ
3 9
Ġë¯ ¿
Ġì¤ĳ ëĭ¨
ëī´ ìĬ¤
ĠëłĪ ë²¨
ĠìĿĺ ìĤ¬
ĠíĻĪ íİĺìĿ´ì§Ģ
Ī ê
ĠìĿ´ ëģ
íħ Ĳì
Ġìłķ ë§Ĳ
4 2
Ġíķ´ ìķ¼
ìł Ŀ
Ġê³µ ìĤ¬
Ġê·¸ ëĥ¥
ì§Ģ ìĪĺ
ëł¤ ëĬĶ
ìĸ´ ìļĶ
r o
Ġê¹ Ĭ
ĠëĮĢ ì²´
Ġêµ¬ ì²´
Ġê·¸ ê²ĥ
² ´
k t
Ġë§Ī ìĿĦ
ë°ĸ ìĹĲ
ĠíĺĦ ì§Ģ
Ġê·¸ ëıĻìķĪ
ĠìłĦ íĨµ
Ġê¸° ìĸµ
Î ´
m o
c h
ìĽ ĥ
Ġ4 5
± ´
ëħ¸ ëıĻ
ĠìĿ´ ê²ĥ
Ġìŀ¥ ìķł
íħĲì ¸ł
ĠëĮĢ íļĮ
ĠìłĲ ê²Ģ
Ġë°Ķ ëĿ¼
¹ ´
ĠìĽĢ ì§ģ
ìĦ¸ ê³Ħ
ĠìłĦ ìŀĲ
Ġê² ª
Ġìľł íĨµ
b e
Ġì¡ ¸
l l
Ġìµľ ìĨĮ
Ġìŀ¥ ê¸°
ĠìŀĲ ê¸Ī
Ġê´Ģ íķľ
¸ ´
¬ ìĺģ
ìĿ´ ëŀĢ
ìĭ ±
Ġëª© ìłģ
ê° Ĵ
ìĬ¤ ì½Ķ
Ġìĥ ī
ë¦ ī
Ġêµ° ìĤ¬
ëł ´
Ġì·¨ ìĹħ
ĳ ê
ìĹ ĺ
ëŁ ´
ĠêµŃ ë¦½
ìĭľ ì¼ľ
Ġë³¸ ìĿ¸
ëĮĢ íķĻêµĲ
² ĥ
Ġìľł ì¹ĺ
Ġì°¨ ìĽĲ
Ġí ĭ
Ġì£¼ ìĿĺ
íĬ¸ ë¦¬
e d
ëĶĶ ìĺ¤
Ġíĺ ¹
Ġë°© ìĸ´
ĠÎ ´
4 4
ìĥģ ìĿĺ
ìłĿ íĬ¸
Ġì´ī êµ¬
Ġê·¸ ëĮĢ
ĠìĨĮ ìŀ¬
Ġì° į
Ġë¬´ ìĹĩ
4 3
ê¶ ģ
Ġì¶© ë¶Ħ
íı ¬ì¸ł
ìĿ´ ìĤ¬
íĺ Ī
Ġë´ Ĳ
ĠíĬ¹ ì§ķ
Į Ĳ
Ġì±Ħ ëĦĲ
Ġëıħ ë¦½
Ġë¶Ī ë²ķ
r a
Ġê³¼ íķĻ
± Ħ
ê²½ ì°°
ì§Ģ ë°©
ë¯ Ģë¡ľ
ĠìĽĲ ìĿ¸
ëĤĺ ê°Ģ
Ġê½ ĥ
ê³ł ìŀĲ
ìĦľ ê´Ģ
Ġ9 0
ĠìĨĮ ë¦¬
Ġk t
ëŁ Ń
ëĤ Ļ
íħ į
Ġêµ¬ ìĨį
ìĽĲ ìŀ¥
Ġíķ´ ëıĦ
Ġì¢ Į
Ġë© Ģ
ĠìĿ¸ ìĪĺ
íĻ Ģ
į ë
ìĽ ħ
° Ļ
ĠìĿ´ìĥģ ìĿĺ
Ĥ ¹
ë¥ Ļ
ĠìŀĦ ëªħ
ĠìĿ´ ëĭ¬
ĠìĬ¹ ë¦¬
Ġìķŀ ëĳĲ
Ġì°½ ì¶ľ
ìŀĲ ìĽĲ
ë© ĺ
ĠìĹ¬ ìłĦíŀĪ
ĠëłĪ ìĿ´
p h
ëıĦ ë¡ľ
Ġ5 000
5 1
Ġìĺ¤ ë¥´
Ġë¨¸ ë¦¬
ĠíĬ¹ ìĦ±
ĠìµľìłĢ ìŀĦê¸Ī
Ġìĺ¤ íŀĪ
Ġê³µ ìľł
ĠìĤ¬ ëĿ¼
ĠëĦĺ ìĸ´
ĠìĿĮ ìĭĿ
Ġë¹ Ľ
Ġëĭ¬ ìĦ±
4 6
Ġìĺ¤íŀĪ ëł¤
± ê
¹ ë
ĠíĨµ ê³¼
Ġìŀ ĩ
ĠìłĦ ë¶ģ
s o
¡ Į
ĠìĪĺ íĸī
Ġë ½
Ġìĸ´ ëĶĶ
ìļ´ ëĵľ
ĠíĪ¬ íĳľ
Ġì¡° ìĽĲ
h t
Ł °
ĠíĺĦëĮĢ ì°¨
ĠìĦł ìĸ¸
íĻ į
g o
ì¤Ģ ëĭ¤
ë¯¸ ì§Ģ
Ġê³Ħ ê¸°
4 1
t i
» ¤
Ġë¶Ģ ë¬¸
âĢ Ŀ
Ġê³µ ìŀ¥
Ġëĵ± ë¡Ŀ
ëĭĪ ìĬ¤
ĠìĿ¸ ìĭĿ
c a
ĠìĹ¬ ë¦Ħ
ĠìĹ¬ ìķ¼
ĠëĤ¨ ìŀĲ
ë°Ķ ìĿ¼
ìŀ¬ ëĭ¨
ë´ Ĳ
ìķĦ ìķ¼
ĠìĽĲ ìĹĲ
Ġíķľ ë¯¸
ë¦¬ ìĸ´
Ġë³´ íĨµ
ì ¯
ĠìĿĺ ì§Ģ
d a
w a
íķĻ ìĥĿ
ĠìľĦ ë°ĺ
ì´ ī
n g
ëĬĲ ëĥĲ
Ġíĺ¸ íħĶ
Ġë³ĳ ìĽĲ
ìľ¼ë¡ľ ìĦľ
ĠëĦ Ĳ
Ġì Ŀµ
Ġì¶Ķ ìłķ
k m
ĠëĦ¤ ìĿ´ë²Ħ
ìĭĿ íĴĪ
ĠìĿ¸ êµ¬
Ġê·¸ëŀĺ ìĦľ
ħ Į
Ġë°ĺ ìĿĳ
Ġëħ¸ ìĦł
ĠìķĦ ë²Ħì§Ģ
Ġt o
Ġëį ĺ
ĠìĿ´ìĸ´ ì§Ģ
Ġê¼ ½
ìĦľ ìĿĺ
ho to
ĠìĿ´ ë¥´
Ġë¹ ħ
Ġê ¶ģ
t a
k e
ĠìĹ°êµ¬ ìĽĲ
ĠìĿ¸íĦ° ëĦ·
Ġê´ ´
ë£ ¡
ìĬ¤ ë¡ľ
ĵ ¯
Ġë²Ħ ìĬ¤
ĠëĮĢ ë¶ģ
4 7
ĸ ī
ëĳ Ķ
p a
ì ³Ĳ
ì¤ ĺ
d o
Ġíķĺ ìĿ´
ĠìķĦ ëĵ¤
ìŀ¥ ê´Ģ
Ġìĥģëĭ¹ íŀĪ
¸ í
Ġìķ½ ìĨį
ĠíĿ ĳ
ĠìĹ° ê¸°
Į Į
ĠìĺĪ ë°©
Ġê³µ ëª¨
Ġì¡° ê±´
ìłķ ëĭ¹
Ġê·ľ ìłķ
Ġì§Ģ ë¶Ħ
Ġìĭľ íĹĺ
¤ Ģ
Ġì ¿
Ġì§Ħ ëĭ¨
Ġ3 6
ëŁ¬ ìļ´
Ġì¶Ķ ì²ľ
Ġíļ¨ ìľ¨
ìķĦ ê°Ģ
¹ í
ĠëĮĢ ë³ĢìĿ¸
ĠíļĮ ëĭ´
Ġíĥ Ŀ
ë²Ħ ë¦¬
Ġìķ ¡
ìľ¼ë¡ľ ë¶ĢíĦ°
ĠìłĦ ìĿ¼
a m
Ġê·¼ë ¬´
Ģ Ŀ
ìĤ¬ ê³ł
Ġì¶ľ ë°ľ
ĠìłĪ ì°¨
ĠìķĦ ëŀĺ
Ġë³ ´ì
§ Ĳ
Ġìĺ¬ ëŀĲ
4 9
ìĨĮ ëĵĿ
ĠìľĦ ê¸°
ìĭľ ìĿĺ
ī ìŀ¥
ëĭ¨ ì§Ģ
Ġë¬¸ ìĦľ
Ġë¬ »
Ġíĺķ íĥľ
Ġíŀĺ ëĵ¤
ê¸° ìĿĺ
Ġìĭľ ëıĦ
Ġì¶© ë¶ģ
Ġìĸ¸ ìłľ
Ġìĭ¬ ìĤ¬
Ġì£¼ìĿ¸ ê³µ
ĠìĦł ë¬¼
ĠìŀĦ ëĮĢ
Ī ľ
ĠìĪĺ ìĦĿ
ìłľ íĴĪ
Ġë§¤ ìŀ¥
Ġê°Ģ ìłķ
Ġëĳ Ķ
ĠìĺĪ ìĪł
Ġk m
Ġíĺľ íĥĿ
Ġìĸ´ëł¤ ìļ´
Ġë§¤ ìĪĺ
b c
ĠíĶĦë¡ľ ìłĿíĬ¸
ì£ ¼ë
¦ °
ĠíĨł ë¡ł
ĠìĦł ë°ľ
ìĬ ´
ì¦ ĺ
Ġë°Ķ íĥķ
Ġê²Ģ ìĤ¬
Ĥ ł
ë¨ ¹
ì¶ ¤
íĭ ±
ĠëıĻ ìĺģìĥģ
ìĦ± ìĿĺ
ìĹ°êµ¬ ìĽĲ
Ġt h
Ġëħ¸ ì¡°
Ġëĭ¹ ìĭł
0 5
Ġê¸° íĥĢ
Ġì¤ĳ êµ¬
ĠíĥĢ ìĿ´
Ġë¬ ĺ
íĻĶ ìłĲ
ĠìĨĮ ë°©
Ġìŀ ĥ
Ġ3 2
ĠíĪ¬ ìŀħ
ì¼ °
ĩ Į
Ġíĸī ëıĻ
ë¦ ¿
Ġë¹ł ë¥´
Ġê³Ħ ìĹ´
ìĺ¬ ë¦¼íĶ½
í ĵ
ë¬´ ë¦¬
Ġëª¨ ë°ĶìĿ¼
u s
ĠíĻĶ ìŀ¬
ê¸Ī ë¦¬
Ġí Ģ
ëªħ ìĿĺ
Ġë§Ī ë²ķ
Ġìĺ ¥
ë¶Ħ ë¥ĺ
9 9
ê³µ ëĭ¨
ĠëĮĢ ìĦł
Ġìĭľ ìłĲ
Ĳì ĭ¤
ìĭľìĬ¤ íħľ
Ġê¹Ģ ìĺģ
Ġì¸¡ ìĿĢ
Ġ201 0
¯ ¤
íĬ ľ
ëĪ Ħ
Ġìĺ¤ íĶĪ
ĠëĮĢ ìĤ¬
ìĭ¤ ìŀ¥
Ġì§Ģ ìĪĺ
ĠìĿ´ìľł ë¡ľ
Ġ3 8
ĠëĤ´ ë¦¬
ĠìķĦ ìļ¸
ì§ Ŀ
ĠíĮĮ ìķħ
ìĹ° íķ©
ì§ģ ìĽĲ
ĠìĺĪ ë¹Ħ
íķ´ ëıĦ
ê³ł ìĿĺ
Ġì·¨ ìŀĦ
Ŀ í
ì ¥
0 1
Ġë§Į íĻĶ
Ġì¤Ħ ìĸ´
Ġë§¤ì¶ľ ìķ¡
ĠíĿ ¥
ĠêµŃíļĮ ìĿĺìĽĲ
ìĥĿ íĻľ
Ġ201 1
p x
Ġì¡° íķ©
ĠëıĻ ìĿ¼
Ġne wsis
ĠëĤ¨ ìĦ±
Ġë ł
Ġì½ ľ
Ĺ ´
Ġìĸ¼ êµ´
Ġìŀ¥ ë¹Ħ
ëĭ¬ ëŁ¬
ĠëĶĶ ì§Ģ
ìķ ¤
Ġëĸł ëĤĺ
Ġë² Ĺ
â ĺ
Ġì¶© ëĤ¨
ĠìŀĲ ì£¼
Ġí Ĺ¬
íĸī ìĤ¬
ì¡° ìłķ
Ġ ç
ĠìĿ¸ ê³µ
ìī ¬
Ġë¶Ī ë¦¬
ĠëĶ ¸
ë¹ Į
Ġê º
o l
Ġíķĺ ëĬĺ
ìłľ ëıĦ
ĥ Ģ
Ġë°ľ ìĤ¬
Ġë§Ī ê°Ĳ
Ġì£¼ ëıĦ
ĥ Ī
Ġìĺ¬ ë¦¬
Ġìłķ ëĭ¹
ĠëĤĺëĪ Ħ
ĩ Ħ
Ġp x
ĠìķĦ ì¹¨
ìĹħ ìĿĺ
Ġìľł ìĿ¼
Ġê°Ħ ëĭ´íļĮ
íĶĦ ëĿ¼
¤ ë²Ħ
n a
ë¦¬ ì¹´
íĳ ¸
ìĪĺ ìĿĺ
Ġa i
Ġê¸° ìĹ¬
ì£¼ ìĭľ
ìĭ ¸
ģ ê
ī í
Ġìŀĺ ëª»
ĠëĦ ĵ
ĠìĿ´ ìŀ¬
Ġê°ľ íİ¸
ĠíļĮ ìĽĲ
ëĶ °
ĠìĦ¸ ì¢ħ
ì» ¬
ìŀĲ ê¸Ī
Ġê°ľ íĺģ
Ģì ¦Ŀ
Ġë°° ì¹ĺ
ĠìĿ¼ ëĭ¨
5 6
ìĦ¸ ìļĶ
Ġë Į
ĠìĹ° ê³Ħ
ìĸ´ ì§Ħ
ã Ĩį
Ġë§¤ ëħĦ
Ġë°ĺ ëıĦ
h a
ĠìĽĲ ëŀĺ
Į í
ĠíĪ¬ìŀĲ ìŀĲ
Ġë§Ī ë¬´ë¦¬
ìĪĺ ë¡Ŀ
d i
Ġì´Ī ê¸°
m b
Ġìŀ Ĭ
ĠìĿ¸íĦ° ë·°
Ġ0 9
Ġë°Ķ ëŀĢ
Ġê¸° ì´Ī
ĠêµŃë°© ë¶Ģ
c k
Ġë§Ī ì¹ĺ
ĠíĬ¹ ìłķ
5 9
ĠëĮĢ ê¸°
Ġë³µ ì§Ģ
Ġë´ Ħ
Ġê³µ ë¬´ìĽĲ
ĠëĤĺ ìĦł
¼Ģ íĮħ
© ë
Ġë ļ
a s
0 9
ëĮĢ ìĥģ
Ġê°Ģ ìł¸
ĠìķĦìļ¸ ëŁ¬
o t
ĠìĤ¬ ìĥģ
ĠìĿ´ëģ Į
m m
Ń ê
Ġíıī ìĸĳ
Ġë³´ ìŀ¥
ëĭ¹ ìĿĺ
ĠìĿ´ë¯¸ ì§Ģ
ĠëĤ´ ëĨĵ
Ġíķĺ ë°ĺê¸°
Ġë ķħ
Ġê²½ìŁģ ëł¥
ĠìĬ¤ ìĬ¤ë¡ľ
° Ī
Ġëª¨ ì§ĳ
Ġìł Ĭ
Ġì¦Ŀ ê¶Į
Ġ3 7
ĠìĨĮ íĨµ
ĠìĹ¬ ëªħ
Ġìĭł ë¢°
ì§ ĵ
Ġìĵ ¸
ĠâĹ ĩ
ìķĦ ëĵ¤
ĠíĶĮ ëŀ«
ìĸ´ ì§Ģ
Ġìķł ëĭĪ
ê°Ģ ìĿĺ
ĠìĦ¤ ê³Ħ
Ġíķ´ ìĨĮ
© Ķ
ĠëĿ¼ ìĿ¸
Ġëĭ¨ ìĪľ
Ġi n
Ġíļ į
ĠíĨµ ìĭł
0 7
ĠìĻĦ íĻĶ
5 3
Ġë ĩĮ
ĠíĶĦë¦¬ ë¯¸
ĠìŀĲ ìĤ°
ĠìłĦ íĺĢ
Ġì²ł ëıĦ
Ġë² ¤
ĠìĽĶ ëĵľ
Ĩ ĵ
íĸĪ ìľ¼ëĤĺ
ĠíķĻ ëħĦ
ĠìĤ´ íİ
ł ¨
Ġë§Ī ì°¬
Ġë¹ ¼
ĠìĪ ł
6 4
ĠíĨµ íĻĶ
ë²ķ ìĿ¸
ìĬ¤ ëŁ½
Ġìŀħ ì£¼
Ġë§Īì°¬ ê°Ģì§Ģ
ì ³¤
k i
ëĭ¤ ìļ´
ë¹ ł
Ġëį° ìĿ´íĦ°
Ġë°ĺëıĦ ì²´
ìĹħ ê³Ħ
Ġë°Ķ ëĭ¤
íħĮ íģ¬
ĠìķĦ ë¦Ħ
p e
t e
Ġ4 8
Ġê¹Ģ ëıĻ
Ġ3 4
ĠìĿ¸ íķľ
Ġìĭ¤ìĭľ ê°Ħ
Ġë¶Ģ ìłķ
ëĿ¼ ë§Ī
ì¯ ¤
ê¹ Ģ
Ġë© ¤ë²Ħ
Ġl o
Ġë§Į ëĵľ
Ġíİ ¼ì
0 8
Ġìī ¬
ĳ Ĳ
ìłľ ìĿĺ
¨ ê
Ġëĳĺ ëŁ¬
íĴ Ģ
s u
Ġìĥģ ë°ĺê¸°
ëĭ Ľ
ĠëĤĺ ìĻĢ
íĬ¹ ë³Ħ
Ġìľ¡ ìĦ±
Ġì¶ľ ë²Ķ
êµ¬ ì¡°
Ġë¶Ģ ë¥´
íĶĮ ëłĪìĿ´
Ġë°Ŀíĺ Ģ
Ġíĥ Ĳ
Ġìħ Ģ
ë¡ ±
Ġë ®¤
ì» ¨
Ġê³ §
Ġìĺ ®
Ġë§Ī ë¦¬
ig ht
ìĿĦ ê¹Į
5 7
Ġëª ¬
ìķ Į
ĠìĿĺ ìŀ¥
Ġ é
ĠëŃ Ĳ
ĠìĹ° ìŀ¥
Ġë¶Ī ê³¼
Ġì§Ģ êµ¬
Ġì¶ľ ë§Ī
Ġì´Ī ë°ĺ
7 2
Ġì§Ģ ì¼ľ
Ġê²¨ ìļ¸
Ġë¹Ħ ìľ¨
Ġê³ł ìľĦ
ëĤ ©
Ġë°ĶëĢ Į
ê¸° ì¤Ģ
ê³¼ ìłķ
Ġ5 2
ìŀĲ ëıĻì°¨
Ġìĭ¤ íĮ¨
Ġ3 3
ëı Ī
ë§Ī ìĿĦ
ĠëĤĺ ìĿ´
ĠìĪľ ê°Ħ
Ġê³ł ë¯¼
Ġíľ ĺ
ĠìĹ° íķ©
íĺ¸ ìĤ¬
ĠìĻ¸ ë¶Ģ
ĠëĮĢ ë²ķ
Ġíĺ Ī
Ġíķ´ ìĸĳ
ĠíĶ¼íķ´ ìŀĲ
Ġì¡¸ ìĹħ
Ġì¶ķ ìłľ
Ġê·¸ ë¦¼
ĠìĨĮ ìĭĿ
s p
Ġì¹ ¼
Ġíĸī ìľĦ
ìķĦ ìĿĺ
ĠíĻķ ìĤ°
ħ Ģ
b o
Ġm e
ì²Ń ìŀ¥
ì§Ģ êµ¬
Ġì Ŀ½
Ġp hoto
Ġë¬´ ë£Į
Ġì²Ń ìĨĮëħĦ
Ġê°ķ íķľ
ìĦ± ìŀ¥
Ġë¸Ķ ëŀĻ
ëĭĪ ìķĦ
ĠëĶĶì§Ģ íĦ¸
ì²Ń ìĤ¬
ìŀĲ ì²´
Ġìĭł ìļ©
Ġë¹Ħ ìĥģ
ìŀĲ ìĤ°
ĠìĮ ĵ
ĠìĻĦ ìĦ±
0 6
ë¥¸ ëĭ¤
Ġëĭ¬ ëĿ¼
ê½ ĥ
íĭ ´
êµ° ìĿĺ
Ġê¹Į ì§Ģ
ë¹ Ļ
Ġì£¼ ê±°
r i
ĠìŀĦ ìĭľ
ë§ ¥
ł í
5 4
Ġìłľ ìŀ¬
Ġìłĳ ê·¼
d e
ĠíĻĶ ìŀ¥
íĬ ¼
m i
Ġíķ´ ìĦľ
Ġìŀ¬ ìłķ
Ġê±°ëŀĺ ìĿ¼
ë©´ìĦľ ëıĦ
Ġì¶Ķ ìĦ¸
ĺ í
ë°© ìĨ¡
ë¹ Ľ
ëĬ¥ ëł¥
Ġìŀ¥ ë©´
ĠìĹ¬ ë¡ł
Ķ Ģ
Ġìļ° ìĬ¹
íĨ ¤
ĠìĬĪ íį¼
Ġë°ľ êµ´
ì²´ ìĿĺ
ë§¤ ìĪĺ
ĠëĶ°ëĿ¼ ìĦľ
Ġìħ Ī
s h
Ġë½ ĳ
Ġê¸ į
ĠëĤ´ ìĿ¼
5 8
ĠëĬ ¦
ìĨ Ķ
Ġëĭ¹ ìĹ°
ĠìĪĺ ê°Ģ
Ġíı ´
ìĿ¸ ê°Ģ
Ġ3 9
ľ í
Ġìłķ ê¸°
Ġëģ Ĭ
Ġí Ŀĺ
Ġë¯¸ ìĤ¬ìĿ¼
ĠìĤ´íİ ´
Ġê±´ ì¶ķ
ĠìŀĲ ëıĻ
Ġì£¼ë ¬¸
Ġê¹Ģ ìĦ±
Ġê¾¸ ì¤Ģ
ĠìĻĦ ë£Į
Ġì į¨
ê´Ģ ê´ĳ
Ġë ¿
7 7
ĠìĪĺ ìĽĲ
Ġìķ ¨
ìļĶ ìĿ¼
ĠìĦ± ëĬ¥
ĠìŀĲ ìľ¨
ìłĦ ë¬¸
Ġìĺģ ìĸ´
6 2
ĠíĽĪ ëł¨
ì§Ģ ëıĦ
ê´ Ħ
ĠëĤĺ ìĦ°
ħ ľ
ĠìĿ¸ ì¦Ŀ
Ġì» ´
ĠëĤĺíĥĢ ëĤĺ
ìĿ į
ĠìłĦ ë°ĺ
ĸ ĳ
Ġë§ŀ ì¶°
íģ Ĳ
Ġ0 8
Ġêµ¬ ê°Ħ
Ġì² Ļ
íĶ¼ ìĬ¤
Ġë°ĶìĿ´ ìĺ¤
Ġëĭ¹ ìĦł
ĠìĹŃ ëĮĢ
ìľ¼ë©´ ìĦľ
ëĵ± íķĻêµĲ
ëł ¬
Ġf or
¡ Ń
ìľ¼ë¡ľ ìį¨
Ġìĺ¬ ë¦¼íĶ½
Ġìłķ ê¶Į
ìĭľ íĤ¨
Ġb e
Ġì°¨ ê´Ģ
Ġ0 7
6 6
ë§Į ìĿĺ
ĠìłĦ ë¶Ģ
Ġê°ķìĽĲ ëıĦ
ìĹ° ê¸Ī
ëıĻ ìĿĺ
Ġë ľ¨
Ġìļ´ íĸī
ĠìĭĿ íĴĪ
ëĮĢ ì¶ľ
ìĥģ íĴĪ
Ġê°Ģ ìĬ´
Ġê°Ī ëĵ±
ĠìłĦ íĻĶ
ì» µ
6 8
ìĤ¬ íķŃ
ë´ ¤
ĠìķĦìĿ´ íħľ
Ġìķ¼ ëĭ¹
êµŃ ìłľ
ĠìķĦ ë§Ī
ĠìĦł ê³ł
g e
ĠìĥĿ ëªħ
Ġëĸ¨ìĸ´ ì§Ģ
m y
Ġê´ĳ ê³ł
ĠìłĦ ëł¥
Ġíİ ¼
ĠëĴ ·
7 6
b s
ĠìĬ¤ íı¬ì¸ł
ĠíĿ ¡
7 1
Ġê¸į ìłķ
Ġh e
o f
Ġìµľ ìĭł
Ġìĭł íķľ
Ġë¬´ ëĮĢ
c j
¡ °
ĠìĿ´ìļ© íķ´
ĠëĤĺ ë¨¸
ê°Ħ ëĭ¤
ĠíĻķ ìŀ¥
ī ë
Ġ0 5
ĠíĶĦë¦¬ë¯¸ ìĹĦ
Ġì¢ħ ë¡ľ
Ł ¼
ê³Ħ ìķ½
Ġëĭ¹ ë¶Ģ
Ġì§ĳ ê³Ħ
6 3
ĠëĤĺë¨¸ ì§Ģ
íĮĮ íģ¬
Ġë³´ ê±´
Ġìĵ ´
³ ¡
6 9
Ġìĺ Īì
ëĭ¨ ìĿĺ
n s
Ġê·¸ ëħĢ
ĠìĹĦ ì²Ń
ĠëıĦ ì°©
ë¦¬ ìĿĺ
ìº Ĳ
6 7
ĠíĶ¼ ë¶Ģ
ĠìĻĦ ìłĦíŀĪ
Ġì¶ ĺ
ì²´ ìľ¡
ĠìĿ¸ ëł¥
Ġì½ĺ íħĲì¸ł
ĠëıĻ ê¸°
ìĿĺ ìŀ¥
Ġc j
6 1
ë »
Ġì¶ķ êµ¬
Ġìłĳ ìĪĺ
Ġê° ¤
ë¡ ¤
ìĤ° ë¬¼
Ġìĭł ìĦ¤
Ġê¼ Ń
ìĺĪ ìĪł
ĠìĹ° ê°Ħ
8 5
ê·ľ ì§ģ
Ġw i
Ġíĸ¥ ìĥģ
Ġë°° ê²½
Ġìĭľ ê°ģ
Ġë°ķ ê·¼
ĠìķĦ ì£¼
Ġëĥ ī
Ġë§ º
Ġìĸ´ëł¤ ìĽĢ
ê³¼ íķĻ
Ġê°Ģ ìĥģ
ê°Ģ ê²©
ìĬ¤ íĭ°
Ī ł
s s
ì² ¨
Ġíı¬ íķŃ
Ġë§Īì ¼ĢíĮħ
8 4
ë© ¸
Ġë²ķ ìĽĲ
ëĿ¼ ìĬ¤
ĠíĹĮ ë²ķ
ĠìĿ¼ ìľ¼
į Ķ
ĠëĪĪ ë¬¼
Ġë¶Ī êµ¬
ĠêµĲ ì²´
Ġì°¨ ë³Ħ
Ġë§Ī ìĿ´
Ġì§ ĵ
Ġ200 8
u r
ëł¤ ë©´
± ìłķ
Ġìĭ¬ ê°ģ
Ġë³´ ê³ł
ëĵľ ìĭľ
ĠìĿ´ ìĿµ
ĠëĤ´ ë¦°
Ġê³µ ê¸°
ìŀĲ ì¹ĺ
Ġm y
ìĽĮ íģ¬
Ġìľł ë¦¬
ĠëĶ ľ
ê°Ĳ ëıħ
íĽĦ ë³´
Ġëª¨ ìĸĳ
ĭ ±
ĠìķĮ ë¦¬
ìĽ¨ ìĿ´
Ġë°ĺ ëĵľìĭľ
Ġìĭľ ì²Ń
Ġë¸Ķ ë¡Ŀ
ê² Ĳ
Ġë¶Ģ ì§Ħ
ĠìŀĦ ê¸Ī
Ġë¶Ģ íļĮìŀ¥
ìĸ´ ëĤ¬
Ġn o
Ġì²´ ëł¥
7 8
Ġë¶Ģ ìĿ¸
Ġìŀ¥ ìĨĮ
7 3
ê³Ħ ìĿĺ
Ġì§Ģ íĤ¤
ĠëıĦ ìłĦ
ì¡° íķ©
Ġ3 000
Ġìĺ¤ ëŀĺ
ê°Ĳ ìĤ¬
ìłķ ìĿĺ
Ġë²Ķ ìľĦ
ì§ Ĳ
êµĲìľ¡ ì²Ń
Ġë¦¬ ê·¸
Ġ0 6
ë§ ŀ
Ġêµ īìŀ¥
0 2
ê³µ ìŀ¥
ĠìľĦ ë¡ľ
ĠìĮ į
Ġìĥ ¤
Ġì§Ģ ìĭľ
ì¹´ ìĺ¤
Ġê¼ ¬
Ġíĺ¼ ìŀĲ
Ġìĭ¤ ì§Ī
ĠìĪĺ ì¹ĺ
© ëĭĪëĭ¤
ĠìĿ´ ê³³
ê°Ģ ì¡±
ĠëıĮ íĮĮ
ì¶ķ ìłľ
Ġë§ Ĳì
Ġë¸Į ë¦¬
Ġì¤ĳ ê°Ħ
ëĮĢ ë¹Ħ
Ġìĺ Ĩ
ĠìĥĪ ë¡ľ
Ġëĵ± ê¸ī
ĠìĤ¬ ê³¼
íĺģ ëªħ
0 3
f a
7 4
ķ ¤
Ġê²° íĺ¼
Ġê± ±ìłķ
Ĥ ľ
Ġë°ķê·¼ íĺľ
ĳ ľ
Ġê³ł ìĸĳ
ëģ Ķ
íıī íĻĶ
ĠìĿ´ ëķĮ
íĭ° ë¸Į
Ġì ¼
Ġì´Ī ì²Ń
ëŀ Ħ
ìĭľ ì§Ģ
Ġì» ¬
Ġì°½ ìĽĲ
ê°Ħ ìĿĺ
Ġ200 9
Ġ4 00
ĠìĨĮ íĻĺ
íļĮ ê´Ģ
¢ ħ
a y
ĠëĤĺ ìģ
Ġëĭ¤ ê°Ģ
ĠíĽĦë³´ ìŀĲ
ê°ľ íĺģ
ĠìĪľ ìľĦ
ĠìĬ¤ë§ĪíĬ¸ íı°
Ġíķ´ ìĦĿ
ĠìĿĺ ë¬´
Ġê¸° ìĺ¨
a b
ĠíķŃ ëª©
Ġíĥľ ìĸĳ
ëĤ ¼
Ġë²ķ ë¥ł
Ġë°ľ íĸī
Ġê³µê²© ëł¥
Ġìļ´ ìļ©
ĠëıĻ ë¬¼
Ġ q
ê³µ ìĹħ
Ġì§Ģ ìĤ¬
Ġê´Ģ ëŀĮ
Ġë©´ ìĦľ
Ġì²´ ê³Ħ
ë¦¬ ìĺ¤
g m
¸ì ³Ĳ
ìĤ¬ ìŀĲ
Ġ7 5
Ġëĵľ ëĿ¼ë§Ī
Ġì£¼ ì°¨
Ġì§ģ íĽĦ
Ġê°ķ íķĺ
Ġë²Ķ ì£Ħ
Ġ1 50
Ġë°Ľ ìķĦëĵ¤
Ġëģ ¼
ì ³
ìĦľ ìļ¸
Ķ Ħ
ëĭ Ĳ
· Ķ
Ġë ¥ĺ
Ġë²ķ ìĿ¸
Ġë¶Ģ ìĥģ
ìĦ¸ ëĮĢ
íĺģ ìĭł
Ġíķľ ìłķ
c c
ĠìĤ¬ íķŃ
Ġë§¤ ìĿ¼
ĠìĬ¤ íĨłë¦¬
Ģì ¸¡
Ġë¶Ī ëŁ¬
Ġê³¼ ìłľ
ĠìĹ ¼
ĠìĻ¸êµĲ ë¶Ģ
o o
³ ĳ
Ġíķ Ģ
ê²½ ìĺģ
íĶĦ ë¡ľ
ĠìĦ¸ ìĽĶ
ëłĪìĿ´ ëĵľ
p c
° ģ
ì¡° ì°¨
w h
ĠìĹŃ ëŁī
Ġë¶Ģ ìĹ¬
¾ Į
ĠíıĲ ì§Ģ
ë³¸ ìĿĺ
Ľ Ħ
Ġë°ĺ ë°ľ
ì§Ģ ëĬ¥
ĠìĿ´ íĥĪ
w e
Ġìĭł ê²½
Ġë¶Ħ ëªħ
ĠìĬ¤ íħĮ
íİ Ģëĵľ
íı ´
Ġë§Ĳì ĶĢ
½ ê
ì¡° ìĦł
ê±´ ì¶ķ
Ġì² ¨
ĠíĮĮ ê´´
Ġìĸĳ êµŃ
ĠíĺĦ ìĥģ
ìĭľ íĭ°
ë£ ¸
s a
ĠíĨµ ìĥģ
Ġ20 20
v er
ĠìłĦ ë©´
Ġs u
ĠëĮĢ ì¤ĳ
½ ¤
íĸī ìľĦ
Ġë°Ŀ íŀĪ
0 4
Ġë°ľ ë§¤
ìĿ´ ì¦Ī
Ġë§¤ ê°ģ
Ġìłķ ë¦¬
ë¶Ģ ë¬¸
Ġíİ Ģëĵľ
ĠìłķìĿĺ ëĭ¹
ì° ®
Ġë¸Į ëĿ¼
Ġë³´ ìĥģ
Ġì§Ħ ìŀħ
ìħ ¨
Ġì§ĳ íĸī
½ ľ
Ġëī´ ìļķ
ìĽĲ ìĿĺ
Ġìľł ìłĢ
Ġo f
Ġì£¼ë ł¥
ìĶ ¬
Ġíĭ Ģ
Ġíĺ¹ ìĿĢ
ĠíĿĲ ë¦Ħ
Ġíķľ íĻĶ
Ġì¤Ħ ìĿ´
ĠìĦ± ê²©
ĠëĬĺ ìĸ´ëĤĺ
ĠíĻķ ìĭ¤
ĠìĦłë³´ ìĿ´
ìķĦ ìļĶ
íħ Ģ
Ġ1 20
ĳ ìĬ¤
Ġíĺķ ìĦ±
Ġì´ ¬ìĺģ
Ġì§Ģ ìĥģ
ë§ Īì
Ġê±°ëŀĺ ëŁī
Ġìı Ł
Ġr e
Ġ6 5
Ġ5 5
Ġì¦Ŀ ìĭľ
Ġë¶Ī ê°Ģ
ë¦¬ ê·¸
ħ ¨
Ġíİĺ ìĿ´ìĬ¤
Ġíģ¬ ë¦¬ìĬ¤
Ġìļ ķ
Ġë§Į ì¡±
ĠìĬ µ
ì´Ŀ íļĮ
ĠìĻĦ ìłĦ
Ġê½ ¤
Ġê´Ģê´ĳ ê°Ŀ
Ġë°Ķ ê¿
Ġì Ķ
Ŀ į
9 5
Ġì¹ľ íĻĺê²½
Ġìĺ Ľ
ìł ¤
ĵ °
Ġ0 1
ìŀ Ķ
Ġã ģ
. "
Ġìĸ´ ë¨¸ëĭĪ
ĠìĤ¬ íĥľ
Ġìĭł ìŀĦ
Ġ ]
ĠìĿ¸ íķĺ
ì Ł
ĠëĤ ¸
Ġë¶Ģ ëª¨
ĠìķĦ ëıĻ
ë¡ľ ìĬ¤
Ġêµīìŀ¥ íŀĪ
ê¸° êµ¬
ĠìĿ¸ê³µ ì§ĢëĬ¥
s n
ĠìĤ¬ ë¬´ì
Ġìĸ´ ì
Ġíİ¼ì ³Ĳ
Ġì¡° ê¸°
ìħ Ķ
ìĬ¤ ëŁ¬ìļ´
ä ¸
Ġë²ł ìĿ´
¤ í
ìĭľ ì¼°
Ġìłķ ë¹Ħ
Ġì£¼ ì£¼
ĠëĤĺ ìĦľ
ĠìľĦ íĺĳ
Ġì§ §
ı Ń
Ġìĸ¼ë§Ī ëĤĺ
² ľ
7 9
Ġëª¬ ìĬ¤íĦ°
Ŀ ê
ĠìĬ¤íĥĢ ìĿ¼
Ġ. âĢ
ìĩ¼ íķĳ
Ĺ Ĩ
ìŀ ĸ
Ġìŀ¬ ë¬´
ì½ ©
ë¬¸ íļĮ
Ġë¶Ģ ê³¼
ĠìĤ¬ ë¬´
ĠìĦ¸ íĬ¸
Ġm m
Ġê°ķ ë¦ī
Ġ200 7
ĠìĨĮ ìľł
Ġê´ Ģì¸¡
Ġê± ¸ì³Ĳ
g s
¡ Ģ
ì§Ģ ìĿĺ
Ġì£ Ħ
Ġê¸´ ê¸ī
Ġ 000
a p
ë° į
ë° ¥
ë°ĶìĿ´ ìĺ¤
Ġê´Ģ ìĦ¸
Ġêµ ³
Ġë¯¸ ì¹ĺ
Ġê¸° ìķĦ
ĠìŀĲ ìĽĲ
Ġìºł íİĺìĿ¸
ĠìĹĶ ì§Ħ
Ġìĭ¤ íĺĦ
Ġê±° ë¶Ģ
Ġì¼Ģ ìĿ´
ë§¤ ëıĦ
ì° Į
Ġì´Ī ëĵ±
Ġìľł ìĹĶ
ĠëĬĲëĤ Į
ĠëıĻ ìĿĺ
ëł Ģ
ĠìĤ¬ ëĵľ
íĥ ĳ
Ġëĭ¤ ìĨĮ
Ġíĥ ĵ
² Ħ
ĠìĦ± ìļ°
Ġìĥģ ëĭ´
ħ Ķ
Ġë§ ĺ
¸ Ģ
ëĶ ľ
Ġë³´ ìĬ¤
ĠìĽ ¨
ĠìĿ´ íĸī
Ġë¶Ģ ëĮĢ
ĠìŀĲ ê²©
Ġëĭ¨ ëıħ
ĠëĿ¼ ë©°
ĠìĽĲ ì¹Ļ
ĠëıĻ ë°ĺ
ëĬĶëį° ìļĶ
ĠìĦł ìŀĦ
Ġë¶Ģì ´Ŀë¦¬
Ġìµľ ìĦł
íĨ ¡
Ġ5 9
ë²¤ ì²ĺ
ìĤ¬ ë¬´
Ġê± ·
ëĵ Ń
Ġì§Ģ ë°°
Ġê±° ê¸°
ĠìķĦ íĶĦ
Ġ. "
ëĤĺ ë¬´
Ġëįķ ë¶Ħ
ì¹ ¼
ĠëĨį ìĹħ
ìĭ¬ ìĿĺ
ê°Ģ ìĬ¤
Ġ4 9
Ġë²Ħ ìłĦ
ì²ł ìĪĺ
ì¤ ¬
Ġëĭµ ë³Ģ
Ġìĺ¤ ë¦¬
Ġê°ľìłķ ìķĪ
ĠíĽ ¨
ĠìłĪ ëĮĢ
Ġ ;
Ġë¬´ ëĭ¨
ĠëıĻ íķ´
Ġíĺ¸ ìĦł
ĠìĦ± ìłģ
Ġê°ķ ìłľ
ëĳ ¥
ĠëĤĺ ë¬´
Ġ9 9
Ġê·¼ ê±°
ĠìĪĺ ë¦½
Ġm a
ĠíĮĮ íĬ¸
Ġë³´ ìĿ¸
Ġë £
Ġê°Ģ ë§¹
¯ ì
íķ´ ì§Ħ
ĠìĿ´ ë¥¸
ĠìķĦ ë¥´
íķ Ģ
Ġë² ½
ĠìĬ¤ íĬ¸
Ġâ ĺ
Ġëį° ë¯¸ì§Ģ
Ġë¹Ħ íĸī
Ġê°ľ êµŃ
Ġ4 3
¡ ±
ĠìŀĦ ì§ģìĽĲ
ĠëĤĺ ê°Ī
ìĭľ íĹĺ
c t
ì²´ ê³Ħ
Ġë¹ł ë¥¸
Ġë°Ŀ íŀĮ
b i
ê¹ Ŀ
Ġê°Ĳ ìķĪ
Ġë§ŀ ì¶¤
Ġê¸Ī ìķ¡
ìĪĺ ìĪĺ
Ġë³¸ ìĤ¬
ìĭľ ë¯¼
ìĪĺ ìĦĿ
Ħ ´
e a
Ġê°Ģ ëŁī
ë©Ķ ìĿ´ìħĺ
ĠìŀĲ ë³¸
¨ ¼
Ġê· ł
Ġì§ģ ìĹħ
¤ ĺ
Ġë³Ģ ëıĻ
Ġìľł ëĭĽ
Ġì¹´ ì¹´ìĺ¤
ëĦĪ ìĬ¤
p o
ŀ ì
Ġãİ ŀ
íĺ Ķ
Ġê·¸ëŀĺ ëıĦ
ë¬´ì ´Ŀë¦¬
Ġê°ľ ë§ī
Ġìĭ¤ ë¬´
Ġíĺĳ ìķ½
ĠìĹ¬ ëĭ¹
ĠìĪĺ ìłķ
ĠêµŃ ë¬´ì´Ŀë¦¬
ĠìĦ¼ íĦ°
Ġì¢ħë¡ľ êµ¬
Ġê² Ģì¦Ŀ
´ ĳ
Ġê±° ì£¼
Ġ ä
Ġíı¬ íĨł
Ġì²´ ìłľ
íĺ¸ íħĶ
ĠìĤ´íİ´ ë³´
Ġê°ľ íĹĮ
Ġê²Į ëĭ¤ê°Ģ
Ġì»¤ íĶ¼
ĠìŀĲ ëŀĳ
ĠíĨµ ê³Ħ
ì¹´ ìĿ´
ĠëĬĺ ìĸ´ëĤľ
Ĥ ¼
Ġìķķ ë°ķ
ħ į
Ġë³Ģ íĺ¸ìĤ¬
± ¸
ĠìļĶ ìĿ¸
ì¤Ģ íĳľ
ëŀĢ ëĵľ
ê³µ ê°Ħ
Ġë¶Ī ìķĪ
ĠíĮĲ ë¬¸
íı¬ êµ¬
Ġì·¨ ì§Ģ
ëŀ į
ĠêµĲ ë¥ĺ
Ġë´ ¤
íĬ¸ ìĽĮíģ¬
Ġë¡ľ ë´ĩ
ĠìķĦ ìĺĪ
Ġë¶Ī íİ¸
Ġì²ł ìłĢ
c m
Ġë§¤ ëł¥
Ġ 00
ë°± íĻĶìłĲ
Ġë°Ķ ê¾¸
Ġíļį ëĵĿ
łì Ķ¨
8 2
ì½Ķ ë¦¬ìķĦ
ĠìĦ¸ ê¸°
Ġëªħ ì¹Ń
Ġê´ĳ ìĹŃ
Ġê°ľ ìļĶ
m u
ĠíĽ¨ ìĶ¬
¨ í
ë¬¸ ìłľ
ĠìĥĪ ë¡Ń
ĠíĻľ ìķ½
ĠìłĪ ë°ĺ
Ġíı¬ ê¸°
Ġëĵ± ê³¼
ëĤĻ ìĹ°
ĠìĿ¼ ëĮĢ
íĽĪ ëł¨
Ġê°Ģ ëıĻ
Ġ )
íĺĳ ìķ½
ĠêµĲìľ¡ ë¶Ģ
Ġë° ĳ
Ġl i
ĠíĻį ì¤Ģíĳľ
Ġìĺģ ìĹŃ
Ġíģ¬ ê¸°
Ġê¸° ê³Ħ
ĠìĿ´ ëĤĻìĹ°
ë ±
Ġê¾¸ì¤Ģ íŀĪ
ĠìĪĺ ìĪĺ
ê°Ģ ì¹ĺ
ĠìĿ´ë¤Ħ ì§Ģ
Ġê·¼ë¡ľ ìŀĲ
Ġ _
íķľëĭ¤ ë©´
ìĦł ìĿĺ
8 3
Ġìĩ¼ íķĳ
ìĵ °
Ġ0 3
ĠìĿ´ ìĤ¬ìŀ¥
ìĦł ìĸ¸
ê²Į ìŀĦ
Ġë¿ Į
ëĭ¹ êµŃ
Ġëĵ Ŀ
Ġ è
íĵ ¨
ĠíĻĺ ìľ¨
Ġìļ° ì£¼
ĠíĽĦ ìĽĲ
ŀ ¡
Ġì¢ħ ë£Į
Ġì¶©ë¶Ħ íŀĪ
íĦ° ë¦¬
ĠìķĪ ë³´
ĠìĿ´ ìĤ¬
Ġì¦Ĳ ê¸¸
Ġìĥģ íĺ¸
íİĺ ìĿ´
íı¬ ë¥´
Ġëħ¸ ìĤ¬
êµŃ ë¯¼
Ġë§Į ëĤľ
íĺĳ ìĿĺíļĮ
ĵ Ŀ
8 8
ëĵľ ë¦¬
Ġì§Ħ ìłķ
ëĤĺ ë§Ī
ê´Ģ ìĿĺ
Ġëı ķ
Ġë²ķ ìķĪ
Ġê³µ ìķ½
ë¹Ħ ìľ¨
ĠìĿ¸ ê¶Į
°ë ·Ķ
Ġëį °ë·Ķ
Ġ0 2
êµ¬ ìĹŃ
Ġì£¼ ë§Ĳ
Ġì²ľ ë§Į
Ġê³ł ìĨį
Ī í
b m
ĠëĤĺíĥĢ ëĤ´
Ġìĭ¤ ì²ľ
Ġìķ ±
© ĺ
ãģ ®
e l
ĠëĬĲ ëģ¼
ìłĦ ëŀµ
Ġëĭ¤ ìĿ´
ĠíĽĦ íļĮ
ì¡° ê±´
Ġê´ ľ
ë²Ħ ë¦°
ìķĦ ìĿ´
ĠìĽĲ ìŀ¥
íĪ¬ íĳľ
Ġêµ ´
ëĲľ ëĭ¤ê³ł
ĠìĹ° ì¶ľ
Ġìĥģ ìŀĦ
ĠíĮĲë¬¸ ìłĲ
ĠìĿ¼ ê°Ħ
ê³ł ë¦¬
ĠëĮĢ ë¡ľ
ĠíıŃ ë°ľ
Ġëħ¸ ìĿ¸
Ķ ¼
ĠìĤ¬ ë²ķ
Ġëĺ ĳ
Ġì·¨ ìĨĮ
íŀ Ĳ
Ġìĭľ ê°Ģ
Ġê°Ģ ìĿĦ
Ġë² ¨
ĠíķŃ ìĥģ
Ġë¹ł ìł¸
ìľ¼ë ł¤
Ġë³µ íķ©
Ġê¸° ìĥģ
ĠìĿ¸ íĶĦëĿ¼
ìķĦ ëıĦ
ĠíĽĦ ë°ĺ
Ġphoto newsis
ë¬ ĺ
Ġíķ© ëĭĪëĭ¤
ê²° ê³¼
ìĹ°êµ¬ ìĨĮ
ĠìĿ¸ ìŀ¬
ĠìŀĲ ëħĢ
ìĭľ ëĮĢ
Ġì§ģ ìŀ¥
ìŀĲ ê¸°
Ġlo ve
Ġì¶Ķ ìĦĿ
íĮ ©
Ġë¬¼ ë¦¬
¶ Ī
ì²ł ëıĦ
Ġíķ© ëıĻ
ī ¬
t er
ĠëĤ´ ê²Į
æ ĸ
ë¬¼ ê´Ģ
ëį ¤
ì¢ħ ìĿĺ
Ġìłķ ì²´
ĠìĪĺ ìĨĮ
ĠêµĲ ìĤ¬
Ġì¢ħ ë¥ĺ
ĠìĪĺ ë¡Ŀ
íĮ Ķ
Ġê¸° ìĨĮ
ĠìĪĺ ìļ©
Ġì²Ń ìķ½
ĠìĿ¼ ìĸ´ëĤĺ
ĠìķĪ ì²łìĪĺ
Ġì£¼ ê¸°
Ġa nd
ĠëĤ łìĶ¨
ì§Ģ ìĸ´
ê±° ìļ´
ĠìĬ¹ ìĿ¸
íĿ ¡
i r
ĠìķłëĭĪ ë©ĶìĿ´ìħĺ
ĠíĬ¹ íĹĪ
¨ ¹
ìŀĲ ëĬĶ
Ġì£¼ ìµľ
ĠëĮĢ ê°Ģ
Ġêµ¬ ìŀħ
² ©
Ġê°Ģê¹Į ìļ´
Ġë§ ¨
ĠìļĶ ë¦¬
íķĺ ìĿ´
ê¾ ¼
ì£¼ë ¯¼
ĠìĦľ ì´Ī
Ġì§Ģ ìĭĿ
v s
Ġë³´ ì¡°
Ġë¶Ģ íĴĪ
Ġê¸° ë¶Ģ
ĠìĿĺ ê²°
Ġìĺ ·
ìĿ¸ ë¬¼
íĨµ ìĥģ
ìĥĿ ëªħ
Ġê³µ íķŃ
Ļ ķ
n i
Ġg s
Ġ4 6
ê³ł ëıĦ
ëį° ìĿ´íĦ°
ëį ´
Ġëĵ± ëıĦ
Ġì ¥
ë³´ íĺ¸
Ġìĭ «
o h
Ġë¸Įë¦¬ íķĳ
ë ±ħ
ĠëģĮ ìĸ´
Ġë¶ģ ì¸¡
Ġì¶ľ ìĦĿ
Ġê¶Į íķľ
ĠëĨĵ ì¹ĺ
m s
Ġì¦Ĳ ê¸°
ĠëıĮìķĦ ê°Ģ
Ġìłľ ê±°
f i
ĠíĻķ ë¥ł
ë¦¬ ìĬ¤íĬ¸
Ġ0 4
Ġë§¤ ëıĦ
ê³ł ëĬĶ
Ġêº ¼
Ġìĥģ ì§ķ
Ġê²° ìłľ
Ġìłľì£¼ ëıĦ
Ġì¶© ê²©
Ġìķ ī
8 1
ìļ´ ìļ©
ĠìĨĮ ìĦ¤
Ġì²ĺ ë²Į
Ġì¶ķ ìĨĮ
Ġìĥģ ìĥĿ
Ġìľ µ
h i
ìĺģ ìĹħ
Ġìľł ëĭĪ
Ġê±° ëĵŃ
ĠìĹ´ë¦° ëĭ¤
ĠíĺĦ ìķĪ
ĠìĪĺ ì£¼
êµ¬ ìĿĺ
ĠìĤ Ń
¤ ¬
Ġìļ´ ìłĦ
íĶĮ ëŁ¬ìĬ¤
Ġê°Ģ ê³Ħ
ìķ½ íĴĪ
ĠìłĦ íķ´ì¡Į
ĠìļĶ ìĨĮ
Ġë§Į ìķ½
ìĦ± ê³¼
ë£ ¬
ĠíĹĪ ìļ©
Ġìķħ íĻĶ
Ġìĭł ìĨį
ĠìĿĺ ìĭ¬
Ń í
ĠìĽ ¹
Ġê°Ĳ ìłķ
ìĤ° ìĿĺ
ëĮĢ ìĤ¬
âĢ ¦
ì§ģ ìŀĲ
Ġìĭ¬ ìĿĺ
Ġë°ĺ ë³µ
ħ ĭ
ĠìĿ´ íķĺ
Ġë¦¬ ëįĶ
ìĭ ¼
Ġìŀ¥ ìłĲ
Ġìŀ¬ ìĤ°
p s
Ġ4 4
ëĭī ìĬ¤
f c
ĠëıĻ ìķĦ
Ġìĭ¬ ì§Ģìĸ´
Ġíĳľ ì¤Ģ
Ġì§Ģ ìŀĲì²´
Ġì§Ħ íĻĶ
Ġíıī ìĨĮ
ł ĳ
ĭ Ń
Ġí ŀĲ
Ġì§Ħ ì§ľ
Ġë§¤ ë§¤
Ġ4 2
íħ Ĳ
ĠíİĺìĿ´ìĬ¤ ë¶ģ
Ġë©Ķ ìĿ´
ìŀ¬ ìłķë¶Ģ
g i
ê²½ ê¸°
íĻĶ íıĲ
Ġì§Ģ íľĺ
Ġíĳľ ìĭľ
ĠìĥģìĬ¹ ìĦ¸
ê³µ ëıĻ
ë¬ ¼ë
Ġì£¼ ê´Ģ
² °
Ġê¹Ģ íĺĦ
ìĭł ë¬¸
Ġìķ¨ ë²Ķ
ĠìĹĲ ìĸ´
ìłķ ëıĦ
Ġì± Ļ
ĠìĥĿ ê¸°
ĠìľĦ ìķĪ
ĠìĪĺ ìĪł
ĠìĿĳ ëĭµ
ĠìĹ¬ ìĤ¬
ë°ľ ìĸ¸
ê²Ģ ìĤ¬
k r
ĠìĿ¼ ìĥģ
Ġ5 6
ìĬ¤ íĨł
ĠãĢ Ģ
ìĦ ¯
s c
ì²´ ìĿ¸
ĠìĨĮ ìĨ¡
° ±
ĠëĮĢ ìļ°
ìĭ¬ ìĤ¬
íĴĪ ìĿĺ
Ġë©Ķ ìĭľì§Ģ
Ġíķľëĭ¤ ë©°
Ġëĭ¹ êµŃ
ë¯¸ ëĦĲ
ĠëĶ ±
ê°Ģ íı¬ë¥´
ë¶Ħ ìķ¼
Ġì§ķ ìĹŃ
ĭ ī
Ġë³´ ê³łìĦľ
ëĿ¼ ìĦľ
ĠíıŃ ìĹ¼
ëĬĶ ê°Ģ
ìļ© ìĿĺ
ĠìĪ ²
Ġë²ķ ë¬´
ĠìłĦ ì£¼
ë¯ ¹
ë©Ķ ëĿ¼
ĠíĶĮëłĪìĿ´ ìĸ´
ìĦ¸ ìłĲ
Ġëĵľ ëŀĺ
ĠìĿ´ ëĤ´
ë ľ¨
8 9
ìŀ¥ ìĿ´
Ġë°© ì§Ģ
ìĥģ íĻ©
Ġ6 00
ĠìĪĺì¤Ģ ìĿĺ
ìĭľ íĤ¬
Ġê°Ģê¹Į ìĿ´
Ġ4 7
ĠíĮĲ ê²°
ĠìĥĿ íĥľ
ĠìĤ´ ìķĦ
ĠëĤĺ ìĺ¬
Ġíĸ¥ íķ´
ĠìłĦ íķ´
ĠìĥĿ ì¡´
Ġìĭ¬ ë¦¬
g a
ĠíĮ¨ ìħĺ
Ġëĭ¤ ëĭĪ
ìĿĢ ëį°
Ġìĭ± ê°Ģíı¬ë¥´
Ġê°ķ ìĦ¸
9 2
Ġìľł ìĤ¬
êµŃ ìŀ¥
íķľëĭ¤ ë©°
Ġs ns
Ġìĺģ ëĵ±
Ġìĭł ìĦ¸ê³Ħ
Ġì·¨ ìķ½
Ġì¡° ìŀĳ
ĠìĬ¤íĥĢ íĬ¸
Ġì·¨ ìŀ¬
ã Ī
ĠìĹ° ë§Ĳ
Ġë²ķ ìłķ
Ġë°° ì¶ľ
Ġì¦Ŀ ê±°
ĠíĴĪ ì§Ī
ĠíķĦ ìĪĺ
Ġëĸ¨ìĸ´ ì§Ħ
Ġì´Ī ëĮĢ
íĸī ìłķ
Ġìŀĳ ìļ©
Ġëħ¸ëıĻ ìŀĲ
ê» ´
Ġì±Ħ íĥĿ
ĠëĮĢ íıŃ
ĠìłĦ ê°ľ
f e
Ġì²Ń ì£¼
8 6
ëŁī ìĿĺ
ĠìłĦ ìĽĲ
Ġì¶Ķ ê²½
Ġíģ´ ëŀĺ
ìħ ĭ
ê¸° íļį
ì¡° ì¹ĺ
Ġë¬´ ìĭľ
Ġê°ľ ìĦ±
u n
Ġíı¬ ìĬ¤ì½Ķ
ĠíıĲ ê¸°
Ġëĭ¹ ìŀ¥
ĠìĦł ìĥĿ
ë§Ī ìłĢ
ŀ ĸ
Ġìŀ¬ ê°ľ
Ġê±´ ìĿĺ
Ġëªħ ìĿĢ
Ġê°Ģ ë¦¬
ì£ ½
´ Ī
ë¹Ħ ìļ©
Ġë¶Ģ ë¶Ģ
Ġìłģ ìłĪ
Ġë¯¸ ëĶĶìĸ´
Ġm o
ìĦľ íĬ¸
Ġíķľ ê³Ħ
ëį° ìĿ´
Ġë¹¨ ë¦¬
ëŀĮ íļĮ
Ġë¹ ļ
ĠíĿĶ ëĵ¤
ìľ¼ë ¯
ìľ¼ë¯ Ģë¡ľ
ì¢ħ íķ©
ì²ĺ ë¦¬
8 7
b r
Ġë¬¼ë Łī
ĠëĬĺ ë¦¬
Ġv s
Ġê³ł ë°ľ
Ġíľ´ ëĮĢ
ë¹Ħ ìķĦ
íĺĳ ìĥģ
ê³µ ìĿ¸
ê³ł ê¸°
ĠìĬ¤ íİ
ĠìĦ¸ ê¸Ī
Ġ200 6
Ġê°ĸ ì¶ĺ
Ġìĺģ ìĽħ
Ġì§Ģ ì§Ħ
Ġì§ģ ìłĦ
w o
ë©´ ìłģ
ê´ĳ ìĹŃ
Ġëª¨ ëĵľ
Ġëĭ¨ ìĿ¼
ìĿ´ ëıĦ
Ġëªħ ìĺĪ
Ġk r
ĠìĿ´ íĭĢ
Ġë²Į ìĿ´
ìĺĢ ìľ¼ë©°
Ġëĭ¬ ëł¤
Ġì¹´ íİĺ
Ġìłķ ìĭĿ
íĻĶ íķĻ
Ġì·¨ ëĵĿ
ĠìĦł íĺ¸
Ġìľł ëıĦ
Ĺ ¼
r y
ĠëĤĺíĥĢ ëĥĪ
Ġìĸĳ ìĦ±
Ġìłľ ëª©
Ġê°Ģ ì¡Į
ìĦ ¬
ĠíĬ¸ ëłĮ
Ġë ¥´
íķľ ëį°
9 1
Ġíķ´ êµ°
Ġíĺ¸ ìĨĮ
ĠìĦ± ëĤ¨
ĠìĦ¸ ëł¥
ëľ »
Ġê°ľ ëħĲ
ĠíĺĦ ê¸Ī
ì¡´ ìĿĺ
ìĽ ¨ìĸ´
Ġê°Ģ ëĵĿ
Ġìĭ¤ ëł¥
ìħ Ģ
ë¶Ģ ëª¨
ĠìĿ´ ìĻ¸
Ġíķ´ ìĥģ
Ġì± Ķ
íĿ Ĳ
Ġë§Ī ì¹ľ
Ġíĺķ ìĤ¬
ì «
Ġã Īľ
ĠìŀĲ ì¹ĺ
ëĭĪ ìĸ´
ìĹ ł
Ġìĺ¤ ëŀľ
Ġê·¸ ë¦°
Ġíĥĳ ìŀ¬
Ġì²Ń êµ¬
ĠìĪĺ ê¸ī
ĠìłĦê¸° ì°¨
ĠíĻĺ ìĺģ
Ġê° Ŀ
ĠìĿ´ ìĬĪ
ë§ Ľ
y e
¹ Į
ĠëĤ´ ëł¸
Ġ4 1
ê³µ ê°ľ
ĠëıĻ ë£Į
ìĿĺ ë£Į
Ġì£¼ ìŀ¬
ģ ®
f t
ê¸° ìŀĲ
Ġê¹Ģ ìĥģ
Ġê° Ķ
ĠìķĦ ìī¬
p r
u t
Ġë »
Ġ4 000
ìĥ ¤
Ġë© Ī
ĠìķĦë¦Ħ ëĭ¤ìļ´
Ġëĵ ł
Ġë¯¸ ë¦¬
ĠìĿ´ ëªħ
Ġkb s
Ġê°Ģ ìĪĺ
ëħ ķ
ìłĦ ê¸°
Ġæ ĸ
ìŀ¬ ìĿĺ
Ġë¹Ħ íĬ¸
Ġìķ½ ê°Ħ
ĠíļĮ ê³Ħ
Ġìĭľ ë²Ķ
Ġë¶Ħ ë¦¬
íķ© ìĿĺ
ĠëĽ° ìĸ´
Ġíİ¸ ìĦ±
Ġëĥ Ī
Ġë§ ģ
íĥĢ ìŀĦ
Ġíļ ¡
9 8
ë¸ Ĳ
ĠìĿ¸ ìĥĿ
Ġìķł íĶĮ
ëĦĲ ëĵľ
ìŀĲ ë£Į
Ġê¸°ëĭ¤ ë¦¬
ëĵ ¬
íļ¨ ê³¼
Ġê°ľ ë³Ħ
ë¦¬ íĬ¸
Ġê³ ¤
Ġìĸ´ ìłľ
íĭ ¸
Ġì§ ľ
i m
ìĹĲ ëĦĪì§Ģ
Ġê³ĦìĹ´ ìĤ¬
ë²Ħ ëł¸
Ġê²½ ìĥģ
ĠëĮ ĵ
ìĪĺ ìĤ¬
ìŀ¥ ìķł
ĠìĽĲ ìłĦ
Ġê°ķ ê²½
Ġë¹Ħ ëĤľ
ê¶Į ìŀĲ
l v
Ġì½Ķ ë¦¬ìķĦ
´ Ĳ
ĠíĿ¬ ìĥĿ
Ġë¬´ ë¦¬
i p
ĠíĮĮ ìĽĮ
Ġã ĥ
ĠìŀĦ ìĽĲ
ìº ł
Ġ8 4
ê¹ ¨
Ġìĺ¤ ë¸Į
Ġê·¸ ëķĮ
ê°ľ ìĦł
· °
Ġìļ© ìĤ°
Ġì¹ ł
ê³ł ìĨį
ê³¼ ìŀ¥
Ġê¸Ī ê°Ĳ
ë§ İ
ë°© ìķĪ
Ġëŀ ľ
ĠíĮĮ ìĿ´
n h
íķľ íħĮ
Ġì·¨ ê¸ī
Ġê²½ ê³ł
ë¥ ´ì
ì¹ ¸
Ġë° ´
ĠìĿ¼ ìłľ
° ½
ëĭ¤ ë¥¸
ìĿ¼ ë¦¬
Ġì§ĳ ëĭ¨
ì¤ĳ ê³µìĹħ
Ġìĺ¤ íĶĦ
ìĬ¤ íĶĮëłĪìĿ´
Ġë³Ħ ëıĦ
íıŃ ëł¥
Ġê¸¸ ìĿ´
Ġê°ľ ë°©
ìĹ¬ ìĦľ
Ġê ¶
ìĪĺ ìĿµ
ĠìĿĺ ëıĦ
Ġê³³ ê³³
ĠíĻĶìŀ¥ íĴĪ
Ġë¶Ģ ì§Ģ
Ġìŀ¥ ì°©
ĠíĨµìĿ¼ ë¶Ģ
Ġì£½ ìĿĮ
Ġìĭľ ëĤ´
Ġê°ĸ ì¶Ķ
ĠíĻĶ íķĻ
ĭ µ
Ġì «
Ġê±´ ë¦½
ìĭĿ ìĿĺ
Ġ5 7
Ġìľ¡ êµ°
Ġê² ģ
ë°° íı¬
³ Ģ
ĠêµŃëĤ´ ìĻ¸
ë³´ ìĿ¸ëĭ¤
Ġc m
Ġë¬´ ìĬ¨
íĵ¨ íĦ°
Ġë³¸ íļĮìĿĺ
ĠìĥĪ ë²½
Ġë©Ķ ìĿ¸
Ġì¹ ¸
9 6
ĠíĽĦ ìĨį
Ġê¶Į ëł¥
íķĺ ëĤĺ
ì¼Ģ ìĸ´
° ¸
ìĽĮ ëĵľ
Ġíĺĳ ì¡°
ĠìķĪ íĥĢ
Ġ8 5
ëĳ ĺ
Ġìķŀ ëĳĶ
Ġëį ľ
Ġê³Ħ ìĤ°
Ġì¡° ëªħ
s b
ĠìĿ´íĥĪ ë¦¬ìķĦ
ĠëıĻ ìĽĲ
ĠìµľëĮĢ íķľ
ĠìĿ¸ìĤ¬ ë§Ĳ
ëĤ¸ ëĭ¤
Ġê´ľ ì°®
Ġê³ł ê¸ī
Ġì¤Ħìĸ´ ëĵ¤
Ġìłľ ìķ½
ì¿ Ħ
ìĪ ¨
i o
ì´Ŀ ë¦¬
ĠìĦł ëıĦ
ĠíĮĮ ê²¬
Ġëª¨ ìķĦ
ĠìķĮëł¤ ìł¸
ì» ´
Ġìĺ Ģ
Ġìĺ¬ ëł¸
Ġê±° ëĮĢ
Ġ6 4
Ġê°ľ ìŀ¥
ì§Ģ ëĮĢ
c d
Ġìŀ¬ ë¯¸
Ġê¸° ìļ¸
Ġì´Ī ê³¼
ĠëĮĵ ê¸Ģ
Ġë³µ ê·Ģ
Ġìĺ¬ ëł¤
¼ ìĨĲ
Ġì°¨ ëĭ¨
Ġìĭ Ń
Ġëĭ¹ ì´Ī
ĠìĿ¸ìłķ ë°Ľ
Ġ5 1
Ġìŀł ìĭľ
Ġê¸° ìŀ¬
ĠìĺĪì ¸¡
Ġì¶ľ ìłĦ
ĠìĦł ì¶ľ
ê³ł ìļĶ
Ġê±° ë¡ł
ĠíĮ¨ ë°°
ĠëĦ Į
ëįĶ ëĭĪ
Ġìłľ ìĿ¼
ĠëĤ¨ ë¶Ģ
Ġìĭ¤ íĹĺ
ĠìĽĢì§ģ ìŀĦ
Ġë ĿĦ
µ ê
Ļ ê
Ġë³´ ìķĪ
9 7
± ë
ĠíĥĢ ê²©
íıī ê·ł
ĠíĻį ì½©
ìĸ´ ìĿĺ
g r
Ġìŀ¬ ê±´ì¶ķ
» ¬
Ġêµ¬ ë¶Ħ
Ġë¶ĢìĤ° ìĭľ
Ġn h
ĠíĮĮíĬ¸ ëĦĪ
ìķĪ ìłķ
Ġíİ¼ ì¹ĺ
ì£¼ ê°Ģ
ì´Ī ìĿĺ
ë¸Į ë¦¬
ìŀ ī
Ġë³´ ê¸ī
Ġë²¤ ì²ĺ
Ġìµľ ìļ°
ĠëıĦ ëĦĲëĵľ
ìľ Ī
ĠíĮ¨ íĦ´
ê°Ħ ëĭ´íļĮ
Ħì Łģ
ëĵ¯ ìĿ´
êµŃ ê°Ģ
ë¡ľ ëĵľ
Ġ200 5
ëĭ¤ ëĭĪ
§ Ŀ
ê¶Į ìĿĺ
ĠíĥĿ ìĭľ
e o
ê¸° ìĤ¬
ìłĦ ìŁģ
Ġëĭ¨ ê¸°
9 4
ĠìĤ¬ íĩ´
ĠìĿĺ íķľ
ĠìķĮ ìķĦ
Ġëĵ±ìŀ¥ ìĿ¸ë¬¼
Ġ5 3
t r
ì¦Ī ëĭĪìĬ¤
ĠìĪľ ë§¤ëıĦ
ĠìĥĿ ê¸´
ĠíĨł ëĮĢ
e w
ĠíħĮ ë§Ī
í Ŀĺ
Ġl v
Ġo n
Ĩ ł
¤ë ®¤
ŀ ĺ
ĠíĹĪ ê°Ģ
Ġì°¸ìĦĿ ìŀĲ
ëĲ ©ëĭĪëĭ¤
ĠëĪĦ ìłģ
ĠíĪ¬ ëªħ
¤ë®¤ ëĭĪ
êµĲíĨµ ë¶Ģ
Ġê·¸ ëĤĺë§Ī
Ġëĵ Ģ
Ġê¸° ì¡°
ìĨĮ ëĵľ
Ġë´ī ìĤ¬
ìŀĲ ê³ł
ĠìĿ¼ ìĽĲ
Ķ Ķ
ĠìĹĲ ìĿ´
Ġë¯¸ ìĪł
ĠëĤĺëĪ ł
ëĤľ ëĭ¤
Ġëª ½
Ġ5 4
ĠëĶ° ëľ»
Ġë Ł°
íı¬ ëŁ¼
Ġì¢ħ êµĲ
9 3
Ġíİ¸ ë¦¬
ĠíĶĦ ëłĪ
Ġê¹Ģ ê²½
ĠëıĦ ìĻĢ
Ġ5 8
ë¬´ ìĹŃ
ìļ´ ìĺģ
ìĤ¬ ìĿ´
ĠíĴį ë¶Ģ
Ġëĭ¹ìĹ° íŀĪ
Ġìķ¼ êµ¬
ëħ ģ
ĠìĤ¬ ìķĪ
Ġ z
ìĪĺ ìĤ°
Ġë¸Ķ ë£¨
Ġë°ľ ëıĻ
ëłĪ ìĿ¸
Ġë°° ëĭ¹
Ġëĵ¤ ìĹ¬
íį ¼ë
Ĩ ¡
Ġê°Ģ ë¡ľ
ĠìĹĦ ë§Ī
ĠìĤ¬ ê¸°
íĤ¤ ì§Ģ
Ġê²½ ëł¥
ë¶Ģ ìŀ¥
ëĬĶ ëĭ¤ê³ł
Ġë²Ĺ ìĸ´ëĤĺ
Ġìĥģ ê´Ģ
Ĳì ĩĦ
£ ¸
ĠëĨį íĺĳ
Ġ6 000
Ġë¹Ħ ë°Ģ
ë¬¼ ì§Ī
Ġë®¤ ì§Ģ
Ġë¯¼ ì¡±
ìĿ¼ ìĿĺ
¡ ê
ì´Ŀ ìķ¡
¦ ¼
ìĹ ½
ìĿ¼ ë³´
ĠíĻ Ģ
Ġì§ģ ë¬´
Ġê¶Į ë¦¬
ĠìĬ¤íĥĢíĬ¸ ìĹħ
ê² ģ
Ġíķ´ ìłľ
Ġ199 9
Ġê¸Ī íĺ¸
Ġê°ľ ìĨĮ
Ġíĺĳ ìĹħ
ĠìĤ¬ìĿ´ íĬ¸
ĠìĦł ë°ķ
ê³µ ìĭĿ
Ġë°ĶëŀĢ ëĭ¤
ï ½
ĠìĨĲ íķ´
Ġëªħ ëł¹
Ġê²° ë¡ł
Ġê¹ Ķ
Ġê°Ģë§¹ ìłĲ
Ġìĺģ ìĽĲ
å Į
ĠìĿ´ ë§ĪíĬ¸
´ ĩ
Ġìķ ¤
ëĤĺ ìĿ´
ìĤ¬ ëł¹
Ġìĥģ ë¬´
ĠìĿĺ ìĭĿ
ĠëıĻ ëĤ¨
Ġæĸ ĩ
Ġëĭ¤ ë¦¬
Ġê³µ ë¶Ģ
Ġë¹ Ļ
Ġìĭ¤ ìĪĺ
Ġê²½ ê³Ħ
Ġì§Ģíķĺ ì²ł
Ġì¤Ģ ëĭ¤
ì¼Ģ ìĿ´
ì£¼ íĸī
Ġêµ¬ íĺĦ
ëĨ Ģ
ĠíĻľ ë°ľ
Ġd o
Ġë©Ķ ëī´
ëĬĶ ëĭ¤ëĬĶ
â ĵ
ĠìĪĺ ë§İ
ìĿ´ ìĿĺ
ë¦¬ íĭ°
Ġê¸°ëĮĢ ê°Ĳ
k g
ë³´ ì¦Ŀ
ĠëĤľ ìĿ´ëıĦ
ĠìŀĦ ìĥģ
ìłĲ ê²Ģ
ëĵł ì§Ģ
ĠëĶ° ë¡ľ
Ġë¯¸ ë§Į
Ġë§ ¹
Ġo h
ı ¬
ĠìĦ± íĸ¥
Ġë°ķ ìĤ¬
ìĿĦ ì§Ģ
Ġì±Ħ ê¶Į
Ġê³ł ìłķ
Ġë¯¸ ëĭĪ
ĠìĺĪ ê³ł
Ġë¶Ģ íĥģ
ĠìŀĦ ê¸°
Ġì§Ģ íĳľ
ì ¾
Ġì§ Ħìĭ¤
ĠìĿ´ ê²Į
ĠìĹ° íľ´
ł Į
ĠëĦ¤ íĬ¸ìĽĮíģ¬
Ġì ĮĢ
ĠìĹ° ì£¼
ĠíĨłë¡ł íļĮ
Ġì¶ĺ ì²ľ
Ġê°ĳ ìŀĲê¸°
s m
ìĤ¬ë¬´ ìĨĮ
Ġì´Ŀ ìŀ¥
ìĸ´ ëĤł
ë©Ķ ìĿ¸
Įì ¦Ī
ĠíĨł ì§Ģ
Ġíķ© ê²©
Ġê±´ ì¡°
Ġë³¸ ë¶Ģ
ĠëıĦ ë°ľ
Ġë© ĭ
Ġë§Ī ìĬ¤íĦ°
§ ¨
ĠëıĦ ìĭ¬
ëĤ¨ ëıĦ
Ľ Ģ
Ġìĭ¸ ìļ°
Ġê¸Īê°Ĳ ìĽĲ
ĠëĬĲ ê»´
Ġíĥľ ëıĦ
ìļ° ëĵľ
Ġìłģ ìŀĲ
Ġì¶Ķ ìĸµ
Ġë¸Ķë¡Ŀ ì²´ìĿ¸
Ġë°ĶëĿ¼ ë³´
Ġë¶Ģ ì²ĺ
Ġë§Ī ìĿ´íģ¬
Ġì°¸ ì¡°
Ġì§Ģ ëªħ
Ġê°Ģ ê¹Ŀ
Ġì»´ íĵ¨íĦ°
ĠìĤ¬ ìłķ
ãģ Ħ
Ġê³µ ëŀµ
ĠëĪĦ ê°Ģ
Ġê³ł íĨµ
ĠìĦľ íķ´
ëª¨ ë¦¬
Ġìı ĺ
t f
ëĶ Ķì
ĠëĽ° ìĸ´ëĤľ
ĠíĬ¸ëłĮ ëĵľ
ĠëıĦ ì¿Ħ
Ġì²ĺ ë¶Ħ
Ġíķ© ë¦¬
ĠìĹĦì²Ń ëĤľ
ĳ í
Ġìŀĳ ì¤ĳ
ĠíĴĢ ìĿ´
Ġê³µ êµ°
Ġì¶© ëıĮ
ĠìłĢ ëħģ
Ġs o
Ġë° ¥
ì²´ íĹĺ
ĠìĨ Įì
Ġíĺķ ìĭĿ
Ģì ¢ħ
e x
ëĮĢ ë¬¸
ĠíĴĪ ëª©
ë¯¸ ëĤĺ
ĠìĪĺìĪĺ ë£Į
Ġëĭ¨ ì¶ķ
ĠìĬ¤ íĥ
Ġì²ľ ìķĪ
ë°ĺ ìĿĺ
Ġg o
Ġìĸ¸ ìĸ´
íķĺ ìĿĺ
d s
Ġë¹Ħ ìĦľ
ĠíĺĦ íĸī
© í
Ġì±Ķ íĶ¼
Ġì£¼ íķľ
Ġì´Ŀ ìĦł
³ ¨
Ġê°ľ íĨµ
Ġìľł íķ´
Ġìľł ê°Ģ
ì§Ģ ë²ķ
b l
ĠíĻĺê²½ ë¶Ģ
ŀ ľ
į ¸
ĠìķĮëł¤ ì§Ħ
Ġë§Ī ìĭľ
Ġê¸°ìķĦ ì°¨
ĠíĬ¹ ê²Ģ
íĸī ìĿĺ
ìĥģ ê³µ
ĠìłĢ ì§Ģ
Ġëĭ¨ ìľĦ
ĠìĦľìļ¸ ëĮĢ
ĠìĿ¸ ìĽĲ
Ġìĭ¸ ìĽĢ
ë£¨ ìħĺ
Ġìĺ¤ íĶ¼ìĬ¤
¼ Ī
ĠìķĪ ëĤ´
Ġìĥģ ì²ĺ
Ġê¹Ģ íĥľ
ë¶Ģ ëĮĢ
Ġëĸ¨ìĸ´ ì¡Į
ĠìĿ´ ê¸°
ë¥´ íģ¬
ì½ ľ
ëŁ¬ ë¦¬
Ġì¶© ì²Ń
Ġëħ¸ ë¬´
ĠìĿ´ìļ© íķľ
Ġë¬¼ ê±´
Ġk g
ĠìĿĳ ìĽĲ
Ġëĵľëŀĺ ê³¤
ĠìłĲ ìłĲ
ĩ ł
Ġì²¨ ëĭ¨
Ġìŀĳ ìłĦ
ìľł ì¹ĺ
p p
ĠìĦ± ìĿ¸
Ġê±° ì§ĵ
ĠìĹĲ íĶ¼
Ġìłģ ë°ľ
ĠìĦ¸ ë¶Ģ
Ġë§ŀ ìĿ´
ĠìĨĮ ìĥģ
Ġìŀħ ì§Ģ
ĠìĽĲ ìŀĳ
ìĺģ ìŀ¥
ĠìĹĲ ìĬ¤
ëªħ íļĮ
ĠëıĮ ëł¤
ķ ê
Ĳ ¨
Ġê·¹ ë³µ
ìĬ¤íĭ° ë²Į
± í
Ī ¬
ìĨį ëıĦ
Ġìļ´ ìĦ¸
Ġìľłì¹ĺ ìĽĲ
Ġê°Ģ ëģĶ
Ġìķħ ìĪĺ
ĠíĿĺ ëŁ¬
ëĭ ·
ë¬´ ê¸°
íŀĮ ëĭ¤
Ġê°Ģ ìĬ¤
Ġì²´ ìľ¡
ĠìĿ´ ëŀĺ
ĠìĨĮ íĺķ
Ġì°¸ê°Ģ ìŀĲ
íĮĮ ìĿ´
ç ¾
Ġm bc
ìŀ¥ ë¹Ħ
Ġë¶ ī
Ġì§Ģ ìłĲ
ë±ħ íģ¬
ã ħ
ìĦł ìĪĺ
ì´ ¬ìĺģ
c i
Ġëª© ë¡Ŀ
m w
ìķ Ĺ
ĠìĨĮ íĶĦíĬ¸
Ġìĭ¤ íĸī
Ġëĭ¹ ìĿ¼
ë¥´ íĬ¸
¸ Ķ
Ġìŀĩ ëĶ°
Ġíİ¸ìĿĺ ìłĲ
ĠêµŃìłķ ìĽĲ
Ġì¢ ģ
ìĸ Ģ
ĠìĪĺ ëĬ¥
ëĿ¼ ë©´ìĦľ
ìĺĢ ìľ¼ëĤĺ
Ġí Ħ´
Ġíı ĲìĩĦ
Ġ8 000
Ġí Ħ¸
íĹ ¤
ĠíĬ¹ íĻĶ
Ġíĺ¸ ëĤ¨
Ġê²° ìĿĺ
Ģ ¦
v i
Ġê³ł ëł¹
ê¸Ī ìķ¡
ì¢ħ ëª©
p l
Ġì¦Ŀ ìĥģ
Ġ200 4
ì² ©
ë§Ī ìĬ¤
íĳľ ìĿĺ
° ¤
Ġ9 5
Ġì¹ Ń
ëĵ Ģ
ë¶Ģ ì´Ŀë¦¬
ĠíķĻ ìĬµ
Ġê¸° ìĽĲ
ĠìłĢ ëł´
ł ¹
ĠìĤ° ë¦¼
Ġëħ¸ íĽĦ
Ġë¶Ģ ëĭ¹
Ġìłľ ìłķ
Ġì¿ ¨
Ġë²Ħ ë¦¬
İ ¸
ëħ ¼
ëĭ¤ ìĭľ
Ġë§Īì ³¤
ëĪ Ī
ĠìĿ´ë¥¸ ë°Ķ
ì° į
ĠìĿ´ ëŀĢ
ë¬¸ íķĻ
ìĹ¬ íĸī
ĠëĤ´ ëĭ¤
ĠìĬ¤ ìľĦ
íİ ľ
Ġë¶Ħ ëħ¸
ê¸° ê¸°
ë¬ µ
Ġë§ ĳ
ìŀ¥ ì¹ĺ
Ġíķ´ ìļ´
Ġë¹Ħ ì¦ĪëĭĪìĬ¤
ìŀ¬ íĮĲ
Ġê¹ĢëıĻ ìĹ°
íĻ Ī
Ġê°ķëĤ¨ êµ¬
© ê
ĠìĨį ìĦ±
Ġì į¼
ê±°ëŀĺ ìĨĮ
Ġìŀ¬ ëĤľ
ģ Ħ
ĠëĤĺ ì¤ĳ
Ġë³´ ìĻĦ
ì²´ ìłľ
Ġì¹´ ë©ĶëĿ¼
Ġ7 000
Ġì§Ħ ìĥģ
Ġìĭ¤ ìŀ¥
ĠìĤ° íķĺ
ê³µ ìĹ°
ëĦ ĺ
ĠíĻĶ ìĦ±
ê´ĳìĹŃ ìĭľ
Ġì» ¤ë®¤ëĭĪ
Ġ6 8
d r
ìĺģ íĻĶ
Ġw e
ìłĦ ìĿĺ
Į Ĺ
Ġíŀĺ ëĵł
ĠëĿ¼ ìļ´ëĵľ
ĠãĢ Į
a c
Ġìķł ì´Ī
ĠìĿ´ ìłķ
Ġì·¨ íķĺ
ĠíĿ ī
Ġ8 00
ĠëĮĢíķĻ ìĥĿ
ĠíĥĢ ìŀħ
Ġ6 3
ì¹ĺ ë£Į
íį¼ ìĬ¤
Ġ2 50
¨ ¸
Ġë°Ķ ëĭ¥
ĠìĹĲíĶ¼ ìĨĮëĵľ
Ġìĭł ì²´
ĠìĽĲ ìŀĲ
ìĭľ ì²Ń
Ġì£½ ìĿ´
ìĽĶ ëĵľ
íķĺ ìļ°ìĬ¤
Ġë¬ĺ ìĤ¬
Ġìĥģ ìĹħ
Ġìĵ° ëŁ¬
Ġê·ł íĺķ
ĠìłĦ ìĦ¸
ĠíļĮ ëıĻ
u p
ìĤ¬ ëŀĳ
Ġ6 7
Ġìĭ¤ ëĤ´
ì¹ĺ ìĿĺ
ĠìķĦìĿ´ ëĶĶìĸ´
a k
ĠìĹ´ ì°¨
Ġìľł ìŀħ
Ġë¶Ģ íĻľ
ëı¼ ìķ¼
ĠìĹ¬ ëĭ´
Ġíĳľ ê¸°
Ġì£¼ ê°Ħ
ĠëĦ ¥
ë¬¼ ìĿĺ
ê²½ì°° ìĦľ
Ġë¬¸ ìŀĲ
ìĤ¬ ê±´
ë¶Ģ ê°Ģ
Ġì£¼ íĸī
íĺĦ ìŀ¥
ĠìĿ´ ê±´
ì£¼ ì£¼
Ġê°ľ ìĦ¤
ĠíĮ¨ íĤ¤ì§Ģ
ĠëĨį ê°Ģ
ĠëłĪ ëĵľ
Ġíĥ ģ
ê¸° ëħĲ
ĠíĮĮ ë¦¬
Ġì¶© ìłĦ
ĠìĨĮ ëħĢ
ëĤĺ ëĭ¤
Ġë¬´ ëł¤
ĠìŀĲ íļĮìĤ¬
ĠìĪĺ ìĹ¬
ì¹ĺ ë¥¼
ĠëĮĢíķľ íķŃê³µ
Ġë§ µ
ĠëıĦ ì¤ĳ
íĺĳ ìĿĺ
ì§Ģ ì£¼
Ġë¹Ħ ìłĦ
ĠêµĲ íĻĺ
ĠëĤĺ ìķĦê°Ģ
Ġìĭľ ìĥģ
ìĤ¬ ì§Ħ
Ġìłķ ì°©
c l
íĤ¤ ë¡ľ
ì§Ħ íĿ¥
ĠìĿ´ìĸ´ ì§Ī
Ġì¢ħ ìĿ´
Ġê°Ĳ ìĹ¼
Ĺ ł
Ġìĺģëĵ± íı¬êµ¬
íĹ ¬
Ġìĥģ íĸ¥
µ ìħĺ
ĠìĹ° ë°©
ìĺĪ ìĤ°
Ġê¶Į ê³ł
Ġ7 7
Ġê·¸ ëŁ¼
Ġìĺ® ê²¨
ê»ĺ ìĦľ
ìļ© íĴĪ
ĠìłĲ ì°¨
Ġë§ŀ ì¶Ķ
ëª ½
Ġìŀĳ ê³¡
ê² ¸
ë¶ģ ëıĦ
Ġì¤ĳ ê¸°
ì²´ìľ¡ ê´Ģ
íķĻ ê³¼
Ġìļ© ìĿ¸
Ġë¯¼ ìĥĿ
ìķĪ ë³´
Īì ½Ķ
Ġì§Ī ìĿĺ
ĠìĹ° ëĿ½
ĠìĹ´ ëł¸
ĠìĽĶëĵľ ì»µ
Ġê¹Ģ íķ´
Ġë© ĺ
Ġì§Ħ ìĪł
Ġíĥĳ ìĬ¹
b u
ëħ¸ ì´Ŀ
ĠíıŃ íĸī
ĠíĶ¼ íķĺ
Ġê°Ħ ìĿĺ
k o
ĠíķĻ ë¶Ģëª¨
ĠìĬ¤ íİĺìĿ¸
Ġíķ© ë³ĳ
Ġì¸¡ ìłķ
ĠìķĦ ëĤ´
Ġìĺ¬ëĿ¼ ê°Ģ
! "
Ġc o
Ġì°¾ìķĦ ê°Ģ
Ġê¸ī ì¦Ŀ
° ĸ
Ġíı ¼
ĠìĤ¬ ìľł
Ġê¸´ ìŀ¥
Ĥ ¸
ĠìĻĦ ë²½
Ġë°© ìĺģ
ĠíĮĲë§¤ ëŁī
Ġíķľ ëķĮ
íķľ êµŃ
Ġì¦ī ìĭľ
ëħĢ ìĿĺ
ĠíĤ¤ ìļ°
ìĥĿ ìĤ°
ê¸° ëĬ¥
ìĦ¤ íĮħ
Ĭ ì
ħ Ĳ
ë³´ ìĿ´
´ ¤
Ġëª¨ ìĥī
Ġìĭľê°Ģ ì´Ŀìķ¡
Ġë©´ ìłģ
Ġr o
¢ Į
ĠìĹ¬ ê±´
ì°¨ ëŁī
ìĭľ ë§Ī
Ġìĭł ëĿ¼
ê³ł ëĵ±íķĻêµĲ
ìľĦ ìĿĺ
Ġå ĮĹ
m p
Ġëĭ¹ íķĺ
ê¸° ìĺ¨
Ġë©´ ëĭ´
¸ Į
Ġë³´ì ¦Ŀ
Ġëĭ¹ ê¸°
ë° ¤
ĠìĿĮ ìĦ±
Ġíı ¬ì
Ġë²Ī ìĹŃ
ëĮĢ ìłĦ
Ĳ í
Ġs e
ë¬¸ ìĿĺ
ë°Ķ ëŀĮ
ëł Ľ
ê°Ŀ ìĿĺ
Ġì¶ľ ìŀħ
¬ì Łģ
ĠìĪĺ ë¹Ħ
ĠíĥĦ ìĥĿ
Ġ6 6
Ġìĭ± ê¸Ģ
Ġìłķ ë¬´
Ġë§¤ ìŀħ
ìĿ¸ ëł¥
ĠìĦľì´Ī êµ¬
ĠìĪĺ ìĹħ
Ġê°ľ ìŀħ
Ġê³ ģ
Ġë¬ µ
ìŀ¥ ê³¼
ìŀĲ ë©´
Ġê¸° ìģ
Ġëĵ¤ìĸ´ ê°Ķ
Ġìŀħ íķĻ
Ġ7 8
ì§Ī ìĿĺ
ê±´ ê°ķ
ìĹ° ëĮĢ
Ġê³µ ì¤ĳ
Ġï ½
Ġìĥģ ê°Ģ
Ġë°° íĦ°ë¦¬
Ġìķķ ëıĦ
ìĺ¤ ë¥´
Ġë°Ķê¿ Ķ
Ġìłľì¡° ìĹħ
Ġì²ľ ìĸµ
Ġì ¾Į
ĠìĹ¬ ê°ľ
íĥľ ìĿĺ
ĠíĬ¸ ë¦¬
ìŀ¬ ìĥĿ
Ġëĭ¨ ìĸ´
ìĹ ĳìĬ¤
i b
ëĥĲ ê³ł
ëĭĪ íĦ°
ĠëıĻ ê³Ħ
Ġë¬¸ ìĿĺ
Ġì ³Ĳ
ĠëĮĢë²ķ ìĽĲ
ìĿ´ ëĦĪ
ĠìĦ¤ ë¹Ħ
Ġë°ĶëŀĢ ëĭ¤ê³ł
ê³Ħ ì¸µ
ĠíĻĶ ë©´
Ġíĥľ íĴį
Ġì¦Ŀ ìłķ
Ġê¹ Ģì¢ħ
Ĭ Ī
Ġêµ° ìĤ°
íĶ Ķ
Ġê¹ĢìĦ± íĥľ
ĠìĪĺ ë¦¬
Ġë¡ľ ëĵľ
Ġt i
íĬ¸ ë¡ľ
Ġâĸ ·
Ġëħ¸ ì¶ľ
¦ Ń
Ġë¦¬ ìĬ¤íģ¬
ìķĦ ì§Ģ
ëıĻ ë¬¼
ëĨ ¨
ëĭ¤ ë¦¬
Ġì¶ ¤
ĠìĿ´ ì¤ĳ
Ġìłľ ê³ł
ë§Ī ìĿĺ
Ġíĺ¸ ê¸°
f r
mu la
¾ İ
ëŀ Ń
Ġ7 2
Ġìŀħ ë²ķ
Ġ200 2
Ġë¬´ ìĥģ
Ġw h
íĽĦ ìĿĺ
ĠíĨµ ìłľ
Ġë¹ Ĺ
ĠëĤĺëĪ Ķ
Ġë°° ìłľ
Ġì¤ĳ ëĮĢ
ĠìķĦíĶĦ ë¦¬ì¹´
íĶ¼ íķ´
ìĿ¼ë Ł¬
ë¡ľ ìį¨
ìĹĲ ëıĦ
ìĥģ íĥľ
Ġê²½ ì£¼
Ġe x
ĠëĮĢ ìŀ¥
Ġêµ¬ íķĺ
ĠëĮĢ ë§Į
Ġì°© ìļ©
ĠìļĶ ì¦ĺ
ĠëŃ Ķ
Ġë¶ ķ
Ġê²Į ìĭľ
Ġë§Į ëĤ¨
ĠìĹ ĳ
ëŀ ©
ĠëĤ ¼
Ġë¹Ħ ëĮĢ
ëĦ¤ ìĭľìķĦ
íĬľ ë¸Į
Ġëĭ¤ ìĪĺ
ĠíĮ ©
ì· Ħ
Ġìłķ ê·ľì§ģ
ĠìĤ´ ìĿ¸
Ġì°© ìĪĺ
ĠëĳĲ ìĤ°
ëģ Ħ
Ġì°¬ ìĦ±
ĠìĦ± ë¶Ħ
ĠìĿ´ëªħ ë°ķ
Ġì§ĢëıĦ ë¶Ģ
Ġê³ł ëĵ±íķĻêµĲ
Ġìķ µ
ĠìĺĪ ìķ½
Ġìĵ° ìĿ´
Ġãİ ľ
Ġ7 00
ĠìĨĮ ìŀ¥
íĻĶ ë¬¸
i on
ĠìķĦìĿ´ ëıĮ
Ġê¸ī ê²©
Ġ.âĢ ĺ
l y
ĠìĽĢì§ģ ìĿ´
ëħ¸ ì¡°
Ġìŀ¬ ë£Į
ĠìĹ° ëł¹
íĨ ¨
íĮ İ
ìĬ¤ íħĮ
Ġê°ķ ìĿĺ
Ġëĸ¨ìĸ´ ìł¸
Ġê±¸ ë¦¬
Ġíħ Ĳ
Ġ8 3
ë§Ĳ ë¡ľ
ê·¸ ëłĪìĿ´ëĵľ
ĠìļĶ ê¸Ī
Ġíĺ¸ ì£¼
Ġi s
ĠìĿ´ ìłł
Ġì§Ħ ë³´
ĠìĤ¬ìĹħ ìŀĲ
ĠíĹĪ ìľĦ
ĠëıĦ ë§Ŀ
Ġê¹Ģ ìļ©
ĠíŀĪ ë¡ľ
Ġìłģ íķ©
ìķ¼ ë§Ĳë¡ľ
l s
Ġêµ¬ ìĹŃ
íĥĢ ìļ´
Ġfor mula
íĮĲ ë§¤
ĥ Ħ
ĠìĹĺ ë¦¬
Ġëª¨ ìĹ¬
Ġìĭł ë¶Ħ
ĠìĦł ì§Ħ
Ġëļ ľ
ĠãĢ į
ëł Īì
ı Į
ê³¼ ìłľ
Ġì¤ĳ ë¶Ģ
ĠìĤ¬ë¬´ì ĭ¤
Ġì¡° ìĸ¸
Ġíģ´ ëŁ½
Ġê²° íķ©
Ġê³µ ìĽĲ
íĬ¹ ìľĦ
ĠìĦ¤ ëĵĿ
ĠìĭĿ ìĤ¬
ĠìķĪ íĮİ
ĠëĵľëŁ¬ ëĤ¬
ĠìĦľ ë¶Ģ
ìķĦ íĮĮíĬ¸
Ġëħ¸ë¬´ íĺĦ
ĠëĤ´ ëĭ¬
Į ¨
ëĭ¹ íķĺ
Ġìĭľ ìłķ
Ġ200 3
ìłķ ê·ľì§ģ
ëŁŃ ìĭľ
ìĹħ ìŀĲ
ìĨĮ ìŀ¥
³ ¸
ĠìĦ¸ ìĿ´
ĠëĤ Ń
Ġíķ´ ëªħ
Ġìĸĳ ìĤ°
ìŀĳ ìļ©
ĠëıĮ ìŀħ
Ġê³ł êµĲ
Ġë¬¼ë Ł¬
ê¸° ê¸Ī
ëĶ ĺ
o s
Ġìĭł íĺ¸
ĠíĮĲ ìłķ
Ġë°ľ ìĿĺ
ë°Ķ ë¡ľ
Ġë³Ħ ë¡ľ
Ġê°¤ ëŁŃìĭľ
Ġìľł íĺķ
Ġë¬¼ ê°Ģ
Ġë° ¸
e m
Ġìĸ´ ëĳ
Ļ Ī
ĠìĦľ ë¥ĺ
ìķ Ĭ
Ġë§Į íķľ
ĠìĿĢ íĩ´
Ġëªħ íĻķ
Ġì§ Ĳ
Ġì¶ľ íĮĲ
ĠìĿ¼ ìĭľ
ëłĪ ê¸°
Ġë© ¸
Ġëŀ Ń
ĠëıĦ ëĤ´
ìĬ¤ íĥĦ
Ġì§Ģ ìĹ°
Ġë¶Ī ë§Į
ĠëĪĪ ê¸¸
Ġì²ł ê°ķ
Ġë²Ķ íĸī
ëĲ ¨
ĠëĨį ëıĦ
Ġë¬´ ê²Į
Ġì¢ħ ìłĦ
Ġë¶Ģì ±Ħ
ĠëıĻ ë¶Ģ
Ġìľł ì¶ľ
ĠìĨĮ ëª¨
Ġìĭ¬ ìŀ¥
Ġìĭľ ìĹĲ
ĠìĪĺ ëĭ¨
ĠìĹħ ê·¸ëłĪìĿ´ëĵľ
ê´ĳ ìŀ¥
íķ´ ìł¸
Ġê°ķ ìĹ°
Ġë©Ģ ë¦¬
íĨ ±
ĠíĮ¨ ì¹ĺ
Ġìľł íĬľë¸Į
l d
Ġê·¸ë¦¬ ìĬ¤
Ġì¶Ķ êµ¬
ìŀĳ ìĹħ
ë¯¸ ìĤ¬ìĿ¼
ĠíĨ ¤
c r
ìĤ Ń
ë¯¼ ì£¼
Ġ ä¸
ĠìĬ¤ íĬľ
Ġë ·°
ĠëĮĢì²´ ë¡ľ
ë°ķ ë¬¼ê´Ģ
Ġê³µ ì§ģ
¼ë ¬¸
ar t
Ġ6 9
Ġë¬´ ìŀ¥
Ġê¸°ëħĲ ìĭĿ
Ġê·¸ ë§Į
Ġ6 2
ìķĦ ìĭľìķĦ
ĠìĹ ł
Ġë¡ ¤
ĠìĿ´ ìĽĥ
Ġê°Ħ ëĭ¨
ĠìĦľ êµ¬
ëĮĢ íĨµëł¹
Ġëĭ´ ê¸´
Ġê´Ģ ê°Ŀ
Ġë®¤ì§Ģ ì»¬
ĠíĨµ ë³´
Ġìĭł ìŀħ
Ġê²© ëł¤
ì´Ī ëĵ±
ĠëĮĢ ìķĪ
¹ ¼
Ġê³¨ ëĵľ
ĠìĦĿ ìľł
ĠìºĲ ëĤĺëĭ¤
Ġìłķ ìŀĳ
ëĭ¹ ìĿĢ
Ġì§ķ ê³Ħ
ĠíĺĦ íĻ©
Ġìı ł
Ġëĵ¤ìĸ´ ìĺ¤
Ġê³¨ íĶĦ
ì¹ľ ëĭ¤
Ġ8 8
íĻĶ êµŃ
ĠìĿ´ ì¢ħ
ë§Īì ¼ĵ
ĠìĿ¸ëıĦ ëĦ¤ìĭľìķĦ
Ġê²Ģ ìĥī
íķĺìĿ´ ëĭīìĬ¤
ë º
ĠìĹ° ìĬµ
Ġê³µìłķ ìľĦ
Ġì§Ģì§Ģ ìľ¨
a e
Ħì ¸µ
Ġë¿Į ë¦¬
Ġê°Ħ íİ¸
å ¤
Ġa r
ìĿ¼ ê¹Į
Ġíĸ¥ íķĺ
ĠìĪ «
Ġìłľ êµŃ
ëĵ± ê¸ī
ĠìĹ¬ ìĪĺ
Ġìŀ¬íĮĲ ë¶Ģ
ĠëĲľ ëĭ¤ê³ł
Ġ Ã
Ġìľł ìĬ¹
ª °
ĠëĬĲëĤ Ħ
ĠíĨµíķ´ ìĦľ
Ġ7 1
Ġë° Ł
Ġì§Ī íĻĺ
ì²Ń ë¬¸íļĮ
ĠìŀĦ ë¬´
Ġëª¨ ëĭĪíĦ°
Ġë°© ë¶ģ
Ġ20 22
ë£ ©
Ġìĸ´ëł¤ ìĽĮ
ìĿĺ ìŀĲ
íı¬ íĬ¸
°ì ½Ķ
Ġë¯¼ ìĽĲ
- -
¡ ´
į ê
ĠìĺĪìĤ° ìķĪ
Ġë¶Ģ ìĦľ
Ġìķ½ ìĦ¸
ê°Ģ ëŁī
ë° ¸
ĠìĿ´ìĸ´ ì¡Į
ĠíĪ¬ ê¸°
Ġë³´ ê´Ģ
íĨµ íĻĶ
Ġç ¾İ
Ġìŀ¥ ì¤ĳ
Ġê°Ģ ìĭľ
ì§Ī íĻĺ
ì£¼ ìĭĿ
íķĻ ìĽĲ
ìŀĸ ìķĦ
Ġíıī ìĥĿ
ì£¼ ìĿ¸
ĠìķĦ ìļ°
ĸ ¸
Ġë²ķë¬´ ë¶Ģ
íķĻ ìŀĲ
Ġíı¬ ëŁ¼
° Ĵ
ë²ķ ìĽĲ
Ġíĳľ ìłķ
ĠíĿ¡ ìĪĺ
ĠìĦ¸ ìļ°
Ġê¹Ģ ë³ĳ
ìĦľìļ¸ ì²ŃìĤ¬
Ġìłķë¶Ģ ìĦľìļ¸ì²ŃìĤ¬
Ġê³ł íĸ¥
Ġ9 000
Ġíķľ ê¸Ģ
ĠìĨ Ĳìĭ¤
Ġì½ĺ ìĦľíĬ¸
ŀ Ļ
ìłĦ ìŀ¬
Ġë¡ľ ë§Ī
Ġëĭ¨ ìĨį
Ġìľ Ī
ìĿ´ ìĥģ
Ġì» ¸
ĠìķĦë¬´ ë¦¬
ĠìĹ° ëĮĢ
Ġë¬¼ ë¥ĺ
Ġê·¼ ìłĳ
ķ ¸
ĠíķĦ ë¦¬
Ġíģ Ĳ
Ġê·¼ ë³¸
Ġë°ĺ ëł¤
Ġë§Į ëĤł
Ġëĵľ ë¡ł
ĠìĤ¬ ë¦½
ĠëĳĶ íĻĶ
ì¶Ķ ì§Ħ
i a
ĠíĻķ ì¶©
Ġë¦ ¬ì
íķ´ ìĸĳ
Ġ1 10
ĠíĻ© ê¸Ī
ë§Ī íģ¬
Ġë³Ģ ìĭł
Ġd e
ë²Ī íĺ¸
ë°Ķ ëĭ¤
ĥ ī
Ġê·¸ ëł¤
ĠìĿĺ ë¬¸
r u
ĠìĭĿ ëĭ¹
Ġê¸ī ëĵ±
ĠìĨ¡ íĮĮ
ë°© íĸ¥
íĸĪ ìĹĪ
Ġb mw
Ġê³¼ ëıĦ
ĠìĺĪ ìłĦ
ĠëĤ¨ íİ¸
ĠìĤŃ ìłľ
ëį° ìĿ´íĬ¸
Ġ7 4
Ġë¶Ģ ìŀ¥
êµĲ ìĤ¬
Ġíıī íĥĿ
in e
Ġì´Ŀ ê´Ħ
Ġë º
ĠíĮĮ íĭ°
h p
ĠìķĦ ì¹´
ìĿ¸ ìĤ¬
Ġíıī ë²Ķ
ëª¨ ìħĺ
ë²Ķ ì£Ħ
íĥĢ ìĽĮ
Ġë§¥ ì£¼
Ġìłķ ê·ľ
Ġs p
ìĹ°íķ© íļĮ
Ġëª© íı¬
Ġëĭ¤ ë£¨
ĠìĬ¹ ì§Ħ
Ġ7 3
Ġê°ľ ìĤ¬
ê·¼ ë¡ľ
Ġ. âĹ
Ġp c
ĠëĨĴ ìĺĢ
Ġì¡° ìłĪ
Ŀ ë
Ġì¹ĺ ìĹ´
ìĿ´ ì¹ĺ
Ġìĸ¸ìłľ ëĤĺ
ì½Ķ ìĿ¸
Ġ6 1
Ġì¶ķ íķĺ
Ġíķľ ì§Ħ
Ġìłĳ ì´ī
íıī ìĸĳ
ł ł
Ġíİ ľ
Ġë¯¸ ìħĺ
ĠìľĦ ìĿĺ
ĠëĦĺ ê²¨
ĠëıĻ ìĥĿ
ĠëĮĢ ë¦¬
´ ī
Ġë ±
Ġë© ľ
ãĥ ¼
Ġë¬¸ìłľ ìłĲ
Ġë¶Ģ ìĤ¬ìŀ¥
íĬ¸ ëŀĻ
# !
ĠëĵľëŁ¬ ëĤ´
Ġëĭ¤ ìļ´
Ġ7 6
ìĬ¤ íĤ¤
ĠìĿ´ë¤Ħ ì¡Į
ëıĻ ìĥĿ
ë° Ń
´ì ¦Ī
Ġê´ĳ íĻĶë¬¸
ìĨĮ ë¹Ħ
ìłľ ìķ½
êµ¬ ëĤĺ
ëĶĶ ìķĦ
ìĭł ì²Ń
ĠêµĲ íļĮ
Ġìŀ ī
íĺĳ ìłķ
ì£¼ ëıĦ
ê¸° ë¡Ŀ
Ġìĺģ ìĸĳ
ìķħ ìĿĺ
Ġíĥľìĸĳ ê´ĳ
ë¯¼ ìĿĺ
ìĭ¤ íĹĺ
ĠìĥĿ ê²¼
Ġì¡° ëĭ¬
ĠëĮĢ ëĭ¨
Ġê¸° ë¶Ħ
Ġíģ´ ëĿ¼
ĠìłĲ ìľł
Ķ Į
ĠëĤ´ëĭ¤ ë´¤
ĠíĢ ĺ
ĠëĪĦ êµ°
Ġk e
Ġë³µ ìĽĲ
Ġê²½ ìĦł
Ġê²° ìĬ¹
ĠëĿ¼ìĿ´ ë¸Į
Ġë¬ ¶
íķĺ ìļ°
ĠëĮĢíķ´ ìĦł
Ġë©´ ìłĳ
Ġë°ľ íľĺ
ìĪ į
Ġíĺ ¼ëŀĢ
Ġíģ¬ ë¦¬
ê³µ íĹĮ
ĠìłĦ ìĽĶ
Ġâ ĵ
ĠíĬ Ģ
ĠìĿĺ íļĮ
ķ Ĳ
Ġë¯¸ ìĨĮ
ë³´ ìŀ¥
ĸ ¼
ìĸ¸ ìĬ¤
ë°© ìĭĿ
Ġìĥ Į
Ġíľ´ ê°Ģ
Ġë°© íķ´
ĠìĿ´ ìŀĲ
Ġëį° ìĿ´
Ġê°Ĳ ìĭľ
Ġìľł ê¸°
Ġì½Ķ ëĵľ
Ġë¹Ħ ìłķê·ľì§ģ
Ġu p
Ġìĭł ë¬¸
e u
ìļ´ ìłĦ
Ġëĭ¤ íĸī
Ġêµ¬ ìĥģ
Ġê±° ìķ¼
Ġì¶ľ ìĥĿ
ĠìłĦ íĺķ
ĠëĨį ì´Į
Ġëĭ¨ìĪľ íŀĪ
Ġë¶Ģì ĭ¤
Ġì¤ĳ ìłĲ
ĠìĹħ ëį°ìĿ´íĬ¸
Ġë¬¸íĻĶ ìŀ¬
ĠìĽĮ íģ¬
ĠëĮĢ ì²ĺ
ĠíĶĮ ëŀĺ
Ġì½ ¤
ĠìĿ¼ ê°ģ
ĠíķŃê³µ ê¸°
Ġì¡° ì¢ħ
ĠìĿĺ ë¢°
Ġëĸ ¡
Ġ9 8
ĠìŀĲ ë¬¸
ì¿ ¨
Ġê°Ģ ìĤ¬
ë²ł ìĿ´
êµĲ ë¥ĺ
ĠìĹ¬ ê°Ŀ
íķł ì§Ģ
Ġì¤Ħìĸ´ ëĵł
ë³´ ê±´
ħ ī
Ġìĥģ ìĥģ
íĻķ ìĭ¤
Ġê±°ëŀĺ ìĨĮ
ìĹħ ë¬´
Ġë¶Ļ ìŀ¡
Ġìłķ ìĦ¸
Ġê¸Ī ê°ķ
ì¼ ĵ
ĠìĦłë³´ ìĺĢ
· ľ
s d
ìłĦ íĻĶ
Ġì§Ī ë³ĳ
Ĺ ĺ
ëĬĶëį° ëıĦ
Ġìĸ´ ìļ¸
Ġë¯¸ êµ°
ëį ľ
Ġê¹Ģ íı¬
â ĳ
Ġì¤Ģ ê³µ
ĠìĦ¸ ë¯¸ëĤĺ
ë¯¸ ìķł
íĦ° ë¯¸ëĦĲ
ëĮĢ íĸī
ë¡ľ ê·¸
ĠìĬ¤ íĶ¼
ìĽĲ ìĭĿ
ê²½ ìĽĲ
Ġë³µ ìŀ¡
ĠêµŃ ìĦ¸
ĠëıĻ êµ¬
ĠìĿĺ íķĺ
Ġë²Į ìĸ´
Ġê¹Ģ ëĮĢ
ê²½ ìŁģ
u st
b y
ëł¤ ìĦľ
Ġë¶Īê°Ģ íĶ¼
Ġë¬¸ íķĻ
¾ ¼
ĠìłĦ ëĭ¹
Ġë°© ë©´
ëĭ¹ ê³¼
Ġìŀ¥ ì¹ĺ
ĠìĿ¼ íĸī
Ġì»¬ ëŁ¬
ĠìĪ« ìŀĲ
ĠíķľêµŃ ìĿ¸
Ġ! "
íķ´ ìļĶ
Ġë¶ģ ë¶Ģ
ĠëĤĺ ìĦ¤
f f
ìĦ¸ íĬ¸
ê» ı
ĠìĦľ ë¯¼
Ġíĸī ë³´
Ġë³´ì ¢Į
ĠìĹŃ ìŀĦ
ĠìĦ¸ ìĽĮ
Į ©
ìłĦ ê±°
ĠìĤ´ ë¦¬
e p
Ġë°© íķľ
ë¯¸ ìĪł
Ġíķ© ë¥ĺ
íĳ¸ ëĵľ
ĠíķĺëĿ½ ìĦ¸
ì¡° ì§ģ
Ġìŀ¬ ìĥĿ
ì§Ħ ëĭ¨
Ġëĵľ ë£¨
Ġê³ł ìľł
ĠíĻĶ ëł¤
Ġíıīì°½ ëıĻ
Ġì§ĳ ê°Ĵ
Ġf c
ĠìłĢ ìŀĳ
ãģ ª
į í
Ġì±ĶíĶ¼ ìĸ¸
ĠìĺĪ ìĪĺ
Ġìĥģ íķĺ
íĢ ´
ĠìĹ° ê·¹
Ġëĵľ ëĿ¼ìĿ´
Ġ7 9
ĠíĥĦ ëł¥
Ġë¹Ħ ë¦¬
Ġê³µ íı¬
ì§Ħ ìĿĺ
ìĹ¬ ìķ¼
Ġë°ķ ìĽĲ
ĠíķĢ íħĮíģ¬
ëĩ Į
´Ŀ ìŀ¥
ìĺ¬ ë¦¬
ëĶĶì ħĺ
Ġì½ ©
Ġb ab
ĠìĬ¤íĥ ł
ĠíĶ ¼ë
ĠíĸĪ ìľ¼ëĤĺ
ìĿ¸ íĦ°
Ġë¹Ħ ë¡Ģ
k a
ĠíĻĶ ë¬¼
Ġê¹Ģ ì§Ħ
êµĲ ìķĪ
ķ Ķ
Ġê°Ħ ë¶Ģ
Ġêµ° ëĮĢ
¼ì ª½
Ġ8 9
ìĭ¬ íŀĪ
ë¹ µ
Ġìħ °
Ġêµ¬ ë¦Ħ
ë°ķ ìĬ¤
ë¡ ¬
Ġì´Ŀ ìŀ¬
ĠìĿ´íķ´ ì°¬
Ĭ ¬
Ġìľł ëł¥
Ġë Ŀ
Ġa t
Ġì¶Ķ ë¯¸ìķł
ĠìłĢ íĿ¬
Ġë§Ī ì£¼
Ħ ·
ĠëĿ¼ ëĶĶìĺ¤
ìĸĳ ìĿĺ
ĠëĤĺ ë¦Ħ
Ġë³´ ëĥĪ
Ġê´ĳì£¼ ìĭľ
ĠìĤ¬ëĿ¼ ì§Ģ
ë¥ ľ
Ġì« ĵ
Ġâ ĳ
Ġë¶Ħ ìĿĺ
Ġâĵ Ĵ
ĠìĻ ¼ìª½
ĠëĤĺìĦł ëĭ¤
ëĩ ¨
ëłĪì ½¤
ìĪĺ ì§Ģ
ìŀĲ ë§Ī
Ġê·¸ ê²Į
ìĨĮ ìĿĺ
Ġyou r
ĠìłĦìĭľ íļĮ
Ġì¹ĺ ë§¤
Ħ ìĬ¤
² ¤
Ġìĺ¬ ë¦°
Ġë¯¼ì£¼ ì£¼ìĿĺ
ë² ħ
ĠíĻ Ģë¡ľ
ĠíħĮ ìĿ´
ì¡° íĬ¸
ĠìĨĮ íĻĶ
Ġëį ¤
l c
ĠìĤ° ë¶Ī
Ġê´ĳ ìŀ¥
ĠêµĲ ìĦŃ
Ġëª¨ ìŀĲ
Ġì¸ ł
Ġëªħ ìłĪ
ĠíĻ© êµĲìķĪ
Ġìĺ¤ íĨł
ĠìĨĶ ë£¨ìħĺ
Ġì»¤ë®¤ëĭĪ íĭ°
ĠëĮĢ ìĻ¸
Ġíı¬ ì§Ģ
Ġâĺ ħ
Ġìŀ¥ ë³ĳ
íķ´ ìĿĺ
ĠëĪĦ ë¦¬
ìĪľ íĻĺ
ëĭ´ ëĭ¹
ê¸° ì§Ģ
Ġíķ´ ìĪĺ
Ġëĭ¹ ìĽĲ
Ĩ Ĳ
ìĭľ ì½Ķ
Ġìŀł ìŀ¬
Ġíı¬ì ¼ĵ
Ġìķŀ ìŀ¥
Ġëĭ¨ ìłĲ
ëħ¸ëıĻ ë¶Ģ
ĠìĬ¤ íģ¬
ì±ħ ìŀĦ
Ġbab y
Ġíķł ë¨¸ëĭĪ
ìĺ¤ ìĬ¤
ĠìĨĮ íıŃ
Ġíĥ ±
ì²ľ ìĭľ
Ġìłģ íıĲ
ì²ĺ ë¶Ħ
ĠìľłìĬ¹ ë¯¼
Ġìĺģ ìŀħ
Ġ20 30
§ ľ
Ġê²½ ë¹Ħ
Ġìĭł ëħĦ
½ ĺ
ĠëĤ ³
Ġë°± íĻĶìłĲ
ĠìłķíĻķ íŀĪ
Ġëł Į
Ġë§Į ëĤ¬
Ġ1 19
s r
Ġc h
Ġë´Ĳ ëıĦ
Ġì§Ģ ëĤ´
Ġì¶Ķ ëĿ½
Ġíİ¸ ì§ĳ
ĠìĿ¼ íĻĺ
Ġëı¼ ì§Ģ
Ġë¶Ģ ìłģ
Ġti me
Ġì²ł íļĮ
Ġë¹ł ì§Ģ
íĭ °ì
n t
ĠìłĦ ëĿ¼
Ġê·¼ ì²ĺ
Ġì°½ ë¦½
Ġìļ´ ìłĦìŀĲ
Ġë©´ ìłľ
ĠëĤĺ ëī
Ġëĵ¯ íķľ
ĠìĦľ ëªħ
ĠíĮ¨ ëŁ¬
ĠìĪĺ ì§ĳ
Ġìľł ë¡ľ
Ġì§ĳ íļĮ
Ġë Ł
ê³µ ê²©
Ġëį ®
ìłĦ ìĭľ
Ġìľł ëıĻ
u l
ĠìĹ° ê¸Ī
Ġíģ´ ë¦¬ìĸ´
êµĲ ìĪĺ
Ġì¡°íķ© ìĽĲ
Ġê·¸ ê°Ħ
Ġìľł ìĿĺ
ìĹĲê²Į ìĦľ
ìłĦ íĻĺ
Ġì²´ íı¬
Ġê³µ ì²ľ
ĠìĦ± ëªħ
ìļ© ì°¨
Ġ8 2
ìķĦ íĬ¸
ĠìłĦ ê³µ
Ġb a
Ġë°ĺ ë°ķ
íħĶ ëłĪì½¤
Ġ19 90
íķĻ íļĮ
n c
ĠíĶĦë¡ľ ëª¨ìħĺ
Ġë°´ ëĵľ
íħĮ ìĿ¼
ê³µ íķĻ
Ġê·¹ ìŀ¥
Ļ ¸
ĠìķĦ êµ°
ìĿ¸ ìĥģ
ëĦ £
Ġë ŀĢ
ëģ¼ ë¦¬
Ġê·¸ ì³¤
êµŃ íļĮ
² ¨
Ġë§ģ íģ¬
Ġë³´ ëĤ¸
Ġê·¸ ìłĢ
ìĪľ ìĿ´ìĿµ
Ġl a
ëĭ¨ ìŀ¥
íĪ °
ĠìĬ¤íħĮ ìĿ´ì§Ģ
¦ ½
ëª¨ ëį¸
ëıĦ ìĦľê´Ģ
h d
Ġì¡° ë¡Ģ
¸ Ń
Ġìħ ĭ
Ġê·¸ ë§Įíģ¼
Ġìłķ ìĽĲ
ëĲĲ ìľ¼ë©°
Ġs bs
Ġì¦Ŀê¶Į ìĤ¬
Ġê¸°ìĥģ ì²Ń
ìĦ¸ íı¬
ìķ¼ ë§Ī
Ġìĺ¤íĶ¼ìĬ¤ íħĶ
¹ ê
Ġc eo
ìłĦ íķĺ
Ġíĸ ĩ
Ġê²ģ ëĭĪëĭ¤
íĬ¸ ëĿ¼
Ġë³¸ ëĭ¤
Ġíķ´ ì²´
ëĦ ¥
ëĤĺ ìļĶ
Ġh p
Ġì°½ ìŀĳ
Ġìĭľ ìĦł
ìĹĲ ìĬ¤
ĠëĨį ë¦¼
ìĹŃ ìĤ¬
ìħ ī
Ġê±° ì¹ĺ
Ġì¡° ê°ģ
ĠíĬ¹ ìĿ´
ĠëĤĺ ê²½ìĽĲ
Ġê°Ģ ê³µ
Ġë°ľ íļ¨
Ġëª¨ ìľ¼
ãģ ¦
ìĺ¨ ëĭ¤
ë§ µ
Ġìĭľ ìĿ¸
k n
Ġêµ¬ ë¯¸
ì¤Ģ ë¹Ħ
ĠìłĦ ìĤ¬
Ġìĸ´ëĳ ł
Ġìĭľ ìĦ¸
Ġê° Ĵ
Ġë§Į ê¸°
Ġë¬´ ì¡°ê±´
Ġê±° ëĳĲ
Ġìłķ íķĺ
ĠìĨĮíĶĦíĬ¸ ìĽ¨ìĸ´
Ġêµ° ìĿ¸
i i
ĠëįĶ ë¸Ķ
Ġê°ľ ë¡ľ
Ġì§Ħ ë£Į
Ġ8 6
Ġëĭ¹ ë¶Ħ
Ġì¤ĳ ê²¬
ĠíĥĪ ì¶ľ
ë¶Ģ ì²ĺ
ĠìĻ¸ íĻĺ
ìķĦ ëĤ´
ĠëĿ¼ìĿ´ íĶĦ
êµĲ íļĮ
Ġê²½ íĸ¥
´ í
ĠìľĦìĽĲ íļĮ
ê°Ģ ëĿ½
» µ
ĠìĹ¬ ìľł
ĠëĶĶ ìĬ¤íĶĮëłĪìĿ´
ìłĦ íķľ
Ġë°ķ ìłķ
ìĤ¬ ì¹´
Ġê°Ģ ìłĦ
! !
ĠíĪ¬ ìĪĺ
ĠíĬ¸ ìľĦ
ìŀĲ ë³¸
íĥĢ ìĿ´ìĸ´
ĠìĪĺ íķĻ
o p
ĠíĽ ¼ìĨĲ
Ġëĺĳ ê°Ļ
Ħ Ī
Ġê¸°ìĪł ëł¥
Ġë¶ģ êµ¬
ë¡ľ ìļ°
Ġì§Ħ ìłĦ
ĠìłĪ ê°Ĳ
Ġë³ĳ ëł¥
ĠëıĮìķĦ ìĺ¤
Ġ (
ĠìĻĢ ìĿ¸
Ġê²½ ìľł
ĠìĹ° ìĦ¤
Ġ# !
ĠìłĲ íı¬
Ġëĵ¤ìĸ´ ê°Ħ
Ġëļ «
ìĸ´ ë¡ľ
ëĵ± ë¡Ŀ
ëıĻ ëł¥
Ġê°ľ ë´ī
Ġêµ° ìĪĺ
ĠìĦ ŀ
Ġë²Į ê¸Ī
ë¹Ħ ë¦¬
ĠëĤ´ ìĦ¸
Ġíķ´ ìķĪ
ìĿĺ ìĿĺ
Ġì¥ Ĳ
Ġ.âĹ ĩ
ĠìľĦ ì£¼
ì¡ ¸
ĠìĿ¼ ê³¼
ìķĦ ë¦¬
Ġíķ ¸
ĠìłĢ íķŃ
ë¥´ ìĭł
ë¨¸ ë¦¬
Ġìĵ° ëłĪê¸°
Ġì»¨ ìĦ¤íĮħ
ĠíķľêµŃ ìĿĢíĸī
ĠíķĦë¦¬ íķĢ
Ġìľµ íķ©
ĠìķĶ íĺ¸
ĠëıĻ ë§¹
ĠëĤ´ ìĪĺ
ĠíĬ¹ ìľł
ĠìķĦ ìĽĥ
d t
Ġëª© ìĪ¨
Ġë¬¼ ì§Ī
Ġê°Ģ ìĨį
Ġì¦ī ê°ģ
Ġëĭ ¥
Ġê³Ħ ì¢Į
ëģ Ĺ
ì¼Ģ ìĿ´ìħĺ
Ġê¹Ģ ê¸°
ĠëĳĲ ëł¤
ëŀ ¬
ĠìĿ´ìļ© ìŀĲ
Ġì¤ĳ ëıĦ
Ġìĭľ ìĤ¬
Ġì¶ľ ìĤ°
Ġë°ķ ìĪĺ
ĠëĮĢ ë¥Ļ
Ġê³ł ëıĦ
Ġì¡° ìĨį
ĠëıĻ íĸ¥
ìĹŃ ìĿĺ
Ġìĺģ íķĺ
y le
ë£¨ ìĬ¤
ëĲľ ëĭ¤ëĬĶ
Ġìĥģ ìĦ¸
Ġ200 1
Ġì¶ľ ê·¼
Ġ9 6
ìŀĦ ëĮĢ
ĠìĿ´ ë¡ł
ĠìĨĮ ëł¨
Ġê³µ íĨµ
ëł Ĳ
ìĭ± íĦ´
Ġ15 00
Ġíİĺ ìĬ¤íĭ°ë²Į
Ġìĭł ìĦł
Ġìŀ¥ íķĻ
íĮ ¡
Ġë© ķ
Ġë§Į ì£¼
Ġë¸ĮëĿ¼ ì§Ī
Ġì§Ģ ëĭĮ
ìĤ¬ ëĭ¨
ı °
ĠìĪĺ ìĭŃ
Ġ8 7
ĠíıŃ ëł¥
°ì ±ħ
t s
ĠíĥĪ ëĿ½
ĠëĮĢ ë¯¸ì§Ģ
ĠìĦłë³´ ìĿ¸
ĠëıĻ ì°¸
ĠìĹ° ë£Į
ĠìĭĿ ë¬¼
p i
Ġc c
Ġìłķì¹ĺ ìĿ¸
ëĤĺ ê°Ī
Ġëĵ¤ ìĿ´
ĠìĿ´ ìĬ¹
ìĪĺ ìĽĲ
£ Ħ
Ġë¶Ħëªħ íŀĪ
Ķ ľ
íĶĦ ë¦¬
ĠìłĦ ë¬´
ĠëĨĢ ëĿ¼
§ ķ
Ġëį ±
íĥ Ĳ
ĠíĥĦ íķµ
Ġê°Ģ ë¥´
Ġìļ° ìĽĲìĭĿ
ĠëıĻ ìŀĳ
Ġëģ Ī
Ġsu v
Ġì§Ģ ìľĦ
ĠëĲľ ëĭ¤ëĬĶ
ĠíĮĮ ìĹħ
ĠëĤ ¬
Ġê³ ¼ë
ĠìĨĮ ëħĦ
ëĿ¼ ìĿ´íĬ¸
Ġëħ¸ íĬ¸
Ġì Łģ
Ġëĭ¹ë¶Ħ ê°Ħ
ìłķ ë¹Ħ
Ġìĭľ ëĤĺ
Ġêµ¬ ê¸Ģ
Ġìłķ ì§Ģ
ë³µ íķ©
¶ ķ
Ĭ ¹
Ġìĸ¼ ìĿĮ
Ġëĭ´ ë°°
ìĭľ ê°Ģ
ĠìĿ¼ ë°©
Ġì¶ķ ìĤ¬
ìĬ¤ íĦ´
ĠíĿĲ ë¥´
© Į
Ġë³ĳ ìĤ¬
Ġê°ķê²½ íĻĶ
Ġd on
Ġë ¡ł
Ġëį ´
Ġìŀ¥ ë¥´
Ġê±° ìłĲ
Ġì¡° ìļ©
ëħ¸ ìĿ´
Ġëªħ ê³¼
Ġb o
Ġì²´ ê°Ĳ
Ġì°¨ ê¸°
Ġìłģ ìłķ
ĠìłĦ ìŀ¥
ëł ģ
Ġê¸° ì§Ģ
Ġc en
ĠíĿĳ ìŀĲ
ĠìŀĲ ìĤ´
Ġê¸´ ë°Ģ
ë³´ ê³ł
ĠìĿĮ ì£¼
ëıĻ ê¸°
ĠìĦł ìĤ¬
ĠíļĮ íĶ¼
ìĸ´ ê°Ģ
Ġ9 7
Ġìļ´ íķŃ
Ġìķ Ļ
ĠìķĪ ê±´
ìĹĲ ê²Ĳ
ĠìĹ´ ìĭ¬íŀĪ
ê³µ ìłķ
Ġë¦ °
· ¼
ĠìĬ¤ ì½Ķ
ĠìĹ° ê´Ģ
Ġë¶Ģ ëĵľ
Ġë°° íĭĢ
ĠíĥĢìĿ´ íĭĢ
ĠìĿ´ ê±¸
Ġë°ľ ê¸ī
ĠëĵľëŁ¬ ëĤĺ
âĢ ľ
Ġìĺ µìħĺ
Ġê³ł ê¸°
Ġíľ´ ìĭĿ
Ġê¸° ëıĦ
ĠíĮ¨ ìĬ¤íĬ¸
Ġì§Ģ ì£¼
ĠëĮĢ ê±°
Ġë¬¸ ê±´
ĠìĿ¸ ë¥ĺ
íĨł ë¡ł
ĠìĹ° ëıĻ
Ġì¶Ķ ëª¨
l u
ĠëĮĢ ëĭµ
Ġìĭł ì¤ĳ
ìłķ ì¹ĺ
Ġì¤ĳ ë°ĺ
ĠìłĢ ìĨĮëĵĿ
ĠêµĲìľ¡ ê°Ĳ
ìķ ŀ
íį¼ë Ł°
Ġí Ĥ¹
ĠìĤ¬ ê²©
ĠíĻĶ ëł¥
Ġ20 21
Ġê±´ ëĦĪ
§ ¥
¥ ë
ĠíĿ °
ìłĪ ì°¨
ìĤ¬ ìĭ¤
ìŀ¬ ìĤ°
ì²ľ êµ°
íĬ¸ ë¡¤
Ġì´ Ľ
Ħ ¬
Ġíħ Ķ
ĠìĹĶ ëĶ©
ĠëĳĺëŁ¬ ìĭ¼
Ġìĭľ ìĽĲ
Ġìºł íĶĦ
ĠìķĦ íĬ¸
ìļĶ ê¸Ī
ĠíĢĺ ìĬ¤íĬ¸
20 0
Ġìĸ´ ê¹¨
Ġì£¼ ì²´
Ġë§¤ ì²´
Ġë³´ìĹ¬ ì¤Ģëĭ¤
Ġíķ ĳ
Ġìľ Į
Ġíŀĺ ìŀħ
Ġíı¬ì§Ģ ìħĺ
Ġë°Ģ ë¦¬
Ġê³ł ëĵ±
Ġìŀĳ ëıĻ
Ġë©´ ìĦ¸ìłĲ
Ġê³ł ëĮĢ
íİĺ ìĿ´ìĬ¤
Ġëĭ¨ ìŀ¥
Ġë°©ìĸ´ ëł¥
ë²Ķ ìľĦ
Ġíĩ´ ì§ģ
Ġë³´ ì¡´
ë ¼
Ġë³¸ ëŀĺ
ìĤ¬ìĹħ ìŀĲ
ĠìĽĮ ìĭ±íĦ´
ëĮĢ ê¸Ī
Ġëĵľ ë¦¬
Ġê°Ģ ë¬¸
ì° ¾
ĠìĿ´ë¤Ħ ì§Ī
ĠëĦĺìĸ´ ê°Ģ
Ġê²¬ ìłľ
Ġë©´ ìĹŃ
b b
ì¶ķ ìĤ°
ĠíħĮ íģ¬
ĠìľĦ íķĺ
ĠëĮĢ ìĿĺ
Ġw an
Ġëªħ ëĭ¨
ĠíĮ Ŀ
ìŀ¬ ìłķ
ĠëĵĿ ìłĲ
ëŀľ ì°¨
ëĭ¤ ìĪĺ
Ġìŀħ ì°°
ĠìĥĿ ë¬¼
ĠìłĦ ìĹŃ
ë£ °
Ġë¶ķ ê´´
Ġ9 4
ĠìĤ´ íķ´
íĶ¼ ìķĦ
Ġìĭľ ì¤ĳ
Ġê¸° ê¸°
ĠìĪĺ ìĭľ
ìĬ¤ ëŁ¬
íĮĢ ìŀ¥
ê°Ĳëıħ ìĽĲ
ëŀľì°¨ ìĿ´ì¦Ī
ĠìĤ¬ë¬´ì ´Ŀìŀ¥
Ġíĸ¥ íķľ
ĠìĥĪ íķ´
Ġ *
Ġë¬´ ìĤ°
Ġìĺģíĸ¥ ëł¥
ĠìĤ¬ ëł¹
Ġs h
Ġë§Ī íģ¬
Ġê¹¨ ëģĹ
ìŀĦ ìĿĺ
Ġì²Ń ìĨĮ
ìľł ìĤ°
ĠìĨĮ ìļĶ
ë³Ģ íĻĶ
ĠíĬ¸ìľĦ íĦ°
ĠìłĦ ì°¨
ĠìĿ´ë¤Ħ ì§Ħ
íį¼ëŁ° ìĬ¤
Ġë°ľ ëĭ¬
Ġë¶Ħ ëĭ¹
Ġê´Ģ ìłĲ
ìŀĲë§Ī ìŀĲ
Ġì²ľ ìĹ°
ëª ĩ
ı ħ
ìľłì¹ĺ ìĽĲ
ëĦ¤ ìļĶ
ĠíĻį ìĺģ
ĠëĤ¨ ìª½
Ġê·¸ ê±¸
Ġë ¡Ŀ
d m
Ġëĭ Ń
ë¦ ĩ
ê³ł ìļ©
ìĿ¸ ê³¼
ĠìŀĲ ê·¹
Ġë§Ī ìĬ¤íģ¬
Ġã Ĥ
Ġëĵ¯ íķĺ
Ġíı¬ ìŀ¥
Ġê°Ģ ê²Į
ĠìłĢ ìŀĲ
ĠëĩĮ ë¬¼
íĻĺ ìŀĲ
Ġìĸ´ ë¥´ìĭł
ì°¨ ë¡Ģ
ìĿĺ ê²¬
ĠëĮĢ íķĺ
ë¡ľìĦľ ìĿĺ
Ġe u
ĠëĮĢ ê²°
ĠìĻ¸ ì¹ĺ
Ġí Ĥ¬
Ġê³ł ìĨĮ
Ġìļ© ê¸°
íķ´ ì§Ī
ĠíĻ© ìłľ
Ġê³µ ì£¼
íĹ ¨
Ġê¸°ìĹħ ìĿ¸
Ġìĺ¨ ëıĦ
ê³µ ê¸ī
Ġê¹ ľ
Ġëĭ ®
ĠìĥĿ ìĥĿ
íļĮ ê³Ħ
ĠíĽ Į
ĠëĤ¨ ê¸°
Ġìĺ¤íĶĦ ëĿ¼ìĿ¸
ĠìķĦë¬´ ëŁ°
íĹĪ ê°Ģ
ĠìĽĲ ìĿĺ
ìĪĺìĪĺ ìĥī
³ ì
Ġê¹Ĭ ìĿ´
Ġíĺķ ìłľ
Ġì°¨ ìĦ¸ëĮĢ
ĠëĦ ·
Ġìķķ ìĪĺìĪĺìĥī
Ġë¹ĦíĬ¸ ì½ĶìĿ¸
Ġì§ĳ ê¶Į
Ġê°ķ ëıĦ
ìĦ¸ ì¢ħ
ĠëĮĢ ëŁī
Ġë§Įëĵ¤ ìĸ´ì§Ħ
ĠìĦ±ìŀ¥ ìĦ¸
ê±°ëŀĺ ìľĦ
Ġê³ł ìĦ±
Ġê³łìľĦ ê¸ī
ëŁ¬ ìĬ¤íĬ¸
ĠìĬ¹ ê°ķ
ĠìĦľ ë²Ħ
Ġê³µìłķ ê±°ëŀĺìľĦ
ĠìĬ¤ ìĽ¨
Ļ ©
Ġìĭľ ìľĦ
ĠëĤ´ ì§Ģ
¨ ë¦¬
íĮ ¬
ŀ Ķ
ìĤ° ìĭľ
ģ Ĳ
Ġë²ł ìĬ¤íĬ¸
Ġëªĩ ëªĩ
Ġìľł íĸī
Ġì¡° êµŃ
ĠíķĻ ìĪł
Ġìĭľ ëĦĪì§Ģ
% â
Ġë°ķìĽĲ ìĪľ
Ġìĥģ íķľ
ĠëĿ¼ìĿ´ ìĺ¨
ëį° ë¯¸
ĠíĶ ½
Ġcen ter
ĠìĦ± íıŃëł¥
Ġë·° íĭ°
ĠìĥĿ ê²¨
Ġëŀ ĺ
ìłľ ìŀ¬
Ġìŀł ìłķ
Ġa ll
ĠìĹ° ëĤ´
Ġìĭľ ê¸ī
ë¶ ķ
Ġ8 1
Ġìŀ¥ ëĤľ
Ġì¦Ŀ ëªħ
Ġíĭ °ì
ĠìĽĮ ëĤĻ
ë¹Ħ ìĦľê´Ģ
Ġê´ĢëŀĮ ê°Ŀ
ê±° ìĿĺ
ä º
ìĥģ ëĭ´
Ġíķĺ íĸ¥
ĠëĮĢ íķĻêµĲ
ĠìĹĨ ìķł
Ģ ľ
ĠìĪĻ ë°ķ
Ġìŀħ ì¦Ŀ
Ġwi th
Ġê³łìĸĳ ìĿ´
Ġf i
Ġìľł ë°ľ
ĠìĽĲ íĻľ
ê¹ Ĳ
ĠìķĦ ìĭľ
Ĩ Ķ
ģ Į
ìłķ ê¸°
Ġë¦ ´
ĠìķĦ ë¹ł
ĠíĥĢ ìŀĦ
ĠëĨĴ ìĹ¬
½ ë
ìĪĺ ëıĦ
ĠãĢ Ī
ëķĮ ë¬¸
ë°ķ ëŀĮíļĮ
ã Ħ
Ġì¶© ì¡±
ĠíĦ° íĤ¤
ìĬ¤ ì¹´
ĠëıĻ ëł¥
Ġìŀ¬ ë°°
Ġ9 2
Ġíķ «
ĠìĹ ¼ë
Ġì§Ħ ìĺģ
Ġê²© ì°¨
ĠíļĮ ìĪĺ
ìĤ¬ ëŀĮ
ĠíķŃ ìĿĺ
Ġí ĭĪ
Ġê°ĸ ì¶°
ĠëĤ¨ ì¸¡
Ġêµ¬ ëıħ
ĠëĬĺ ìĸ´ëĤ¬
ĠíĮ¨ ëĦĲ
ĠìŀĲ ìłĦê±°
Ã Ĺ
ì§Ģ ë¡ľ
Ġst yle
Ġë¬´ ëł¥
ĠíħĮ ìĬ¤íĬ¸
ë´ Ħ
Ġë¶ ĦìŁģ
ìĹ° ìĦ¤
Ġê²½ ìĭł
ĠëĤł ìķĦ
íĶĦ ëłĪ
ìłĦ ìĿ´
ĠìłĦ ëĭ´
Ġë³´íĹĺ ë£Į
Ġ1 30
ĠëıĦ ë¯¼
ĠëıĦ ìĦľê´Ģ
Ġìłľ ë¡ľ
ìĤ¬ ìĿ´íĬ¸
é Ŀ
ëıĻ êµ¬
Ġë©Ģ íĭ°
Ġíİ¸ ìŀħ
ĠíķľêµŃ ìĸ´
§ ī
Ġìĭ¬ íĻĶ
ĠãĢ ī
Ġ19 80
Ġëħ¸ ë¦¬
ìĤ¬ ê°Ģ
Ġê°ľ ìĭľ
Ġë²łìĿ´ ì§ķ
ĠìĿ¸ ì§Ģ
ķ ķ
Ġê°Ģ ìĿ´ëĵľ
ëķ ħ
Ġíı¬ì¼ĵ ëª¬
ìĺ ·
Ġëª¨ ìŀĦ
ë©Ķ ëĭ¬
Ġë©ķ ìĭľì½Ķ
ķ Ĭ
ĠìĹ ĳìĬ¤
Ġêµ³ ìĿ´
ĠìĿ¸ ëĭ¹
ĠìķĦ ë¦¬
ĠëĲĺ ëıĮ
Ġë¯¸ ì¹ľ
Ġê·¹ ëĮĢ
ĠíĻįìĺģ íĳľ
Ġìłķ ë°Ģ
íĥ ±
ĠíķĻ ìĽĲ
æ ľ
Ġë¶Ģ ê°ģ
ë¶Ģ ì±Ħ
ĠëĤ´ ëĤ´
Ġëħ¸ íķĺìļ°
Ġì° Į
Ġê¶ ¤
Ġì¶Ķ ìłģ
ĠìĤ¬ìĹħ ìŀ¥
Ġì´Ľ ë¶Ī
ģ ¦
ĠìĹ ī
ĠìĿĺ ìķ½íĴĪ
p u
ê²½ì°° ì²Ń
Ġì¹ĺ ëªħ
ëłī ìĬ¤
Ġì´ī ì§Ħ
Ġìĭľìĥģ ìĭĿ
íĨµ íķ©
ê³ ½
Ġë²Ī íĺ¸
Ġì§Ħ ë¡ľ
Ġì¤ĳ íķĻêµĲ
ìĦ¤ ìĿĺ
ĠëĤ´ ìĻ¸
Ġë³Ģ íķĺ
ĠëĤ ļ
Ġê²½ ë¡ľ
Ġê·¸ ëŁ´
Ġê·Ģ êµŃ
ë¨¸ ìĬ¤
ìł¸ ìķ¼
ĠìĹ°íķ© ëī´ìĬ¤
Ġ9 3
Ġì¹´ ìļ´
Ġê³µ ë¡ł
Ġìĭ¤ íĥľ
Ġë¹Ħ íķĺ
ĠíĻĪ ëŁ°
ìĭ¬ ë¦¬
¡ ë
ĠëĬĺ ëł¤
ĠìĿĮ ë£Į
ĠíıŃ íĥĦ
Ġa m
Ġìĺ ¹
Ġê³µ ìĿµ
Ġì²Ń ë¬¸íļĮ
c g
ĠìľĦ íĥģ
ë¥ Ń
Ġíķľ ì¸µ
Ġìŀħ ìłĲ
ĠìĤ¬ ëĥ¥
ëĶ© ìĬ¤
Ġì²łìłĢ íŀĪ
ĠìĤ¬ ëĭ¨
ĠìķĦ íĤ¤
Ġëĭ¹ ìĿĺ
Ġë¬´ íķľ
Ġëĸ ¼
Ġí ĵ
ĠìĿ´ ìĦ±
is t
ìŀ ł
Ġíķľ ìĿĢ
Ġëĭ «
ĠìķĪ ìĭ¬
ìłĦ ëł¥
c u
d p
ìłĦ ë¶Ģ
ĠìķĦëĭĮ ê°Ģ
ĠëĤ¨ ëħĢ
Ġì¡° ìĭ¬
ĠìĪľ ìĪĺ
Ġë°ĶëĢ Ĳ
ĠìĻ¸ ë¬´
Ġìķµ ì»¤
Ĩ µ
ìĪĺ ìļĶ
ìłķ ìĽĲ
ë² ¼
ìĹ° ë§¹
ãģ Ł
Ġíķĺ ëĵľ
Ńì ·¨
ĠìĿ¸ ìļ©
Ġì¶Ķ ì¸¡
ë¶Ħ ìĸĳ
Ġê¸Ī ìĨį
ìłľ íķľ
Ġë³Ģ ìĪĺ
ã Ĩ
Ġë¹¼ ìķĹ
Ġìľł ìļ©
ĠìĤ¬ ëĤ´
Ġë°° ëĭ¬
êµĲ ìĿĺ
ĠìĤ¬ìĿ´ ë²Ħ
ĠìłĢ ìŀ¥
ĠìľĦ ëł¥
Ġë§Į ëĮĢ
Ġë°© ìĤ¬
ìĪĺ ëĭ¹
ĠíĬ¸ ëŀĻ
Ġc an
Ġíģ¬ë¦¬ìĬ¤ ë§ĪìĬ¤
ëŀĢ íŀĪ
Ł ìĪĺ
Ġê°ľ ê´Ģ
Ġê³§ ë°Ķë¡ľ
ĠìĿĮ ë°ĺ
Ġê¸ī ëĿ½
Ġìº Ķ
ìĿĮ ìķħ
ìĤ¬ ìĻĢ
an g
Ġìĭľ ê³µ
Ġì§Ģ ëĥĪ
Ġì¤Ģ ìĪĺ
Ġë§¤ ëĭ¬
Ġìķ¼ ìĻ¸
Ġê³¼ ìŀ¥
ĠíĶĦ ëŀľì°¨ìĿ´ì¦Ī
ëĨį íĺĳ
Ġëĭ ¿
Ġíķĺ ìľĦ
Ġt e
Ġìĭ¬ íķĺ
ĠëĦĪë¬´ ëĤĺ
Ġíģ¬ ë£¨
ë²ķ ìĿĺ
Ġìľł ìķĦ
Ġë¶Ī ê±°
íĻķ ìĿ¸
Ġì§Ģì¼ľ ë³´
Ġëĭ¹ íĸĪ
ĵ ì
ĠìłĦ íĽĦ
Ġëĭ¤ íģ¬
Ġìĥģ ìĿ¸
d c
Ġë°± ìķħ
ĠíĶ¼ ìķĦ
ê±¸ ìĿĮ
Ġë¨¸ ë¬¼
g t
ĠìłĦ ì§ģ
Ġíĳ¸ ë¥¸
ĠëıĦ ìķ½
ĠìľĦ ìĥģ
ĠëĤ© íĴĪ
Ġëĭ¹ ëĤ´
ĠíĨµ íķĺ
ê¶ Ĳ
Ġíı¼ íİĺìĿ´
ìĹ° íŀĪ
Ġë°ĽìķĦëĵ¤ ìĿ´
ĠìĿ¼ ìĸ´ëĤľ
Ġëª° ëł¤
ĠìłĦ ìĦ¤
Ġth at
ĠìĤ¬ ê±°ë¦¬
ĠìķĦ ìĦ¸
ĠëıĻ ë¶ģ
Ġë¥´ ëħ¸
ìĬ¤ íı¬ì¸ł
Ġì°¨ ì§Ī
on g
Ġì¢ħ ì¢ħ
ĠìĦł ìłľ
Ġíĳľ ëªħ
Ġìĺ¤ ì°¬
Ġìĺ¤ë¦¬ ì§Ģ
ìĪĺ ê¸°
Ġ199 8
Ġë¹ł ì§Ħ
Ġë³Ħ ëªħ
ëĵľ ë¡ľ
Ļ ĺ
Ġë¯¼ ìłķ
Ġíĺ¸ íĿ¡
ĠìĿ´ ìłģ
Ġm b
ĠÃ Ĺ
ĠìłĦ ìĪł
Ġë¶Ģ ìŀĳìļ©
łì ĭ¤
ê¸° íķľ
ĠìĬ¤íĬ¸ ëłĪìĬ¤
Ġíķ´ìļ´ ëĮĢ
ģ «
Ġê³µ ìĤ°
ĠìĿĺ ì¡´
Ġë°Ģ ëł¤
ĠìĦ¸ ìĽł
ĠìĨ¡ ìĺģ
¹ ł
ĠëıĻ ëĦ¤
ĠìĹ¬ íĮĮ
ĠìĦł ìłĦ
Ġë°© ìľĦ
p g
Ġ9 00
Ġì į
ë² ¤ì
© į
Ġìĺģ íĺ¼
ĠìĤ¬ íĽĦ
ìŀĲ ë¬¸
Ġëħ ¼ë¬¸
ãģ «
íļĮìĿĺ ìĭ¤
ĠìĹ° ëĭ¤
ìŀ¥ ê¸°
ĠíĶĮ ëĿ¼
Ġì²ł ìĪĺ
Ġê²¨ ëĥ¥
Ġê°Ģ íķ´
d b
ëĪĦ ë¦¬
Ġì¡° ë¦¬
ĳ Ķ
Ġì°¨ ìŀ¥
Ġë³µ êµ¬
ĠìĿ¸ ë¯¼
g b
ĠëŃĶ ê°Ģ
ĠìĿ¼ìľ¼ íĤ¤
ë¶Ħ ìĦĿ
° ĳ
Ġíķĺ ëħ¸ìĿ´
ĠìĪĺ íĹĺ
ìĸ´ ìĬ¤
Ġëħ¸ëıĻ ëĭ¹
ëª¨ íĨł
Ġìļ© ëıĦ
ĠëĤ© ë¶Ģ
ê°Ģ ë¦¬
ì ĳ
Ġã ħ
ìĦ¤ ê³Ħ
ê³łìĨį ëıĦë¡ľ
m c
ĠëĪĪ ì¹ĺ
ìĤ¬ ìĿ¸
Ġíĺģ ëªħ
Ġê°ģ ìĦ±
ëłĪìĿ´ ìħĺ
ìĤ¬ ìļ©
o c
Ġê·¸ ìķ¼ë§Ĳë¡ľ
. -
ĠìĪĺ ëł´
ĺ Ħ
ĠëĦĲ ë¦¬
ëģ Ī
Ġê° ±
Ġê³Ħ ìłĪ
Ġíģ´ëŀĺ ìĬ¤
Ġê¸° ì²´
Ġwi ki
ì§ľ ë¦¬
Ġìĺ¤ ë²Ħ
ĠíķŃ ìĨĮ
ĠìĽĲ ì£¼
Ġìī¬ ìļ´
ĠìĿĺ ìĻ¸
Ġê¸° íĽĦ
íĻĶ ìĿĺ
ĠìĦ¤ ë¬¸
ê°ķ ìĿĺ
Ġëħ Ģ
ĠìķĦ ê¸°
ĠëĤ´ ìłķ
Ġìĸ´ë¦°ìĿ´ ì§ĳ
Ġê³łìĨį ëıĦë¡ľ
r s
ĠìłĦ ìłľ
ĠìĮį ìļ©
Ġíĥľ êµŃ
Ġë³¸ ê´Ģ
Ġë§Į ì°¬
ĠìĹ° ìĪĺ
ëıħ êµĲ
íķľ ì§Ģ
êº ¼
Ġìļ© ìĹŃ
Ġ18 0
Ġì£¼ì°¨ ìŀ¥
Ġì½Ķ ëĦĪ
Ġì¡° ìľ¨
ë¯¹ ìĬ¤
ëĮĢ ë³ĢìĿ¸
ĠëĮĢêµ¬ ìĭľ
ĠìĻĦ ê³µ
ĠëĪĦêµ° ê°Ģ
Ġì²ł íķĻ
Ġëĭ¬ íķľëĭ¤
a g
Ġì¡´ ì¤ĳ
Ġë§¤ ì£¼
Ġê³¼ ìĿ¼
Ġi b
Ġêº ¾
ê³µ ë¬´ìĽĲ
íĶĦë¡ľ ê·¸ëŀ¨
ìĿ¸ ë¯¼
l h
ìĹ¬ ìŀĲ
Ġì§Ģ ì¶ľ
Ġë¯¸ ì¹ł
le d
ĠìĿ´ë£¨ ìĸ´ì§Ģ
Ġìŀ¬ ëĭ¨
ìłķ ìĭł
ĠëĨĢ ìĿ´
ĠìĻĢ ìĦľ
Ġìĭľì²Ń ìŀĲ
Ġê »
ìĦĿ ìĿĺ
íı¬ ìĿ¸íĬ¸
ê·ľ ìłľ
ìī ½
ìĬ¤íĬ¸ ëĿ¼
ĠëĮĢ ëĭ¤ìĪĺ
ĠìĨĮ ìĻ¸
Ġìŀ¥ ë¡Ģ
íİ¸ ìĿĺ
i l
Ġì²ł ê±°
Ġë³¸ ìĦł
Ġìĭł ìŀ¥
ê´Ģ ëł¨
Ġìĺģ ê´ĳ
Ġê³µ ì¡°
ģ ª
ì²ĺ ìŀ¥
Ġìĺ¤ ìĹ¼
Ġf e
Ġëĭ¹ ì²¨
Ġê¼ ´
Ġê¸° ëıĻ
² Ķ
Ġëľ¨ ê±°ìļ´
ĠìĺĪ ìĻ¸
ëĭ¤ ìĿ´
Ġë¶ģ ìª½
ë²Ħ ë¦°ëĭ¤
ĠãĢ ģ
ª ¬
ĠìŀĲ ê¾¸
Ġä¸ Ń
' ,
ìĦ¸ ìĬ¤
ĠìĨĲ ìŀ¡
Ġ9 1
ĠêµŃ ìłģ
ìł¸ ìĦľ
ë°© ì§Ģ
ĠëĤ® ì¶Ķ
Ġì¼ Ħ
íķ´ ì§Ħëĭ¤
ĠìĦ Ńì·¨
Ġê±° ìłĪ
Ġíİ¸ ìķĪ
at ion
ĠíħĮ ëŁ¬
ë´ī ìĤ¬
ìĹ¬ ìĦ±
Ġìĭľ íĭ°
ĠìĬ¹ ê°Ŀ
ëĿ¼ ë¦¬
ì¤ĳ ìĭ¬
ĠìĬ¤íĬľ ëĶĶìĺ¤
Ġíķľ ìłĦ
Ġë§Ī ì¹¨
Ġê³ł ê°ľ
Ġë²Ī ì§Ģ
ì§Ģ íĳľ
ì´Ŀ ìŀ¥
Ġë²Į ìĸ´ì§Ģ
ê³µ ìŀĲ
ĠìļĶ ê±´
Ġë¬´ ë¦
ĠíķĻëħĦ ëıĦ
p m
Ĩ ¤
ĠìĬ¤ìĽ¨ ëį´
ê±° ëĵł
ìĹ° ìĿĺ
ì½ ¤
Ġëĭ¹ ìĤ¬
ĠìĪľ ìĦľ
Ġê¸° ê¸Ī
ê²© ìĿĺ
ê¸Ī ìĨį
ĠìĽ ħ
Ġë§ŀ ìĦľ
ê²¨ ì§Ħ
ê³µ ìĿĺ
ê¹ Ķ
ĠíĹĪ ë¦¬
ê¸Ī ìĿĺ
Ġë°° ìłķ
ê° ¤
ĠíĪ¬ ìĸ´
ĠìķĦ ëĭĲ
Ġê·¸ ëŀľëĵľ
Ġê¶ģ ê¸Ī
Ġê³Ħ ëŀĢ
Ġë³´ ìĿ¼
ìĬµ ëĭĪê¹Į
ĠìĿ´ ì£¼
Ġì¢ħ ì¡±
ļ ¸
Ġë§Ī ëł¥
Ġì´Ī ìłĲ
Ġíı¬ íĬ¸
íļĮ ìłĦ
Ġëĳĺ ì§¸
ë©´ ìĦ¸ìłĲ
Ġìłģ ë¦½
Ġë§Ī ìĤ¬
? "
íĪ¬ ìĸ´
ëĨ Ī
Ġìļ´ ìĨ¡
ì¢ħ ìĭľ
Ġ199 7
Ġhe ight
ĠíĮĲ ìĤ¬
ëª ¸
íĻĢ ëĶ©ìĬ¤
ì¤ĳ íķĻêµĲ
ë© į
Ġëª° ëŀĲ
ĠìŀĦ ì¢ħ
ĠêµŃ ìŀ¥
ê²° ìłľ
Ġëĭ¨ íĸī
Ġê°Ī ìĪĺë¡Ŀ
= "
Ġìĥģ íĻĺ
ĠëĮĢ ë¦½
Ġ= "
ìłķ ì§Ģ
ĺì ħľ
Ġëªħ íĴĪ
ĠìĤ¬ ìļ°
ĠìĿĳ ê¸ī
êµ° ìĪĺ
æ Ĺ
ĠëĤĺìģ ľ
Ġëħ¼ íıī
ĠìĦ¸ ë¬´
ĠêµŃ ìĤ°
ë¶Ģ íĴĪ
ê¸° ê³Ħ
ëħ¸ ìĬ¤
ĠêµĲ íĻ©
l n
an d
ĠìĽĥ ìĿĮ
ĠëĤ «
ĠìĿ¼ ìŀĲ
ķ «
ë¡ľ ì§ģ
ĠíŀĪ íĬ¸
Ġëĵ¤ ìĸ´ìĦľ
Ġë¬´ ìĿ¸
Ġëĭ¤ ìĦ¯
Ġm ar
Ġì¶ľ ìŀ¥
ĠìŀĩëĶ° ëĿ¼
ĠìľĦìķĪ ë¶Ģ
Ġëħ¼ ë¦¬
Ġì°½ ìĿĺ
ë¹Ħ ìłĦ
Ġê³µ ìĿ¸
Ġl h
ĠíĻķìĭ¤ íŀĪ
ĠìĽĲ ìľł
â Ļ
ĠìķĦìī¬ ìĽĢ
Ġìº ¡
p b
ìĭł ê³ł
ìĦ¸ ìĿ´
ĠíĻĶ ìĿ´íĬ¸
Ġì²´ íģ¬
er e
ëł ·
n n
Ġì¹ĺ ëŁ¬
ĠëĿ¼ ìĿ´íĬ¸
ë§Ī ëĭ¹
Ġì»¨ íĬ¸ë¡¤
Ġìŀ¬ ì§ģ
Ġì§ĢëĤĺ ì¹ĺ
Ġìĺģ ìŀ¥
Ġíķ¨ ìłķ
ĠëŁ° ëįĺ
ĠìĹŃ ìłĦ
f l
Ġê³¼ ìĦ¸
Ġì§ĢëıĦ ìŀĲ
ŀ ©
ĠìĿ´ìŀ¬ ëªħ
ë¨¼ ìĬ¤
ĠëĮĢìĥģ ìŀĲ
Ġì¤ĳ ìĪľ
Ġê²½ ìľĦ
Ġì§Ħ ìĭ¬
¥ Ĳ
c s
Ġëŀ ©
Ġê¹Ģê²½ ìĪĺ
ĠìķĪìłĦ ìĦ±
Ġë°Ķ ë³´
ì£¼ ìĿ¼
ë³´ ëĵľ
º Ĳ
Ġg m
ĠíļĮ ìłĦ
ĠìĿ¼ ëŁ¬ìĬ¤íĬ¸
Ġêº¼ ëĤ´
ê°ģ ìĿĺ
ĠìķĮ íĮĮ
ìłĦ ì§Ģ
o k
Ġë²Į ìĺĢ
Ġê°¤ ëŁ¬ë¦¬
Ġìĭ¤ ì¢ħ
Ġìľ¤ ë¦¬
ëįĶ ìĬ¤
Ġë©Ķ ë¥´
ì§Ģ ìłĲ
Ġëª¨ ë¥¸ëĭ¤
Ġìĺ¤ë¦¬ì§Ģ ëĦĲ
ĠìĬ¹ ë¶Ģ
íĴĢ ìĿ´
ë¡ľì§ģ ìĬ¤
Ġìĸĳ ì¸¡
ë°ľìłĦ ìĨĮ
ĠìĿ´ ìª½
ìĥĿ ìĿĺ
Ġìĺ¤ íķ´
ìĨĮ ë°©
ëĳ ĳ
Ġë Ĳ
Ġìĺģ ëıĻ
Ġìĭł ì¶ķ
Ġê³ ½
íĨł ë¡Ŀ
Ġíķ ©ì
Į ħ
Ġì¶Ķ ì²¨
Ġíĺ¸ ì¡°
ĠìĿ´ ìĺģ
ĠìĥĿ ìĦ±
Ġë ¼Ī
ì¶Ķ íĸī
ëĿ¼ ê¸°
Ġë´Ĳ ìķ¼
ì°¸ ìĹ¬
Ġíĺ¸ ìĿĳ
ĠíĬ¹ ìĤ¬
ëª¨ ìĿĺ
Ġì¤ ¬
Ġì¤ ĺ
ĠìĭľëĤĺ ë¦¬ìĺ¤
ëį° ìĬ¤
ĠíĺĦ ìĹŃ
Ġë°±ìķħ ê´Ģ
Ġíŀ ĺì
ìĩ Ħ
ëĭ¨ ê³¼
ĠìľĦ ìŀ¥
ĠìĹ¬ ê²¨
Ġìĥģ ìļ©
ĠëĳĺëŁ¬ ë³´
íħį ìĬ¤
Ġëį° ëł¤
Ġë³´ ë³µ
Ġìłķ íĻ©
Ġk no
Ġíİ¸ ì§Ģ
Ġë¬´ ëįĶ
ë°Ľ ì¹¨
íĿ¥ ìĽĲ
Ġëı ĭ
Ġê±°ì§ĵ ë§Ĳ
Ġë²Ħ íĶĦ
Ġê´Ģ ìĹ¬
Ġê´Ģ íķł
ģ ¼
Ġê·¸ ì¹ĺ
íı¬ ë¨¼ìĬ¤
ĠìķĦ íĭ°
Ġì§Ħ ì£¼
íıī ëĵ±
ĠëĤ´ëħĦ ëıĦ
ĠìĿ¸ íħĮ
Ġëįĺ ìłĦ
ĠíĨµ ì¦Ŀ
ĠìķĦìĦ¸ ìķĪ
ĠìĹ° ìŀ¬
Ġê±° ìŀ¥
ĠíĿĶ íŀĪ
ĠëĤ´ ëĨ¨
Ġìľł ìłĦìŀĲ
Ġìļ© ìĸ´
ĠëĴ¤ ì§ĳ
ìĺ ¹
ĠíĪ ¬ìŁģ
ĠìĹ ĩ
Ġìłľ ìĸ´
Ġëį ©
ĠíĽĮ ë¥Ń
ë²¤ì ħĺ
Ġê¼½ íŀĮëĭ¤
ãĤ ĭ
Ġìķ¼ ê°Ħ
Ġìĸ´ëĸ ł
Ġê·¼ë į°
Ġ' ,
Ġíķľ ê°ķ
ìĦ± ëĬ¥
Ġì°½ ì¡°
ĠìµľìĨĮ íķľ
ìĭ¤ ìłģ
ĠìĪĺ ë©´
âĢ ĺ
ë°© ë²ķ
Ġëª¨ëĭĪíĦ° ë§ģ
¼ë Ŀ¼
Ġê³µ ë°©
Ġìĭ¤ ìĹħ
ëŀĺ íĶĦíĬ¸
Ġíľ ł
ìĨĮ ìŀ¬
at e
ĠëĨ Ī
ĠìĿ´ ìĤ°
Ġíİĺ ìĿ´
ãģ Ĺ
Ġê°Ģ ì§ľ
Ġìĸ´ì ©Į
Ġíģ´ëŀĺ ìĭĿ
ĠìľĦ ì¶ķ
ĠìĿ¸ ìłĳ
ë¥ ¸ì
Ġì¶ľ ëıĻ
ĠëĮĢíĳľ ëĭ¨
Ġê³¼ ìĹ°
ĠíĮĮ ëĿ¼
ĠìĪĺ ìĬµ
Ġìŀħ ìĤ¬
Ġì¹¨ íķ´
Ġê³¨ ëĵł
Ġê² °ì½Ķ
Ġë°ķ ëŀĮíļĮ
ĠìĿ´ëģ Ħ
ĠìĿĺ ë¥ĺ
Ħ Ń
ë¥¸ì ª½
ì°½ ìĹħ
ìŀ¬ ë£Į
Ġìĺ¤ ìĬ¤íĬ¸
Ġê²Ģ ì¶ľ
íĤ ·
Ġì°¨ ìłĦ
ĠëıĦ ëĭ¬
Ġëª° ìķĦ
Ġë¶Ħ íķł
ĠìĬ¤íİ ĺìħľ
Ġíķ©ì ³Ĳ
Ġë®¤ ì§ģ
ĠëĤ¨ ìĸĳ
Ħ Ĳ
Ġìļ´ ëªħ
ìĥģ ìľĦ
Ġë³ĢëıĻ ìĦ±
Ġë°° íı¬
Ġë§Ī ëĤĺ
Ġìĺ¤ ë¥¸ìª½
ìĹħ ì¢ħ
ĠìĤ´ ëł¤
ê¸ ĭ
ģ í
ĠíĺĦ ì§ģ
ìłĦ ìĦł
ĠìĿµ ìĪĻ
Ġì£¼ ëĭ¹
Ġìķ¼ ë§Ī
Ġ? "
ëŀĺ ëıĦ
Ġì°© ê³µ
ë°Ķ ì§Ģ
ĠìĬ¬ ë¡ľ
Ġëįĺ ì§Ģ
ĠìĨĲ ìĥģ
ìĨĮ ìĦľ
i f
Ġï½ į
Ġê³µ ê³ł
ì§Ģ ëĭĪìĸ´
ë¶Ģ ëĭ´
Ġìłķ ìļ°
Ġë¹ µ
Ġìľł ëŀĺ
ìĥ µ
Ġì§ĳ ìķĪ
Ġë¬¼ íĴĪ
ë¦¬ ìĺ¨
ĠëĬĺ ìĸ´ëĤł
Ġf ta
Ġë³µ ìĪĺ
ë³ĳ ëĮĢ
Ġëĵ¤ ëł¤
Ġëĭ¹ ìłķ
ìĭľíĤ¨ ëĭ¤
ĠìĪľ íĻĺ
ëł ĺ
Ġì£¼ ìĦĿ
ĠìĨĮ ìĪĺ
Ġë» Ķ
Ġìŀ¥ ìĪĺ
Ġë¡ ±
ĠíķĦ ëĵľ
ìĪ Ń
ī ½
Ġë©Ķ ëª¨ë¦¬
Ġê°Ħ ëĭ¤
ĠíŀĪ ìĸ´ë¡ľ
Ġì¹ĺ íĤ¨
ìĺ¤ ìĿĺ
Ġê¹Ģìłķ ìĪĻ
Ġ }
Ġë§Ī ìķ½
ìĸ´ ì§Ī
n k
ë° ´
Ġì¤ĳ ëıĻ
Ġëªħ ìĭľ
r t
ĠìĬ¤ ì¹´ìĿ´
ìļ° ë¦¬
ìłĲ ìĪĺ
ĠëıĮ ë¦¬
Ġë¶Ģ ìĬ¤
ĠëıĻ íĸī
Ġëĭ´ ë³´
a h
Ġìłķ ë¡Ģ
ĠìĨĮ ê·ľëª¨
ë§Ī ëĶĶ
ëĬ Ħ
c n
ìŁģ ìĿĺ
ìĤ¬ ë¡Ģ
Ġê°ľ ì²Ļ
ĠíĹ¬ ìĬ¤
ëĤĺ ìĻĢ
Ġ. -
Ġì²« ëĤł
Ġì°¸ ìĤ¬
ìĽĮ ìĦľ
Ġëĳ ¥
Ń ī
Ġêµ¬ íĺ¸
Ġë¬¸ êµ¬
Ġì¤ĳ íĻĶ
ìĪ ²
ìĤ¼ ìĦ±
ĠìĤ ½
Ġìļ° ìľĦ
ìĿ¸ ì¦Ŀ
Īì ½ľ
ãĥ ³
² ¸
Ġíį¼ íı¬ë¨¼ìĬ¤
ĠíĺĪ ìķ¡
Ġëª¨ íĦ°
Ġë°ķ ìĺģ
ë¬¼ ìĤ°
ë¯¸ ëĶĶìĸ´
Ġë²Ī ìĿĺ
Ġì¶ľ êµŃ
° ¥
Ġëĸ ¨
Ġëĭ¤ ëħĢ
l p
Ġs m
ĠìĨĮ ì§Ģ
ĠëĤ ´ì
Ġì§ģìŀ¥ ìĿ¸
ĠëĤł ê°ľ
Ġì¹¨ ì²´
Ġê·¸ëŁ¼ ìĹĲëıĦ
ëĮĢíķĻ ìĽĲ
ê´ĳ ë¶Ģ
ou nd
Ġë¶Ī ìĸ´
' '
ĠíĶ¼ ìĿĺìŀĲ
Ġê°ľ ê·¸
Ġê·¸ ê³³
Ġì»¨ ìħī
ìĭľ ì¦Į
êµĲìľ¡ ê°Ĳ
Ġìľł ì¡±
ĠìłĦ ìŀĳ
Ġëª© ìĤ¬
ĠìĦĿ íĥĦ
Ġìľł íļ¨
íģ´ ëŁ½
Ġëĭ¹ ìĤ¬ìŀĲ
ëĵ Ī
Į Ķ
íķĻ ê·ľ
ĠìĿ¸ ëªħ
ĠìĹ° ìĺĪ
l t
ìłĦ íĺķ
Ġì°¸ ìłĦ
ìŀĳ ìĿĺ
Ġê³µ ìĦ¸
ê·¹ ìŀ¥
Ġì¤ĳ ê³ł
Ġíķľ ëıĦ
êµŃ ì§Ģ
Ġë¯¸ ìķĪ
ĠìĦ¸ íı¬
ìļ° ìĿĺ
Ġíĺĳ íļĮ
ĠìĨĮì ħľ
ìĨĮ ìĨ¡
Ġï¼ ħ
Ġì¦Ŀê°Ģ ìĦ¸
Ġìĭľ ê·¸
c b
Ġê¹Ģ ì¹ĺ
ĠëĮĢ ëĮĢ
Ġê°ķ ìĤ¬
Ġëıħ íĬ¹
Ġìĺ¤ ì§ģ
Ġê¹Ģ ìŀ¬
Ġìľł ìĦ¸
Ġì§Ģ ëĭĪ
Ġë¶Ģ ìľĦ
Ġí į
Ġì±Ħ ë¬´
Ġì£¼ ì§Ģ
Ġìŀ łìĭ¤
ëĵľ ëĿ¼
íĶ ¼ì
ĠìĪĺ ìĥī
ìķĦ ë²Ħì§Ģ
¥ ê
ëį ©
Ġì¦Ŀ ìĸ¸
ĠìĹ¬ ì§Ģ
ëĥĲ ëĬĶ
Ġìĭ¬ íĮĲ
ĠìĤ¬ìĹħ ë¹Ħ
â ħ
ĠìĦľ ìª½
Ġë°ľ ëł¹
´ Į
ìŀĳ ìłĦ
ĠìķĦ ë©Ķ
Ġë¬´ ìĤ¬
Ġíģ¬ ë¡ľ
ĠìĿ¸ ê°Ģ
ĠìĦ± ìĤ¬
Ġë³´ ìŀħëĭĪëĭ¤
ê´Ģê³Ħ ìŀĲ
¼ê ¼
ìĭľ ìĺ¤
ë³´ ê³łìĦľ
ĠëĤ´ ë¥Ļ
ĠëĮĢë²ķ ìĽĲìŀ¥
ìŀ İ
ĠíĹ¤ ëĵľ
Ġê°ķ ìĦľ
ìĹĲìĦľ ë¶ĢíĦ°
Ġì½ľ ëĿ¼
Ġo ne
Ġë¨¹ ê±°ë¦¬
ëĮĢ ìĿĳ
ëįľ ëŀĢëĵľ
Ġê¹ İ
Ġì²Ń ìĤ¬
Ġì§Ģ ëª©
ĠìĦ¸ ìļ´
ĠíĹ¬ ê¸°
Ġëª° ëĿ¼
ë°© ë¬¸
ĠìĦłê±° êµ¬
Ġì¡° ë§Į
ìĤ¬ëł¹ ë¶Ģ
ìĸ´ ìł¸
ëĵ¤ ìĿ´
íķĦ ëĵľ
ĠìĿ¸ì²ľ ìĭľ
Ġìŀ¥ ê°ĳ
Ġìĸµ ìłľ
êµ¬ ìĨį
Ġëł ī
ĠìŀĲ ëĿ¼
Ġíķľ ì¤ĳ
Ġìľł ë§Ŀ
ìĨĮ íĶĦíĬ¸
Ġì¡° ì§Ģ
ìĺģ íĸ¥
Ġì§ĢëĤĺ ê°Ģ
Ġì¤ĳ ìŀ¬
ĠìĪĺ ìĨ¡
Ġë¬´ë¦ İ
ê· ¼ë
Ġê°ķ ìłĲ
ĠìĿ´ ëĿ¼
Ġìĭľ ìłĦ
Ġì½Ķ ìĹĳìĬ¤
ĠìĿ´ ìĬ¤
Ġê°ľ ì¡°
Ġìļ° ë¦°
ĠìĿ´ìĸ´ ì§Ħ
ĠìĤ´ìķĦ ëĤ¨
Ġìŀ Ń
ì¡° ìŀĳ
Ġê¹ĢëĮĢ ì¤ĳ
Ġ1 12
ĠìĬ¤ìľĦ ìĬ¤
Ġìĸ´ëł¤ ìļ¸
Ġë¶Ģ íķĺ
íĺĦ ëĮĢ
ëł¥ ìĤ¬
° Ŀ
Ġê³Ħ ëĭ¨
Ġìĺ¤ ëŀ«
ĠíĮĢ ìŀ¥
ë°© ìĿĺ
ĠìłĢ ì¶ķ
Ġê·¸ ëŀ¬
Ġë°ľ ê°Ħ
Ġê¹Ģ ìĪĺ
Ġìĭł ìķ½
Ġì§Ģ ëĬ¥
Ġëª¨ ìķĺ
Ġê³ł ë¬¸
Ġìĭľ íĤ¤
ĠìĺĪ ìĦł
Ġì£¼ ìľĦ
ĭ ·
ĠëĿ¼ìĿ¸ ìĹħ
ĠëĽ° ìĸ´ëĤĺ
Ġë¯¼ ê°Ĳ
Ġì¸¡ ìĿ´
ëłĪìĿ´ íģ¬
ĠâĨ ĳ
ĠêµŃ ê°Ĳ
ĠëĴ· ë°Ľì¹¨
íĭ° ëĤĺ
ĠìķĦìĿ´ ìĬ¤
ìĭŃ ìŀĲ
íİĺ ëĿ¼
ìĤ¬ ê´Ģ
Ķì ¸ł
ĠëĦ¤ ëįľëŀĢëĵľ
Ġê¸ī ìĹ¬
ë§ Īë
ëĮĢ êµĲ
Ġë©Ī ì¶Ķ
ĠíķĺëĤĺ ëĭĺ
ìĦ¤ ë¹Ħ
ìĿ¸ ìĽĲ
Ġëľ ¬
â Ħ
Ġ3 50
ê·¸ ëĿ¼
Ġ199 5
ëĴ Ģ
Ġt f
Ġëļľ ëł·
ĠìĨĲ íķĻê·ľ
· ł
ĠìĿ´ ìĪĺ
ĠìŀĲ ìĺģìĹħ
ëıĦ ìļ°
Ġë°© ì¹ĺ
ĠìĿ¸ íĺķ
Ġë¬´ ê´Ģ
ê±´ ë¹Ħ
Ġ% âĨ
ĠìĪĺ íĺ¸
ê¼ ¬
¹ Ń
ì²Ń ìĿĺ
Ġë¶Ģ ì²ľ
Ġìłķ ëıĻ
Ġê·¹ ëĭ¨
Ġìĭł íĻĶ
ĠëĤĺìģ ĺ
ë©´ ìĿĺ
ê¹ ĥ
ëłī ìħĺ
ëĲľëĭ¤ ë©°
ëĴ ¤
Ġì²Ń ìĽĲ
ĠìĦł ë°°
¤ì ¸ł
Ġìĭł íĺķ
ĺ ¥
ë°¸ ë¦¬
Ġy ea
Ġë¡ľ ìĬ¤
Ġëħ¹ ìĥī
ĠêµŃ ë©´
ãģ £
ĠìĿ´ ëĭĿ
Ġê±¸ ëł¤
Ġê³µëª¨ ìłĦ
ìĤ°ìĹħ ìĿĺ
Ġë³ĳ íĸī
íİ Ļ
Ġì¡° ìĦ¸
Ġâĺ Ĩ
Ġìľł ìĹ°
ìĿĺ ìĭĿ
ë© Ģ
ĠìĦ¸ íĥģ
Ġë ķĲ
ĠìķĦ ë²ł
ë§¤ ë§¤
Ġë¹¨ ê°Ħ
ëįĶ ëĿ¼
Ġê¸° ìłĲ
ìĥ ·
ĠìĹ¬ ìĭł
ĠìĨį íķ´
Ġre al
Ġê·¼ ìľ¡
Ġl e
Ġê¼½ íŀĪ
ëĭ¹ íĸĪ
Ġì° °
ĠìĨĮ ìľĦ
ĠëıĦ ìĦľ
¬ì ½¤
ì§Ģ ê²Ģ
íĻľ ìļ©
v r
ĠìĤ´ ìķĦê°Ģ
ëĮĢ íĻĶ
Ġì ĩł
Ġo r
ìĪĺ ì¤Ģ
Ġ1 40
Ġìĸ´ ì°Į
ĥ ĳ
Ġíİĺ ìĿ´ì§Ģ
¿ ì
Ġê°ĸ ì·Ħ
Ġìłľ íľ´
ĠìĻĢ ì¤ĳ
ĠìĻĢ ìĿ´
ì¹ľ êµ¬
ìĻ¸ êµĲ
ìĻ¸ ìĿĺ
Ġìķħ ë§Ī
c p
Ġìµľ ìłģ
ĠëĲ ©ëĭĪëĭ¤
Ġë¬´ ìĦł
ëĦ ¨
ëĬĶëĭ¤ ë©´
ĠìĽĲìŀĲ ëł¥
ëĨĢ ìĿ´
ê²° ìłķ
Ġì¡°ë§Į ê°Ħ
Ġs in
Ġê°Ģ ì§Ī
Ġìĥ ĺ
Ī Ī
Ġìŀ ¦
íıŃ íĸī
íķĻ ìĬµ
Ġìĺ¤ëŀ« ëıĻìķĪ
ìĿ¸ êµ¬
ë²Ħ ê·¸
Ġìŀ¥ ìĭĿ
íĺķ ìĿĺ
Ġli ke
ĠìĻľ ê³¡
Ġìłĳ ìĨį
ĠëĵĿ íĳľ
Ġë³´ìĿ¸ ëĭ¤ê³ł
ĵ ¸
d ing
Ġë°Ģ ìĸ´
Ġë¬´ ëĦĪ
ĠìĿ¸ ê±´ë¹Ħ
íĨ¨ ë¦Ń
ìļķ ìŀ¥
Ġìľ¡ ìķĦ
Ġê±° ì¹ľ
ĠìĺĪì ģ
ìĨ Ĳìĭ¤
ĠìĿ¸ ìĹ°
íĥĢ ìĿ´
ĠìĤ´ ì§Ŀ
Ġmo bi
ne w
ĠëĤĺìģ ¨
s w
Ġì§Ģ ë¦¬
Ġê°Ĳ ìĦ±
ĠìĿĺ ìłľ
ĠíĶĦ ëĿ¼
ŀľ ëĵľ
ĠìĺģìĽĲ íŀĪ
Ġê°Ĳ ì¶ķ
p d
Ġìĩ¼íķĳ ëª°
Ġë°° ìĨ¡
íı¬ ìĬ¤
Ġë² Įì
ĠìĿ¸íħĮ ë¦¬ìĸ´
ĠíĿ¥ íĸī
Ġì¦Ŀ ì§Ħ
ë ®¤
Ġë§Ľ ìŀĪ
ĠìŀĦëĮĢ ë£Į
Ġë°ķ ìĬ¤
ë¦Ń ìĬ¤
ĠìĬ¹ ìļ©ì°¨
ĠìķĦë¬´ ê²ĥ
ĠìłĲ ëł¹
ĠìĬ¤ íĭ°
Ġìľł ê´Ģ
ë¬´ ìŀ¥
ĠìĬ¤ íĤ¨
Ġìķķ ëł¥
ĠëĪĦ ë¥´
Ġì±Ħ ìĽĮ
ĠëĨį ìĤ°ë¬¼
Ġìŀ¥ êµ°
ĠìķĶ ìĤ´
Ġìĺ¤ ê°Ģ
ĠíĨµ ìĺģ
ĠìŁģ ìłĲ
ĠìĿ¼ë°ĺ ìĿ¸
ìĿ¸ ê¶Į
Ġë¶Ģ ë¥¸ëĭ¤
Ġé Ŀĳ
a u
ĠëıĻ ìª½
ìŀĲ ìľł
Ġì¶© ìĭ¤
Ġê²¨ ìļ°
íĭ° ìĬ¤
ĠìĽĲ ìłķ
Ġì§ĢëĤľ ì£¼
Ġë§Įëĵł ëĭ¤
ĠíĥĢ ìĽĮ
Ġìĺ¬ ë°Ķ
Ġê³ł ìłĦ
ìĦ¼ íĬ¸
d y
ĠìĽĶ ë§Ĳ
ĠìĤ° ìłķ
Ġê±´ ëĭ´
ĠìĨ¡íĮĮ êµ¬
Ģì Ķ¨
ìĿ¼ë ŀľëĵľ
Ġê³Ħ ìĬ¹
Ġmobi le
ĠìķĪ ëħķ
Ġë£¨ íĬ¸
Ġì¡ ±
Ġë°Ģ ìĸĳ
Ġì¢Į ìļ°
íĢ ĺ
ĠìĹ°êµ¬ ìĨĮ
Ġ199 6
ë´Ĳ ìķ¼
Ġìŀł ê¹Ĳ
Ġëĭ¤ ë¦Ħ
Ġì²Ń ìĤ°
Ġêµ¬ ìłľ
ë¹Ħ ìĿĺ
ĠìĥĿ ìĿ¼
ê³ ¼ë
w n
íĬ¹ë³Ħ ìĭľ
Ĩ Ģ
ĠìĹ´ ê¸°
Ġìŀħ ëł¥
ë²Ħ íĬ¸
ìĦ± ëıĻ
íĪ¬ ìĬ¤
Ġê°ķ íĸī
ëĶĶ ìŀĲìĿ¸
ĠëŁ Ń
íĨµ ìĿĺ
ëĪ Ķ
Ġì£¼ ìĨĮ
Ġê¹Ģ ê´Ģ
Ġì¤Ħ ìĹ¬
Ġìĺģ ëĤ¨
Ġíİĺ ë¥´
ĠëĨĴ ìĿ¼
ĠíĶ ¼ì
â Ķ
Ġìļ©ìĤ° êµ¬
Ġê¸Īê°ķ ìĤ°
ë°ľ íĳľ
ìĹĲ ëĭ¤
ĠìĪĺ ë°±
ĠëłĪ ìĸ´
ë¬´ ìĤ¬
ëħ¸ ìĦł
Ģ ĺ
ì¤ĺ ìķ¼
Ġêµ¬ ëıĦ
Ġíİ¸ íķĺ
ĠìĿ´ ìĿĢ
Ġì¡° íķŃ
Ġê°Ħ ìłĳ
Ġì¹ĺë£Į ìłľ
ëħ ¹
ĠíĴį ê²½
Ġê°Ĳ ìĥģ
Ġìĺ¤ ë¥ĺ
ĠìĹĦ ê²©
Ġìľł ìĥģ
ĠìĽĲ ë£Į
Ġë°Ķ ë¥´
Ġê²½ê¸° ìŀ¥
Ġê±´ ìĪĺ
ĠìĬ¤ íĨł
ı Ī
ĠìĦľ ë©´
ê¸´ ëĭ¤
ëĮĢ ìļ°
ĠìĬ¤ íĮĮ
ĠíĿĶ ìłģ
Ħì ¿ł
Ġíļ ŁìĪĺ
ĠìĿ´ ìĬ¬
Ġke b
ĠìłĦ ìĪĺ
ĠìłĲ íĶĦ
êµĲ ìĦŃ
ĠëģĿ ëĤ´
ĠìĪĺìĥģ ìŀĲ
u a
Ġ1 11
ìĽĲ ìłĦ
Ġê² ¹
ģ Ł
Ġëĭ¤ ìĬ¤
Ġyea h
ìĺ µ
ëĨį ìĹħ
Ġìĭ¬ íķľ
Ġì°½ìĽĲ ìĭľ
ìĦ¸ì¢ħ ì²ŃìĤ¬
Ġìĭłíķľ ìĿĢíĸī
Ġìĭł ëıĻ
Ġì¦Ŀ ìĿ¸
ë§Ī ë¦¬
Ġh a
Ġìĸ´ì ©Ķ
Ġìłķë¶Ģ ìĦ¸ì¢ħì²ŃìĤ¬
ĠìĿ¼ ìĤ°
ĠìĹ´ ë¦´
ê°Ģ êµ¬
f u
Ġë¶Ħ ìĤ°
ĠëıĻëĤ¨ ìķĦ
íİ ł
ĠëĦĺ ê¸°
Ġìŀ¬ ëĬ¥
ĠìļĶ ìĭľ
Ġê²¬ ìĿ¸
Ġëıħ ëıĦ
ìĻĢ ìĦľ
ìĽĲ ëĮĢ
Ġìľł ìĦ±
ìĦ¸ ëł¥
Ġë¶Ī ê½ĥ
ë¬´ ëĿ¼
ĠìĬ¤ íĶĦ
Ġíħ į
Ġìŀ¥ ìĦ±
ĠìĹ° ìĦ¸ëĮĢ
ĠíļĮìĿĺ ìĭ¤
Ġìŀ¬ ë²Į
Ġë¬´ ì£Ħ
ĠìĹ´ ìłķ
Ġì¾Į ìłģ
ëıĻ ìĭľ
Ġíķ© ìĦ±
ĠìĦ ¹
ìļ° ìľĦ
ĠëģĬ ìŀĦ
ĠíĶĦ ëłĪìĬ¤
ĠíĥĪ ëĭ¹
Ġíĸī ìłķë¶Ģ
Ġë°ĶëŀĮ ì§ģ
Ġì¹´ ìĿ´
Ġl ed
Ġì»¤ ì¡Į
Ġì¶ľ ê°Ħ
ĠíĮĮ ëŀĢ
ĠìĽ¹ íĪ°
ĠìıŁ ìķĦ
ĠìĤ¬ íĿĺ
Ġìĭł ì°¨
Ġê¶Į ìĹŃ
Ġê¸° ëıħêµĲ
Ġê±¸ ë¦°
ìŀĲ ìĿ´ëĦĪ
ĠìĦł ì°©
ĠëĬĲëĤ Ģ
Ġê·¸ëŁ¬ ëĭĪê¹Į
¼ íĦ°
Ġëª© ê²©
ë°Ģ ë¦¬
ê³µ ìłľ
Ġa l
ĠëĶ° ì§Ģ
£ °
Ġìĥģ ìĭľ
al l
Ġê°ķ ìļĶ
ì£¼ êµ°
ĠìĬ¤ ì¼Ģ
ĠêµĲíĨµ ìĤ¬ê³ł
ìĥ ĺ
ĠìłĦ íĮĮ
Ġëıħ ìłĲ
Ġëª½ ê³¨
Ġì¦Ŀ ëĮĢ
Ġ A
ê¸ī ìĹ¬
Ġì¤ĳ ë¦½
Ġë³ĳ ìĹŃ
Ġìĭľ ìĭł
ìķ ī
Ġmobile ad
Ġmobilead new
Ġkt x
ê¼ Ī
ìĭĿ ìŀ¥
Ġëª° ëŀĺ
Ġì¡° íĻĶ
Ġìĸĳ ìŀĲ
Ġë¹Ħ ë¡Ŀ
ê°ľ ìłķ
Ġë°° ëł¤
ëĤĺ íķŃê³µ
ìĤ°ìĹħ ëĭ¨ì§Ģ
Ġêµ¬ìĦ± ìĽĲ
ĠìĪĺ ìĺģ
Ġg ir
Ġê²½ ë§¤
Ġì¦Ĳ ê±°
Ġê´ĳ ëªħ
Ġê´Ģ íĸī
ë³ į
Ġë°ĶìĿ´ ëŁ¬ìĬ¤
Ġë¬¼ ê²°
ëĭ´ ë³´
ëłĪìĿ´ íĦ°
Ġê·¸ ëĤł
Ġê³łìĸĳ ìĭľ
ìľ¼ ëĭĪê¹Į
Ġë³Ħ ëĭ¤ë¥¸
ĠìĦ± ì¶Ķíĸī
Ġê³µ ìŀĳ
ìĺ¤ ë¡±
u e
ë İ
Ġíĥľ íıīìĸĳ
ĠëıĦ êµ¬
Ġì½ ĺì
ĠìĹĲ ìĿ´ìĬ¤
Ġìłķ ë©´
ë¶Ħ ìĿĺ
Ġìłĳ ëª©
ìĿ´ ìŀĲ
ģ Ī
Ġëĭ¹ íķľ
Ġê°Ģ ë³į
ìĨĮ ìĨį
Ġëª¨ íĹĺ
ĠìĨĮ ì§ĳ
Ġ199 4
Ġâ Ļ
Ġë¹Ľ ëĤĺ
ĠìķĦìĭľìķĦ ëĤĺíķŃê³µ
Ġê±¸ ë¡ľ
ĠìĨ¡ ëıĦ
å ħ
ĠìĻ¸ ëª¨
ĠìĿ¸ ì§ĢëıĦ
Ġíķľ ë§ĪëĶĶ
Ġìĸ´ ë¥¸
ĠíĬ¸ ëłĪìĿ´
Ġì¤ĳ íĺķ
ħī íĬ¸
Ġìķŀìŀ¥ ìĦľ
Ġíİ Ģ
ĠêµŃìĦ¸ ì²Ń
ìķ¼ êµ¬
Ġë³´ê±´ ë³µì§Ģ
ĠíķŃ ê³µìĤ¬
Ġëĭ Ľ
Ġëĸł ëĤľ
ìķĦ ìĽĥ
ìºł íį¼ìĬ¤
Ġìĭľ ê³Ħ
íļĮìĿĺ ìĨĮ
ĠíĦ° ë¯¸ëĦĲ
Ġê³µ íĮĲ
b g
ê¸Ī ì§Ģ
Ġê¹ĢëıĻ ì²ł
Ġíķ¨ ìľł
ìĺĪ ë°©
ë¸Į ëŀľëĵľ
ëĿ ł
ĠëĵĢ ìĸ¼
p k
Ġíķĺ ìĸĢ
ĠìŀĲ ìĭĿ
Ġê¹Ģìĥģ ì¡°
Ġìŀ¥íķĻ ê¸Ī
Ġì½Ķ ìĬ¤íĬ¸
ĠìŀĲ ìłľ
o w
ľ Ī
ħ ê
ĠìĨĮ ë©¸
ëģ Į
Ġì½ĺì ħīíĬ¸
ĠìķĦ ëĤĺ
Ġf a
Ġê´Ģ ì°°
Ġë¯¸ ëĵľ
ìĿ¸ ìĭĿ
Ġãĥ »
Ġëĥ īìŀ¥
ëħ¸ ë²ł
r p
Ġë°ķ ìĦ±
Ġë§Ī ë¥´
¦ ´
ê¸° ë°ĺ
ĠêµŃ êµ°
Ġë°ķ ìĥģ
ĠìĪľ ì²ľ
ĠìĪĺìĽĲ ìĭľ
ĠìŀĦ ìĭł
» ¨
Ġíı¬ ë¥´
Ġìłĳê·¼ ìĦ±
Ġìŀħ ìĽĲ
ìłģ ìĿĺ
ìŀĳ ê°Ģ
ĠìĿĺ ìłķë¶Ģ
Ġâ ħ
íı¬ ìĿĺ
ê·ł íĺķ
ĠìķĦ ìĬ¤
Ł ½
Ġíĥ Ģì
ìĭľ ë¸Į
Ġë²ķ ìłľ
Ġìĥģëĭ¹ ìĪĺ
Ġë²ł ìĿ´ìĬ¤
Ġì§Ģ ëĤ¸
ê´Ģ ìľĦ
ĠëıĻ íĻĶ
ĠíĮĮ ì£¼
ìĺ¤ ë¦¬
Ġìº ĺ
ĺ ľ
ĠíĮĮ ìĿ¼
ë¶Ģ ìĻĢ
Ġâ Ħ
ĠìķĪ ìĸĳ
ë¯¸ ìĿĺ
ĠëĤĺ ìĿ´íĬ¸
ìĨĮ ìĭľ
Ġê³ł ìĭľ
Ġì§ Ļ
ì¦Ŀ ìŀĲ
ĠëĮĢ ì¹ĺ
ëĭĪ ìĬ¤íĬ¸
ĠëıĻ ìĦľ
ĠêµĲìľ¡ ì²Ń
Ġba ck
ĠëĤ¨ íķ´
ë¶Ħ ê¸°
ëŁ¬ ì§Ģ
Ġë¡¯ëį° ë§ĪíĬ¸
ĠíħĶ ëłĪ
ĠìĦ¬ ìľł
Ġì» µ
b p
Ġìŀ¬ ë°ľ
íģ °
ëĨį ëĭ¨
§ ĵ
Ġìļ° ìľł
ĠëĲĺ ì°¾
ëĿ¼ìĿ´ ëįĶ
ĠíĿ¥ ë¯¸
Ġê²° ìĭ¬
ĠìĿ¼ ê´Ģ
Ĺ Ħ
Ġëª° ë¦¬
ë³Ģ ìĿĺ
ìĤ¬ ê¸°
Ġe ver
Ġëĭ¥ íĦ°
ìĸ´ ë¦¬
Ġë§¤ ëĭĪ
ëĭ¨ ê³Ħ
Ġíĺ¸ íıī
íĨµ ìĿ¼
ê°Ģ ëĵľ
Ġë¶ Īì
ìĿĺ ìĤ¬
íĿ ĳ
Ľ ¨
ĠìĭľëĤ´ ë²ĦìĬ¤
ĠíĻľ ëł¥
Ġìłľ ëĦ¤
Ġíĥľ ìĸ´ëĤľ
Ġë³´ ëĭ¤
Ġë³´ ëĦĪìĬ¤
ãģ ¯
ëį° ìĿ¼ë¦¬
Ġkno w
ĠëįĶ ìľĦ
Ġë³´ê±´ë³µì§Ģ ë¶Ģ
Ġë§Ī ëĿ¼
ì¢ ĭ
ĠìĤ¬ ì°°
ëħ¸ë²ł ìĿ´ìħĺ
Ġê³¨ ëª©
ĠíĶĦ ë¦°
ì¡± ìĿĺ
Ġìŀł ìĪĺ
ĠëĤł ë¦¬
ìĥĿ ë¬¼
Ġëĸł ìĺ¤ë¥´
ì¹ĺ ê°Ģ
Ġê°Ĳ ì§Ģ
ĠìĨĶ ë¡ľ
ĠëıĦ ëª¨
ëĭ¨ì²´ ìŀ¥
é ĩ
ĠìĦľ ëĮĢë¬¸
Ġë°ķ ë¬¼ê´Ģ
ì½Ķ ëĵľ
Ĺ ¥
Ġì£¼ ë¥ĺ
Ġë²Ħ ëł¤
ê°Ģ ìļĶ
ìĿ¼ ìŀĲë¦¬
Ġëªħ ì¤ĳ
Ġìŀ¬ íĺĦ
ĠëĨį ìŀ¥
ĠìŀĲ ìĤ¬
ne ws
ĠìĦľ ìĪł
ĠìĤ °ì±ħ
ĠìĦłë³´ ìĿ¼
Ġìŀ¬ë¯¸ ìŀĪ
ĠìĦ¸ ìĿĺ
ĠìĹ¬ ê¶Į
Ġi m
Ġìľłê°Ģ ì¦Ŀê¶Į
ĠëĳĲ ëĵľ
ĠìĤ¬ ë¬¼
ëĬ ¦
Ġë³´ì¡° ê¸Ī
Ġíģ¬ ë¡ľìĬ¤
Ġíĸī ì§Ħ
ëĤ Ń
ĠíĮ ½
Ġë³´ ë¬¼
Ġë¹Ħíĸī ê¸°
Ġê²° ìĦ±
ĠëĮ ĦìĬ¤
Ġëĥ Ħ
ĠíĨµê³Ħ ì²Ń
ëĿ¼ìĬ¤ íĭ±
ë¬¼ ê°Ģ
Ġëĵľ ë¦¼
¢ ĭ
Ġê°Ģìŀħ ìŀĲ
Ġëª¨ íĭ°ë¸Į
Ġìķ½ íķľ
Ġêµ¬ ëĭ¨
Ġíĳľ ì°½
Ġê²Į ìĿ´
Ġê¿ Ģ
ĠìĬ¤íİ Ļ
ë ¤ĺ
ìĦł ë¬¼
ë³´ ëıĦ
ê³µ ìĭľ
ĠíĹ Ŀ
ìĺ¤ íĶĦ
Ġê¸° ë¦Ħ
Ġê¹Ģ ë¶Ģ
Ġi ct
Ġë¶Ī ëłĢ
Ġê² ī
Ġêµ ¿
n p
Ġíı¬ ìĬ¤
ĠìĨĮ ìĿĮ
Ġìłķ íķ´
Ġëıħë¦½ ìļ´ëıĻ
Ġê³µ ì¡´
ĠëłĪìĿ´ ìłĢ
Ġìĭł íĺ¼
Ġê³¼ ê°Ĳ
Ġê°Ĳ ê°ģ
ëª© ìłģ
ĠëĮĢ íĶ¼
Ġë²Įì į¨
ë³´ ìĪĺ
Ġë¸Ķ ëĿ¼
ĠìĤ¼ìĦ± ì¦Ŀê¶Į
Ġë§¤ ë¬¼
ĠìĤ¼ìĦ± ë¬¼ìĤ°
Ġê°Ģ ë²¼
Ġí Ĥ¨
ìĻķ ìĿĺ
ë©ĺ íĬ¸
Ġíĺ¹ ìĭľ
a in
Ġv r
Ġìłľ ìĿ´
ĠíĤ¤ ìĽĮ
ĠìĹ´ ëł¤
ìĿ¸íĦ° ëĦ·
Ġëĭ ¬ì½¤
íķ´ ì¤Ģëĭ¤
Ġê¹Ģ ëªħ
Ġëĵ¤ìĸ´ ê°Ī
Ġìł ĸ
ĠëĦĺ ì¹ĺ
Ġìĺ¤ ìĤ¬ì¹´
Ġìµľ ìĪľ
d j
íĥĢ ë¯¼
ëª¨ ìĶ¨
Ġìī Ĳ
Ġíĺĳ ë°ķ
Ġê²½ íĺ¸
ĠëĤĺíĥĢ ëĤľ
ĠìĤ¬ ìļ´ëĵľ
Ġì§Ģ íĸ¥
Ġãİ Ŀ
g p
Ġì§Ģ ìĿ¸
ĠìĿ¼ë³¸ ìĸ´
ģ Ĺ
Ġê³ł ë°±
Ġìłģ ëĭ¹
ĠëĤł ëł¤
Ġìķ¡ ìħĺ
ëıĻ íĸ¥
Ġíķľ ë°©
ì§ķ ê¸Ī
Ġ F
ë²ł ë¥´
ĠìĹĲ ì½Ķ
Ġë°ľ ì£¼
Ġì·¨ìŀ¬ ì§Ħ
ĠìĿ¼ ì°į
Ġëĭ¤íĸī íŀĪ
ĠëĤ¨ ê²¨
ĠíĥĢ ì¹´
ĠìĦ¸ ìłľ
Ġìĸĳ ìĥģ
ħ ëĭĪëĭ¤
Ġìĥģ ê¶Į
Ġê° ĵ
ĠìĨĮ ë¬¸
ĠíķŃ ë§Į
Ġê°Ħ ìĤ¬
e c
ëĤ¨ ê¸°
Ġë¹ł ì¡Į
Ġê°Ģ ë©´
Ġì Ŀį
Ġ M
ìłľ ìĿ¼
ĠíĻĪ íĶĮëŁ¬ìĬ¤
ĠìŀĲ ìĿ´
ĠíĶĦëłĪ ìŀĦ
Ġê¸°ëĭ¤ ëł¤
Ġ [
Ĵ Ģ
Ġê·ľ íĥĦ
Ġ \
ĠìķĦíĭ° ìĬ¤íĬ¸
ľ ¤
íĺ Ħìĭ¤
Ġíģ´ëĿ¼ ìļ°ëĵľ
Ġw or
Ġê³¼ë ª©
ĠíħĮìĿ´ ë¸Ķ
ĠëŃ ĺ
ê³łë¦¬ ì¦ĺ
ĠëıĦ ì¶ľ
ĠìĽ ¬
Ġl et
ĠíĥĢ ìĿ´ìĸ´
Ġ16 0
ìĥģ ìĬ¹
Ġë³´ ìľ¡
ĠìĪ¨ ì§Ħ
ĠìĬ¤ íĬ¸ë¦¬
Ġíķµ ìĭ¤íĹĺ
Ġë©Ķ ë¦¬
ĠíĶ¼ ê³ł
Ġê·¼ ìłĪ
Ġìĥī ìĥģ
Įì ¸ł
Ġìłģ ìĿĺ
Ġíı °
Ġìŀħ ê±´
ĠëĪĦ ë¦´
Ġìĭľíĸī ëł¹
ĠìĿ¸ ì¹ĺ
Ġì°¨ íĬ¸
ëĭ «
ĠëĶĶ ìł¤
} }
ĠíĬ¹ íĺľ
ĠìĤ¬ ë¡ľ
ĠìĤ¬ ëª¨
Ġìĭł ìŀ¬
Ġê±´ êµŃ
Ġë°ľ ìĿĮ
Ġëį ¸
ìľł ëŁ½
Ġíİ ´
Ġìľł ê¶ĮìŀĲ
Ġj ust
Ġìłģ ìĿĳ
ĠíĥĦ ëıĦ
ĠìŀĲ ë°ľ
Ġìĸ´ìļ¸ ë¦¬
Ġíķľëĭ¤ ë©´
Ġë¶Ī ì°¸
Ġìĺ¤ ë¡ľ
Ġë§ī ëĮĢ
ìĹ¬ ê¸Ī
Ġë¦¬ ëª¨
ë³´ ìĬ¤
ë© ľ
Ġì½Ķ ìĺ¤ë¡±
ĠìķĮ ê³łë¦¬ì¦ĺ
Ġê¹ ĥ
Ġëıħ ìĦľ
Ġëħ¸ ë¥´
ĠêµŃ ë¹Ī
ĠìĪĺ íĺľ
ĠâĢ §
Ġë³´ì¢Į ê´Ģ
ê° ĸ
ĠìķĦ ëģ¼
ĠìĪĺ ìľĦ
Ġë³´ìĹ¬ ì¤Ģ
Ġ.âĢ »
Ġ {
êµŃìłľ ê³µíķŃ
ĠìĪľ ìĿ´ìĿµ
ìľł íĨµ
oo d
ĠëĨį ë¯¼
Ġë°ĺ ìĦ±
Ġíļ¡ ëł¹
ĠìĦ± ìĭ¤
ìĬ¤íĥĢ ìĿ¼
ì£¼ìĿĺ ë³´
ìĤ¬ëł¹ ê´Ģ
Ġu n
ĠìĬ¤ íĤ¤
Ġê¶ģ ê·¹
Ġë¦¬ ìĸ¼
ĠíķŃ êµ¬
ìĭł ìļ©
ë¶ ĦìŁģ
ëĤĺ ìĿĺ
ĠëıĮìķĦ ìĺ¨
k c
o e
ëĦ ¬
Ġìłģ ìĸ´ëıĦ
Ġìŀ¬ ê³Ħ
ëį ±
Ġëĭ¤ ì§Ĳ
ĠìĹĦì²Ń ëĤĺ
Ġìľł ê°Ĳ
ì¡° ë¦¬
Ġë£ °
Ġë¶Ļ ìĹ¬
ĠìľĦ ëĮĢ
Ġìłģ ëĮĢ
a f
Ġìŀ¡ ì§Ģ
ëĭ¹ íķľ
ĠìĪ Ń
ĠìĬ¤ ì¹´
Ġìŀ¥ ìķħ
Ġíķ¸ ëĵľ
ĠìĬ¤íĶ¼ ëĵľ
Ġìĥģ ìĨį
ì½Ķ ìĬ¤
ĠëħĢ ìĦĿ
íĤ ´
ë¯¸ êµ°
Ġê³Ħ ìłķ
Ġë°ķ ì£¼
Ġìĸ´ ëĳĲ
Ġìĭ¤ ë§Ŀ
ĠíĨł íģ¬
Ġê´Ģ íĨµ
Ġìķ½ íĻĶ
Ġë³Ģ íĺ¸
ìĤ¬ ìĽĲ
Ġíķ´ ë²ķ
ì¹ «
ĠìķĦë¬´ ëŀĺëıĦ
Ġì´Ŀ ëł¥
ê°ľ íİ¸
Ġíķľ ìŀĲ
Ġìĸĳ íĺ¸
ãģ ¨
ëª¨ ë¹ĦìĬ¤
¶ ì
³ ³
Ġê°ĲìĤ¬ ìĽĲ
Ġsin ce
Ġëĸł ìĺ¬
Ġê°Ģ íķĺ
ê³ł ê°Ģ
Ġìĺ¤ ë¦Ħ
ĠëĤ´ ë¹Ħ
Ġê·ľ ëªħ
Ġê³ °
ĠëĮĢ ìĽĲ
ĠìľĦ ìĥĿ
ĠíĽ Ħì¿ł
Ġm ou
ëĺ Ĳ
Ġìĭľ ëĭ¬
ëħ Ķ
ì§Ģ ë¶Ģ
ĠìĥģëĮĢ ë°©
Ġë²Ħ íĬ¼
Ġê³µ íĻĶêµŃ
ĠìĽĮíģ¬ ìĪį
s l
ìĿ´ ìļ©
íĨµ ìłľ
ĠêµĲ ê³¼
Ġê³µëıĻ ì²´
ĠíĹ ĺ
Ġìĭľ ì§Ħ
Ġíĥľ ìĸ´ëĤ¬
ĠìłĢ ê²©
Ġíĥľ ê·¹
íģ¬ ë¡ľ
íļĮìłĦ ìľ¨
Ġê¸° êµ¬
Ġë²Ħ ëł¸
ìĺ¤ ìĹ¼
ãģ ĭ
ìłĦë¬¸ ê°Ģ
ĠëıĻ ìĸĳ
Ġs to
ĠëĳĲ ê°ģ
Ġë³´ ë³ĳ
Ġì Ķ©
ëĭ Ń
ë¬¸íĻĶ ìŀ¬
ìĭľ íĬ¸
ĠìĽĲ ë¦¬
ĠíĹ¤ ìĸ´
Ġë³´ì »¬
íĨł ìĬ¤
Ġì¥ ¬
Ġìļ° íĺ¸
ĠìłĦ ìķ¡
Ġê³ł ìĪĺ
ĠíĮĲë§¤ ê°Ģ
ĠìĤ¬ ìĻ¸
ìĭľ íĶ½
Ġìļ© ëŁī
Ġëĭ Į
Ġëĭ¤ ì±Ħ
ëĭ¤ ìĿĺ
Ġ19 70
ĠìķĦì¹´ ëį°ë¯¸
ĠíĻĶìŀ¥ ìĭ¤
ĠíĶĮ ëŁ¬ìĬ¤
Ġë°ĿíĺĢ ì¡Į
Ġê¸īê²© íŀĪ
Ġê°Ĳ ëıĻ
Ġíķ´ ê²½
ĠëĤ© ì¹ĺ
ê³Ħ ìĹ´
Ġëĭ¤ê°Ģ ìĺ¤
ĠëĶĶ ìŀĲìĿ´ëĦĪ
Ġê°Ģ ì¤ĳ
ĠêµŃ ë¹Ħ
ëĤĺ ê¸°
Ġê±´ ìłĦ
Ġì´Ŀ ìĪĺ
ĠìĦ±ëĤ¨ ìĭľ
ãĤ Ĵ
Ġíİ¼ì ³¤
ĠíĬ¸ ëłĪ
ê°ķ íĻĶ
ĠìĦľ ë¸Į
Ġìļ° ëĮĢ
ê±°ëĵł ìļĶ
ĠíĨ ±
Ġê³¼ íĥľ
ĠìĪĺ ìŀ¥
Ġìĺģ êµ¬
Ġëª¨ ìĿĢ
ĠìĻ¸ ìĭĿ
ĠìķĦ íĶĶ
Ġd j
Ġìĭľì§Ħ íķĳ
Ġìµľìļ° ìĦł
ĠëĤĺëī ĺ
ĠìłĦíĪ¬ ê¸°
Ġìłķ ìĦ±
ëıĻ ì¡°íķ©
Ġë²Ħ ê·¸
ì ¾Į
Ġë© į
Ġì¤ĳ ê³Ħ
ìĭľ ê¸°
Ġê±° ìłľ
ĠìķĪ ê°ľ
Ġëªħ ìĦ±
Ġìĥģ ìŀĲ
Ġ. âĸ
Ġê´Ģ ëĤ´
Ġì»¤ ë²Ħ
ĠìĪĻ ìĨĮ
Ġìĭ¬ ìĥģ
Ġê³ł ë¥´
ĠìĿ´ ìĿ¸
Ġ C
Ġì§Ħ ì§Ģ
ëŁ° ìĬ¤
Ġê·¸ ê±´
ĠíĶ¼ ë¡ľ
íĨł ìĿĺ
Ġë¶Ħ ìĹĲ
ĠëıĻ ê²°
Ġë¹Į ëł¤
Ġë¬´ íļ¨
ìķĦ ëĿ¼
Ġë¶Ħ ìĿ´
ĠëĤł ì§ľ
g in
ĠíĺĦëĮĢ ëª¨ë¹ĦìĬ¤
ĠëĤĺ ëħ¸
ê¸ī ìĭĿ
Ġê·¸ ëłĪìĿ´
Ġì±Ļ ê¸°
Ġë¹Ħ ìĦľê´Ģ
Ġ T
Ġìķ½ ìłĲ
ë¶Ģ ë¥´íģ¬
Ġìłľ ì²ľ
ìłĦ ë§Ŀ
Ġì¤Ħ ìĿ¼
ì²Ń ìłķê¸°
Ġì´Ī ëŀĺ
Ġa n
ë²Ħ ëł¤
Ġì·¨ìĹħ ìŀĲ
¹ Ī
Ġë°ľ ëª©
Ġëĭ¤ ë£¬
Ġcc tv
Ġê°Ģ ëł¤
íĹ¬ ìĬ¤
» ´
ĠêµĲ ìŀ¥
ĠìĺĽ ëĤł
Ġìłĳ ìĸ´
Ġì¡° íĺĦ
âĺ ħ
¹ ¸
ĠìĪĺ ê°ķ
Ġëĭ¹ ëĩ¨
Ġne ws
Ġê³¼íĥľ ë£Į
ĠìĦłì§Ħ êµŃ
Ġìĸ¸ ìłł
Ġê°Ŀ ê´Ģ
ĠìĹ° ìĿ¸
ëĸ ¼
la y
ìĺ¤ ì¹´
Ġëģ Ħ
íĮĲ ìĿĺ
Ġë°ĺ ìłĦ
Ġë¡ľ ì¼ĵ
ĠìĺĪ ê¸Ī
ĠãĢ Ĥ
ë©Ķ ìĿ´
Ġíķ´ ë°©
ĠëŁ¬ ë¸Į
Ġì´Ŀ íļĮ
ĠìĹĶ íĦ°
Ġë°° ìĭł
êµ Ĳìĭ¤
Ġì¡° íļĮ
íļ¨ ìľ¨
ìľł ìĺĪ
ëĿ¼ ëĿ¼
ìº Ķ
Ġìĺ® ê¸°
Ġë¶Ģ ì°©
Ġìľł ìĤ°
ì§Ģ ìĥģ
ê²½ìĺģ ìŀĲ
Ġìł ł
Ġì£¼ ìĸ´
ìĨĮ íĨµ
Ġì¶ľ ëł¥
Ġë°©ë¬¸ ê°Ŀ
Ġíı¬ ìļ©
Ġëĭ´ ê²¨
v o
Ġìĺģ ìĦ¸
ĠêµŃ ì±Ħ
ë¶Ģ ë¶Ģ
Ġë©Ķ ëĶĶ
Ġë°ķ ìļ©
Ġì¤ĳ ë³µ
íĺ¸ ìĿĺ
ĠìĤ¬ëĿ¼ ì¡Į
ģ ¯
ĠìĬ¤íģ¬ ë¦°
Ġì¼Ģ ìĿ´ìĬ¤
Ġìº Ħ
Ġê·ľ ì¹Ļ
ëĶĶ ìĬ¤íĶĮëłĪìĿ´
ê¿ Ī
ar d
Ġë² ¤ì¸ł
Ļ í
Ġìĥģ ìĭ¤
ìĸ´ ë¦°
Ġìŀ¬ ìĽĲ
Ġìŀħ ìĪĺ
ĠëĤ´ëł¤ ê°Ģ
Ġì²Ń ì¶ĺ
ĠíĬ¹ ê°ķ
Ġíı´ ëŀĢëĵľ
ĠëĿ¼ ë©´
ë¦¬ ëĿ¼
ë¸Įë¦¬ ëĵľ
êµ¬ ìĦ±
Ġìµľ ëĭ¤
ìĨ Ł
ê·ľ ëªħ
ĠëĶľ ëŁ¬
Ġëª¨ ë²Ķ
ì§Ģ ìļĶ
ãģ §
Ġë°ĽìķĦëĵ¤ ìĹ¬
Ġë¦¬ëįĶ ìĭŃ
ĠíĸĪ ìĹĪ
ëĭ· ì»´
Ġëĭ´ëĭ¹ ìŀĲ
ìĹĲ ìĸ´
ìĪĺìĤ° ë¶Ģ
ĠëĵľëŁ¬ ëĥĪ
ĠëĿ ł
Ġì¶ľ ìŀĲ
ĠíĻķ ìĭł
ëľ¨ ë¦¬
Ġìĭł ë°ľ
ë°° ìļ°
Ġë²ł ë¥´
Ġë§¤ ìĽĶ
Ġëĵ¤ìĸ´ ìĦł
ĠâĨ Ĳ
Ġíĭ° ìĸ´
ĠìłĦ ìŀ¬
Ġì¹ĺ ë¥´
ĠìĿ¼ ì°¨
Ĩ Ĵ
ëħ Ħì¸µ
Ġë¬´ ìĦľ
ĠìłĢìĨĮëĵĿ ì¸µ
Ġìĸ´ ì°¨
Ġë°ķ ì°¨
Ġê³ł ìĥĿ
ĠãĢ İ
ĠìĹĩ ê°Ī
íĬ¹ ë³´
ĠëıĻ ëĮĢë¬¸
ë²ħ ìĬ¤
Ġì±Ħ ìļ°
Ġìĺ ³
ĠìĽĲ íĻĶ
Ġp er
ĠìĿ¼ ìĸ´ëĤ¬
ì²ĺ ìĿĺ
Ġìĸ´ì°¨ íĶ¼
ĠìĹ¬ ìłĦ
ìĭ¸ ìĽĢ
Ġa p
ĠìĨ¡ìĺģ ë¬´
Ġê°Ģ íĨ¨ë¦Ń
Ġìľł íķĻ
ĠìĦłì°© ìĪľ
ĠíĻĶ ê°Ģ
Ġì¶Ķ ìĤ°
Ġíı¬ ì°©
Ġë ±ħ
Ġê²¬ íķ´
Ġê±´ì¶ķ ë¬¼
ĠìĿ¼ ì¹ĺ
h u
Ġìĥģ ìĺģ
ĠìĦ¸ ë¡ľ
Ī Ħ
ĠìĦ± íıŃíĸī
Ġìŀħ êµ¬
Ġìĺ¬ë°Ķ ë¥¸
ĠíĻĺ ìĥģ
Ġìĺ¨ ê°ĸ
ĠíĥĢ ëĭ¹
ĠëĤ¨ ê²¼
ë³Ģ ëıĻ
Ġìķ¼ ìĥĿ
Ġê¸° ê°ģ
Ġc on
Ġg et
Ġì»¬ ëłīìħĺ
ĠìķĦë§Ī ì¡´
ĠíĦ° ì§Ģ
~ ~
Ġ199 2
Ġë¯¼ ìĦł
ĠìĦľ ìĭĿ
ĠìĦł íĸī
Ġì½Ķ ìĿ¸
íĸī ëıĻ
Ġê¸°ìģ ¨
Ġy es
ĠãĢ ı
Ġíķ¨ ëĮĢ
íĤ¨ ëĭ¤
Ġíķ´ìĸĳ ìĪĺìĤ°ë¶Ģ
Ġìłķìļ° íĥĿ
ë°° ìĥģ
Ġê³µ ì§Ģ
Ġì¹ĺ ìľł
Ġe n
Ġë³´ ìĦĿ
Ġd ay
Ġ25 00
Ġì¼ ľ
ìĺģ ìĿĺ
ìĬ¤ íĮħ
Ġa s
ëĲľëĭ¤ ë©´
Ġ198 8
ĠìĤ¬ìļ© ìŀĲ
ĠìŀĦì¢ħ ìĦĿ
Ġìĥģ ìłķ
ĠìĶ ½
ĠìķĪ ê²½
Ġë¶Ģ íķ©
Ġíĭ°ì ¼ĵ
Ġíĸī ìĦ±
ë§ ĺ
êµ¬ ë¦¬
ĠìĹĦ ì¤ĳ
ì¹´ ìĻĢ
ëłĪ ëĵľ
ĠëĦĺìĸ´ ìĦ°
ĠëĽ°ìĸ´ ëĦĺ
ĠìĿ´ ë¥¸ëĭ¤
¹ ¨
Ġìľł ê°Ģì¡±
Ġê´Ģê´ĳ ì§Ģ
íĪ¬ìŀĲ ìŀĲ
ĠìĦł íı¬
ç Ķ
ìĹ´ ì°¨
Ġë¶Ģ ë¦¬
Ġë´ī ìĿ¸
Ġìĭ¤ ìłķ
Ġ10 1
ë¦¬ ìĸ¼
ĠìłĦ ë°©
Ġìķ½ ë¬¼
b n
Ġíıī ëħĦ
ĠìĤ¬ë¡ľ ìŀ¡
íĮ ½
ĭ ¶
Ġëª¨ ëŀĺ
ĠìĬ¬ íĶĶ
ëĮĢ ìĽĲ
ëĤ´ ìļ©
u m
ë¯¸ ìĦ¸
Ġê°ľíĹĮ ìķĪ
ìĭ ¶
Ġêµ¬ ì²Ńìŀ¥
Ġëªħ ëª©
Ġê´ĳ ìĤ°
ĠìĹ° ë´ī
ĠêµĲ ìĽĲ
Ġ14 00
Ġë³´ íĸī
Ġìĭ¤ íļ¨
Ġìļ° ìļ¸
ĠìĽ °
ìĪľ ìľĦ
Ġê°ľ êµĲ
ĠíĮĲ êµĲ
Ġê·¼ë ĮĢ
ĠìĿ´ ë³Ħ
Ġëĸł ëĤ¬
Ġíķľ ê²½
Ġíĥľ ìĸ´ëĤĺ
Ġìłģ ëıĦ
ĠìĻķ êµŃ
ĠìķĪ ëıĻ
Ġë¶Ģ ê·¼
ĠíıŃ ë¡ľ
ìĪł ìĿĺ
Ġê²½ì°° ì²Ń
ìŀĦ ìĬ¤
ìĻ¸ ìĦł
Ġìłķ ìĪĺ
Ġìŀ¬ ê³ł
ëĤĺ ëĪĶ
ĠìĦ¸ ë¸Ĳ
Ġë³¸ ì§Ī
Ġ199 3
ĠëıĻ ìĦ±
ìĪĺ ëĭ¨
ìĦ¸ ìĿĺ
Ġê°Ŀ ìĭ¤
ĠìķĦ íĶĪ
Ġìĭ¤ ìłĲ
ĠìŀĲ ê°Ģ
ĠìĦľ ìĸĳ
ĠìĿ¼ìłľ íŀĪ
Ĭ µ
Ġíķ´ ìĦ¤
ì¶ķ êµ¬
Ġì¦Ŀ ìĹ¬
Ġ |
ĠìŀĲ ë§¤
ë°° ì¹ĺ
Ġì¹´ìļ´ íĦ°
Ġê¹Ģë³ĳ ì¤Ģ
ì±Ħ ëĦĲ
Ġìĺ¤ëĬĺ ëĤł
Ġìĭł ìĥĿ
ëıĻ ë§¹
ëłĪ ëĤĺ
. #
ĠíĨł ìļĶìĿ¼
Ġíĵ ¨
ĠìĹĲìĸ´ ì»¨
Ľ Ķ
Ġê¹ľ ì§Ŀ
Ġê°Ģ ë°©
e v
Ġê°ģ ìŀĲ
ë¦¬ ì¼ĢìĿ´ìħĺ
Ġê´´ ë¬¼
ĠìķĦ íĮĮ
Ġíķ© ìŀĳ
Ġê±´ìĦ¤ ìĤ¬
Ġìłķ ë¡ł
Ġì²Ń íĥģ
Ġì£¼ ë°©
ì°¨ ë³Ħ
Ġ. #
ĠìŀĲ êµŃ
Ġìĭł ìĿĺ
Į į
ëĶ ª
ĠìĿ´ ëĵ¬
ĠìĺĪ ë³´
ëŀį ëĭĪëĭ¤
Ġìķŀ ìĦ¸
ĠìĿ¸ ìłľ
ĠëĤĺ ìķĦ
å ®
ĠìķĮìķĦ ë³´
Ġìłķ ìľł
Ġn a
ìºĲ íĶ¼
Ġë¥´ëħ¸ ìĤ¼ìĦ±
Ġë¹Ħ ìĭ¼
Ġd i
ĠëĮĢ ëª©
d er
ìľł ìĿĺ
Ġì£¼ ìŀĲ
Ġm si
ĠìĨį ì´Ī
Ġëŀľ ëĵľ
ì¶ľ ìĤ°
Ġê´ĳ ë³µ
ëŃ Ħ
íļĮ ë³µ
ĠìĪĺ íĻķ
ĠìĽĲ ì²ľ
Ġgir l
ĠìĭĿ ëŁī
Ġë³¸ ìłĲ
p hoto
Ġê´ĳ ìĸĳ
Ġì±ħ ìłķ
g d
ê·¸ ëŀĺ
ĠíĶĮ ëŀľ
ĠìĥĿ ê¸¸
ĠìķĦ ëª¨
íĦ° ìĬ¤
ĠìķĦë¦Ħ ëĭ¤
Ġë¹¨ ëĿ¼
ê³ł ê°Ŀ
ĠìĪĺ ìĦ±
Ġì¶Ķ íĽĦ
ĠíĮĲ íĥĢ
Ġë¹Ħ íĥĢë¯¼
ĠìĿ´ ëĤĺ
ì§Ģ ìĺ¤
´ì ½Ķ
ìĹŃ ëŁī
t u
Ġì½Ķ íĬ¸
ĠìĿ´ ë¡Ģ
ĠíĻĶ ìĹ¼
Ġëĵ± ì§Ģ
ëĮĢ ì£¼ì£¼
ĠëĮĢì¤ĳ êµĲíĨµ
ĠìĿ´ ê±°
ëĵ¤ ìĿĺ
Ġê²Į ìŀ¬
ĠíĤ¤ ìĽĮëĵľ
ĠëĤ´ ë¦´
ê¹Į ìļĶ
ĠìĪĺ ìĤ°
ãĤ ī
ĠìĤ¬ ì¿ł
Ġì¦Ĳ ê±°ìļ´
Ġìĸĳ ëıĦ
ë°© ìľĦ
photo newsis
íį¼ ëĭĪ
° ´
ë¶Ģ ìĤ°
ĠìĬ¹ê°ķ ìŀ¥
Ġëħ¸ ëŀĢ
ëĭĺ ìĿĺ
ĠìķĦ ëŀį
ë¬¼ë Łī
ģ ĭ
ĠìĽĲ ê°Ģ
ĠâĹ ĭ
Ġë²Ħ íĭ°
ĠìĿ´ ëħĲ
ìĹ¬ ê±´
ìķĦ ëıĻ
ĠìķĦ ëĿ¼
ĠíĨµ íĸī
Ġíĸī ìłģ
ĠíĶĮ ëĿ¼ìĬ¤íĭ±
ëĵľ ë¦°
ë£Į ìĿĺ
Ġï¼ ģ
Ġë¶Ī ë¦°ëĭ¤
Ġê³ Ħì¸µ
Ġth is
ĥ ·
ì¹´ íİĺ
ĠëĤļ ìĭľ
Ġê°ľë§ī ìĭĿ
ìĽĲ ìĿĢ
a w
ĠìĨĶ ì§ģ
Ġê·¸ë¦¼ ìŀĲ
Ġê¹Ģ ê´ĳ
ãģ Ĩ
ĠìĿ´ëĵ¬ íķ´
Ġê³µ ë¦½
ĠìłĦ ì£¼ìĭľ
Ġêµ¬ ë¦¬
¦ Ħ
Ġëį° ë¦¬
Ġìµľìļ° ìĪĺ
Ġêµ Ĳìĭ¤
ĠêµĲ ìĹŃ
Įì ½Ķ
Ġìĥģê´Ģ ìĹĨìĿ´
ë°° ëĭ¹
ĠíĻķ ê³ł
Ġå ¤
ìļ© ì§Ģ
Ġì¢ħ ìĤ¬ìŀĲ
Ġìĺģ íĨł
v p
íĮĲ ìĤ¬
ĭ ¥
ĠíĬ¸ ëŁŃ
Ġìĭ¤ ë¦¬
ìŀ ĩ
ĠëłĪ ìĿ¸
ĥ µ
Ġìłľ ìķķ
ĠìĨĮ ë§¤
Ġë¸Ķ ë¡ľê·¸
Ġëĭ¤ ìĿ´ìĸ´
§ ĺ
ĠëŀŃ íģ¬
ãĤ ĵ
ĠíŀĲ ë§ģ
ë²ł ë¦¬
Ġì§ ļ
Ġë± Ģ
Įì ´Ŀ
ê°Ģ ëĵ¤ìĿĺ
Ġì·¨ íĸ¥
ëĭ¤ ëŀĢ
Ġëħ¹ ìĿĮ
ĠíĻį ëĤ¨ê¸°
Ġ199 1
Ġê°ģ ë³Ħ
ëĦ Īë
Ġëªħ ë°±
ĠìĥĿìĤ° ëŁī
ĠìłĢ ê°Ĳ
ĠìĿ¼ ìļĶìĿ¼
ĠíķĺìĿ´ ë¸Įë¦¬ëĵľ
Ġë¶Ī ê³µìłķ
ĠìĤ° ì§Ģ
ĠìĹ° íıīê·ł
Ġ198 7
ìĽĲ ìĿ´
Ġì¤ĳ ì§Ģ
ĠìĨĮ ìĬ¤
ĠëıĮìķĦ ìĻĢ
Ġë Ŀ½
ĠìĿ´ë¤Ħì§Ģ ì§Ģ
Ġì¤ĳ ê°ľ
ķ ı
Ġíķľ ìĸĳ
Ġë¶Ģ ëĶª
Ġê²½ íĴĪ
ìĦľ ì¹ĺ
ĠëĤ¨ ê¸´
Ġê·¸ ëĮ
Ġì§ Ŀ
ĠëıĦ ëįķ
ĠìĤ¬ëł¹ ê´Ģ
ĠëĦ ī
ìķĪ êµ°
ĠíĻĺ ìĬ¹
ĠìĤ°ìĹħ ëĭ¨ì§Ģ
Ġë³µ ë¬´
ëŀĺ ìĬ¤
ì½ §
Ġíį ¼ë
Ġì¢ħ ìĿĺ
Ġì²Ń ëł´
Ġë¶Ħ íı¬
Ġë¡ľëĵľ ë§µ
ìľµ íķ©
ĠìĹ ¿
Ġì½Ķ ëłĪ
ë¬´ì ĭ¤
ĠìĿ´ ì§Ģ
ĠìĤ¬ ìŀĲ
Ġë¶Ī ëªħ
Ġìĸĳ ìĭĿ
Ġìļ´ ìĪĺ
Ġl ng
ĠíĽĦ ê¸°
Ġwh at
ĠìĿ´ ë¦¬
ëĿ¼ ìĹĺ
ĠíĶ¼ê³ł ìĿ¸
ĠìĥģìŀĦ ìľĦ
Ġê¹Ģ ìŀ¥
Ġë°ķ ì§ĢìĽĲ
Ġìĭł ìĿ¸
ĠìĦľ ê·Ģ
Ġê¸° ìłģ
Ġíĳľ ë©´
ĠìĻ¸ ë©´
Ġì§Ģ íĺķ
Ġ120 0
ĠìĦ± ë³Ħ
Ġì±Ļ ê²¨
ì²Ń ìĤ°
Ġì¢ħ ê°Ģ
Ġë©ĭ ì§Ħ
ĠëĴ¤ ëĬ¦
íĶĮ ëĿ¼
ìĹĶ íĦ°
ìĤ¬ íĤ¤
ĺ µ
ë¹Ħ íĸī
Ġìļ° ìłķ
Ġë¨¸ ë¬¼ë
ĠíĤ¤ ì¦Ī
ìĺĪ ìļĶ
ìĭľ ëĭ¹
Ġìĥī ê¹Ķ
Ġëª¨ ëĵĪ
Ġêµ° ìĿĺ
Ġm p
Ġíķĺ ìĪĺ
Ġê°Ĳ ë©´
Ġíĺ¸ ìĪĺ
¡ ¤
ìĽ °
ë¦¬ ìķĪ
Ġì ĳ
Ġìłľ ìŀĲ
Ġíı¬ ê´Ħ
Ġê±¸ ëł¸
ĠëıĦ ë³´
Ġë°Ķ ìģ
ĠíĥĿ ë°°
ĠëıĦ ì§ĢìĤ¬
ĠìĬµ ê²©
ë³¸ ëĭ¤
Ġê³ł ì¡°
Ġëªħ ë¶Ħ
Ġì§Ģ ì¹¨
ar k
ĠìľĦ ìĦ±
ĠìłĲ ìĭ¬
ĠíĪ¬ìŀĲ ê°Ģ
ì½ĺ ìĦľíĬ¸
Ġëª «
Ġìĥģ íļĮ
ë²ł ìĬ¤íĬ¸
ĠìĦ¼ íĬ¸
ìĪĺ ëŁī
Ġê´Ģ ìłĪ
ìĬ Ĳ
ĠìķĦ ìī½
Ġíĸ¥ ê¸°
Ġíķľ ìª½
Ġë¶Ģ ìŀĲ
g u
Ġë¦¬ì ½ľ
Ġê¸°ìļ¸ ìĿ´
íŀ ĺ
Ġë¨¹ ìĿ´
ìĿ¸ëį° ìļĶ
Ġì§Ģ ë¶Ī
Ġí Ĥ
ĠíĿ¬ìĥĿ ìŀĲ
íĮ ľ
ĠíĽĦ ë°°
ãģ Į
ĠìĹ° ìĿ´
ĠìĨ Ĳì
ëª¬ ëĵľ
ë¥ ¨
Ġê³µ ëĭ¨
Ġìļ° ìĦ¸
ì½ĺ íħĲì¸ł
Ġìŀ¬ íķĻ
ë©Ķ ìĿ¼
ìķ½ ìĿĺ
ĠíķĦ ìĤ´
Ġë¹Į ëĶ©
Ĥ Ń
Ġë³Ģ íĺķ
ë§¤ ê¹Ģ
Ġì½Ķ ì¹ĺ
Ġëĭ¹ ëĭ¹
ĠíķŃìĨĮ ìĭ¬
Ĺ ĳ
Ġëĵ¤ìĸ´ ê°Ħëĭ¤
ĠìķĮ ëłī
Ġêµ¬ ìĽĲ
Ġìĸĳ ê·¹
Ġê³ł ìŀ¥
ĠíķĻ ê¸°
ŀ Ń
ê¸° ìĥģ
Ġì²Ń ì£¼ìĭľ
Ġë°Ķ ëĭ·
Ġì£ ł
Ġë°ľìłĦ ìĨĮ
ê´ĳ ê³ł
Ġ3 60
Ġê´Ģ íķ´
ê³Ħ ì¢Į
Ġëį° ìĬ¤
âĢ Ļ
Ġê¸Ī íĴĪ
ĠëĤ´ ê¸°
ìļ´ ëĭ¤
Ġê³µ ìĺģ
Ġê°Ģ ëŃĦ
ëĶĶ ìĸ¸
Ġë²Į ìĿ¸
¼ê¼ ¼
ĠìŀĲ ì§Ħ
Ġë§Ī íı¬êµ¬
ĠìĤ°ìĹħ ìĿĺ
ĠìłĦ ìĭł
Ġë³´ ìłĦ
ë¶Ģ ìĹĲ
£ ©
Ġê° ĩ
m r
Ġê¸ī ìĭĿ
į ķ
ĠìŀĲë¦¬ ë§¤ê¹Ģ
Ġìłľ ìŀĦìĬ¤
Ġêµ¬ ë¡ľ
Ġëĵ± ìŀ¬
Ġê³ł ìĿĺ
Ġë¹Ħ ìĭ¸
Ġì¹ĺ ìĨŁ
Ħ ã
y s
ĠëĤ´ ê°ģ
ë¥ĺ ìŀ¥
ĠìĿ´ ëł¥
y t
ĠìĹ° ìĥģ
Ġë¯¿ ìĿĮ
Ġê¿Ī ê¾¸
ëįĺ ê°Ģ
v a
ì Ń
Ġê´´ ë¡Ń
Ġê±¸ ìĿĮ
íĤ¤ ìĬ¤íĥĦ
´ Ħ
ĠìłĦ ê²©
Ġë¬¸ ìŀ¥
ìºł íĶĦ
Ġë¶Ģ ê°Ģ
ĠìĦľê·Ģ íı¬
ĠìĿ´ìłķ ë¯¸
Ġì¶ľ êµ¬
Ġë§Īì ¼ĵ
¼ì Łģ
ĭ Ģ
ë¶Ģ ëıĻìĤ°
ĠíıŃ ìĬ¤
ħĶ ëĦĲ
Ġì£¼ ìĹ°
ĸ ¥
Ġìĭľ ìķ¼
ìĿĺ ìķ½íĴĪ
Ġìĭł ìĦ±
Ġì¤ĳêµŃ ìĿ¸
Ġë°© ìĹŃ
ĭ Ľ
Ġìĥģ ì£¼
Ġíİ¸ ìĿ´
ë§¥ ì£¼
Ġì¶Ķ ìľĦ
Ġì§ĢìĹŃ êµ¬
ìĹĲ ìĿ´
Ġìł ¤
ĠêµŃ ê²½
ëıĦ ìĻĢ
ëĮĢ ìŀ¥
å ī
Ġë§Į ìĦ±
Ġíĳ¸ ëĵľ
ëĤĺ ë¯¸
an ce
Ġë©ĶìĿ´ ìłĢ
or e
Ġì¶© ì£¼
Ġì±Ħ ë¡ľ
ìĹ° ìĪĺ
Ġì´Ī ë¯¸ìĦ¸
ĠëıĮìķĦ ìĻĶ
Ġê³ł êµ¬
Ġìĸ´ ìļ°
ĠíĿĺ ë¦¬
ëĤĺ ìĺ¤
Ġì¿ł íı°
ĠëĥĦ ìĥĪ
ĭ ¸
Ġëħ¸ íļĮ
Ġíľ´ëĮĢ íı°
ĠíĻķ ë¦½
ĠìĬ¤ì½Ķ ìĸ´
ĠìľĦ ì´ī
ë¦¬ ì¡°íĬ¸
ł ī
ì°¨ ìŀ¥
ĠìķĦìĿ´ íı°
ê´Ģ ìĿĢ
ŀ į
ì§Ħ êµ¬
Ġìĭł íĿ¥
ĠêµĲìĦŃ ëĭ¨ì²´
Ġë§ī íĮĲ
Ġì±Ħ ìĨĮ
ì¤ĳ ìĿĺ
ì¥ ¬
Ġì§ģ ê¶Į
Ġê¼¬ ë¦¬
Ġìľł ìĺĪ
Ġìĸ´ì ¨
£ ¬
Ġì¹´ ë¥´
ĠíĮĮ ëıĦ
ìĬ¤íĨł ìĸ´
g n
Ġë¶Ħ ëŁī
ĠìłĦ ìĿ¸
Ġê³¨ ìŀĲ
Ġì¡°ìĨį íŀĪ
Ġì°¬ ìĸĳ
Ġê³µê°Ĳ ëĮĢ
ê³µ íĻĶêµŃ
ë¡ľ ìĽĮ
ëħ¸ ìĿ¸
k d
ë¡ľ ë´ĩ
ĠìĿĳ ìĭľ
t n
Ġê³µ íĻĶ
Ġì£¼ ìĿ¼
ëŁ¬ ëĵľ
íĮĮ ìĿĺ
ëĳ¥ ìĿ´
Ġê³ł ì§Ģ
Ġìĭ¤ ìļ©
Ġë§Į ëĭ¤
íĨłë¡ł íļĮ
Ġë©ĺ íĨł
Ġì§Ģì§Ģ ìŀĲ
íı¬ íĦ°
Ġì ī´
Ġê¼ ¼ê¼¼
Ġìłķ ìĦł
Ġíħ ľ
ĠêµĲ ì°¨
Ġê°Ī ëĿ¼
Ġê²Ģ ê±°
ĠìŀĦ ì°¨
íķĺ ë¡ľ
ĠìĪĺìļĶ ìŀĲ
Ġí Ħ±
Ġìłķë§Ĳ ë¡ľ
Ġê³µ ë¡ľ
Ġëĭ¹ íĻ©
ìĺĪ ìłķ
ì¦ Ĳ
ĠíĿĶëĵ¤ ë¦¬
ĠíļĮ ì°¨
ĠìĨĮ ê°Ĳ
ìĥģ íĻĺ
Ġg t
ìĤ¬ ë²ķ
Ġê¹Ģê´Ģ ìĺģ
ê²Ģ ì°°
Ġê¹Į ëĭ¤
Ġì§Ģìłģ ëıĦ
ĠìĿ¼ ëªħ
ĠìĿ´ìŀ¬ ìļ©
x x
ĠìĤ¬ ê°ģ
Ġëĭ¬ ìķĦ
ĠìĿ´ìĬ¤ ëĿ¼ìĹĺ
Ġìľł ìłĦ
Ġíľĺ ë°ľ
ĠëłĪ ìĬ¤íĨł
ĠëłĪìĬ¤íĨł ëŀĳ
Ġ11 4
Ġs c
Ġë§ŀ ì¶ĺ
ĠìĽĲ ê±°ë¦¬
Ġê·¸ëŀĺ íĶ½
Ġë©´ íĹĪ
ë³´ ëĭ¨
Ġíģ¬ ë¦¼
Ġìķ½ íķĺ
íĸ¥ ìĿĺ
ìĭľ ë¦¬ì¦Ī
Ġê°ģ êµŃ
ëĤ¨ ë¶Ģ
ê³ ±
ĠëĶ± íŀĪ
ëĦ¤ íĬ¸ìĽĮíģ¬
Ġê³ł ë¦¬
ĠëĳĺëŁ¬ ìĭ¸
Ġë³´ ëĤ¼
ĠìĿ´ìĥģ íķľ
ë¯¼ ì¡±
ĠìľĦ ë²ķ
ĠìĹ° ìĿ¼
Ġì£¼ë ¨¹
Ġì²« ì§¸
Ġëª¨ìĸĳ ìĥĪ
Ġë²Įìĸ´ ì¡Į
Ġìĸ¸ìłł ê°Ģ
Ġìĺ¤ íİĺëĿ¼
Ġë¯¸ ì³¤
ĠëıĻ ë°©
ëĶĶ ìĬ¤
Ġíķľ íĮĮ
Ġë°± ìļ´
Ġíĺ¸ ë¡ľ
Ġíķĺ ëıĦ
d l
Ġíĺĳ ìłķ
Ġë¯¸ íĿ¡
ĠâĢ »
ĠìķĦ ìĿ¼ëŀľëĵľ
ê°Ģ ë£¨
ĠìĿ´ ë¯¼
Ġìľł ë¬¼
ìĪĺìĪĺ ë£Į
ĠìłĦ ì§Ħ
ĠìĹ¬ë¦Ħ ì²ł
ìĦ± ê¸°
ĠìĿĮìĭĿ ìłĲ
Ġì ª
£ ¡
ĠëĪ Į
Ġë°ĺ ëŀĢ
ĠìķĦìĭľ ìķĪ
Ġìłķ íĨµ
Ġìŀī ê¸Ģ
Ġë§ĪìĿ´ ëĦĪìĬ¤
íļĮ ê°Ģ
Ġëĭ ĺ
į ìĬ¤
Ġê³Ħ ê¸ī
Ġë°© íĮ¨
ĠìĶ »
ëĳ ¬
ĠëĮĢ ê³µ
ë® ¬
Ġíķľ ëį°
Ġëĭ¤ ë¥¼
Ġíķł ì§Ģ
ìŀĲ ê²©
Ġì¼Ģ ìĸ´
Ġg ot
ĠíĬ¹ ê¸°
Ġíķ´ ìŀĦ
Ġìµľì¢ħ êµ¬
Ġì¶ľ íķĺ
Ġë¬´ ëĤľ
ìļ° ì£¼
ì°¸ ëª¨
Ġì»¤ ì§Ī
Ġê²Įìĭľ íĮĲ
ìĽĲ íļĮ
Ġíķł ìķĦë²Ħì§Ģ
íı´ ë¦¬ìĺ¤
m newsis
Ġë¶Ħ ìĹ´
ĠìĤ¬ìĿ´ ì¦Ī
Ġì²ľ ì£¼
Ġê¸° ì¦Ŀ
Ġìĥģ ìĿĺ
% ,
Ġë¬´ ëłµ
ëĬĲ ëĿ¼
ĠìĹ° ëıĦ
Ġd m
j s
Ġë²Į ìĸ´ì§Ħ
ĠìĤ° íķĻ
Ġìľł ì§Ħ
¯ Ķ
ëį© ìĿ´
ëª¨ ëĵľ
íĹ¨ íĭ°ëĤĺ
Ġê¹ĢíĺĦ ë¯¸
ĠìĿĮì£¼ ìļ´ìłĦ
Ġìļ° ì¦Ī
ìĽĲ ìĿ¸
ë¥¼ ë¦°
ãĤ Į
Ġ% ,
ĠíĥĢìĿ´ ë°į
d d
íĪ ¼
Ġë¯¼ ìĭ¬
Ġìļ© ìĦľ
Ġê°Ģ ëĵľ
Ġa re
ë¯¸ìĪł ê´Ģ
Ġi c
Ġìķł ë§¤
Ġë¨¸ ëĭĪ
Ġìļ¸ íĬ¸ëĿ¼
ì²Ń êµ¬
ë¹Ħ ì¤ĳ
? ?
Ġëŀ ¨
ĠìľĦíķ´ ìĦł
Ġì§Ħ íķĻ
Ġì°¨ ì¢ħ
ìĿ¸ íĶĦëĿ¼
ìĬ¬ ëĿ¼
Ġê¹Ģ ì§Ģ
Ġë§Īë²ķ ìĤ¬
ĠìĬ¹ ê²©
Ġìľł ìłģ
Ġì°¨ ëĿ¼ë¦¬
ĠìĨĮ ìļ¸
ĠìĦ Ń
Ġë°Ķ ê¾¼
íĮ¨ ìĬ¤
Ġc la
Ġë¶Ģ íĮ¨
Ġê³¼ ì§ķê¸Ī
Ġë³ ¼ë
ĠìĹ° ë£¨
Ġì²Ń ì·¨
ĠëĤ´ ìŀ¥
Ġìŀ¥ ë¯¸
ìķ½ ìĭĿ
Ġìŀ¬ ì°¨
ì£¼ ìŀĲ
Ġìķ ĵ
Ġíķľ ë¥ĺ
Ġê²½ ìĤ¬
Ġê¹Ģë¶Ģ ê²¸
Ġë¯¼ê°Ħ ìĿ¸
Ġë ŀĦ
ìĿ´ ëħ¸ë²łìĿ´ìħĺ
Ġìĸ´ì¨ Į
Ġì¶Ķ ì¶ľ
ìľł ì§Ģ
ëªħ ëł¹
ì£¼ ìĸ¼
ĠìĿ´ìĤ° ê°Ģì¡±
ĠìķĦë¥´ íĹ¨íĭ°ëĤĺ
Ġê¹Ģ ë¯¼
ì¦Ŀ ê°Ģ
Ġìĭľ íĿ¥
Ġëĭ¨ ë°±
ì§ĳ íĸī
ĠëĦĺ ìĸ´ìĦľ
ĠìĿ´ìĸ´ ìł¸
Ġì£¼ ìĤ¬
Ġìĭľ ìĹ°
Ġìľ¡ ë°ķ
ë¹Ħ ëĵľ
Ġë©Ī ì¶°
íĺĦ ìķĪ
ĠìłĦ ìłģ
ìľ¼ ë¡ł
ĠìĨĲ ê°ĢëĿ½
Ġë³´ ê°ķ
íĥĢ ìĿ¸
Ġì¤ĳ ì§Ħ
Ġê¼¬ ì§ĳ
Ġì¶ķ ìłģ
ĠìķĦìī¬ ìļ´
Ġë¹Ħ ì¤Ģ
ĠìłķìĦ¸ ê·ł
Ġë°© íĥĦ
Į ¬
Ġêµ¬ ë©į
Ġëĭ¹êµŃ ìŀĲ
ìĺģìĹħ ìŀĲ
ĠìĭŃ ìŀĲ
ĠìķĦ ìĤ¬
Ġê³ł ë§Ī
Ġê·Ģ ìĹ¬
Ġë²ł ëĦ¤
Ġê¶Į ìľĦ
ìĿ¼ ìłķ
ª ã
Ġë¦¬ ì¡°íĬ¸
Ġìĸ¸ ëĭĪ
Ġìĥģ ìĭĿ
Ġê±´ìĦ¤ ìĹħ
ĠìĥģíĴĪ ê¶Į
ëŀĳ ìĿ´
ĠíĶ¼ìķĦ ëħ¸
ĠìĦ¸ ê°Ģ
ĠìķĪíĥĢ ê¹Į
Ġë ķĢ
Ġì¶Ķ ê²©
Ġë°° íĽĦ
ĠëģĬìŀĦ ìĹĨìĿ´
Ġíķľ ëıĻìķĪ
ĠìĿ´ ê²¨
Ġê¸°ìģ ĺ
Ġê·Ģ ì¡±
ìľł ê³µìŀĲ
ìĸ´ ì´Į
Ġë°° ìĥģ
ì¤ĳ ê°ľ
ìĭľ ìłĪ
ĠíĽ Ķ
ĠíĬ ľ
ĠíĻĶ ìĤ´
¥ ¬
ìĦ¸ ìĥģ
Ġê²° ëĭ¨
ìĪĺ ì¶ľ
ëŁ¬ ìĬ¤íĦ°
Ġì¡°ëªħ ê·ł
ĠìĤ¬ ìĸĳ
Ġë² ļ
ĠëĬ ĳ
ë°Ģ íŀĪ
Ġë¸ĶëŀĻ ë¦¬ìĬ¤íĬ¸
Ġë³´ ëĿ¼
Ġìĺ¬ ë¦´
ĠìĺĪ ëĬ¥
Ġìŀ¬ íķ´
Ġê° ļ
ĠíĥĢ ìŀĲ
m l
Ġever y
Ġi ot
Ġìĵ´ ëĭ¤
ĠìĤ°ìĹħ ìĿĢíĸī
Ġë§¤ íĬ¸
w w
ĠìŀĦ ìļ©
Ġê°Ģê¹Į ìĽĮ
Ġìĸ ĳì
ĠìĿĺ ìĥģ
ĠìĿ´ìĥģ ìĿ¸
ĠíĮĮ íģ¬
Ġëĵľ ë¬¼
Ġìĭ¤ ë²Ħ
ë¸Į ëĿ¼
ìĦľ ìĬ¤
Ġìĺ¤ ë¹ł
Ġíģ¬ ëĿ¼
Ġë°ľ íĥģ
Ġë§Ĳ ëĿ¼
» ·
Ġì¼ĢìĿ´ ë¸Ķ
Ġì²Ń ìŀ¥
ìĹ¬ ë¶Ģ
ĠìĿ´ íĥľ
ĠëĦ¤ ìĿ´
ìľ¼ëł¤ ê³ł
ĠìķĪ ëĵľë¡ľ
Ġì£¼ ìľł
Ġm an
ĠíĻĶ íķ©
en t
ĠìĨĮ ìĽĲ
Ġë²ķìĿ¸ ìĦ¸
ĠëĤĺ ëŀĢíŀĪ
Ġë¹Ħ ëĶĶìĺ¤
ë³´ ê¸°
ìłķë³´ ìĽĲ
ĠìĦł ëĳĲ
Ġë¬¸ ì²´
ê¸° ë³¸
Ġë°¸ ëŁ°ìĬ¤
ĠìĨĲ ëĭĺ
ĠëĤĺ ê°Ħ
ĠíĬ¹ ë¡Ģ
Ġê³µ ë°±
Ġê²½ìĺģ ì§Ħ
ĠìĹ° ì²´
ìĸ´ë¦° ìĿ´
é Ł
Ġì¦Ĳ ê²¨
Ġp ro
Ġê°ķ ë¶ģ
ĠíĶĦ ëĿ¼ìĿ´
Ġëħ¸íļĮ ì°¬
ìľĦ ì¹ĺ
Ġê³µ ì±Ħ
Ġì¦Ŀ ìĦ¸
ìłĢ ì¶ķ
ĠíĬ¹ë³Ħ ë²ķ
re am
ìłķ ìłģ
ĠìŀĲìĦ¸ íŀĪ
Ġê²Į ìĿ´íĬ¸
ĠìĹ¼ë ĳĲ
Ġê¹Ķ ëģĶ
ì¼Ģ ìĬ¤íĬ¸ëĿ¼
ë¦¬ ìĹĲ
Ġê³ł ê°Ģ
z e
ĠìĥĿ ê³Ħ
ĠëĤ´ ìĹŃ
ì±Ħ ìļ©
íĿ¥ êµŃ
ĠìĽĲ ìĿ´
Ġëħ ¼ìŁģ
Ġìºł íį¼ìĬ¤
Ġìĭľ ìĿ¼
Ġìľł ìĿ¸
ì¦Ŀ ìĭľ
Ġc d
ìĨĮìĭľ ìĹĦ
th er
ĠìĦ¼ ìĦľ
å Ĳ
Ġë¶Ļ ìĿ´
Ġì¹ĺ ì¦Ī
Ġmar gin
Ġíķľ ì°½
ĠíĦ° ì¹ĺ
Ġíı¬ íĦ¸
Ġë°Ķê¿ Ģ
ì§ĢëĭĪìĸ´ ë§ģ
ĵ Ģ
ĠíĴį ìĦ±
Ġì¤ĳìĨĮ íĺķ
ìĦ¸ ê¶Į
ĠëŁ¬ ìĭľ
ĠëĮĢíķĻ ìĽĲ
å ı
ìľ¼ë Ŀ¼
ëĦ Į
Ġë°ķ ì¢ħ
ë³´ ì¢Į
ĠíķĺëĤĺ ëĭ¤
Ġë©Ķ íĥĪ
ħ ¼
ĠìĪĺ ê±°
íĢĺ ìĸ´
ìŀĲ ìŀ¬
Ġìĥģ ë´ī
Ġíķ´ìĪĺ ë¶Ģ
Ġì§Ģ ìļ°
ĠìĪĺ ì°¨ë¡Ģ
ëĮĢ ë¦¬
Ġíķĺ íĬ¸
ëĭ Ļ
ëĦ ĵ
¡ ¯
Ġãİ ı
ëħ¸ íĬ¸
Ġê¸° ìĸ´
Ġíķľ ì°¸
Ġ198 9
ëĤĺ íĥĢ
j t
ĠìĥĮ ëĵľ
Ġì°½ êµ¬
ĠìĿ´ ë³ĳ
Ġì§ĳíĸī ìľłìĺĪ
ìľ Ļ
Ġê¸ī ê°Ĳ
ģ §
ëħ¸ëıĻ ì¡°íķ©
ĠíĻĶ íķ´
Ġ19 60
ĠìĪĺ ëł¹
íĺĦ ìĿĺ
ĠêµŃë¬´ ë¶Ģ
ĠíĥĢ ê²°
Ġê¸° ìŀ¥
ìĨĮ ëħĢ
Ġì¤ĳ ìĭľ
íį¼ ìĭľíĶ½
ìļĶ ìĽĲ
íķ´ ìĦł
Ġ11 00
ê°Ģ ìłķ
Ġì°¸ ëª¨
ìłĢ íŀĪ
ĠìĤ¬ë§Ŀ ìŀĲ
Ģ Ļ
Ġo led
ë¡ľ ìĽĢ
Ġëĥīìŀ¥ ê³ł
Ġêµ¬ íķ´
ĠìĪĺ ì²ľ
ëģ Ŀ
ĠíķĻ ê³¼
ìĪĺ íĸī
ĠêµŃ ëıĦ
Ī ²
Ġì¡´ ê²½
Ġ2 20
ãĤ Ĭ
Ġë¶Ī êµĲ
ĠëĪ Īë
ëĶ ±
Ġíľ´ ìĿ¼
ĠìĿ´ìĬ¬ ëŀĮ
Ġíĥģ ìĽĶ
Ĳ ìĺ¤
ìĬ¬ ëŁ¬
Ġìĸĳì ª½
Į ë¦°
Ġì¢Į ìĦĿ
ĠìŀĲ íĥĿ
ë³´ ì¡°
Ġë§Ī ìĤ°
ĠíĹĿ ê°Ģë¦¬
Ġëĵ¤ ë¦¬
íĨµìĭł ë¶Ģ
Ġíľ´ ê²Į
ĠíĶĮëŀ« íı¼
Ġë°Ģ ì§ĳ
Ġëįĺ ìł¸
ëĿ¼ìĿ´ íĶĦ
Ġma x
ĠëĳĲ ë£¨
ë¹ Ĺ
ĠìĭĿ ë¯¼
ìĽĲ ìŀĲ
Ġì Ł
ëĤ ®
u h
om e
ë²¨ íĬ¸
ĠëıĻìķĦ ë¦¬
Ġì ĩĦ
ëı¼ ì§Ģ
ìĦ¸ ìĦľ
Ġno w
Ġë¯¸ ìĬ¤
Ġë°ĺ ì§Ŀ
ë§Ī ìĿĮ
ë²ķ ìķĪ
Ĵ ¤
Ġë©¸ ë§Ŀ
p er
íĦ ±
ĠìłĢìŀĳ ê¶ĮìŀĲ
Ġíķ´ ë³ĳëĮĢ
ĠíĿ ©
Ġë°Ķ ëŀįëĭĪëĭ¤
ìłĪ ìĿĺ
Ġê°ĳ ìŀĳ
ëĭ¤ ì§Ģ
ĠíĦ° ëĦĲ
Ġë°± ìĭł
Ġë²ł ë¥¼ë¦°
ë³´ ëĤ´
ë°Ķ ëĭ¥
Ġìķ łì
Ġê±´ ì§Ģ
Ġwan na
ĠìĪĺ ë¶Ħ
Ġíĥľ ë°±
ë§Ī ìĿ´
íħĮ ìĿ´ëĦĪ
Ġê² Ĳ
ëıĻ ê°ķ
Ġìĸ´ ì§Ģ
ĠìķĮ ë°Ķ
Ġìµľ ê°ķ
Ġi p
ë¯¼ì£¼ ì£¼ìĿĺ
Ġì´Ī ë¡Ŀ
ĠìĿ´ìĸ´ ì§Ħëĭ¤
ĠìĤ¬ ëªħ
d f
it y
ìķ ¼ë
Ġíķ´ íĶ¼
ì²Ń íļĮ
ĠìĦ± ë¦½
ĠëĤ ¯
íĨ °
ĠíĹ¤ ìĿ´
ĠëķĮ ëł¤
ë§Ī ë£¨
ìľł ê°Ģ
Ĺ ã
ĠëıĻë¶ģ ìķĦ
ĠìłķìĿĺ ìļ©
Ġìļ© ìĿ´
ìĪĺ ê°Ģ
ĠìĿ´ ëĮĢë¡ľ
ĠìłķëıĻ ìĺģ
ĠëĳĲëł¤ ìĽĮ
Ġì»¨ íį¼ëŁ°ìĬ¤
Ġìºĺ ë¦¬
ê³µ ê¸°
Ġìĵ° ìĿ¸ëĭ¤
Ġìĭľ ì²´
ĠìľĦ íĤ¤
Ġìĸĳ ë³´
Ġë¶ Ĳ
Ġìĭ¤ ìłĦ
Īë ģ¼
Ġì½Ķ ë¯¸
ĠìĹ° ìķł
Ġíģ¬ë£¨ ì¦Ī
ĠìĬ¤ íĮĮìĿ´
Ġê±° ëĴĢ
Ġëĵ¤ìĸ´ ìĺ¨
ĠìĿ´ìļ© ê°Ŀ
íĥĢ ë¡ľ
ti on
Ġë³¸ ì²Ń
íķ ı
ë§ŀ ìĿ´
ĠíĸīìĤ¬ ìŀ¥
ĠìłĢ íķĺ
ĠêµŃ ìĻķ
Ġì´Īëĵ± íķĻìĥĿ
ĠëĬĲ ê¼Ī
ĠìłĦëĿ¼ ëĤ¨ëıĦ
ĠíĨ ¡
êµ¬ ì¹ĺ
Ġíİ¼ì³Ĳ ì§Ħëĭ¤
Ġë°Ķ ê¹
Ġë³Ħ ê°ľ
a a
ĠëĤľ ëĭ¤
ĠëĤł ìķĦê°Ģ
Ġëħ¸ ìĽĲ
ĠìıŁ ìķĦì§Ģ
Ġíļ¨ ìĦ±
ìĪĺ ë¦¬
t c
£ Į
in k
Ġìłķ íķľ
Ġê°Ĳ ìŀĲ
ĠìĤ¬ëĿ¼ ì§Ħ
ĠíĥĪ íĩ´
ĠëĮĢ ë¦¼
ĠìĹ° ì´Ī
ĠìľĮ ë¦¬
ĠëłĪìĿ´ ëįĶ
ĠíĽĦ ì§Ģ
Ġìłķ ìĦľ
ìĿ¼ ì§Ģ
ĠìĭľìĦ¤ ë¬¼
ĠëĮĢ ìŀħ
ìĸ´ ëĿ¼
ĠìĿ´ ìĭľ
Ġíģ´ ë¡ľ
°ì ĭ¤
Ġíķľ ìļ°
Ġë¶Ģ íıī
ĠëĮĢë²ķ ê´Ģ
Ġì´Ī ìĽĶ
Ġíķĳ íģ¬
Ġ D
Ġê¸° ìĪĻ
Ġê³µ ì§ģìŀĲ
Ġë²Ī ìĺģ
ĠìĻ¸ íĺķ
Ġì¤Ħ ê¸°
m d
ĠìĬµ ëĵĿ
Ġë¨¸ ë¬´
ĠíĿ ł
íıŃ íĥĦ
Ġê°Ģ ìĤ°
ī ĺ
Ġì¹ ¼ë
Ġìĺ¤íĶĦ ëĭĿ
Ġë§Ĳ ëłĪ
Ġìĭł ê¸°
ĠíĬ¹ë³Ħ íŀĪ
Īì ĭ¤
íĭ° ìķĦ
Ġëª¨ ìĿ¸
Ġë¡ľ ê³ł
Ġë¹Ħ ê³ł
ìłĦ ëĵľ
Ġíķµ ë¬´ê¸°
in d
Ġì²´ ì¤ĳ
ĠëĶ ´
ĠìķĦëª¨ ëłĪ
ĠíĽĦ ìŀĦ
Ġê¹Ģ íķĻ
ëĬ ¬
Ġëĭ¤ìĿ´ ìķĦ
ĠìĿ¼ë¶Ģ ëŁ¬
Ġë¡ľ ë¹Ħ
ìĹĲ ìļĶ
ĠëĮĢ ì§Ģ
¹ µ
ĠíĿ¬ ê·Ģ
Ġë¬¸ íĿ¬
ë¦¬ ì§Ģ
ĠëĮĢ ëĨĵ
ì¹ĺ ê¸°
Ġì¡° ë¬¸
Ġì£¼ ìĹŃ
ĠíĹĮ ìĭł
ĠíħĲ ëį°
Ġëª¨ ìĿ´
ĠìĦ± íĿ¬
Ġê°ķìĦľ êµ¬
Ġíĺ ¸ì
Ġìķŀ ìĦł
íĪ ¬ìŁģ
° į
ê°Ģ ìļ´
Ġìĭ ¼
Ġìķŀ ëĭ¹
Ĥ Ĵ
Ġëĭµ ëĭµ
ĠíķľêµŃ ìłĦëł¥
ë¯¸ ìĬ¤
Ġë¶Ģ ëģĦ
Ġë¹Ħ ì¹ĺ
d th
ŀ ¨
ê³µëıĻ ì²´
Ġfe el
ĠìĥĿ ìķł
ĠíĮ¨ ìĭľë¸Į
ëŁ¬ ì§Ħ
ìĽ Ģì¦Ŀ
ì²ľ êµ¬
Ġë¯¼ ì¤ĳ
ìķĦ ë¨¹
ëł Įì¦Ī
Ġëĭ¬ ë¦°
ĠìĪľ ì°¨
Ġëĵľ ëĶĶìĸ´
wi dth
Ġê°Ģìł¸ ê°Ģ
Ġíĸī íĥľ
ìĭł íĥģ
Ġë©Ķ ìĿ´íģ¬
Ġë¸Į ë£¨
ë¯¸ ëĭĪ
ĠìĪĺ ìĤ°ë¬¼
Ġì¿¨ íĥĢìŀĦ
ķ í
Ġíĥľê·¹ ê¸°
Ġ4 50
Ġì»¤ ëĭ¤ëŀĢ
Ġíĳ¸ ë¥´
Ġë¹ĦìĦľ ìĭ¤
ìĪĺ ìŀħ
Ġìŀĳê³¡ ê°Ģ
Įì »¤
ĠìĹ° ì¤Ģ
Ġê¸Ģ ìŀĲ
ëĭ¤ ë³´
Ġ... .
ĠëĮĢ ëŀµ
Ġëĭ¹ìĦł ìĿ¸
ĠìĿ´ íĺ¼
Ġìŀħ ëĭ¨
Ġë¯ ¼ë
ëª¨ ìŀĦ
ĠìĦłìĪĺ ëĭ¨
Ġê·¸ ëĿ¼
Ġë³´ íķ©
ìĿ´ ìĭľìķĦ
Ġê²°ìĬ¹ ìłĦ
Ġê°Ģë²¼ ìļ´
Ġë¶Ħ ëĭ´
Ġëĵ± ëĵ±
Ġëĭ¨ ìĭĿ
Ġëı¼ ìķ¼
ĠìĿ´ ëĵĿ
Ġì½Ķ ìĸ´
m g
íİ Ģ
ë¯¸ ì¹¼
j r
ĠìĹ¬ ëħĦ
ģ £
ĠìĥĿ ë¦¬
ë°Ķ ìĿ´íĬ¸
Ġê°ĢìĿ´ëĵľ ëĿ¼ìĿ¸
ì²¨ ëĭ¨
Ġa c
ī į
ê·¸ ë¦¬
íķĻ ë¶Ģ
Ġì¡° ì¤Ģ
Ġê¹Ģ ìĿ¼
Ġì±ħìŀĦ ì§Ģ
ìĬ¤ ëŁ°
ĠëĤĺíĥĢ ëĤ¸ëĭ¤
Ġì§Ģ íĺľ
ìŀĸ ìķĦìļĶ
ĠìķĦë¦Ħ ëĭµ
ìĦ± êµ°
ê¸ Ģë¡ľë²Į
ëĮĢ ê°Ģ
Ġìĸ´ëł¤ ìĽł
ĠíĽĦ ìĨĲ
Ġëĵ¤ìĸ´ ìĻĶ
ë°© ìļ¸
ĠíĮĲíĥĢ ì§Ģ
Ġê°Ĳ ìĭ¸
ĠìĦ±íĿ¬ ë¡±
Ġë§ĪìĿ´ íģ´
t y
ìĹ¬ ë¦Ħ
Ġìłķ íĻĶ
Ġë¸ĶëĿ¼ ëĶĶ
ĠìĽĶ ê³¼
Ġìľł ìļ°
Ġêµ¬ ê²½
Ġëĭ¨ ëĭ¨
ë» Ĳ
Ġìĭł ë¶Ģ
ëĭ¤ìĭľ íĶ¼
Ġf r
Ġë©Ķ ê°Ģ
ëĵł ê°Ģ
ê¼ ½
Ġìľł íĤ¤
ëįĺ ì§Ģ
Ġë²ķ ëł¹
Ġì¶ķ ìĤ°
ãĤ Ĥ
ê·¼ë ¬´
íĮĮ ìĹħ
Ġëĭ¤ ê°ģ
ĠìĹĲ ëĶĶìħĺ
ìĤ¬ íĥľ
ĠíĻĶ ìĽ¨ìĿ´
ĠíĮĮ ê²©
Ġíıī ìĿ¼
ê²½ìŁģ ëł¥
Ļ į
ĠíĹ Ľ
ë³´ì¢Į ê´Ģ
ĠíĿī ê¸°
Ġæ Ĺ¥
Ġìĥģ ê¸Ī
ĠëĮĢ íĸī
íķĦ ìļĶ
ĠìĿ¸ ìĦł
Ġëª¨ ë¹Į
Ġì±ħìŀĦ ìŀĲ
Ġê³Ħ ìĹĦ
ë§¤ ìŀ¥
Ġì§ĢìĽĲ ê¸Ī
Ġë©° ì¹ł
Ġíķľ ëĿ¼
Ł ¿
ì¡° ëĭ¬
ĠëĤ´ ì£¼
Ġìħ Ķ
ĠíĶ¼ íķł
ĠíĮĮ ìĥĿ
ĠíķĻ ìľĦ
ìĿĮ ë£Į
Ġ10 5
Ġì¶ľ íĺĦ
ĠìĽĮ íĦ°
Ġìľł ëĮĢ
Ġc u
Ġë¯¸ ìĤ¬
ĠëĶĶ ìĬ¤
Ġë§Ī ìĿ¸
¸ Ĳ
ĠìļĶ ìĽĲ
ĠìķĦ ëĥĲ
ëĦ¤ ìĬ¤
ëĵĢ ìĦľ
íĪ¬ ëªħ
Ġë²ļ ê½ĥ
ì ĮĢ
íģ¬ ëŀĺíĶĦíĬ¸
¹ Ľ
ìĸ´ ì¹ĺ
Ġìľł íı¬
ĠëĤĺ ê°Ķ
ĠìķĪíĥĢ ê¹Ŀ
íĥ ¯
Ġíİ Ħ
ì§Ģ ê°Ģ
ìĦ¼ íĭ°ë¸Į
ĠìĿ¼ ê´Ħ
Ġë²Ħ ë¦°
Ġê¹Ģìĺģ ì²ł
ìŀ ĺ
Ġê´Ģ ë£Į
Ġ17 0
ìĥĿ íĥľ
ĠìĹ¬ ëıĻìĥĿ
Ġë§Ī ìĪł
ĠìłĢ ì¶ľìĤ°
Ġn ight
ĠíĿ Ļ
Ġíı¬ ìĬ¤íĬ¸
Ġë³Ģ íķ¨
Ġë¬´ëįĶ ìľĦ
Ġì¹ ´ì¦Ī
ĠìĹ ®
ĠëĨį êµ¬
Ġê±¸ ë§ŀ
ì§Ģ ì²Ń
Ġê¸° ìĬµ
Ġëĺĳ ê°ĻìĿ´
ì» ·
Ġì» ·
Ġë¶Ģëĵľ ëŁ¬ìļ´
Ġìłľ ë°ľ
ĠìĿ´ë£¨ ìĸ´ì§Ħ
Ġìľ Ĺ
Ġu ae
Ġê³ ±
Ġëĭ¨ë°± ì§Ī
Ġë¬´ ì§Ģ
ĠìĿ¼ë³¸ êµ°
Ġìĸĳ íķ´
Ġíı¬íĬ¸ íı´ë¦¬ìĺ¤
Ġs s
Ġìĸĳ ìĬ¹
£ ã
Ġë³´ íİ¸
ê±¸ ìĿ´
Ġp br
ëĤ ´ì
ĠìĹ¬ ìĻķ
ëł¨ ìĿĺ
ĠìĦĿ ë°©
Ġìĺ¬ëĿ¼ ìĺ¤
ĠëıĮ ë´Ħ
ë° ĭ
ĠìĽĲ ìĤ°
Ġíķ´ íĤ¹
Ġë²Ī ê°ľ
ìķ ±
ë¹Į ëĶ©
ĠíĮ¨ ìĬ¤
ĠìĽĶ ê¸ī
Ġt a
ë°´ ëĵľ
ĠíķĢ ëŀĢëĵľ
ĠëĤĺíĥĢ ëĤł
Ġì°© ê°ģ
Ġì¶ĺ ì¶Ķ
Ġë¯¸ íĪ¬
Ġs ho
Ġì»¨ íħĲì¸ł
Ġëļ Ŀ
Ġê°ľ ëıĻ
Ħì ·¨
Ġì¦Ŀ ìĦ¤
Ġêµ¬ íĺķ
íĥĢ ìĿĺ
ĠìĹ°ìĺĪ ìĿ¸
ìĿ¼ ëĵľ
Ġê²½ì°° ê´Ģ
Ġìķ½ ìŀĲ
Ġìĺ¤ë¦Ħ ìĦ¸
ë³´ ìĥģ
Ġê³µ ì²ŃíļĮ
ëĳĺ ëŁ¬
ë£¨ ë¯¸
ãģ ı
Ġë¯¸ ë¤Ħ
ëĮĢ íķľ
Ġë°ľ íĮĲ
ĠìĨĮ ìķ¡
Ġ2 40
ìĽĲìŀĲ ëł¥
Ġìłķ ìłĦ
Ġë¨¼ ì§Ģ
Ġê¸° ê°Ģ
Ġê²½ìĥģ ë¶ģëıĦ
Ġìŀħ êµŃ
ì§Ī ëŀľëĵľ
ĠâĨ ĵ
ĠìĦ±ìŀ¥ ë¥ł
Ġë¯¸ ìĬ¤íĦ°
Ġg b
ĠìĦłíĺ¸ ëıĦ
Ġì²´ ìĿ¸
Ġb ut
ê² ¹
Ġë©Ķ ì¹´
ĠìĨĲì ī½
ĠìĽ¨ ìĿ´
ĠìĿ¼ íļĮ
ìŀĲ íĤ¤
Ġëĭ ¦
ì¤ĳ êµŃ
Ļ ë
Ġê¸Ī ë©Ķëĭ¬
Ġì§Ģ ëĮĢ
ĠìĽĶ ìĦ¸
Ġë§Į ë§Į
íķł ê¹Į
Īì½ľ ë¦¿
Ġs i
Ġê±° ìĦ¸
Ġì§Ģ ìĺ¥
Ľ į
ĠëĤĻ ì°°
Ġìĭľ ì¼ľ
Ġo e
ëŀŃ íģ¬
ĠëģĮìĸ´ ìĺ¬
ĠìĪĺ ëħĦ
Ġë°Ķ ìľĦ
ĠíıĲê¸° ë¬¼
ì¤ĳ ìĨĮ
ĠìĹĲ ëĵľ
ĠëĤĺ ì¹´
í ī
Ġë¬´ ëį¤
ĠìĦľëĮĢë¬¸ êµ¬
ĠìĿ¸ ìłģ
ìłĦ ëĭ¹
Ġë³´ìĿ´ ìĬ¤
Ġë§¤ ì§Ħ
Ġìª ¼
ĠíķĻ ìŀĲ
Ġì° Ķ
Ġëĵ± íĮĲ
Ġë°± ëĳĲ
ìŀħ ìŀĲ
Ġì·¨ ë¯¸
Ġìĸ´ ë¦´
Ġì¤ĳ ëıħ
ë³´ ìľł
g h
ĠíĮ¨ëŁ¬ ëĶĶ
ì§ĳ íĬ¸
Ġê¸Ī ìļĶìĿ¼
ĨĢ ìĿ´
ìĭĿ ê°Ħ
Ġíĩ´ ê·¼
Ġìĥģ ê³µ
Ġë¶ĪìķĪ ê°Ĳ
ĠìĿ´ ìĨ¡
ê¸° ìĨĮ
Ġíİ ł
æ ķ
. '
Ġíĸ Ħ
Ġêµ° ëĭ¨
Ġg ood
Ġê³³ ëıĦ
Ġë°°ìļ° ìŀĲ
ëĳĲ ë¥´
ë¹ ¨
ĠìłĦ ìĦł
Ġp d
ë¬´ ìĿĺ
en d
ìļ´ ìĦľ
ëĥĲ ë©°
Ġìłķ ê´Ģ
ĠíĻĶ ìĥģ
Ġëħ¸ ë²¨
Ġìŀ¥ ê±°ë¦¬
íĻĶ ìŀ¬
ĠíĶĦë¡ľ ëĵĢìĦľ
ĠìłĢ ì£¼
ĠëĮĢìļ° ê±´ìĦ¤
ĠëĤ¨ íķľ
Ġëį´ ë§Īíģ¬
ĠíĹĪ ë¸Į
Ġ B
íģ¬ ëĿ¼
íĩ´ ê·¼
ë²Ħ ë¦´
Ġì§Ģ ìĽĮ
Ġìľł ë¹Ħ
ëĤ´ ìĿĺ
Ġê³µ ê¸°ìĹħ
ë³Ģ ê²½
ĠìĤ¬ ìŀĦ
ĠìĤ¬ ìĹ°
ĠìĿ¸ ì²´
íķĺ ëĬĺ
ê²Ģ íĨł
Ġìķŀ ë°Ķëĭ¤
ĠëıĦ ë°ķ
Ġìŀħ ìĭľ
ìĹŃ ê³¼
ì§Ģ ë§Ī
íķĺ ëĿ¼
ĠìŀĲ ì¹«
ĠìķĦ ì¿ł
Ġê³¼ ìĹ´
Ġê°Ģ ì¶ķ
ìľĦ íķ´
ĠìĽĲ ëĮĢ
ĠíķĦìĤ´ ê¸°
íĻĺ ìĿĺ
Ġì²´ ë¥ĺ
ĠìĿ´ ë©ĶìĿ¼
êµ¬ ë§¤
.. .
ĠìĬ¬ë¡ľ ê±´
ĠëĤĺ ìĬ¤
ìĸĳ êµ°
Ġëª¨ ìħĺ
å į
Ġëĭ¨ ìĽĲ
Ġë¹Ī ìĨĮ
Ġìŀīê¸Ģ ëŀľëĵľ
Ġì°½ ìĦ¤
ìĹĲ íĶĦ
ĠìĨĮìľł ìŀĲ
ĠëĮĢ ë¯¸
ĠìĪľ ìĭĿê°Ħ
Ġib k
ã Ĥ¤
ì°½ ì¶ľ
ì¡° ìĿĺ
Ġg r
ëĭ¨ ìľĦ
Ġì°½ ëĭ¹
y a
Ġêµ ½
Ġë¬¼ëŁ¬ ëĤĺ
ãĥ «
Ġa b
è Ī
Ġìĭ¬ íķ´
ĠëĤľ ë¯¼
ì²Ń ìĽĲ
ĠëĮĢ ìĹ¬
ĠìĹ° ìŀĦ
Ġëĭ´ ê²¼
íĻĶ ë¬¼
p t
Ġê³ł ìĿ¸
Ġìŀ¥ ê¸°ê°Ħ
Ġê°Ģíķ´ ìŀĲ
Ġëī´ ì§Īëŀľëĵľ
ĠëĵľëĿ¼ìĿ´ ë¸Į
ë²ķ ìĥģ
ĠíĥĦ íĥĦ
Ġì£¼ ì´Ŀ
ì§Ģ ê¸°
ĠìĨį ìĿĺ
ĳ ¸
ĠëıĻë°ĺ ìĦ±
¹ Ļ
ĠìĿ´ë¤Ħì§Ģ ê³ł
Ġìĥģ ìłĲ
ĠìĨį íķľëĭ¤
ìĹ¬ ëĮĢ
ĠìķłíĶĮ ë¦¬ì¼ĢìĿ´ìħĺ
§ ŀ
ĠìĦł ìĿĺ
íĮĮ ìĿ´ìĸ´
Ġê°ľ ëŁī
ĠìĿ´ ìľ¤
Ġë²¨ ê¸°ìĹĲ
ĠìĿ¸ ìĦ¼íĭ°ë¸Į
ĠìĤ¼ ì²Ļ
ĠíĶĮ ë¡ľ
ĠìĻķ ìŀĲ
¼ Ħ
Ġì»¨ ìĨĮìĭľìĹĦ
êµ¬ ì²Ńìŀ¥
Ġì»¤ íĶĮ
ìĭ¤ ìĿĺ
Ġë§¡ ê¸°
ìĬ¤ ê°Ģ
ĠìĿ´ ì§ĳíĬ¸
ĠíĮĲ ë¡ľ
Ġë°ĺ ê²©
ĠëĮĢ íķŃ
Ġìĺ¤ ìĬ¤
Ġêµ µ
ë§Īì ¼ĢíĮħ
Ĭ ¨
Ġë¸Į ëłĪìĿ´íģ¬
ĠíĬ ¼
Ġëıħ ìŀ¬
Ġê³¼ ì²ľ
Ġdm z
ĠìľĦ ìĿ¸
ĠíķĻ ìĤ´
Ġë°ĺ ê¸°
ĠëĶ° ìł¸
ĠêµŃ ê³ł
§ Ľ
íĥĢ ìŀħ
Ġì į°
íĴĪ ì§Ī
ì±Ħ ê¶Į
Ġì²´ ëĤ©
ë§¤ ì²´
ĠíĶ¼ ìŀĲ
íĶĮ ëŀĺ
ĠìĹħ ìłģ
Ġë³´ íĽĪ
Ġìľ ¨
ķ ±
Ġìłķ ê²½
ĠìĿĢ íķĺ
Ġë°Ķ íĢ´
Ġë§Ī ëħĢ
íĿ Ķ
Ġl s
ĠëĨį ìĦ±
ì²Ń ìĨĮëħĦ
Ġíķ´ ë¦¬
Ġë³´íĹĺ ê¸Ī
Ġìĺ¤ ìĺ¤
ĠìĿĢ íıĲ
Ġb b
Ġíĺķ ìĥģ
Ġë§¤ ì§ģ
d n
ĠìĿµ ìĬ¤
Ġìĭľ ì¹´
Ġìľł ëł¹
ĠìĪĺìĭľ ë¡ľ
Ġì¤ĳìĭ¬ ì§Ģ
êº ¼ë
ĠëķĮ ë¦¬
ĠíĿ¡ ìĹ°
ĠìĻ ł
ìĿĮ ìĹĲëıĦ
ĠìĿĺ íķĻ
ìĽ įìĬ¤
Ġê·¹ ìĭ¬
Ġê°Ģ ìĦ±
ê²° ìĿĺ
ëĭ¤ ìŀĦ
Ġê²½ ê³¼
Ġëľ ¯
Ġíķ´ ê¸Ī
Ġê³¤ ëŀĢ
Ġë¬¸ ëªħ
Ġíĳľ ê²°
ĠëĿ¼ìĿ´ ë²Į
Ġì²ĺ ì¹ĺ
Ġì¹¨ ëĮĢ
Ġê³łëł¤ ëĮĢ
ľ ëĭ¤
ë´Ĳ ëıĦ
Ġë³µ ìŀ¥
Ġëª¨ ë¦¬
Ġìĭ¬ìĥģ ìłķ
ìłľ ì²ł
Ġë¬´ ì²Ļ
ĠëģĮ ëł¤
Ġb y
ĭ ã
Ġë¬¸íĿ¬ ìĥģ
d u
êµ¬ ê°Ħ
Ġoe cd
Ķ ½
Ġ100 6
Ġì²ĺ ë°©
ĠìĿĳ ëª¨
Ġëĭ¤ ìļ°
ĠìĿ´ ìĪľ
ĠìĿ´ ì¹ĺ
ëıĦ ìĸ´
Ġê°Ģ ë§Į
Ġìľł ì£Ħ
Ġê¶¤ ëıĦ
ì§ ±
Ġë¦¬ ë²Ħ
Ġë¬´ ìļ©
ĠíĶĮëŀĺ ê·¸
Ġì°½ ê³ł
ëĮĢ ì²´
íķľ ìĿĺ
Ġëĭ¬ëĿ¼ ì§Ģ
ĠìķĦ ê°Ģ
Ġë²ķ ì¡°
ë¬´ ëĮĢ
ì²ľ ìĿĺ
Ġ K
Ġíĺ¸ ìŀ¬
Ġëª¨ ë¥¸
ìłĦ ìĤ¬
Ġíĺ¸ ê°Ģ
Ġíķ´ ê³ł
Ġìķ ¼ì
ŀ «
Ġë§Īì¹¨ ëĤ´
Ġìŀ¥ ìĤ¬
ĠìĿ¼ìľ¼ íĤ¨
íĳľ ì¤Ģ
ê¸° ë¶Ģ
¨¸ ëĭĪ
Ġì½ľëĿ¼ ë³´
Ġê·¸ë¦¬ ìĽĮ
ë¯¸ íĦ°
ë°© ìĸ´
ĠìłĦ ì²ł
Ġë¶Ī ëŁī
Ġì¶ľ ì²ĺ
ĠëĲľëĭ¤ ë©´
Ġë²¤ ì¹ĺ
ĠìĿ´ ê²½
ì£¼ ë¡ľ
ê°ķ ëıĦ
ìĪĺ ìĪł
Ġê°Ģë©´ ëĿ¼ìĿ´ëįĶ
ìłĢ íĬ¸
Ġë°ķìłķ íĿ¬
Ġíĳľ ì§Ģ
ĳ ĺ
Ġíķĺ ìļ°ìĬ¤
ìĽĢì¦Ŀ ê¶Į
Ġíķĺ ìĽĲ
Ġc g
m v
Ġë©Ķ íĥĢ
ëĬĲëĥĲ ê³ł
ĠìķĦëĤĺ ìļ´ìĦľ
íĶĦ ëĿ¼ìĿ´
Ġìĭ¤ ìĤ¬
Ġë¯¼ ê´Ģ
Ġë¡¯ëį° ìĽĶëĵľ
Ġì²ł ìĽĲ
Ġë¬´ ê¶ģ
ĠìĻķ ì¡°
Ġì¦ Ī
Ġê°ľ íļĮ
ĠëĦĪ íĿ¬
Ġìłľ ì¡°ìĤ¬
íļĮ ìĽĲ
Ġê²¨ìļ¸ ì²ł
Ġf u
Ġê·¸ ëĭ¤ì§Ģ
íĨ¡ ìĬ¤
Į ľ
Ġìķ¼ ê¶Į
ĠëłĪ ìłĦëĵľ
Ġìĭľ íĬ¸
ĠìĤ¬ ìĿ¸
ĠìķĦë©Ķ ë¦¬ì¹´
Ġp s
Ġê¶Į ìĿµ
ìĦĿ íļĮìĿĺ
ë¡ł ê°Ģ
ĠìĪĺ ì§Ī
ĠíĢ ¸
Ġìĭľ ìĪł
i ll
Ġê²½ ë¶Ģ
Ġíľĺë°ľ ìľł
ë³´ ìķĪ
ĠëĮĢ ë³Ģ
ê·¸ ë¦°
Ġì»¨ íħĮìĿ´ëĦĪ
ê¸°ìĪł ìĽĲ
Ġìłĳ íķĺ
Ġìłķ íķ´ì§Ħ
ĠìĿĮ ìĽĲ
ë¹ Ķ
ëıĦ ëĭ¹
Ġê±¸ ì¹ľ
ê°Ģ ìĻĢ
íĶĮ ëŀľ
ĠíĤ¤ ìĽĢì¦Ŀê¶Į
ĠëĮĢ êµŃë¯¼
ìĦľ ë¶Ģ
Ġë¦¬ ëĵ¬
Ġìĭł ëĤĺ
ĠìķĪ ìĦ±
ì£¼ ìĦĿ
Ļ ľ
Ġìľł ëıħ
ëĶ §
Ġëĭ¤ìĿ´ìĸ´ íĬ¸
ëıĦ ì²Ń
íĨµìĭł ìĤ¬
ĠëĤĺíĥĢ ëĤľëĭ¤
Ġìĸ´ëĳĲ ìļ´
ë² ³
Ġê¸°ìĪĻ ìĤ¬
ëĦ¤ íĬ¸
Ġëĸ¨ìĸ´ ì§Ī
íĦ° ëĦĲ
ëĤ¨ ìĿĺ
ĠíĬ¸ ëĿ¼
ìľł íĤ¤
Ġê¶Į ìľł
ĠëıĻ íĥĦ
Ġì§Ħ ëıĦ
íĻĶ ëł¥
Ġê³łëł¹ íĻĶ
Ġê°Ģ íĮĮ
ë§Į ê¸Ī
íĶ¼ì »¤
ëĭ´ ë°°
Ġì¸¡ ê·¼
Ġìķħ ìŀ¬
ìĤ¬ ê²©
Ġìļ° ìĹ°íŀĪ
Ġë¶Ģ ìĪĺ
ĠíĹĪ ëĿ½
ãģ ł
ĠëĤĺëĪ ´
ì²Ń ë¬¸
Ġëªħ ìĨĮ
ĠìłĢ ì§Ī
ĠìĿ´ ì§Ħ
ì¤Ģ ìĿĺ
Ġê²Į ìĬ¤íĬ¸
ĠìĦł ë³Ħ
Ġë³¸ ëªħ
Ġë¶Ģìłģ ìłĪ
ìĹ £
íĻķ ëĮĢ
Ġì°© íķľ
Ġì£¼ ê³ł
ì§Ħ ì¶ľ
ãģ ¾
ì»¨ ë²¤ìħĺ
ģ ¨
Ġë¶Ħ ê°Ħ
Ġìľł ë¥ĺ
Ġê¹Ģ ìĬ¹
Ġ2 30
ĠìĤ¬ ìĿĺ
ìĨĮ ìĦ¤
Ġì§Ħ ìķķ
ĠìĿĢ ê·¼
Ġd b
c f
Ġê¹Ģ ìĹ°
ĠëĤ ¡
Ġë² ¡
Ġì¦Ĳê±° ìĽĢ
ĠìĹ´ ë§¤
ë³ĳ ìĿĺ
íŀĪ ë¡ľ
ìĭľ ë¦½
íĥĢ ë¦¬
ĠìłĦ êµĲ
ĠëĮĢ ê°ľ
ad i
íĶ ¼ë
ĠìŀłìĪĺ íķ¨
Ġë¹Ħ ì¶°
ë¥´ ê¸°
ê¸° ìĿ¸
ŀ ī
Ġo ut
íĺĦ ìĥģ
Ġì§Ģ ìĿĢ
Ġê¹¨ ëĭ«
Ġìļ© ë³ĳ
Ġë°ĺ ìĤ¬
Ġíĸī ìķĪ
Ġê·¹ìŀ¥ íĮĲ
ì¹´ ë¥´
Ġì²Ń ìłķ
Ġê°Ĳ ëĭ¹
Ġì¢Į íĮĮ
Ġê°ľ ì²´
ĠìĦ¸ ìĿ¼
ĠëĮĢ ìĹĲ
ìļ© ëŁī
ëĬĲëĥĲ ëĬĶ
Ġëŀľ ëį¤
ĠìĿ¸ ì¡°
Ġê²° íķ¨
ĠìĿ´ ìĥī
ìłķ ê¶Į
ĠíıŃ ëĦĵ
ëłĮ ì§Ģ
íĺ¸ ìĺģ
ĠëĤ´ ìĿĺ
Ġs a
ĠìľĮë¦¬ ìĹĦ
ë²ł ìĿ´íĦ°
ĠìºĲ ìĬ¤íĮħ
ì§ĳ ëĭ¨
Ġëħ¸ ìĺĪ
ê²½ ë³´
íĬ¸ ëŁŃ
ĠìŀĲ ìĻ¸ìĦł
Ġìĭľ ëĵľ
Ġh w
ìłľ êµŃ
ìĹ¬ ê°Ŀ
Ġëģ ĵ
ìħĢ ëŁ¬
ĠìķĦ ìĤ°
ëıĦ ë¥´
Ġë²Ķ ìĿ¸
Ġê²½ì°° ìĿĺ
ìĺģ ì§Ħ
Ġìľł ë£Į
Ġì£¼ ìłĦ
ì¹ĺ íĤ¨
Ġj t
ĠìłĢì§Ģ ë¥¸
Ġê±¸ ë¦´
Ġê³µ ìłľ
Ġìĸ´ì¨Į ëĵł
ìĬ¤ íĭ±
½ ĥ
ê·ľ ì¹Ļ
ĠìĪ¨ ì§Ģ
ĠìłĦ ëĳĲ
Ġì¹¨ ìĪĺ
ĠìĭĿ ìĿĺ
ĠìĪľ ë°©
Ġë¦¬ ìĬ¤íĬ¸
Ġëĭ¹ íķ´
ĠíķĻ ê³Ħ
Ġìĸµ ìļ¸
ëŀĢ íĬ¸
Ġìľł íķľ
Ġíı¬ ìĥģ
ìŀ¬ ëĤľ
Ġë¬¼ë ł¤
ë³´ ëĶĶìķĦ
ìĦ¸ ìŀĲ
ë¶ģ ë¶Ģ
ë¯¸ ìķ¼
´ì ĩł
Ġê´Ģê³Ħ ìĹĨìĿ´
Ġíŀ Ļ
Ġì·¨ìŀĦ ìĭĿ
Ġë¬´ ëĦĪì§Ģ
ĠìĿ¼ ìĦł
Ġì§ģ ë©´
íĥ Ģì
íı¬ ëĭĪìķĦ
ìĿĮ ìĭĿ
ĠìĬµ ê´Ģ
Ġëªħ ëıĻ
Ġìĸ´ ìĦł
ëŁ´ ë¦¼íĶ½
Ġí Ħ
ìļ´ ì§Ģ
ĠìĬ¤ ëĭĺ
ëĶ ķ
ĠëĶ°ëĿ¼ ê°Ģ
Ġê·Ģ íĻĺ
Ġë§¤ ì¹ĺ
Ġìŀ¬ íĻľ
ĠìĦ¸ê³Ħ ê´Ģ
ĠìŀĲìĭł ê°Ĳ
Ġíĺĳ ìĿĺíļĮ
êµŃ ìĿ¸
ë¸Įë¦¬ íķĳ
ĠëŀŃ íĤ¹
ë³´ ê°Ģ
Ġì¹´ ëĿ¼
Ġb nk
êµĲ ì°¨
Ġ I
ëıĻ ìĿ´
ĠíĻĶ ì²ľ
ĠìĹ´ ìķħ
Ġì´ Īì½ľë¦¿
ë°Ķ ëĿ¼
ĠìĦł ìĽĲ
ìŀĲ ìĹ°
Ġìľł íĿ¬
Ġëª¨ ë¥¼
Ġìĸ´ ì§¸
ĠìłĦ ìŀĦ
Ġë Ľ
ĠìłľëĦ¤ ìĭľìĬ¤
Ġê¸° ë»Ĳ
Ġìłķ êµŃ
ëĦ¤ ìĬ¤ì½Ķ
ëĮĢìĥģ ìŀĲ
ìĬ¤íģ¬ ë¦¼
íĨµ ìŀ¥
Ġëģ Ķ
ĠìĤ¬íļĮ ì£¼ìĿĺ
Ġìł Īìĭ¤
ĠìĬ¤íĭ° ë¸Ĳ
ëŁ ¿
Ġë¬´ ìĸ¸
o d
ìľĦ íĹĺ
ĠíĬ¸ ëŀľ
íĪ¬ ëį°ìĿ´
ä »
ĠìĿ´ ì²ł
ëĵľ ë¦¼
ìļ° ìĬ¹
j a
Ġêµ° ë¯¼
Ġìŀ¥ ëł¤
ĠìĿ¸ ë¬¸
ĠìĬ¹ ë¬´ìĽĲ
Ġë°ķì£¼ ìĦł
Ġì²Ń ë¬¸
íĥľ íıīìĸĳ
Ġê°ķ ì¢Į
Ġìĥģ ë¥Ļ
ë¶Ģ ì§Ħ
ĠëĤĺ ë¹ł
ê³¼ ìĦ¸
Ġë°ĺ ìŀħ
ë§¥ ìĬ¤
ĠìĿ´ ëª©
ìĭĿ ëĭ¹
ìłľ ì¡°
ĠëłĪ ìĿ´ìĬ¤
ĠíĨµ ì¹ĺ
ĠìĬ¤íĨł ìĸ´
ĠíĬ¹ ë³´
Ġìĥģ íķ´
Ġê°Ĳ ìĺ¥
ĠìĪĺ ìłľ
ëĦĲ ë¦¬ìĬ¤íĬ¸
ê¸°ìĹħ ìĿ¸
ë¡Ģ ìĿĺ
Ġíı¬ë¥´ íĪ¬
íĥĢ ë¥´
ĠëłĪ ìĺ¤
ĠìĿ´ ìĸ´ìĦľ
Ġ. '
Ġíĥ± íģ¬
íĨµ ê³Ħ
ĠëĽ°ìĸ´ ëĵ¤
ìĥģ ê°Ģ
ì¹ ´ì
Ġë°ľ ëłĪ
g l
ĠìĨ¡ ê¸Ī
ĠíķŃ ìķĶ
ĠíĮ¨ ë°Ģë¦¬
ĠëĮĢ ê°ķ
ĠìłĦ ìĨ¡
Ġë» Ĺ
ìļĶ ìĿ¸
Ġd is
ĠìļĶ ìĥĪ
ê²Ģì°° ì²Ń
lo w
Ġê°Ģ ìĨĶ
ĠíķĻ ëł¥
Ġê°Ģë¦¬ íĤ¤
ĠíĨł ë¡ľ
Ġì¦Ĳ ê²ģ
Ġë°© ì¶ľ
ĠìĦľíķ´ ìķĪ
Ġíķ©ê²© ìŀĲ
Ġli fe
ĠëıĦ ì£¼
Ġê°Ħ ì£¼
ĠíĬ¹ ê°Ģ
ëĭĪ ì§Ģ
Ġë ®
Ġë§Į ë£Į
Ġìĭł ìĦ¸
Ġì§Ģë°© ë¶Ħ
& #
Ġìŀ¥ êµĲ
Ġìŀ¬ ìĦł
ë¹Ħ ìĦľ
ĠíĤ¤ ìĬ¤
Ġ12 5
ĠíĶĦë¡ľ ìĦ¸ìĬ¤
ĠìĺĪìģ ľ
Ġíı¬ ì¦Ī
Ġê²½ ìĿĺ
íı¬ ì§Ģ
Ġì²ľ ìĹ¬
íķ© ë³ĳ
Ġëª ¹
Ġíı´ ë¦¬
ìĭľ ëĭ¤
ĠìĿ´ ì¤Ģ
ìºĲíĶ¼ íĥĪ
ĠëıĦìĭľ ëĿ½
Ġìĺģ ë¬¸
Ġë¹Ħ íķ´ìĦľ
Ġì²ľ ìĤ¬
Ġê°Ģ ëĤľ
ĠëĮĢëĭ¨ íŀĪ
Ġìĭ ¹
n b
Ġìĭľ íķľ
Ġê²½íĹĺ ì¹ĺ
Ġì¡´ìŀ¬ ê°Ĳ
Ġìĺ¤ìĬ¤íĬ¸ ë¦¬ìķĦ
Ġê±° ëĳĶ
ìĹ° ë£Į
Ġê¸° ë¬´ìĤ¬
Ġë³´ì¦Ŀ ê¸Ī
Ġë¯¸ ë£¨
Ġne w
{ {
Ġì° ¢
ì§ĳ ëĭĪëĭ¤
Ġm c
Ġìµľ ìŀ¥
Ġìĭł ëıĦ
íĬ Ģ
ëłĪ ìĿ¼
ĠíĨł ë§Ī
ìĺģ ë¯¼
Ġì£¼ê³ł ë°Ľ
ĠìĹ¬ ìĿ¸
ì¿ ¼
Ġìĺģ ì£¼
ìĤ° ëıĻ
Ġì¡° ë¥ĺ
Ġë¬´ ê±°ìļ´
Ġìľł ëĦ¤ìĬ¤ì½Ķ
Ġìºĺë¦¬ íı¬ëĭĪìķĦ
ĠíĶĦëłĪìĬ¤ ìĦ¼íĦ°
ĠìºĦ ë³´ëĶĶìķĦ
ìĿ¸ ìŀ¬
ëĤĺ ê°Ķ
Ġì´Ī ê³ł
¼ë ¯¸
Ġst ar
Ġìħ° íĶĦ
Ġìĸ´ëĸ» ê²Į
ĠìķĦë¥´ ë°ĶìĿ´íĬ¸
Ġê±° ìļ¸
Ġì¶ľ íĩ´ê·¼
ìĬ¤ íĨłë¦¬
Ġì¹Ń ì°¬
ĠíĮ¨ëŁ¬ ëĭ¤ìŀĦ
Ġìĥ Īëģ¼
Ġê·¸ëŁ° ì§Ģ
Ġë³µ ìļ©
Ġë°ľ ìĨ¡
Ġêµ¬ ìĦĿ
ë¡ľ ë³´
Ġì¡° ìĹħ
ìĥģ ìŀ¥
ĠìļĶ ìĸĳ
Ġê°ĢìĨĶ ë¦°
ĠìķĮ ëł¸
ĠìĻķ ë³µ
Ġ%âĨ ĳ
ìŀĳ íĴĪ
ĠìļĶ ìķ½
Ġë°ľ ë³ĳ
Ġê³ł ìĬ¤
Ł ĵ
ĠíĬ¸ ë¡ľ
Ġì¤ĳ ìĿĺ
ìķħ ëĭ¨
íİĺ ìĬ¤íĭ°ë²Į
ĠìŀĲê²© ì¦Ŀ
Ġã Ħ±
Ġë¹ Ķ
ìĥī ìĿĺ
ìĦ¼ ìĬ¤
Ġìŀĥ ìĸ´
ìĿ¼ë Ł¿
ĠìĿ´ ëª¨
ë ¤
Ġìŀ¡ íŀĪ
Ġìį ¬
íĥ± íģ¬
Ġíĥľ ê¶Į
Īë ¸Ĳ
ĠìķĦ íģ¬
ĠíĮĮ ì£¼ìĭľ
Ġë¯¸ íĦ°
Ġëĭ¨ ë§Ĳ
íĮ© íĬ¸
Ġëıħ ëł¤
p v
Ġë¡ľ ë²ĦíĬ¸
Ġì² ©
Ġíİ¼ì³Ĳ ì§Ģ
Ġì± Įë¦°
ĠìĹ° ì¤ĳ
Ġã Ĩį
ĥ ¥
ìŀ¡ ìĿ´
ìĸ¸ ìĿĺ
ĠìłĪ ëĮĢë¡ľ
ĠëıĮ ì§Ħ
Ġë³Ģíĺ¸ ìĿ¸
ĠëĬĳ ëĮĢ
Ġë¡ľ ê·¸
Ġë°© ìĤ°
ĠìĬ¤íĬ¸ ëĿ¼ìĿ´
Ġìĺ¤ ìĦ¸
ĠìĽĶ ìļĶìĿ¼
Ġì¹¨ ë¬µ
µ ´
Ġìŀ¥ ìĿ¸
Ġ198 6
b t
Ġíģ´ ë¦¬
Ġìķ Īì
ĠìĿ¸ íĦ´
Ġì¹¨ ìŀħ
Ġìĥģ ìĽĲ
ì§Ģ ê¸ī
ëĭ¹ ìĽĲ
Ġ19 50
ĠìĬ¬ íĶĪ
Ġê°Ī ìķĦ
ì§Ħ ìĿ´
Ġì£Ħ ìĨ¡
ìĽĮ ì¹ĺ
Ġê²° ëł¬
ĠëĶ¸ ê¸°
Ġì°¾ìķĦ ìĺ¤
Ġìłģ ìĭľ
Ġë§¤ìĪĺ ìĦ¸
ê° ±
Ġì§ĢìĽĲ ìŀĲ
ĠìĻ¸ ì¶ľ
Ġìĭł ìŀĳ
Ġìľ¤ ìĺģ
Ġìį ©
ìĺģíĻĶ ìłľ
Ġìĺ¤ ì¼ĢìĬ¤íĬ¸ëĿ¼
Ġëº ı
Ġê³µ ë£¡
² Ļ
ìĻĢ ìĿ´
ê²½ ìłķ
Ġë² ¼
Ġë©Ķ ëĭ¬
ĠìłĦëĳĲ íĻĺ
Ġë§Ī ëķħ
ê·ľ ìłķ
êµ° ìļĶ
ĠíĨł ëģ¼
ĠìĦľ ìĦľ
ĠìĿ´ë¤Ħì§Ģ ëĬĶ
ìĤ¬ ë¦¬
Ġìĭł ë¹Ħ
Ġê¸° ë¦¬
k s
ìĿĢ íĺľ
ĠëıĮìķĦ ë³´
¸ Ħ
Ġë§¤ëĭĪ ìłĢ
ĠìĥĪ ë§Įê¸Ī
Ġb r
ĠìĿ¼ ì£¼ìĿ¼
Ġëĥī ëıĻ
ou t
íĨł ì§Ģ
ĠìĿ´ ë¤ĺ
ì§ģ ìĿĺ
Ġíĸī ìļ´
Ġë°ĺ íĻĺ
ë©Ķ ëĵľ
Ġìĭ¤ ëªħ
ê³Ħ ìĦł
Ġë¶Ģ ìŀ¬
t p
ì¶© ìłľ
ĠìķĦ ëĭĻ
Ġìĭł ì¡°
ĠíıŃ ê²©
Ġìļ¸ ë¦ī
Ġê¸° íĺ¸
ì¥ Ĳ
Ġìĭľ ë¹Ħ
Ġìľł ë°©
ĠíĥĦ ìĨĮ
ĠíļĮ ë¡ľ
ë§ Ļ
ĠìķĪëĵľë¡ľ ìĿ´ëĵľ
Ġìĺ¤ ëĿ½
ìĬ¤ íĤ¬
ĠêµŃ ìĸ´
ìĬ¤ ìĻĢ
ì¹ľ íĻĶ
Ġìŀ¥ ë§Ī
ìłľ ìŀĳ
Ġì´Ŀ ê¸°
ë¶Ģ ì§Ģ
Ġì§ģ ìĨį
ìļĶ ìĨĮ
ĠìĹĲ ëıĦ
Ġë°° ëŁ´
Ġê¾ Ģ
Ġëĭ¨ íİ¸
ĠëıĮ ê²©
Ġê°ķìĽĲ ëŀľëĵľ
Ġìłľ ë²ķ
ĠìĤ¬ ë§ī
Ġíķ´ ìĤ°
Ġë¶Ī ìĭł
Ġìĸ¸ ëįķ
Ġëľ¨ ê²ģ
Ġê¸°ìĽĲ ìłĦ
ìĺ¨ ìĿĺ
¦ ¿
Ġì§Ħ ìĹĲìĸ´
ĠêµĲ ë³´
ĠíıŃ íĴį
ĠìĿ¼ ìĿĺ
Ġì°½ ë¬¸
Ġì§Ģ ìŀ¥
st er
Ġìłĳ ê²¬
ë°© íķ´
êµŃë¯¼ ìĿĢíĸī
Ġíļį ê¸°
Ġê²½ìĥģ ëĤ¨ëıĦ
ëıĻ ìĽĲ
ĠíĮĮìĿ´ ëĦĲ
Ġíĺ¸ ìļ°
ãĤ ¹
Ġìĸ´ ë¦¬
Ġë§Ī ë¦¬ìķĦ
Ġë¬´ìĸ¸ ê°Ģ
Ġì¹´ íħĮ
Ġcom e
Ġëĭ ī
ìĿ¸ì§Ģ ëĿ¼
íĪ ´
ëĶ° ëĿ¼
Ġì²ľ ìŀ¬
ìĪĺ ê¸ī
Ġë§Ī íĬ¸
Ġìĺģ ê°Ĳ
Ġê¹Ģ ì¤Ģ
ĠìĿĺ ìĦĿ
ĠìĤ¬ ìĽĲ
ĠëıĻ ì§Ģ
Ġíİ «
Ġê¸° ìłĪ
ì°½ ì¡°
ĠíļĮìĽĲ êµŃ
Ġìĭľ ìĿĺ
Ġìĸ ½
ìłĦ ì²ĺ
id e
ĠìĽĲ ê²©
ĨĴ ìĿ´
i e
Ŀ ¬
ë°Ķ ê²Ĳ
¬ì ĭ¤
ê³µ ëª¨
Ġì¶© ìĦ±
Ġì§Ģíľĺ ê´Ģ
ĠíķĻ ë¬¸
ĠìĹ° ìĦĿíļĮìĿĺ
İ ľ
ëł¥ ëıĦ
Ġê¹Ģ íĺķ
ĠìĿ¼ ì²´
Ġì°¨ ëĵ±
ĠëĪĪ ë¹Ľ
ìĿ´ ëŀĳ
ë°ĺ ëĮĢ
ëª¨ ë¡ľ
· Ģ
Ġìĥģ íĳľ
Ġê½ Ĥ
ì¦Ī íĤ¤
ĠìĦ¸ ë¥´
ĠìĬ¹ ì°¨
ìłľ ëĭ¹
ĠëĮĢ ê¸Ī
Ġê°Ĳ ìĪĺ
ëĸ ¡
Ġë³´ ê¶Ĳ
ĠìĨĮë°© ê´Ģ
íĤ ¥
Ġëĵ¤ìĸ´ ìĻĢ
ĠëĦ¥ ìĦ¼
h s
ĠìķĮ ëłĪ
Ġë°Ķê¹ ¥
ĠìķĦìĿ´ ìĬ¤íģ¬ë¦¼
ĠìĹ° ìķĪ
ĠìĻ¸ ê³½
ìĸ Ħ
Ġê³ł ì°½
ìĹħ ìĨĮ
Ġì°¨ ì²´
Ġf ol
íħĮ ë¥´
ĠìĿ¸ ìĩĦ
ģ ł
ĥ ¤
Ġì§Ī ìĦľ
ĠìĦ¼íĬ¸ ëŁ´
ì¶© ìĽĲ
ĠëĶĶ ìłĢíĬ¸
ĠëĪĪë ĨĴìĿ´
ìĦłê±° ë²ķ
Ġë³´ ì¶©
Ġë¯¸ ë¯¸
ëĬĶ ëĭ¤ë©°
Ġë³¸ ë¬¸
ìĤ° ëĭ¨
ĠëªħíĻķ íŀĪ
Ġs ay
Ġíĺ Ĳìĺ¤
a v
ĠìŀĲì¹ĺ êµ¬
Ġë¶Ħ ìĭĿ
Ġê°Ħ ê²©
ëķ Ĳ
Ġëª» ì§Ģ
Ġwan t
Ġì°¬ ë°ĺ
Ġìłģ íĺĢ
ëĮĢ ê¸°
Ġìŀ İ
Ġì²łëıĦ ìĹŃ
ĠìłĪ ë§Ŀ
ĠìĤ¬ëĿ¼ ìł¸
Ġm i
ĠëĤ® ì¶°
Ġíķĺ ê³Ħ
ê³ °
Ġ198 5
Ġë³´ ìłķ
Ġ16 00
i v
Ġto p
ĠìĤ´ íĶ¼
ëª¨ ìĬ¤
Ġê²½ ë³´
Ġë©ĶìĿ´íģ¬ ìĹħ
d g
ĠíĮĮ ìĿ´íĦ°
íĬ ¬
Ġê°Ģ ìĿ´
å °
° ¬
Ġìħĭ ì§¸
ĠìĤ° ì¶ľ
ëıĻ ë¶Ģ
ĠëĵľëŁ¬ ëĤľ
ĠìŀĲ ì¡´
ĠíĽ Ĺ
Ġëªħ ë¬¸
Ġë§Ī ëĭ¤
ĠìĿ¸ ëĶĶ
ìĿĢíĸī ìŀ¥
Ġìŀĳ ìĤ¬
Ġê´Ģ ìķħ
Įì½Ķ ìĺ¬
Ġìĭ¤ ì²´
ì½Ķ ìĸ´
Ġìľ¡ ìĥģ
ĠìĦľë¹ĦìĬ¤ ìĹħ
Ġì¹ĺ ìķĦ
íİĺ ìĸ´
ì¶Ķ ì²ľ
Ġê²½ ìĹ°
ĠëĨĵ ìĹ¬
ĠìĪ¨ ì¡Į
į ´
Ī ëĭ¤
Ġêµ¬ ì²Ń
Ġê¶Į ìŀ¥
Ġêµ° ì£¼
Ġì¡° ìķ½
ĠìĤ¬ íĺķ
Ġê²© íĮĮ
ìľĦ ê°Ģ
Ġë§¥ ìĬ¤
Ġìĥģ ê¸ī
ìĪĺ ìļķìŀ¥
ĠìĿ¼ ëĭ¹
ģ ´
Ġì·¨ íķ´
Ġê³ł ë¬´
Ġíķ¨ ìĦł
ĠìķĦìĿ´ ì½ĺ
ĠìķĦë§Ī ëıĦ
ĠìĿ¼ ê¸°
© ¡
ĠëĨĴ ìĿ¸
ĠíĽĦ íĩ´
íĶĦ ë¦¬ì¹´
ĠìĦ¸ ëł¨
k k
Ġë°ľ ì¡±
Ġê°Ģ ë¥´ì
ĠìĦĿ ìĤ¬
Ġi f
ĠìĶ½ íģ¬
Ġëĵ± ìĤ°
ë³´íĹĺ ë£Į
ĠìĬ¤ íĶ¼ì»¤
Ġê³łëĵ± íķĻìĥĿ
ê±´ ë¬¼
ìłķ ìĭĿ
ê³ł ìĭľ
Ġë¬ ´ì
ĠìĦł ê´ĢìľĦ
ìĺµ ëĭĪëĭ¤
Ġë£ Į
ìĥģ ìĦł
ìĺĪ ê¸Ī
Ġì²ĺ ì§Ģ
ĠìĪĺ ë£Į
ìĸĳ íĺ¸
å ¥
Ġë§Ī ë¹Ħ
ëª¨ ìĬµ
ĠíĮĮ ìĿ¼ëŁ¿
ĠíĥĲ ë°©
ë¯¸ ìķĪ
Ġ20 25
Ġë¶Ģ ë¥¸
ë³µ ìĿĺ
ĠìĦ± ê¸Ī
Ġìŀ¥ë¡Ģ ìĭĿìŀ¥
Ġíķĺ ì²ľ
ĠìĤ¬ ë£Į
Ġì£¼ ì¶¤
Ġë¸Į ëłī
Ġíķ´ ì§Ģ
íĿ¬ ë§Ŀ
ì¤ Į
Ġì¹ ´ì
ëĵ± ìĿĺ
ĠìĥĿê¸´ ëĭ¤
it e
Ġë¦¬ ìĦľì¹ĺ
ĠìĽĲ íĺķ
æ Ī
íľ´ ìĿ¼
ł Ľ
ìĿ´ ìłĦ
ĠìĿĺ ìŀĲ
Ġìĥģ ìĬµ
ĠìĺĪ ìĿĺ
ĠìĨĮ ì£¼
ĠìŀĲ ë¦½
Ġìį¨ ìķ¼
Ġé Łĵ
Ġyes photonewsis
íĤ¤ ìķĦ
ĠìłĢ ì¡°
Ġë§Į ìĿĺ
Ġìŀħ ìĪł
Ġìĭ¤ ìĬµ
Ġì£¼ë ĳĶ
ĠëĶľ ë§ģ
íĶĮ ëłīìĬ¤
Ġìłķ ìĭľ
ĠìĤ Ĳ
ìĽĲ ëĭ¨
ìŀ¥ ìĨĮ
Ġë²Į ìĹ¬
ê² Ģì¦Ŀ
ĠëĤĺìĻĢ ìĦľ
íĭ°ì »¬
ë§ģ íģ¬
Ġë³´ìĿ´ ì½§
Ĥ ©
ëĵľ ëŀĺ
ì±ħ ìĿĺ
ĠíĶ¼ íĬ¸
ì¼ Ħ
ĠìĤŃ ê°Ĳ
ĠëŃ ī
ĠëĦ¤ ìĺ¤
ĠëĤĺ íĿĺ
ĠíıŃ ì£¼
ëĤł ëłĪ
ìłĢ ìĬ¤
Ġì¦Ŀ ìķ¡
Ġëªħ ëıĦ
Ġë¯¸êµŃ ìĿ¸
ĠìĤ´ ì¶©ìłľ
Ġê²© íĪ¬
Ġìĺ¤ ëłĮì§Ģ
ĠìĪĺ ìĽĶ
ĠìłĦ ë³µ
Ġìĸ´ì©Į ë©´
Ġë¯ ¹
Ġê´ĢìĦ¸ ì²Ń
ĠìķĪ íĭ°
Ġêµ¬ ëĳĲ
Ġë¦¬ ëī´
ı ī
ëĤ´ ë¦¬
Ġìłķ ìłĲ
Ġ10 8
Ġí ĹĲ
Ġìłľìŀĳ ìĤ¬
ĠìķĪë³´ ë¦¬
Ġê°Ĳ ì°°
Ġìĭł ìĽĲ
ĠìĦľìĦľ íŀĪ
ĠíĽĦë°ĺ ë¶Ģ
Ġìķł ìłķ
ĠëĦ¤ íĭ°
or a
ĠëĮĢ ì¡°
Ġr ight
ëŀ ĺì
Ġê¸° ì¢ħ
Ġê¾¸ ë©°
Ĭ ĺ
íļĮìĿĺ ìŀ¥
ìĽ Įì¦Ī
ĠëĬĺ ëł¸
ĠíķĺëıĦ ê¸ī
Ġë°ķìĺģ ìĦł
Ġë°ľ ê¸¸
Ġíķĺ ëĤ¨
ìĬ¤ ëłĪ
Ġê°Ħ íĮĲ
êµ° ìĤ¬
ĠìłĦíĪ¬ ëł¥
Ġíķ© ì°¸
°ë ľ¨
ĠíĦ °ëľ¨
ĭ Į
Ġìĺģëĵ± íı¬
ìĨį ê¸°
Ġg dp
Ġìłĳìĸ´ ëĵ¤
ëļ Ŀ
Ġìłķ ë¬¸
ä ½
Ġì°¨ ìĿµ
íĶĦ ëłĪìĬ¤
Ġë°Ķê¿ ¨
íħĮ ìĿ´
Ġë¶Ħ ê³¼
Ġë§Ľ ê³¼
ì§Ģ ìĹ°
ĠìĨį íķľ
ì»¤ íĶ¼
Ġb p
Ġíģ´ ë¦°
ĠìķĮëłī ìĤ°
ëĲĲ ìľ¼ëĤĺ
ĠëĦ¤íĭ° ì¦Į
ĠìĿĺê²° ê¶Į
ìħĶ ìķ¼
ĠìķĦ ë¯¸
Ġíį¼ ìĬ¤íĬ¸
Ġëª¨ ìĬ¤íģ¬
Ġê±´ ëĦ¤
ĠëĤ´ ë©´
y u
íĿ¬ ìłķ
Ġë°ĺ ëĵ±
ì§Ħ ìĺģ
íĥĢ ê°Ģ
Ġìĭľëĭ¬ ë¦¬
ì£¼ìĿĺ ìŀĲ
ĠêµŃ ìķħ
ĠìĬ¤íĶĦ ë§ģ
ĠëıĻìķĦ ìĭľìķĦ
ĠìĨ¡ ì¹ĺ
ķ ŀ
ĠìķĦ ìĺ¤
ĠìĽĲ ê³ł
ĠìĶ ¹
ê¸°ëħĲ ê´Ģ
Ġê°Ģ ëĿ¼
íĬ¸ ë¦Ń
ìĹ¬ ìłķ
ìĪĺ ì²ĺ
Ġê´Ģ ê±´
Ġíı¬ ëıĦ
ëł¤ ëįĺ
Ġê²¹ ì¹ĺ
Ġ198 4
ëĮĢ ìĭĿ
Ġì¹´ì¹´ìĺ¤ íĨ¡
Ġê°ķ íķ´
íĺĦ íĻ©
Ġìĸ¸ë¡ł ìĤ¬
Ġíŀĺì ĵ°
ê³ł ìĤ¬
Ġíĥ ķ
Ġê²° ìĤ°
ĠëĬĲ ë¦¬
ĠíĮĮ ìĨĲ
ĠìĦľ íı¬íĦ°
ĠìĿ¼ìľ¼ ì¼ľ
Ġê¸° ìļ´
Ġë°ĶìĿ´ ìĸ´
ìĿĦ ìĪĺë¡Ŀ
Ġê°ķ êµ¬
Ġë§ī ìŀ¥
ĠêµĲ ë³µ
ĠëĨį ëĭ´
ĠíķĦ íĦ°
ìĿĢ ìĿ´
Ġì¤ĳ ìŀ¥
Ġë¬¼ ê³łê¸°
ľ ©
Ġìĸĳ ìĭ¬
ĠìĦ Ģ
ë²Ħ ëĵľ
Ġë¹ ¡
íģ´ ëŀĺìĬ¤
ìłĦ ì°¨
Ġìĭł ìķĻ
Ġì°½ìĹħ ìŀĲ
Ġp a
ê´Ģ ìŀ¥
Ġìľ¡ ì²´
ì»¤ ìĬ¤
ë³ ¼ë
Ġë§Īì ¸ł
ĠìĺĪ ê²°
ìľ Ĺ
Ġë¶Ģ ìŀĦ
íĬ¹ êµ¬
ĠëħĦ ì°¨
ĠìĿµ ìĤ°
ìħĶ ë¦¬
Ġìĸ ĩ
Ġì¦Ŀ ìĽĲ
ĠìĤ¬ë²ķ ë¶Ģ
ë¬¸ ìĦľ
Ġ13 00
ĠíıĲ ìĹħ
¡ ¬
ĠìĻ¸ íĻĶ
ì¤ĳìķĻ ì§Ģ
íĻĶ ìŀ¥
íĴį ìĿĺ
ì²Ń ëħĦ
íľ´ ê°Ģ
ëħ¸ëıĻ ìŀĲ
ĠìĹŃ ìĦ¤
Ħ ¥
ĠëĤ´ìĦ¸ ìļ°
Ġë¶Ģ ê²°
ë°ľ ìĿĺ
Ġì´Ī ë³´
ëŁ¬ ìĽĮ
ĠìłĦ ê²½
ĠìĿ¼ë³¸ ìĿ¸
Ġì± Ħì·¨
Ġìķ¡ íĭ°ë¸Į
Ġëĭ¤ ìŀĲ
j e
Ħ £
Ġë§ī ë§Ĳ
ĠíĻľ ì§Ŀ
íģĲ ìĸ´
ĠíĮĮ ìĿ´ìĸ´
Ġìµľ íĽĦ
Ġëĸł ìĺ¬ë¦¬
ìłľìĿ¼ ìłľëĭ¹
ì²´ ê²°
Ġì² ´ì½Ķ
Ġìłķ ì°°
ĠìĿ¼ìľ¼ ì¼°
ĠìºĲ ìĭľ
Ġh o
ĠìĽĥ ëıĮ
Ġì¤ĳ ì¦Ŀ
êº¼ë ²Ī
ĠìĿ¼ ì¢ħ
ĠëĪĪ ìķŀ
êº¼ë²Ī ìĹĲ
Ġê³¼ ìĭľ
Ġìļ° íļĮ
Ġíķľ êº¼ë²ĪìĹĲ
ë¬´ ì§Ħ
íģ¬ ë¦¼
ĠìŀĲ ë¶Ģ
íıĲ ê¸°
Ġê°ľ ìĽĲ
ĠìłĦ ìĤ°
ĠëıĻìŀĳ êµ¬
ê·¼ë¡ľ ìŀĲ
ĠêµŃ ê³µ
e y
Ġìĺ¥ ìĥģ
Ġìŀłìŀ¬ ëł¥
ĠìĪ¨ ê¸°
ìĬ¤ ì¼Ģ
ĠëĲĺ ìĤ´
ìĿĺ íķĻ
ë¶Ģ ì¡±
Ġìŀ¡ íĺĢ
Ġìĺ¬ëĿ¼ ìĻĶ
Ġìŀ¬ ìŀĦ
Ġê·¸ëĮ Ī
ë¶Ģ ìĦľ
ĠìĿ¼ ìĸ´ëĤł
ĠìĬ¹ ê³Ħ
Ġì°¸ ë°°
Ġìķķ ì¶ķ
ĠìŀĦ ìĿĺ
Ġì§ ¤
Ġa d
ìļĶ ë¦¬
Ġì§Ģì£¼ íļĮìĤ¬
ìĦ¸ ëį°ìĬ¤
ëĮĢ êµ¬
ë¹Ħ ì¹ĺ
ĠìĿĢ íıī
ĠíĨµ ìŀ¥
Ġê·¸ íķ´
ĠëĮĢ ì£¼ì£¼
Ġë³¼ ê±°ë¦¬
ĠìĿĳ ìļ©
ĠìĦłê±° ìłľ
ĠìĹ ´ìĩł
ĠìķĪìłĦ ìĤ¬ê³ł
ìĦ± ë¶Ħ
ĠíĬ¸ ìľĪ
t w
ëĵ¤ ìĹ¬
ĠëĤ´ëł¤ ìĺ¤
Ġì§Ģ ë¶ķ
ìĤ¬ ìĬ¤
ĠìĦł ìłĲ
Ġa li
Ġëħ¸ëıĻ ì¡°íķ©
Ġm l
Ġï¼ ŀ
Ġhw an
ĠíĬ¹ ì§ĳ
ĠìĿ´ ìĽĲ
Ġêµ¬ ì¶ľ
ìľ¼ëł¤ ëĬĶ
ĠìłĦëĿ¼ ë¶ģëıĦ
ì£¼ íķľ
ëĶ ¸
ë²ł ìĿ´ìĬ¤
Ġìį¨ ìĦľ
ĠëģĪ ëĭ¤
Ġê¹Ģ ì°½
ĠìĪĺ ì§ģ
Ġe tf
Ġë¦¬ íı¬íĬ¸
Ġê¼ ¼
Ġì´ Į
ìĸ´ ìĦł
" ,
Ġ19 0
Ġë°± ìĦ±
è »
Ġs r
Ġìłķ ëł¹
ëĨį ëıĦ
Ġìķł ëĦĲë¦¬ìĬ¤íĬ¸
ĠìĥĿëªħ ëł¥
ëª¨ ì§ĳ
ĠìĨĮ ê°ģ
ë©´ íĹĪ
Ġjt bc
Ġëĭ¤ê°Ģ ê°Ģ
ĠìĤ° íĥĢ
Ġn pc
t b
Ġê½ ī
Ġìľł ìĿĢíĺľ
ì¦Ŀ ì§Ħ
Ġê³ ¼ì
ëļ ±
Ġê¾¸ ëł¤
Ġìłķ íĸĪ
ìĪĺ ìĥģ
ĠìĦ¸ ìħĺ
ĠìĨĮ ë§Ŀ
Ġå īį
ĠìĹ° ë©´ìłģ
Ġê°Ģ ì£½
ê²½ ë¹Ħ
Ġìĭł ìĤ¬
ĠìĨĮ ê¸Ī
íĶĮ ëŀ«
ĠìĪĺ ëªħ
Ġì¹¨ ëª°
Ġê´Ģ ìŀ¥
Ġìĥģ ìĿĳ
Ġhwan newsis
ĠëĤĻ ëıĻê°ķ
Ġê¹Ģ ìĦł
Ġê¹¨ ëĭ¬
Ġë¸Į ë¡ľ
ì¹ ©
ĠëĤĺ ì£¼
ìħĶ ìĦľ
Ī ĩ
Ġê°ľ íĳľ
x t
Ġê³¼ ë°ĺ
ìĤ¬ ìĥģ
¶ Ķ
Ġg a
Ġì² ¼
Ġë©Ķë¥´ ìĦ¸ëį°ìĬ¤
ģ ı
Ġê°ķ ì§Ħ
Ġíį¼ ì§Ģ
ĠìĦ± ê²½
íĮĮ ìĽĮ
¶ ľ
ìľł ì¶ľ
Ġìĺ¨ ì²ľ
ëļ ľ
ìĿĢ ìĿĺ
ĠìĭĿë¯¼ ì§Ģ
Ġëħ¸ë¥´ ìĽ¨ìĿ´
íĮ Ŀ
ĠìĹ´ íĴį
Ġì½Ķ ì½Ķ
ëĿ¼ ëħ¸
Ġíĥľ ìļ°
ĠìĿ¼ ê°Ĳ
ĠìĿ¼ ê°Ģ
ĠìĿ´ ìĦĿ
ìľ¼ë Ł¬
ĠëķĮ ë¡ľ
Ġë¶Ģ ì¹ľ
Ġíľ ©
Ġê²Į ìĿ´ì§Ģ
Ġë³¸ ëĭ¤ê³ł
ãĥ ©
ëĤĺ ê°Ħ
ê´Ģê´ĳ ê³µìĤ¬
ìĹĶ ì§ĢëĭĪìĸ´ë§ģ
ìĿ´ ëıĻ
æ ¯
Ġì½Ķ ë¯¹ìĬ¤
íĻľ ìĦ±
ĠìĽĲ ì¡°
ĠìĹĲ ë²Ħ
Ġìıł ë¦¬
Ġê° ¯
Ġ P
c v
ĠëĪĦ ëĤĺ
ìłľ íĳľ
ĠëĮĢ ìĦ¸
ìĬ¤ëŁ¬ ìĽĮ
ĠëĤ¨ ìļ©
íķĺ ë£¨
íĽĦ êµ°
ìķ µ
ìļĶ íĥĢ
ìĪĺ íķĻ
ë²Ħ ìłĦ
ģ Ŀ
j c
Ġv er
ëŀĢ ìĬ¤
Ġë°Ķ ëĶĶ
Ġì²ľ ì²ľ
ëĵ¤ ìĿ¸
Ġíİ ĳ
Ġn ot
Ġìĺ¤ ìĭł
Ġìĭ¤ìĪĺ ìļĶ
ĠëĦĺ ê²¼
Ġë¹Ħ ë¬´ìŀ¥
Ġíķľ ëĪĪ
Ġì´Ŀ ìķ¡
Ġê¸° ì°¨
íķĺ ëĭ¤
Ġêµ¬ ì§ģìŀĲ
ĠêµŃ ê¸°
ĠíĥĢ ìłĲ
Ġë²ķ ê´Ģ
Ġëĭ¹ì²¨ ìŀĲ
Ġìĺ¨ ëĭ¤
ĠëıĮìķĦ ê°Ī
ìłķ ë°Ģ
ĠëĪĮ ëŁ¬
ë°ľ ìĤ¬
ëĦ¥ ìĬ¤
Ġë£¨ ìĿ´
ë¶Ģ ìĿ¸
ìħ °
ìłĢ ìļ°
ĠíĮĮ ìļ´ëĵľ
ĠìĦľ íĽĪ
Ġíģ´ ë¦Ń
Ġê·¼ ìĽĲ
ëĦ¤ ë§Ī
ë§¤ ì¶ľ
Ġíĺ¼ íķ©
Ġ2 25
e b
íĺĳ ëıĻì¡°íķ©
s f
Ġë²Ī ê°Ģ
Ġ11 5
Ġê°ķëł¥ íŀĪ
ĠíĹĮ ìŀ¬
ëłĪ ìĸ´
ĠìĦ¸ ëĭ¨
ìĺģ ìĹŃ
ë©Ķ ìĿ´íģ¬
Ġì²ľì²ľ íŀĪ
Ġíıī ëĵ±
ê¹ Ĭ
Ġì¹ ©
ĠìĦłë³´ ìĹ¬
Ġëª¨ ìĭľ
ĠìĹ¬ëŁ¬ ëª¨ë¡ľ
Ġê²¬ ë³¸
Ġê³ł ë§Ļ
Ġì¤ĳêµŃ ìĸ´
Ġê³Ħ ê³¡
ĠìĿ´ì¢ħ ì²ł
ìļ© ìĹŃ
Ġíķ´ ë³Ģ
ìŀ¬íĮĲ ìĨĮ
ĠìķĦë¦¬ ëŀĳ
Ġì¿ł íĤ¤
Ġíķ© ìĤ°
ëĭĪ íĭ°
Ġê²½ ì²Ń
Ġë¬¼ ìĿĺ
Ġê¸Ī ìĹ°
ìĨĮë°© ìĦľ
Ġìŀħ ëĭ¹
Ġë¶Ģ íĦ°
½ ķ
ĠìĦ¸íĥģ ê¸°
ë¶Ħ ë¦¬
íķľëĭ¤ ë©´ìĦľ
ĠìķĦ ë°Ķ
ë³´ íĽĪ
Ġê³¼íķĻ ìŀĲ
ëħ¸ ìľĦ
Ġë¶Ģ ì¶Ķ
ìŀĳ ë¬¼
Ġë°° ë¶Ħ
Ġ10 2
Ġìĭł ìĥģ
ĠíħĮ ëĿ¼
ë³µ ë¬´
ĠìĬ¤ íħĶ
ëĤĺ ë¦¬
Ġê°ľë°ľ ìŀĲ
j o
ĠëĤ´ ê±¸
ĠëıĻ ìĥģ
ë²Ħ ê±°
ĠìĬ¤ íĨ¡
Ġìĸ¸ ëįĶ
Ġë§Ī ëĶĶ
ĠëĤ© ëĵĿ
Ġë§Ī íı¬
ĠëĶ ¥
Ġê²½ ê´Ģ
Ġë¡¯ëį° íĺ¸íħĶ
Ġ18 00
Īì ·¨
ĠìĤ¬ ì§ģ
Ġë¹Ħ ëĭĲ
ãĤ Ī
ĠíķĻ ìĹħ
Ġìłķ ë³µ
íİĻ íĬ¸
Ġìĸ´ ìĽĮëĵľ
Ġë¶Ģëĵľ ëŁ½
Ġì°¾ìķĦ ìĺ¨
Ġìĭłë¢° ëıĦ
ĠìĮį ëĳ¥ìĿ´
ãģ Ļ
ĥ ±
Ġê°Ģ ëĭ´
Ġê³µ íĹĮ
Ġë§Į ìĿ¼
ĠëŁŃ ìħĶë¦¬
Ġë¶Ģ ìĸĳ
Ġê³łêµ¬ ëł¤
Ġìļ© ìĤ¬
Ġne ver
ĠìĽĶ ê°Ħ
ê°ķ ëĭ¹
Ġêµ¬ ê¸ī
ĠêµĲê³¼ ìĦľ
Ġ" ,
å Ń
ĠíĽĹ ëĤł
Ġë§Ī êµ¬
ĠíĨ °
Ġìĸĳ ìĿĺ
Ġë¶ģ ë°©
ĠìĤ°ë¦¼ ì²Ń
ê² Ł
Ġ L
Ġë³Ħ ìĦ¸
ëŀĢ ëĭ¤
ĠíĬ¼ íĬ¼
íķ´ ìĦĿ
ĠìĻ¸ ìĭł
Ġìĭ £
ì§Ģ ìłķ
Ġê¸° ë²ķ
o i
ê¶ ¤
ĠíĮĮíĬ¸ëĦĪ ìĭŃ
íĥĿ ìĭľ
ĠíĻĶ íıĲ
Ġìļ° íİ¸
ĠêµĲ ìłķ
Ġíķľ ìĪ¨
Ġëĭ¹ ì§Ħ
Ġd ream
Ġìĭľì¹´ ê³ł
Ġê°Ĳ ì¶Ķ
Ġì¼Ģ ìĿ´íģ¬
Ġìŀħ ë§Ľ
Ġê¹Ģ ë¬¸
Ġo p
Ġìŀħ ì£¼ë¯¼
íĻį ë³´
Ķ ¬
Ġê°Ģì¡± ìĿĺ
ìłĦ ì²ł
Ġë°ĺ ì§Ģ
Ġë¯¸ ìĦ±
Ġë¹Ħ ë¹Ħ
Ġì£¼ ìłĢ
ìĬ¤ íĨ¤
Ġwor ld
êµĲ ì²´
ĠìŀĶ ìķ¡
ĠíĽĦìĽĲ ê¸Ī
Ġìĺ¤ë¥¸ ëĭ¤
Ġëĸł ìĺ¤
ì§Ħ ë¡ľ
íıī êµ°
Ġì´Ī ì°½
ì§Ģ íľĺ
ê³¼ë ¬¼
Ġë¶Ģ ìĿĺìŀ¥
Ġìłľìŀĳ ì§Ħ
Ġìłķ ê³Ħ
Ġëĸ¡ ë°¥
ìĸ´ ë§ģ
Ġê¹Ģ ì£¼
ĠíĥĢìĿ´ ê±°
Ġë¡ľ ë³´
ê°ľ ìļĶ
Ġíķĺ íĥľ
Ġì¢ħ ìłĲ
er s
Ġìŀ¥ëĤľ ê°Ĳ
u i
íĭ° ì§Ģ
ĠêµĲ ëıĦ
Ġì ³¤
ĠëĤ¨ ìķĦ
ìĨĮë¹Ħ ìŀĲ
Ġì±Ħ íĮħ
Ġê°Ģë§Į íŀĪ
ĠìĤ¬ìĿ´ ëĵľ
Ġë§Ĳ ìŀĲ
Ġê² ¹ì
íĺĪ ìķķ
Ġíľ© ìĭ¸
Ġë³´ ë¥ĺ
íĽ ¼ìĨĲ
Ġë³µì§Ģ ë¶Ģ
ëĭ¤ ìĿĮ
Ġë§Ī ëĭ¹
ëĥ ī
íĥĦ ìĨĮ
Ġ2 10
Ġíĺ¸ì ĭ¤
Ġì°½ ëĭ¨
ìĺ µìħĺ
Ġê¹Ģ ìĹ¬ìłķ
ë¹ ħ
Ġê´Ģë¦¬ ìŀĲ
ĠìķĦëĭĮ ì§Ģ
ģ Ĩ
ļ ķ
Ġê¸° ëĤ´
ìĨĮ ë¬¸
Ġê°ķ ëıĻ
ĠìĹ¼ ì¦Ŀ
íģ¬ ìĬ¤
Ġsk t
ĠíĦ° ìł¸
Ġì¹´íħĮ ê³łë¦¬
Ġë¬ĺ ì§Ģ
ĠëĤĺìĬ¤ ëĭ¥
Ġìľ¤ ìĦĿ
Ġë¶Ī ëł¸
º ¼
ĠìłĦ ëĮĢ
ëłĪ ìĿ¸ì§Ģ
Ġìĺ Ĳ
Ġê°Ħ íĺ¸ìĤ¬
ĠíĬ¹ ìľĦ
ĠëĮĢ ëĤ´
ĠëĴ Ģ
Ġë§Īë¦¬ ìĺ¤
Ġê³¨ ëĿ¼
ĠìŀĬ íĺĢ
ĠìĤ¬ê°ģ ì§ĢëĮĢ
ê²½ ë¶ģ
Ġìļ° ìĤ°
Ġb lu
ĥ ľ
âĵ Ĵ
ì²´ êµŃ
Ġìļ¸ìĤ° ìĭľ
ì§Ģ ìĭĿ
Ġë§¥ ëĿ½
íĺ ĲìĿĺ
ĠìĺĪ ëħĦ
Ġìĺ¤ë¡ľ ì§Ģ
ĠëıĻ êµŃ
Ġíĸĩ ìĤ´
Ġê¸° íķľ
ĠìĹ¬íĸī ê°Ŀ
Ġëĭ¬ëĿ¼ ì§Ħ
ĠìĬ¤ íİĺìĿ´ìĬ¤
ìĭĿ ë¬¼
ĠíĮĮ ìŀ¥
ëĵľ ë¦½ëĭĪëĭ¤
ĠìĦ¸ ìĪĺ
Ġëĭ¹ ê¶Į
Ġë¯¸ ìļ©
Ġì¼ Ī
Ġi i
Ġì§Ģì£¼ ìĤ¬
ìĨĶ ë£¨ìħĺ
ĠìĿ´ ëŁ´
Ġë°° ìĪĺ
ê± Ģ
Ġíĺ¸ ê°Ĳ
ĠìĨĮ íĻĢ
Ġìºł íķĳ
Ġìĸ´ ëĵľ
Ġì¢ħ ìĤ¬
ĠìĬ¤ íĭ¸
ĠìĦ± ë²Ķì£Ħ
ĠìĬ¤ ëħ¸
ĠíĤ¨ íħįìĬ¤
ìĨį ìĿĺ
Ġíĳ¸ íĭ´
ĠìĿ´ ëĮĢ
Ġr u
ë¦¿ ìĪĺ
ìĻ ľ
ĵ ã
Ġê°Ģ ìļĶ
ĠìŀĦ íķĺ
ĠìĬ¤ ìºĶ
ì¤ĳ ê³Ħ
Ġìĭ¤ íĺķ
ëĿ¼ìĿ´ ë¸Į
w t
ìĨĲ íķ´
ĠíĦ° ë³´
Ġëĵł ëĭ¤
æ Ŀ
Ġë°Ģ ëłĪ
Ġë§¤ ì¹Ń
ëĤ´ ìĹŃ
Ġìķħ ê¸°
ĠëĤ´ ìĦ±
ê°ģ ìĦľ
ëĮ Ħ
ê²¬ ìĿ´
ìĭľ ëĤ´
ĠëĨį ìĸ´ì´Į
ê°Ī ëĵ±
Ġëĭ¤ íģĲ
Ġê¸ī ìĨį
ŀ Į
Ġìľ Ļ
ĠëĤĻ íķĺ
ìĭľ íĶ¼
Ġdo wn
ĠìĤ¬ ë©´
ĠìĿ´ë£¨ ìĸ´ìł¸
Ġìĸ ĺ
ĠëıĮìķĦ ëĭ¤ëĭĪ
Ġë§Ľ ì§ĳ
Ġê°ĳ ìĺ·
Ġíķ© ë²ķ
ĠìĭłìĨį íŀĪ
Ġì¡°ìĦł ìĹħ
Ġp art
ìĬ¤íħĮ ìĿ´íĬ¸
ĠëįĶìļ± ìĿ´
ìĹĲ ë¥´
Ġì¹¨ ê³µ
ĠâĹ ı
ĠëĿ¼ ìĬ¤
Ġê¸° ìĥĿ
Ġëª¨ íĺķ
Ġìłķ ë¥ĺìŀ¥
Ġëĵł ëĵł
Ġë³´ ëł¹
Ġëĭ¤ìļ´ ë¡ľëĵľ
Ġê³¼ì ĭ¤
ĠìĪĺ ëł¨
Į íĶĦ
Ġë¶Ħ ëĭ¨
Ġ3 30
ëĮĢ ìĹĲ
Ġìļ¸ ë¦¬
ĠíĶ¼ ìļ°
ĠìĮĵ ìĿ´
Ġìµľ ìĥģìľĦ
Ġì¤ĳìķĻ ìĿĢíĸī
ì¼ Ī
ë° ĳ
ĠìĻ¸ ê´Ģ
Ġìĺ¤ ëĦĪ
Ġëĸ¨ìĸ´ ì§Ħëĭ¤
êµ¬ ëĭĪ
Ġëª¨ ê¸Ī
ĠìĭłìĦ¸ê³Ħ ë°±íĻĶìłĲ
ê³ §
ĠìļĶ ì½Ķ
íı¬ì§Ģ ìĹĦ
ĠìĹ¬ íķĻìĥĿ
Ġë§Ī ë¦°
ĠíĻį ì¢ħ
Ġë§¤ ë²Ī
ê²Į ìĿ´
ĠíĺĦ ìĪĺ
ê°Ģ ìĭľ
Ġë¦ ½
ĠìĬ¤ ì¿¨
Ġê°ķ ìĪĺëŁī
ĠëĴ ¤ì
ĠëĶ° ìľĦ
ĠëĲľ ëĭ¤ë©°
ãĥ Ī
Ġì¶ĺì¶Ķ ê´Ģ
Ġê³ł ì³Ĳ
Ġë²Ī ìĿ´
Ġì ĩ
Ġê³łìĬ¤ ëŀĢíŀĪ
Ġê¸´ë°Ģ íŀĪ
Ġì¡° ì§Ĳ
ĠëıĮ ìĹ°
Ġê°Ħ íĺ¸
íĺľ íĥĿ
ìĭ¤ ìĹħ
Ġê¹Ģ íĺľ
Ġë¬¼ë ĨĢìĿ´
Ġê²½ íĿ¬
Ġì¶ĺì²ľ ìĭľ
ì¦Ī ëĭĪ
ig h
ĠíĽĦ ë°©
ĠíĨµ ë¡ľ
ĠìķĶ íĿĳ
ĠìľłëĭĪ íı¼
Ġë§Į ìŀ¥
Ġìłľ ìĿĺ
ì¤ĳ ëĭ¨
ĠìĦ± ë¶ģ
Ġ198 3
ì§Ī ìĦľ
Ġd a
ĠëĤ¨ìĸĳ ì£¼
Ġë°± ìłľ
ĠëĦĵ íŀĪ
ĠëĮĢ ìĪĺ
Ġs w
Ġìłķ ì°¨
Ġ3 65
ĠëĮ Ħ
Ġì»¨ ë²¤ìħĺ
Ġì¤Ħ ì¤Ħ
Ġì¡°ìļ© íŀĪ
Ġìĭłì²Ń ìĦľ
ĠíĶĦë¡ľ íķĦ
ĠìĹ° ê³ł
Ġê±´ ëį°
ĠëĤŃ ë¹Ħ
ë¶Ģ ìĦ¸
Ġê¹Ģ ìĿĢ
Ġê°ķ ëł¬
ĠëĬĺ ë¦´
Ġíİ¼ ì¹ł
ĠëĲł ì§Ģ
ĠìĿ´ ê²¬
Ġk o
ĠëĿ¼ìĿ´ ëįĶ
ĠìĹĦ ìłķ
th ing
ĠìĨĮìĭĿ íĨµ
Ġw ay
ł ë¦¬
Ġì§Ģ ì¹ľ
ì§Ģ ëħ¸
ĠìķĪ ìĤ°
Ġê³łìļ© ë¶Ģ
² Ĳ
ĠìĿ¸ íħĶ
ëĵľ ëłĪ
ĠíļĮ ìĥģ
æ ĺ
Ġë°Ķ ëĤĺ
is s
ìĨĮëĵĿ ìĦ¸
ä ¼
Ġê·ĢìĹ¬ ìļ´
ĠíĥĿ ì§Ģ
Ġim f
ëĪĦ ìĬ¤
Ġê³ł ì§ĳ
Ġëĵľ ë¦½
ĠìĿ´ì£¼ ìĹ´
ĠíķŃ íķ´
Ġë¯¸ìĪł ê´Ģ
Ġé ĩ
ë¶Ħ íķł
Ġì°¨ ìĦł
ĠìĪĺìĤ¬ ê´Ģ
Ġì§Ģ íĤ¬
Ġ3 20
ìĨĮëħĦ ëĭ¨
b j
ê³¡ ëıĻ
u b
ĠìĹ¬ ì£¼
Ġ2 80
Ġy e
Ġc a
Ġê°ľ ìĹħ
ìĨį ìĦ±
Ġê²° ê³¼ë¬¼
ĠìłĦ ê³¼
Ġê³µ íĳľ
Ġíķ´ ìĹŃ
j p
Ġìĺ¬ëĿ¼ ìĺ¨
Ġêµ¬ ìĤ¬
Ġê°ķ íĴį
ĠìĦłê±° ë²ķ
re e
íĮ¡ ìĿ´
Ġë°ľ ê±¸ìĿĮ
Ġëĭ¨ íĺ¸
ĠìĹ¬ ìĦ¯
ëĤĺìĿ´ íĭ°
íĬ¸ ë¡ł
ĠìĥĿ ëŀµ
Ġëĭ¤ë¦Ħ ìĹĨ
£ ½
ĠìĥĿ ì²´
ãģ į
ĠìķĦëĭĮ ëį°
Ġì¤Ħìĸ´ ëĵľ
ìĭł ëĿ¼
? â
ĠìĤ½ ìŀħ
ĠêµŃ ìĻ¸
Ġìĭ¤ìĪĺìļĶ ìŀĲ
Ġ20 23
êµ¬ ìŀ¥
ĠìĭłëħĦ ìĤ¬
si on
ĠíĶ¼ íĦ°
Ġë³´íĨµ ì£¼
ĠìĻ¸ ê³Ħ
ĠìĨĮ ëĭī
Ķ °
Į ã
ĠìĦł ëĮĢ
Ġn c
Ġê¹ ¡
ìłĦ ëĮĢ
ĠìĨĮ ìķĦ
Ġíķĺ ìĿ´íĬ¸
ĠìķĪ ìĬµ
ìĨĮ ìĬ¤
íı´ ë¦¬
Ġíģ¬ë¦¬ íĭ°ì»¬
ì£¼ ê¸°
ĠìłĦ ëĿ½
ĠëĤĺ ë¹Ħ
ĠíĴĢ ëł¤
Ġë°ľ ëĿ¼
Ġë°Ķ ê°Ģ
Ġêµ¬ ë³Ħ
ĠìĪ¨ ê²¨ì§Ħ
ĠëĤĺëī ľëĭ¤
Ġì¹´ ìŀĲ
Ġfi fa
ĠâĦ ĵ
Ġ198 2
ë²ł ìĬ¤
Ġê´Ģìĭ¬ ìĤ¬
Ġë¹ĦëĮĢ ìľĦ
ĠëĦĺìĸ´ ìĦł
ëĨį ê°Ģ
ĠìĻĦ ëıĦ
Ġê³¼ ìŀī
Ġê¸° ìłĢ
i ve
Ġíģ¬ ëłĪ
Ġì§ģ ìľĦ
ĠìĿ´ íĺľ
Ġëª¨ íĺ¸
Ġ10 6
Ġì¹ľ ìłĪ
Ġ10 3
ëĤ¨ ìļ©
Ġìķ °
Ġë²łìĿ´ ë¹Ħ
Ġë§Į ìĦ¸
ìłķ ëıĻ
ĠìĪĺ ëĭ¹
Ġ11 6
Ġë¬´ ìłģ
Ġë©´ ëª¨
ĠëĦ ĺì
ĠíĮĶ ë¦¬
ê´Ģë¦¬ ìľĦìĽĲíļĮ
ĠìĿ´ íĺĦ
Ġê³µ ìĹħ
âĺħ âĺħ
Ġê·¹ìĭ¬ íķľ
ìĪĺ ëĭ¤
Ġma ke
ìį ¸
ĠìĽ¬ ë§Į
Ġë¶Ī ì¶ľ
Ġì¡° íĺķ
Ġìĥ ·
Ġíĺ¸ ìĿĺ
Ġë§Ī ê·¸
íķĻ ê¸°
ĠìĦ± ìĤ°
Ġëĭ¬ ê±Ģ
ìŀĲ ìĿ´
ĠëıĻ êµ´
ì¢ħ ìĿ¼
ìĸ´ ë¶Ļ
íĮĮ ìĽĲ
ĠìĽĲ ë¡ľ
ìĦ¸ ê¸°
ê±´ ìĿĺ
ĠíħĮ ìĬ¬ëĿ¼
Ġë°Ģ ìłĳ
ĠíĴĢ ë¦¬
ëŀĦ ëĿ¼
ê´ Ģì
Ġëª° ëĿ¼ëıĦ
ëĦ ī
Ġëŀľëĵľ ë§Īíģ¬
Ġê³µ ìļ©
ĠëĤ´ êµ¬
Ġë¦¬ ìĬ¤
ĠëĬĺìĸ´ëĤľ ëĭ¤
Ġì¢ħ ê²°
ĠìĤ¬ ìłľ
Ġìĭł ì£¼
Ġìĥģíķľ ê°Ģ
ëłĪ ë²¨
ì¤ĳ ëıħ
Ġê°Ħ ìłĪ
ne t
ê²½ê¸° ìŀ¥
ĠíĮĮ ë¬¸
ĠìĮĵ ìĹ¬
Ġìĸ ¼ë
ĠìĿ¸ ìĦ±
Ħ ë¦¬íĭ°
å Ī
Ġâ Ķ
ĠìĤ¼ ê°ģ
ĠìłĦ íķ¨
ĠìĬ¤íĬ¸ë¦¬ íĬ¸
íĶĮëĿ¼ ìŀĲ
Ġê°ģ ìĺ¤
Ġê´ĳ ë²ĶìľĦ
ĠíķĻ ëĮĢ
ĠëĤ¸ ëĭ¤
ĠíĨµ íķĻ
ìĦĿ ìľł
ë³ ¶
ĠìĤ¬ì¿ł ëĿ¼
ìĤ¬ ë¡ľ
ĠâĢ ¢
Ġìĸĳ ìŀ¬
ĠíĴ ĭ
Ġìĭł ì´Į
Ġì§ģ ìĦł
Ġì£¼ìľł ìĨĮ
Ġëĭ Īì½Ķ
Ġê¸°ëħĲ íĸīìĤ¬
Ġìļķ ìĦ¤
Ġìĺ¨ ìĭ¤
Ġìµľ ê²½
Ġë°ľ ë¶Ģ
Ġìĺ¹ íĺ¸
Ġë¸Ķ ë£¸
Ġë¡ľ ì¦Ī
ĠëıĻ ê¸ī
ĠìĪĺ ê°Ĳ
íķŃ ëª©
Ġ10 4
ĠëĶĶ ë°Ķ
Ġì¹ĺ ê³¼
Ġc v
Ġp re
ľ âĵĴ
ĠëĳĲëł¤ ìĽĢ
Ġì§Ģì§Ģ ì¸µ
ĠìĹ° ìĤ¬
äº º
Ġì»¤ ì§Ħ
ĠìĿ´ëıĻ íķĺ
íĥĪ ë¦¬
ë§¤ ìĿ¼
ê³ł ëĵ±
ĠìĿĢ íĺľ
Ġíķľ ëĳĲ
ĠìĪĻ ëł¨
Ġic bm
Ġì§Ģ ë¢°
ì§Ģ ìĿ¸
ļ ľ
Ġì¤ĳ ëŁī
ĠìĿ¸ ê²©
Ġ12 8
Ġíķ´ ì¹ĺ
Ġê´Ģëł¨ ìŀĲ
Ġê²½ìłľ íķĻ
Ġìĺ ´
Ġì²Ļ ì¶Ķ
ľì ħĺ
Ġê°Ħ ìĭĿ
ìĭľ ìĦ¸
Ġëª¨ìĬ¤íģ¬ ë°Ķ
ĠíĻľ ê¸°
ĠìķĦë¦Ħëĭ¤ ìĽĢ
Ġì¡° ê²½
ĠëĮĢ ëªħ
ëĿ¼ ê°Ģ
ĠìĦł ëªħ
m t
Ġë¯¸ ìĸĢ
ĠêµĲ ìłĦ
Ġì·¨ íķŃ
Ġê²½ ê°Ĳ
ê²Į ìļĶ
ìł ĢìĶ¨
ĠìĬ¤íĥĢ íģ¬ëŀĺíĶĦíĬ¸
ì¹´ ë¦¬
Ġê´Ģ ë¬¸
Ġì¶ľ ìłľ
ë¹Ħ ëĶĶìĺ¤
ëĮĢìĤ¬ ê´Ģ
² Ł
ĠëĤĻ ê´Ģ
ĠìĬ¤ ìĬ¹
ê±°ëŀĺ ë²ķ
ì¼ ľë
ê¸° ëıĦ
Ġì¶ķ ë³µ
Ġì´Īì°½ ê¸°
ìĻĦ íĻĶ
Ġìĭ¤ ë¬¼
Ġì§Ģ ì¼ľë
íĻľëıĻ ë¹Ħ
Ġìĺ¬ë¦¬ ë¸Į
Ġê¸° ìļ©
Ġìĭ¸ ìļ¸
Ĭ Ģ
ĠíĮĮ ìĿ¸
Ġëĭ¬ ë¹Ľ
ĠíĬ¸ ëŀĺ
Ġìĺ¤ ìĿ¼
ĠìĿ´ íĿ¬
Ġìĺ¤ëŀľ ë§Į
Ġíİ¼ ì¹ľëĭ¤
ĠìĿ´ ìĭĿ
ĠìĪ¨ ê²¨
Ġìŀħ íŀĪ
ic k
ì¼Ģ ìĿ´ëĵľ
Ġê°Ģìłķ ìĿĺ
ĠìĤ¬ìļ° ëĶĶ
ĠìĽĲ ë³¸
ëıĻ ìŀĲ
ìĦ¬ ìľł
Ġê¹ĢìĿ¼ ìĦ±
ìĥģ ìŀĲ
Ġìĭ¬ ìłķ
Ġp o
ìĵ ¸
ĠêµĲ ì§ģìĽĲ
ä ¹
ĠãĢĭ ,
Ġê°Ģë¥´ ì¹ĺ
ìĸ´ ëĨĵ
ìĹ° ìĬµ
Ġíĺ¸ ìľĦ
æ °
Ġê²½ íĺĳ
ë¹Į ë¦¬
Ġì¹ĺëªħ íĥĢ
ìĭŃ ëĭĪê¹Į
ìĨ¡ ìĿĺ
Ġ G
Ġê°Ĳ ë¦¬
Ġê¹Ģ ì²ľ
ĠìŀĦ ì§Ħ
Ġso c
ê² Ķ
ĠìĿ¼ íıīê·ł
ë²Į ëłĪ
gr ound
Ġê°Ħ íĺ¹
Ġg e
ĠìĭŃìŀĲ ê°Ģ
ĠëĮĢ ëıĻ
ëĿ¼ìĿ´ ëĵľ
Ġì¡° ì¡°
Ġíĩ´ ìŀĦ
ĠíĥĲ ìĥī
Ġê³ł ë¶Ģ
ì»¤ ë¨¸ìĬ¤
Ġê¸°ë¶Ģ ê¸Ī
ĠìĨĮ ìļ©
Ġìĺģ ìĽĶ
ĠìĹ° ìĤ°
ĠìĦ±ìŀ¥ ì£¼
ĠìĪĺì¶ľ ìŀħ
Ġíĸī ìŀ¥
ìĬ¤ íĨ±
ì»´ íį¼ëĭĪ
ëł¤ ëĭ¤
ìĿ´ íĽĦ
Ġë¶Ħ íķ´
ĠìĿĺ íķ´ìĦľ
ĠìĿ¼ ëłī
ëľ °
Ġìĭľ ëıĻ
ĠìĪĺìĦĿ ëĮĢíĳľ
Ġíķľìłķ íĮĲ
Ġìłľ ëıĻ
ĠíĺĪ ê´Ģ
ĠëłĪ ìłĢ
Ġê·¸ ë¦ĩ
íħĮíģ¬ ëħ¸
é ģ
Ġê¸° ëĳ¥
Ġìŀ¥ ëĤ¨
ë§Ī ìĿ¼
ìĿ¸ ê°Ħ
ìĬ¹ ìĿĺ
Ġë¹Ħ ë¡ľ
Ġìĸĳ ìĤ¬
ĠìĨĮ ëªħ
ĠìĤ° ìĨĮ
Ġì§Ģ ëĤ¬
Ġë¹Į ë¦¬
Ġì¶Ķ ì¢ħ
¼ Ĳ
ìķ ¨
Ġìŀ¥ ìĿ´
Ġëį°ìĿ´ ë¹Ħëĵľ
ĠíĬ¸ ëłĪìĿ´ëĵľ
ĠëĨĢëĿ¼ ìļ´
ëī´ ìĸ¼
Ġì¡° ë§Ŀ
ì¡° ëªħ
Ġë¸ĮëĿ¼ ìļ´
ìĭŃ ìĭľìĺ¤
ìĹħ ê³¼
Ġë¶Ħ ìĪĺ
İ Ģ
ĠìĪĺ ìĭł
íķĻ ìĪł
ìłĦ íĪ¬
íį¼ë łĪ
ĠëģĬ ìĿ´
Ġëħ¸ ë©Ģ
Ġcla s
íķĺ ìĦ±
Ġìļ°ì¦Ī ë²ł
Ġë¬¸íĻĶìŀ¬ ì²Ń
Ġ10 9
ĠëģĮìĸ´ ìĺ¬ë¦¬
ĠâĢ ¤
Ġe m
ĠëĤĺíĥĢ ëĤ¸
ĠìĺĪìĪł ëĭ¨
íİ¸ ìĭĿ
ĠëıĮìķĦ ê°Ķ
Ġhe y
Ġt r
ĠëıĻ ëŀĺ
ĠìĤ° ìŀ¬
Ġb la
Ġì¢Į ìłĪ
ĠìķŀìĦ¸ ìĽĮ
ë£¨ íĬ¸
· ¹
Ġë°ĺ ëĤ©
ĠìĿĺ ìłķ
ìłľ ê¸°
ĸ µ
Ġë¶Ī íĸī
ľë ĥĲ
ĠíĻĺ ìĪĺ
ĠíĬ¹ íĻľ
Ġìŀł ëĵ¤
ì°½ ê³ł
Ġì§Ħ ëıĻ
Ġíķĺ ëıĻ
ĠìĻ ľëĥĲ
p y
§ µ
Ġë¶Īê±° ì§Ħ
ĠìĨĲ ìŀĲ
ĠìĿ¸ ì¢ħ
Ġìĺ µ
ĠíıŃ ìļ°
ĠëĤ¨ ìĽĲ
Ġìķł êµŃ
ĠíķĻ ìĤ¬
Ġìŀĩ ëĭ¬
Ġì°¨ ë¶Ħ
om ain
ë§Į ì¡±
Ġìĺ¤ë¦¬ ìĺ¨
Ġíļ¨ ëł¥
ìħ Ī
Ġìłľ ì¹ĺ
å ±
Ġì§Ģ ê²½
Ġê¸° ìĬ¹
ë§Ŀ ìĿĺ
Ġìĥ Ĳ
ìľ¼ëł¤ ë©´
Ġë°ķ ê²½
ĠìĤ¬ íĨł
Ġë§Ĳ ë¦¬
ìĬµ ê¸°
Ġìĭ¬ ëıĦ
ì±ħìŀĦ ìŀĲ
Ġì¡° ë¦½
Ġ2 70
Ġê³µìĹ° ìŀ¥
Ġì§ĳ ìĸ´
Ġíĩ´ ìŀ¥
ìĿĢ ì§Ģ
Ġë¶Ħ ë°°
Ġë§¤ëıĦ ìļ°
í ĭĪ
ì²Ń ìĿ´
Ġìĺ¤ ëĶĶìħĺ
ĠíĻĺ íĺ¸
Ġì¹´ ëĤĺ
Ġìĺ® ê²¼
Ġê¸° ìĦ¸
Ġh d
Ġëª¨ë¹Į ë¦¬íĭ°
ê²Ģ ì§Ħ
Ġê³ł ë¦½
ì§Ħ íĸī
Ġê¹Ģìĥģ ê³¤
ìĭľì¼ľ ìķ¼
Ġìŀħ ì²´
Ġì¡°ì¢ħ ìĤ¬
Ġì±Įë¦° ì§Ģ
Ġëĭ¬ ëŀĺ
Ġë¦¬ ë©ĶìĿ´íģ¬
Ġëŀ Į
Ġs d
ĠìĹĲ ëĵĢ
Ġë¯¸ ëĭ¬
Ġëĭ¹ëĩ¨ ë³ĳ
in fo
Ġë¸Ķ ëłĪìĿ´ëĵľ
ìĬ¤ ë©Ķ
ĠíĻĶ ëĭµ
Ġìŀ¬ ê±´
Ġìľł íĺ¹
Ġê²Ģ ìłķ
Ġìĭľ ê³µìĤ¬
Ġíı¬ ìĬ¤íĦ°
Ġê³µë¡ł íĻĶ
ĠìĿ´ ì¦Ī
ĠìĺĪ ë§¤
Ġë°ĺ íı¬
Ġíĳľ ìłģ
ìĹ¬ ê³ł
ĠëıĦ ì²Ń
Ġë¶Ģ ìĨį
ĠìĻķ ìĿĺ
íĺľ ìĽĲ
Ġíķĺ ì°¨
ĠìłĢ ìĦľ
Ġìĭ¸ ìĽĮ
Ġp ad
Ġfol ding
ë²ķ ë¥ł
Ġclas st
Ġclasst omain
Ġclasstomain info
me nt
Ġ10 7
Ġíı¬ ëĵľ
Ġâĳ ł
Ġê°ķ ëıĻêµ¬
ĠìĹ ½
Ġê¶ Įì´Ŀ
Ġë¶ ĵ
Ġìļ´ ë°ĺ
ĠìĤ¼ êµŃ
Ġíı¬ ìľĦ
íħĲ ëį°
ĠíĪ¬ êµ¬
ĠìĿĳëĭµ ìŀĲ
Ġìĥģê´Ģ ìĹĨ
Ġíķľëĭ¤ ë©´ìĦľ
ìĭľ ëıĦ
ĠìķĪì ª½
Ġì¹¨ ëŀµ
ë Ĺ
Ġë¦¬ ëĵľ
ìĬµ ê´Ģ
Ġ12 3
ì¢ħ íĻĺ
Ġw ho
ë§Ī ë²ķ
ê³µ ìľł
Ġìĸ´ ëĶĺ
ĠìķĦ ê¹Į
Ġìķħ ìļ©
Ġì¤ĳ íķĻìĥĿ
ĠëĤ´ì ĭ¤
Ġì£¼ ìĸ´ì§Ģ
Ġë°©íĥĦ ìĨĮëħĦëĭ¨
Ġëĵľ ë¦´
Ġ19 79
ĠíĴĪ ê³ł
Ġìĸĳ ëĮĢ
ĠìĦ± ìĪĻ
ë¯¸ ë¥´
ĠëĤ¨ ìĤ°
Ġíķĺ íķĦ
Ġì§ģ ê²°
ë°ĺëıĦ ì²´
Ġë°ľ ëĮĢìĭĿ
ìļ° ë§Ī
¯ ¹
ĠìĦł ìŀ¥
ìĹĶ ëĤłëłĪ
Ĺ Į
f p
Ġì¤ĳ ìľĦ
íħĮ ìĬ¤íĬ¸
Ġìĭľ êµ°
Ġì¤ĳê³ł ì°¨
ĠìºĲ ë¦¬
ĠìµľëĮĢ ì¹ĺ
Ġ U
ê°Ģ ìŀħ
Ġëł Įì¦Ī
Ġë²ķ íķĻ
ĠëĶĶ ìķĦ
ìļĶ ìĭľ
Ġíķĺíĥľ ê²½
Ġë¹Ħ ê·¹
ìĿĦê¹Į ìļĶ
ĠëıĦ ìļ°
ëĵľ ëł¸
ĠíĬ¹ íĮĮìĽĲ
Ġìŀ¥ ë²½
Ġëĵľ ëŁ¼
Ġíģ´ ëŁ¬ìĬ¤íĦ°
Ġ N
he n
ĠëĮĢ ìĿ¸
íĦ° ì¹´
Ġë¯¸ ë¶Ħìĸĳ
ĠâĢĻ âĢ¦
ì§ĳ íļĮ
ĠìłĬ ìĿĢìĿ´
Ġb gm
Ġì£¼ ìĭľ
Ġë¬´ ìķĪ
Ġëĭ¤ìĿ´ìķĦ ëª¬ëĵľ
ê²Į ìĿ´íĬ¸
ĠìķĪ íĿ¬ìłķ
da y
ê¸Ģ ëĿ¼ìĬ¤
Ġê·¸ ë£¨
ìį ¬
Ġì´Ŀ íĮĮìĹħ
ĠìłĢ ê¸°
Ġì²Ń ëŁī
ê°Ĳ ìĭľ
ĠëłĪ ì§Ģ
ĠíļĮë³µ ìĦ¸
Ġì±ĶíĶ¼ìĸ¸ ìĭŃ
Ġìľł ëĤĺìĿ´íĭ°
ìĬ¤ íĢĺìĸ´
Ġw a
ĠìłĦ ìĿĺ
ë£¨ë¯¸ ëĬĦ
ĠìłĦ ìĿ´
Ġë³µ ëĭ¹
Ġê·Ģ ê°Ģ
Ġk ia
Ġê¹Ģëªħ ìĪĺ
ê°ľ ìĿ¸
Ġë°Ķ ì§Ģ
ĠìĭłìĥĿ ìķĦ
-- --
ĠìĹŃ ëıĻ
Ġëª° ëĿ½
ĠíķĦ ë¦½
ł Ŀ
ĠìĽĲ ìĨĮ
Ġê¼¬ ë§Ī
Ġì§ĳ ì°©
ĠíĻįì¢ħ íķĻ
Ġ19 45
ĠëĨį ì¶ķ
Ġãİ į
ĠíĥĦ ìķ½
ìĹĶ ì§Ħ
ê¸ į
ĠìĿ´ ëħ¸
ĠìĦ¸ìĿ´ ë¸Į
ĠíŀĻ íķ©
ĠìĹĺë¦¬ ë²łìĿ´íĦ°
Ġì¶©ì²Ń ëĤ¨ëıĦ
Ġê³µ ë§¤ëıĦ
Ġì£¼ë ¬´
Ġìŀĺ ëĿ¼
ĠìĻł ì§Ģ
Ġë°Ķìģ ľ
ĠíĮĿ ìĹħ
ĠìķĦ ìķ¼
Ġë³Ģ íĻĺ
ìļ´ ìĪĺ
s g
ĠìŀĲ ìĿĺ
Ġc ar
Ġê¸° íĥģ
Ġë¹Ħ ìľł
wa y
Ġëªħ ìĿ¸
ĠíĽ Ķì
Ġë§Īë¦¬ ê°Ģ
ë² ¡
Ġë¶Ħ ìľĦ
Ġë°ľ ëªħ
ë§Ī ìĬ¤íĦ°
ãģª ãģĦ
ĠìķĦ ë¨¸
Ġê³¼ ëĭ¤
ê°Ģ ëıĻ
Ġg u
Ġìļķ ìĭ¬
ĠëĤ© ìŀħ
ĠëĤ¨íķ´ ìķĪ
ĠìĥģìĹħ ìĭľìĦ¤
Ġê¹Ģ ìľ¤
Ġì²ĺ íĺķ
Ġë§Ī ë¸Ķ
Ġìĥģ ìĤ¬
Ġë£ ¸
ìļ´ ìĨ¡
ìķĪ ê³¼
Ġì¡° ì¹´
ìĻ¸ ê³¼
ĠìķĦ íħĮ
Ġë¦¬ ì¹ĺ
ĠìĽĲ ê¸Ī
Ġíıī íĥĢ
Ġd na
bo dy
Ġìŀħ ë¬¸
Ĳ ģ
ëĵľëŀĺ ê³¤
Ġìķħ ìĿĺ
Ġì¹´ ë¥¼
ĠíĻ© ìĤ¬
ì£¼ ê³µ
ĠìĦ± ì£¼
ìĸ´ ëĤ´
Ġg p
ĠìŀĲ ìłķ
ĠìħĢ íĶĦ
ĠíħĶëłĪ ë¹ĦìłĦ
Ġê¹Ģ ëıĦ
Ġë¡ľ ë§¨
ĠìĻ¸êµŃ ìĸ´
ëĿ¼ ëĭĪ
ì´ī ì§Ħ
ë³ ķ
ìłĳ ìĪĺ
ëı ĭ
ê² °ì±ħ
ĠìŀĬ ìĸ´
ĠëłĪìĿ´ ìĭ±
ë° Į
Ġìĭ¤ë¦¬ ì½ĺ
ĠëıĦ ëĮĢì²´
Ġ0 10
Ġì§Ħ íĿ¥
Ġê±¸ ìĸ´
ĳ ¥
ĠíķĻ ë¶Ģ
Ġìłĳ ìłĲ
ĠíķĺëĤĺ íķĺëĤĺ
Ġìĸ´ ê¸ĭ
Ġë°Ģ ëł¸
Ġíķĺ ëĭ¨
ĠëĮĢ ìĽħ
ĠìĦ± ê·ł
íĥĢ ìŀĲ
ĠëĮĢë¦¬ ìłĲ
Ġë§Į ìłĦ
ë³´ ìłĦ
ã ı
Ġìŀ¥ ìłľ
Ġê´Ģ ì¤ĳ
Ġìŀ¬ ë°Į
Ġìĥ Ģ
ë¶Ħ ê³¼
Ġëĭ¨ ê¸°ê°Ħ
íĮ Ł
ë¹Ī ê´Ģ
ĠëĤ¨ êµ¬
Ġë¶Ī íĥĢ
Ġì§Ħ íķ´
Ġm vp
Ġë¯¸ ì¸ł
Ġë§Ī ëıĦ
ëª© íĳľ
ĠìĬ¤íĬľ ìĸ´
ĠâĨ Ķ
ĠìłĦ ë¡Ģ
ĠíŀĪ ëį°
ĠìĹ° ì°¨
Ġê°ľìĨĮ ìĭĿ
j mnewsis
Ġì¶ľíĮĲ ìĤ¬
Ġìŀ¥ ìĭľê°Ħ
ëĨ Ĵ
ĠìĤ¬ ëıĦ
ĠëĪĦ ëĿ½
íĿĲ ë¦Ħ
ħ Ķì¸ł
ĠíļĮ ìĥĿ
ĠëıĦ ìłĢíŀĪ
Ġì¹ĺ ìķĪ
Ġê´ Į
ë§Īë ¸Ķ
Ġê³ł ìŀĳ
Ġë¹Ħ ì¶Ķ
ìļĶ ê±´
ì¤ĳê°ľ ìĤ¬
Ġli ve
ë¬¼ ë¥ĺ
Ġì£½ ìĹ¬
íķĺ ìľĦ
ìĿ¼ ìĿ´
ìĮ į
Ġíķ´ ê²°ì±ħ
İ Ħ
Ġë¯¸ ëĦ¤
Ġêµ¬ ì§ģ
ì²ĺ ë²Į
ëįĶ ìļ±
Ġìĥģ ëĭ¨
ìľł ê¸°
Ġë¶Ħ ëĮĢ
ĠíķĦ ë¦Ħ
íħ Ŀ
ŀ ł
Ġíķĺ ìĸ
ëĮ Ĳ
ĠìĹĲ ë¥´
Ġê³ł ëŀĺ
Ġì²´ ì§Ī
Ġê³ł ì¶Ķ
Ġë°ĿíĺĢ ì§Ħ
Ġ7 50
an k
Ġìŀħì£¼ ìŀĲ
ìĺ¤ íĨł
Ġíķľ ë³µ
ĠëĮĢ ê´Ģ
Ġë§Įì¡± ëıĦ
Ľ ł
j u
Ġìŀ Ķë
ĠëĳĲëĵľ ëŁ¬
ĠêµŃê³µ ë¦½
ë¬´ ìĦ±
Ġìłģ ëĭ¤
ĠíĬ¸ëŀľ ìĬ¤
Ġíľ´ ìĸĳ
ĠíĮĮ íĸī
ë¸Ķ ë¦¿
Ġê²¹ì ³Ĳ
. ã
Ġíĥľ ê·¸
Ġë²Ī ìĿĢ
ìļ° ì¹ĺ
ìĤ Ĳ
Ġëħ¸ ë¶Ģ
Ġìľł ëĿ¼
ĠìĿ´ ìĿĺ
Ġë¨¸ë¬¼ë łĢ
ì¶Ķ ìľĦ
Ġë§Ī ìĭł
Ġê°Ħ ì§ģ
Ġìļ© ìĿĺ
ê²° ìĤ°
Ġê°ľ ìĪĺ
ĠíĤ¤ ë¦¬
ĠãĢ ĳ
ê¹Į ì§Ħ
Ġìŀħ ëĮĢ
ì§Ģ ì¶ľ
Ġê±¸ ìĸ´ê°Ģ
Ġìŀ¬ ì¦Ī
Ġíĺķ íİ¸
Ġêµ¬ì¡° ë¬¼
ìĭ¬ íĮĲ
íĤ¤ ìĬ¤
íĺķ íĥľ
íĽĪ ìŀ¥
Ġìŀ¬ íİ¸
Ġê°Ģ ê²°
Ġìľ¤ ì¢ħ
Ġì»¤ ë§¨
Ġë¯¸ ìĽĮ
ìļ´ëıĻ ìŀ¥
Ġë°±ìļ´ ê·ľ
°ì ĩĦ
ĠëĮĢìĤ¬ ê´Ģ
ëĤĺ ì¹´
ĠíĽĦ ê³Ħ
ĠìĽħ ì§Ħ
ìŀĲ ëĵľ
° Ń
Ġ er
Ġì¡° ìĸĳíĺ¸
Ġ35 00
Ġì£¼ ìĸ´ì§Ħ
Ġìĭ± íģ¬
ĠìĦ±ê·ł ê´Ģ
Ġìłģ íŀĮ
ëĮĢíĳľ ìłľ
ì§ķ ìĸ´
ĠìķĦìļ° ëĶĶ
Ġë¹ ¼ë
ĠâĢ ĵ
ĠëıĻ ëªħ
Ġ2 60
ëĭ¤ ëĿ¼ê³ł
íģ´ ë¦¬
ĠìĥĿì¡´ ìŀĲ
Ġê³ł ìķ¡
ìĦ± íĸ¥
ol d
Ġ198 1
ĠíĥĢ ìĿ¸
ë¶Ļ ìĿ´
ĠíĶĦë¦¬ë¯¸ ìĸ´
ê· ¤
ĠíĮĢ ìĽĲ
ĠíĨł ëª¨
ë¬¼ë ł¤
Ġë©´ ë°ĢíŀĪ
Ġíĺ¼ ìĿ¸
Ġê°± ìĭł
ĠíĿ° ìĥī
ĠìķĦëĭĲ ê¹Į
ëĸ ¨ìĸ´
íļĮ ë¡ľ
íķŃ ë§Į
Ġìĺ¤ ë§Į
ìħ ľ
ĠìļĶ ê´´
Ġìĺ¤ íĤ¤
ĠìĿ´ëĿ¼ íģ¬
ĠìĿ´ íĻĶ
ëıĦ ë¯¼
¼ ľ
Ġíĥľ ìķĪ
Ġëĭ ·
ĠìķĪ ê²¨
Ġì°¨ ê°Ģìļ´
ĠëĤ¨ ì§Ģ
Ġë³¼ íĬ¸
Ġì§Ħíĸī ìŀĲ
Ġë©ľ ë¡ľ
ĠìĿ´ìŀ¬ ë¯¼
Ġê¹Ģìĺģ ì£¼
Ġìĭ¤ ì¦Ŀ
ĠìĦ¸ìĿ´ íĶĦ
ëĶĶ ìĿĺ
Ġ R
Ġë§ŀ ë¬¼ëł¤
ë¡¯ ëį°
Ġê·ľ ê²©
Ġì§Ģ ë¬¸
Ġëĭ¤ ì¤ĳ
ĠëĤĻ íıŃ
Ġwi ll
Ġíķĺ íļĮ
ìĤ¬ ìłĦ
ëª¨ íĦ°
ĠëıĦ ìĸ´
Ġê¹Ģì§Ħ íĥľ
Ġíķ© ëĭ¹
ou r
Ġì·¨ íķł
Ġpad ding
íĴĪ ìķĪ
Ġì°¨ ëªħ
ìĤ¬ ì£¼
êµŃ ìłģ
Ġë§Į ìłĲ
Ġì¶Ķ ìĿ´
Ġëĸł ëĤł
ĠìĦľ ëĤ¨
ĠìĥĪ ê²¨
ĠíĬ¸ë¦¬ íĶĮ
ê³µ ëĮĢ
ĠíĥĢ íĺĳ
Ġê·¸ ë¦´
ìĹħ ìĽĲ
ĠìĦ± ë§¤ë§¤
ĠìĦ¸ ëĿ¼
ı ĺ
ì½ ķ
ĠëĮĢ ë¶Ģ
ĠëĮĢ ìĦ±
Ġp pk
ìľ¡ ìĦ±
Ġëĭ¨ë§Ĳ ê¸°
Ġìĭľ ë®¬
ĠìĹ¬ ë§Į
íĩ´ ì§ģ
Ġê¹Ģ ìĿ´
ìĹĳìĬ¤ íı¬
ìı ĺ
Ġíı¬ ë¶Ģ
ĠíĻį ëĮĢ
ĠëĮĢ ì¶©
Ġë³Ģ íķ´
Ġë¯¸ ëĿ¼
ë¥´ ëª¬
ĠìĦ¸ ê·ł
Ġì²ĺ ìļ°
ĠìĤ¬ ê°Ģ
ĠìĿ¸ ë¬¸íķĻ
Ġê³Ħ ìĭľ
Ġë³´ íĥ
Ġì²ľ ìŀ¥
Ġì°¾ìķĦ ë³¼
ĠìĦľ ëĳĺëŁ¬
Ġê» į
ëıħ ë¦½
Ġì£¼ìĸ´ ì§Ħëĭ¤
Ġì¢ħ ìĿ¼
ĠíĮĮ ìĤ°
ĠìĽĶ íıīê·ł
Ġê°Ĳ ê¸°
Ġë°ķ íĥĪ
Ġê¸° íķ´
Ġíİĺ ìĸ´
Ġì¿ łì
ìĤ¬ ê±°ë¦¬
ĠìķĮ ë£¨ë¯¸ëĬĦ
Ġë§ī ì°¨
ĠìĹĺ ë¦¬íĬ¸
ìĿ¼ ìĿ¸
ë µ
Ġê¹Ģìłķ ìĿ¼
íķ© ë¦¬
ìĸĳ ìĦ±
Ġë³´ ì§ģ
Ġë° Ń
ĠìĦ± ëıĻêµ¬
ģ ¾
Ġìĸ´ëĬĲ ìĥĪ
ê±´ ìłĦ
t d
ĠëıĻ ìĽĶ
ëĵľ ë¦°ëĭ¤
Ġê·¸ë¦¬ ìĽĢ
ĠìķĦëĭĻ ëĭĪëĭ¤
Ġê¸Ī ë°©
Ġì£¼ìĿĺ ë³´
s y
ĠìĿ´ë¤Ħ ìł¸ìķ¼
Ġê·Ģ ì°®
ĠìĹ° íĥĦ
ì ©
Ġh igh
Ġíķ© ê³Ħ
Ġë°ķ ìŀ¬
Ġë£¨ ìĭľ
ë¦¬ìĬ¤ íģ¬
ĠìĪĺìļĶ ìĿ¼
ĠìķĦ ìłĢìĶ¨
ì± Ī
Ġë°ķ ìĤ´
Ġëħ¸ ìĬ¤
ĠëĤ´ëł¤ ì§Ħ
ìĹ° ìŀ¥
ĠìĺģíĻĶ ìłľ
ãĥ ª
Ġíı¬ë¥´íĪ¬ ê°Ī
Ġëıĭ ë³´ìĿ´
íİ «
Ġ5 50
ĠìĤ¬ ìľ¡
ĠíĥĢì ¼Ģ
Ġì¦Ŀ íıŃ
Ġhe art
į ±
ģ Ļ
ĠìĹ °ìĩĦ
Ġìłľìķ½ ìĤ¬
Ġê°ķ ìĦ±
ĠìĿ¼ ìĿ¼ìĿ´
Ġì§ĳ íķ©
ê¶Į ëĭ¨
ĠêµŃë¯¼ ìĿĢíĸī
íķŃ ìĿĺ
Ĵ Ī
ĠìĹ¬ ëł¥
ĠìĨĮ ì§Ħ
ìľł ìķĦ
ĠìłĲ ì§Ħ
Ġìłķ êµĲ
Ġê³µ ìĪĺ
Ġíķ´ ìłģ
ê³Ħ ë¦¬
ĠìĨį ìĨį
Ġíĥ Ķ
ĠëĤ¨ ê²½
ĠëıĦ ì¢ħíĻĺ
ë°© íķĻ
ĠëĮĢíķľ ìĥģìĿĺ
ĠìŀĲ ìķĦ
ì²ł ìĿĺ
Ġíĳľ ë³¸
Ġì¤Ħì¤Ħ ìĿ´
ëŀĢ ìĭľìĬ¤
ëł Ļ
ëĭĲ ëĿ¼
Ġêµ¬ìłľ ìĹŃ
Ġppk jmnewsis
Ġëı¼ ìĦľ
ĠíĨłë§Ī íĨł
ĠìĽ¨ ëĶ©
Ġíķ© ì°½
ĠìĦ± ìĽĲ
ĠêµĲíĨµ ìķĪìłĦ
Ġë§Ī ìĻķ
ĠìĿ¸ íĶ¼
m k
Ġìŀ¥ ìĻ¸
¬í į¼
Ġë¶ĢìĤ° íķŃ
êµĲ ê³¼
Ġè Īĩ
Ġêµ¬ íķł
ĠëĶĶ ì¦ĪëĭĪ
r d
ĠìĨĮ ëĤĺë¬´
Ġë°± ë§Į
ī ģ
Ġì°¾ìķĦ ëĤ´
ĠëıĦ ë´ī
ãģ ĳ
ĠíĬ¹ ìłĦ
ĠìĦ °
ê´Ģì ´Ŀ
ĠãĢ Ĳ
Ġëį° ëĵľ
Ġæ ķħ
ĠíĹĮ íĦ°
Ġëª¨ ìļķ
Ġê°Ģ ìĦ¸
ìłĲ ìľł
ĠìĦ¸ ìĿ¸íĬ¸
Ġëĥī ê°ģ
ìĹ° íľ´
ĠíĻľë°ľ íŀĪ
ĠìĻ¸ ìĿĺ
ĠëıĻëĤ¨ ìķĦìĭľìķĦ
Ġíĺ¸ ëŀĳìĿ´
Ġíı¬ ë¡ľ
± ĥ
ìĿ¸ëį° ëıĦ
ëĭ¤ ë¥´
¥ ¸
Ġì½ĺ íį¼ëŁ°ìĬ¤
Ġback ground
ĠìĨĮì ´Ŀ
ĠìĿĺ ìłĦ
ì§Ģ ëĤĺ
Ġìĺģ ë¹Īê´Ģ
ê²½ ìĿĺ
Ġìĸ´ ìĦľ
ĠìĦľ ìĤ°
Ġíıī ìķĪ
Ġë¦¬ íĦ°
Ġì²Ń ê³Ħ
å ¿
ëĦ¤ ìŀĦ
ëŃ ĩ
Ġëį° ìĿ´íĬ¸
ì§Ģ ì¹¨
ì§Ģ ì§Ģ
ĠìłĦ íĸ¥
u g
Ġë¨¸ ìĭł
ëıĦ ë¦¬
ĠëįĶ ëįĶìļ±
Ġíķľ ìĭĿ
ĠëĤł ì¹´
Ń Ĳ
ìŀ¬ íķ´
ì¶ľ ëł¥
Ġë§Ī ì°°
ĠìłĢ ëŁ°
Ġìµľ ìĥģ
Ġíİ¸ ê³¡
ĠìĤ¼ êµŃì§Ģ
Ġìĸĳ ì£¼
Ġìĥģ ìĦ¤
ĠëĤ¨ ëıĻ
Ġêµ³ ê±´
Ġëª© ìŀ¬
ĠíĮĮ ìļ°
ĠíĢ Ħë¦¬íĭ°
Ġê°Ģìł¸ ìĺ¤
ìķĦ ì£¼
Ġì¡° ê³Ħ
ìĿ¼ë ł
ĠíĻĶ ìĤ°
ìĦľ ìª½
ĠëĿ¼ íĭ´
Ġo k
Ġì£¼ íĺ¸ìĺģ
Ġë§¡ ê²¨
ëĮĢ ìĻķ
ĠìĨĮ ê·¹
Ġ19 00
ĠìĹ¬ ìłķ
ìĿ¼ëł Īë¸Ĳ
ìĪł ìĤ¬
ë©Ķ ìĭľì§Ģ
Ġë² ¼ë
ê°ľ ìĿĺ
Ġê°ģ ê´ĳ
Ġê±° ì§Ģ
ìĹ° ëıĦ
ìľ¼ë©´ìĦľ ëıĦ
ìĭł êµĲ
íķĺ íĤ¤
q u
Ġì¹´ìŀĲ íĿĲ
Ġë°©ìĨ¡ ìĤ¬
ĠìĤ¬ìĿ´ íģ´
Ġìłģ ë²ķ
» ¿
ë²Ħ íĶĦ
ìłľ ìķĪ
Ġw in
íĹĪ ë¸Į
Ġìµľê³ł ìľĦ
ìĺ¤ ìĿ¼
» Ĭ
Ġë°© ê³¼
æ Ń
Ġíľĺ ë§Ĳ
ĠìĦľ ê¸°
Ġíķ¨ ëŁī
m an
Ġëª¨ìŀĲ ëĿ¼
Ġë© Ģì
Ġì§Ģì¼ľë ´Ĳ
Ġë¦´ ëłĪìĿ´
ĠìĹ° ëĭ¤ê³ł
ê´ĳ ìĿĺ
Ġìĥģ ê³ł
Ġìłľ ëªħ
ĠêµĲ ê°Ĳ
Ġê°Ģë¥´ì ³Ĳ
Ġê³ł ìĭ¬
Ġìļ °ì
Ġê³ł ì¹ĺ
Ġm g
ìĦ¸ ìļ´
ì°¨ ìĿµ
Ġl pg
Ġê±°ì ³¤
ĠìĨ Ł
Ġë©Ģì ©¡
ëĨ Ģë¡ľ
ĠìĦ¤ ëłĪ
Ġìļ° ìĥģ
Ġì·¨ íķľ
Ġëĵľ ëłĪìĬ¤
Ġk k
ĠìĪĺ ì¤ĳ
ħ °
íķ¨ ê»ĺ
íı¬ ìŀ¥
Ġ13 5
ĠìĤ¬ ìĺ¥
ê°ķ ìĤ¬
Ġ09 00
ĠìĦłíĥĿ ì§Ģ
Ġëĵ¯ ìĿ´
Ġë¬´ìĦľ ìļ´
Ġê³ł ìłĲ
ìĬ¤ íĭ´
ë¦´ ëĿ¼
ê°ľ ëħĲ
ĠëĤĺëĪ Į
Ġë Łī
ĠëıĦ ìĿĺ
Ġì£¼ ì¶ķ
Ġì§Ģ ì¹Ń
ĠìĬ¤ íĮĢ
ĠìĬ¬ ë¡¯
íĪ¬ìŀĲ ê°Ģ
Ġìĸ´ ìĥī
ĠìĿ´ ê´Ģ
Ġëĭ¬ ëŀĲ
Ġì§ķ ìĪĺ
ĠìĿĮ ëª¨
Ġìĭł íĥģ
ëı Ķ
Ġëĭ¹ ìĿĢ
íį¼ ëĵľ
Ġíĥľ ë¸Ķë¦¿
ìķĦ ì¹´
ëĵľë¦¬ ëĵľ
Ġì¹´ íĬ¸
ê°ķ ìłĲ
Ġì²ĺ íķľ
Ġíĸīìłķ ê´Ģ
Ġìļ°ì¦Īë²ł íĤ¤ìĬ¤íĥĦ
ĠìĬĪ íĮħ
ì¹ĺë£Į ìłľ
íĺ¸ ê°Ģ
ĠìĹ İ
ĠíĬ¸ ë¦¼
ĠíĻį ìĦ±
ĠíĪ¬ ìĹ¬
ì§Ģ íļĮ
ìĺĢ ìĿĦ
r c
ë§¤ ì¹ĺ
Ġë¬´ ê²ģ
ĠíĺĦìĪĺ ë§ī
Ġê±¸ ë¦¼
íĥľ ìĦ¸
Ġê¸¸ ëĵľ
ëĤ´ì ħĶëĦĲ
ê°Ģ ìłĦ
Ġìĺ¤ ìĿ´
ìŀĲ ëıĻ
Ġì°¨ ìŀħ
ĠìĤ¬ ì£Ħ
ĠìĪĺì¶ľ ìķ¡
Ġë§ī ë°Ķì§Ģ
ì²Ń ìĨĮ
ëĨį ìŀ¥
Ġìĸ¼ ìĸ´ë¶Ļ
Ġp e
Ġëĭ¤ ëĭĮ
ĠìĹ°êµ¬ ìŀĲ
ìŁģ ìĿ´
Ġcg v
Ġa h
ĠìĮĵ ìĿ¸
Ġw oo
ë©Ķ ê°Ģ
Ġìłķ ëĭµ
ĠíĶĮëłĪìĿ´ ìĺ¤íĶĦ
Ġìĸ´ ë§Ī
ĠëıĻìĦ± ìķł
ĠëıĮìķĦ ìĺ¬
Ġê³ł ìĤ¬
íħĮ ë§Ī
ĠìĦ± ëĭ¹
ìĿ¼ ë³¸
ĠíĽĦìĨį ìŀĳ
Ġìĭ¬ ìĭ¬
' .
ĠíĿĺëŁ¬ ê°Ģ
Ġìŀ¬ ìĻ¸
íĪ¬ ìĪĺ
Ġìĸĳ ìľ¡
Ġìĭ¬ ìŀ¬
ĠìĬ¤ íĨ¤
Ġë§Ŀ ìĦ¤
ë¦¬ ì¦ĺ
Ġì½Ķë¯¸ ëĶĶ
ê²½ ëĤ¨
Įì ©į
Ġì¤Ģ ìļ°ìĬ¹
Ġìł ¸
Ġê·Ģ ëĨį
Ġìµľ íĥľ
Ġj u
Ġë°ľ ëłĮ
ìĿ´ ìĬ¤íĬ¸
êµŃ ìĸ´
Ġíİ¸ ê²¬
Ġìµľ ìĺģ
ìłģ ìŀĲ
Ġëªħ ëªħ
ĠìĿ´ìļ© ìĿ´
ëĦ Ľ
Ġì¹´ ìĬ¤
Ġj r
ĠëĮĢëĤ´ ìĻ¸
Ġë°Ķ ëĳĳ
ŀ ĩ
Ġì¿ Ħ
íĮĮ íĭ°
ĠìķĦìĿ´ ìĸ¸
Ġìłľìŀĳ ìŀĲ
ĠíĿĳ ìĿ¸
t t
ĠìĹ¼ ìĽĲ
Ġê°Ī ë¦¬
Ġê¸° ëŁī
ãĥ ĥ
Ġë§Į ì§Ģ
ĠëıĦë§Ŀ ì¹ĺ
ĠìĤ¬ ìłģ
Ġì»¤ë®¤ëĭĪ ì¼ĢìĿ´ìħĺ
Ġíĺ¸ íĻ©
on t
ĠíĨ¡ íĨ¡
ĠíıŃìĬ¤ ë°Ķê²Ĳ
Ġv ip
Ġì°¨ìĿ´ ìłĲ
ìĬ ĺ
ĠìŀĲë¶Ģ ìĭ¬
ĥ ķ
ĠìĨĲ ê¼½
Ġíľ ©ì
Ġê¸°ì¡° ìĹ°ìĦ¤
Ġìłķ ìŀ¬
Ġp ark
ìĪŃ ìĿ´
¦ ã
Ġëĭ¤ ë¤Ħ
Ġê°ģ ê³Ħ
w c
Ġëĸł ëĤĺê°Ģ
ë²Į ìĿ´
º ł
êµ¬ ë¦Ħ
ĠíķĻ ê¸ī
Ġìĭľ ê³¨
Ġë§¤ ëī´ìĸ¼
Ġë¶Ī ë°ľ
ĠìĨĮ ëĭĪ
ìĥģíĴĪ ê¶Į
ìĦł ìĥĿ
Ġíĭ°ì ħĶì¸ł
ëĤĺ ëĵ¤
ĠìĦ± ìĪĺ
ĠìĻĦìĦ± ëıĦ
ĠìĻ¸ë¬´ ìĦ±
ìĿĳ ëĭµ
ìĦ± ëªħ
ê²½ íĹĺ
ĠìŀĶ ë¥ĺ
Ġë°° ìŀĦ
ĠìĿ¼ ì¡°
ĠìĦł ì¡°
Ġê·¹ íŀĪ
h m
ĠìĦ± ì§Ī
ĠëıĦ ê°Ģ
Ġìĭł ìĤ¬ìĹħ
° ı
ì°½ êµ¬
íĺĦ ëıĻ
ĠëĤ´ëł¤ ëĨĵ
Ġì¡° ë³Ħ
ĠíĹĪ ëĤĺ
ĠëıĻ ìĿ¸
ëłĪìĿ´ íĬ¸
ĠíĶĮëŀĺ ìĭľ
Ġì¹ł ëłĪ
íĮ¨ ìħĺ
ĠìĹ¬íĸī ì§Ģ
íĶ¼ ìĿĺ
Ġëªħì¤ĳ ë¥ł
âĹ ĭ
Ġìĸĳ ìĸĳ
ìķĶ ëıĻ
Ġëĵ¤ìĸ´ìĦł ëĭ¤
ì¹´ ìĬ¤
ĠìĿ´íķ´ ê´Ģê³Ħ
Ġê²° ë§Ĳ
Ġìĭ¤ ëĵľ
Ġê² °ìĭ¤
Ġj p
Ġì»¤ ë¦¬ìĸ´
Ġê°Ħ ìĭł
íķ¨ ìĿĺ
ë¸Ķ ë¡ľ
ĠìµľìłĢ ì¹ĺ
Ġë°° íĬ¸
ê¶Į ëł¥
Ġê´´ ìĤ°
ìĦľ ë¥ĺ
ĠìķĪ ìĿĺ
Ġë§Ŀ ìĸ¸
Ġ! !!
ĠíĨł ëĭĪ
ĠëłĪ ìĭľíĶ¼
Ġë¹Ħ ìľĦ
Ġìŀĥìĸ´ ë²Ħë¦°
Ġë¸Ķë£¸ ë²Ħê·¸
ĠìĿ¼ íĻĶ
Ġê³¼ ìŀĲ
ĠìĪĺ ëŁī
ĠìĨĮ ëĵľ
ìĹ° ëĿ½
Ġì£¼ ë¶Ģ
Ġëĵ ¤ì
ĠëĤĺíĥĢëĤ¬ ìľ¼ë©°
Ġï¼ ľâĵĴ
Ġì»¤ ì§Ģ
ĠíĽ Įì©į
ĠìĦľê·Ģíı¬ ìĭľ
ĠâĪ Ļ
Ġíĩ´ ì¶ľ
ĠíĶ¼ ê²©
Ġê²¬ ëĶĶ
Ġëĭ¤ ëħĶ
ë¬´ ìļ©
Ġë¯¸ ë¬ĺ
Ġb or
Ġëª¨ ëħ¸
Ġì£¼ìĭĿ íļĮìĤ¬
ĠëıĻ íı¬
¸ì ¸ł
ìķĪ ìĿĺ
Ġê¹Ģ ìľł
Ġëľ¨ ê±°
ĠìĹĺ íĶĦ
ĠìķĦìļ° ë¥´
ëĿ¼ìĿ´ ìĸ¸
Ġë± ĥ
íĸī ì§Ħ
Ġìĺ¤ ëĶĶìĺ¤
Ġse e
ìŀ¥ íķĻ
ħì ·¨
Ġb j
ì»¨ ìĦ¤íĮħ
ì¡° ìłĪ
ģ ĺ
Ġë¬´ ë°©
Ġê³Ħ íĨµ
ë´ī ìĤ¬ìŀĲ
ĠëıĻ ë¬¸
Ġë¶Īìĸ´ ëĦ£
ì¤ĺ ìļĶ
ìļĶ êµ¬
ĠìĬ ¬íį¼
Ġëª© ëıĻ
Ġìĭľ ì§ĳ
ĠíĿĶ íķľ
Ġìłķ ìĿį
Ġíķ´ìĪĺ ìļķìŀ¥
ë§ŀ ì¶¤
Ġì§ģ ìĺģ
íĬ¹ë³Ħ ìŀĲì¹ĺ
ë£¨ ìĹĶ
ĠìĹ´ íĿĺ
Ġê±° ì°½
ìĨĮ ê°ľ
ëĺ ĳ
ìĺĪ ê³ł
Ġëª© ìļĶìĿ¼
Ġìĭ¤ ìĿĢ
Ġì¹´ íĴĢ
ì²ľ ëıĻ
Ġì§ľ ì¦Ŀ
Ġë°© ë¯¸
Ġì¶ľ íĴĪ
Ġë§Ī ëĵľë¦¬ëĵľ
ĠíĮ¬ ëį¤
Ġê¸Ī ê³ł
js newsis
ĠëĦĵ íĺĢ
ĠìŀĦìĥģ ìĭľíĹĺ
Ġìŀ¥ íķĺìĦ±
ĠíĥĢ ê¹ĥ
Ġìķ¼ ìĬ¤
Ġìłķ ê¸Ģ
ìĤ¬ ì±Ħ
ê³µ ì§ģìŀĲ
ĠëĮĢìłĦ ìĭľ
Ġê±° ìĿ¸
ĠíĻĶìĦ± ìĭľ
ê¸Ģ ìĬ¤
īì ĩĦ
ĠìĽĲ ìķĪ
êµĲ íĻĺ
ĠëĤĺ ì¹ĺ
Ġfr om
Ġì¹¨ íĪ¬
Ġëĭ¤ ì§Ģ
v d
ĠíĮĮ ë¥´
Ġë¯¸ìĸĢ ë§Ī
Ġê³µ íķĻ
ëĨĢë¡ľ ì§Ģ
ìļ© ìĤ¬
ĠíĥĦ ìķķ
ëĤł ëĵľ
Ġìĭľ ë¦¬ìķĦ
Ġê³µ ë¬¸
Ġë²ł íĥĢ
ì± ł
ĠëĨį ìĤ¬
Ġìĸ ¹
Ġíı¬ íĥĳ
ĠìĿ´ ì°½
ĠìĭĿ ê°Ĳ
Ġìķ¼ ê¸°
Ġëº Ģ
ë°ľ ìĥĿ
Ġê¹Ģíķ´ ìĭľ
ìĿ¼ ì¹ĺ
ìĤ¬ ìľĦ
Ġê°Ģ ëĤĺ
ĠíĤ ¥
Ġìķħ ìĺģíĸ¥
ì°¨ ìĽĲ
Ġëįĺ ì§Ħ
Ġë¶Ħ ì£¼
ĠìľĦ ìŀĦ
íı¬ ëĵľ
ĠìłĦ ìĦ±ê¸°
ëĶĶ ì§Ģ
Ġíļ¨ ëĬ¥
ĠëĭĪ ì¦Ī
ĠìĹŃ ìĦ¸ê¶Į
Ġe v
íĻĶ ê°Ģ
ĠìĨĮ ëıħ
Ġì¡ Į
ĠëĦĺì ³Ĳ
ì¹´ìĿ´ ëıĦ
ãģ£ ãģ¦
ĠëĦī ëĦī
ì¼ Ĳ
Ġë³¼ë Ħ·
Ġê°Ģë¦¬ íĤ¨ëĭ¤
ĠìĬ¤ íı°
ĠíĮĮ ê³ł
Ġë²ķ ì¹Ļ
f d
Ġíį¼ ìł¸
ĠìĿ´ ê´ĳ
Ġìĥģ ê¸°
Ġìłķ ì¡°
Ġê±¸ë¦¼ ëıĮ
êµ¬ ëıĦ
± ł
ĠìĦ¸ë¸Ĳ ìĿ¼ëłĪë¸Ĳ
íĥĢ ëĭ¹
Į Ŀ
ĠíĴį ìĦł
ĠëĮĢ ì£¼
ĠíķŃ ë³µ
Ġëĭ¬ëł¤ ê°Ģ
ĠëĮĢ íĥĢ
ëŁ¬ ìł¸
íķĺ ë§Ī
Ġê³µìĤ° ëĭ¹
ĠìŀĲì¡´ ìĭ¬
íĶĮëłĪìĿ´ ìħĺ
Ġìĺ¬ëĿ¼ ê°Ķ
ĠëıĦ ëĿ¼
ìĥģ ìĹħ
ĠìĦ± ìĪĺê¸°
ĠìĤ¼ ì§Ħ
ĠíĬ¹ ìĥī
ĠíķĺìĪĺ ìĿ¸
ĠíĻĺ ëĭ´
ĠìĿĺë£Į ì§Ħ
êµŃ ë¦½
ê³ł ìĻĢ
Ġ >
ê±° ì§Ģ
ìĤ¬ ìłķ
Ġm s
ìĤ¬ ìľł
ĠíĻĺ ê¸ī
ê´Ģ ìĦ¸
ìŀ¥ ë©´
Ġë¬´ìĤ¬ íŀĪ
ĠìłĦ ì§Ģ
íĨł ë¥´
Ġê°ĲìĨĮ ìĦ¸
Ġìĸĳ íĮĮ
Ġì¶ľë²Ķ ìĭĿ
ĠìĨĮ ëĤĺê¸°
ĠìłĦ ìĬ¹
ĠëĶĶ ìĬ¤íģ¬
ìĬ¹ ìĿ¸
íĸī ë³µ
ìłĢ ë¦¬
ì¢ Ģ
ìĿ¼ ìĪĺë¡Ŀ
å ľ
Ľ ì
ĠëĭĮ ìŀĲ
Ġìķħ ìĹŃ
ì§Ģ ì§Ħ
Ġìĭł ëħĲ
Ġìĸ´ëĸ ¨
Ġê¹Ģ ë¬´ìĦ±
Ġë°ĶëĢĲ ëĭ¤
Ġë³´ ìŀī
ĠëĵľëĿ¼ìĿ´ ë²Ħ
ĠëĮĢ ëĭ´
Ġë©ĺíĨł ë§ģ
Ġê·¸ë§Į ëĳĲ
ĠêµĲ ëĮĢ
ĠìŀĦëªħ ìŀ¥
Ġëª¨ ëª¨
Ġìĭ¬ ìķ¼
ĠíķĺìĿ´íĬ¸ ì§Ħë¡ľ
ĠìłĦêµĲ ì¡°
l f
Ġìµľ ìłķ
Ġê³¤ ì¶©
Ġìĭľ ìĨį
ĠìĤ¬ ë§Ī
m f
Ġë§Į ìĿ¸
Ġ11 3
Ġë§¤íĬ¸ ë¦¬ìĬ¤
Ġë§Į íķĺëĭ¤
Ġë¶Ģ íĴĢ
ĠìĪĺ ë²ķ
Ġê³Ħ ìĭł
Ġë£ ©
íĽ ¼
ĠìĹĳìĬ¤ íı¬
ìķħ ìĤ°
íķĻ ìľĦ
Ġê¼¼ê¼¼ íŀĪ
Ġìłķ íĺĦ
Ġc bs
ĠìĬ¤íħĮ ìĿ´
ĠíĬĢ ìĸ´ëĤĺ
Ġì¤Ħ ìĺĢ
Ġê°Ģë¡ľ ë§ī
ĠíĴĪ ì¢ħ
Ġìı ´
ĠëĮĢ íı¬
Ġë¯¸ ìķ¼
Ġw ar
Ġëįĺ ì¡Į
Ġìŀ¥ ìĿĺ
ìłĢ ìŀĳ
Ġë¯¸ ëģĦ
Ġ19 73
ĠëıĻë°ĺ ìŀĲ
Ġë¸Ķ ë¦¬
Ġë³ĳ ê¸°
ê°Ĳ ìĨĮ
ĠìĺĪìĪł ê°Ģ
Ġê°ģ ì§Ģ
Ġìłģ ê²©
Ġëĭ¨ íĴį
ı Ĭ
Ġíĥ± ì»¤
Ġì£½ ìĿ¸
Ġc ho
Ġìľł ê³µìŀĲ
Ġë³´ ëĵľ
íĻľ ìĿĺ
ĠëĮĢ ëĳĲ
ĠìĦľìļ¸ ìĹŃ
ĠìĹ¼ë ł¤
ĠìĦľ ìłĲ
ê¸° íļĮ
Ġâħ ±
Ġìłķ ì§Ħ
ìļ´ íĬ¸
ë©Ķ ë¦¬ì¹´
Ġì£¼ ëĭĪìĸ´
ĠìĽ¨ ìĬ¤íĬ¸
Ġë§ī íĺĢ
Ġê°ģ ë³¸
ìľ¤ ë¦¬
Ġìĵ° ìĹ¬
Ġê³ł íĿ¥
ĠìŀĦ ë°ķ
ìĥģíĻ© ìĭ¤
ìĥģ ìĿ¸
ê´Ģ ìĿ´
Ġíıī ìĿ´
ìº ¡
Ġì§Ĳ ìŀĳ
ìĭľìĬ¤ íĬ¸
ĠíĥĲ ì§Ģ
Ġíĩ´ ì§Ħ
ĠíĥĲ ìĤ¬
ĠëĮĢ ìłĳ
ì¡° ê°ģ
ë©ĺ íĦ°ë¦¬
íŀĪ íĬ¸
ìĬ¤ ì¿¨
Ġê°Ģ ê¸ī
Ġëĵ± ê¸°
Ġë³µ ìłľ
ĠìŀĶ ìĹ¬
Ġì¦ī ìĦĿ
ë§Į íĻĶ
íħĮ ìĬ¤
ìĿ¼ ìľ¼
ëĤ¨ ëĮĢ
Ġê¸°ì¤Ģ ì¹ĺ
ĠìĶ¨ ìķĹ
Ġê²° ì§ĳ
ĠìŀĲ ë¥´
ĠìĹ° ë¹Ħ
g c
ĠíıŃ ëĿ½
ĠëıĮìķĦ ìĦ°
íİ¸ íķľ
ìĿ¸ë¯¼ ê³µíĻĶêµŃ
Ġk c
Ġë°ĺ ê²½
Ġìļ° ëĿ¼
t le
Ġë´Ĳ ìĦľ
ìĩ¼íķĳ ëª°
ĠìĺĪìģ ĺ
ëį± ìĬ¤
ìĹ° ìĪĺìĽĲ
Ł ã
ĠìĨĮìĦ¤ ê°Ģ
Ġï¼ Ł
Ġë¹Ħë¡Ģ ëĮĢíĳľìłľ
ĠìĿĢê·¼ íŀĪ
ĭ Ĳ
Ġìĺ¤íĨł ë°ĶìĿ´
Ġìµľ ì²¨ëĭ¨
ìĿ´ íĸī
Ġê¶ Ĳ
ë¶Ħ ê³ĦìĦł
Ġë°ĺ ë¬¸
ìĺĪ ìķ½
Ġê¸ ĢìĶ¨
Ġíģ¬ë¦¬ìĬ¤ íĥĪ
Ġì¿ł ë¡ľ
ìŀĲ ìĻĢ
ë±ħ íĤ¹
Ġë°Ŀ íŀĲ
Ġíħį ìĬ¤íĬ¸
Ġìµľ ìŀ¬
Ġp r
ĠìŀĶë ľ©
ĠëĤĺ ìĺµëĭĪëĭ¤
Ġë¹Ħ ìŀĲ
Ġë¡ľ ìĹ´
ê²½ íĺĳ
Ġìĭ¬ íı¬ì§ĢìĹĦ
Ġe p
ìłĦ ìļ©
ìĭľ ìľĦ
ĠëĬĲ ë¦°
ĥ ë°Ń
ĠìĤ° ëŀĢ
ìŀ¥ ëł¤
Ġë¡ľ ìĸĦ
ëĤĺëĿ¼ ëĭ¹
ìłľ ë³´
íĥľ ìļ°
ê¸¸ ìĿ´
Ġë°ĶëĤĺ ëĤĺ
Ġë¶Ī ê¸¸
ĠëĮĢ ë°ķ
Ġì²´ìľ¡ ê´Ģ
ĠìĪĺ ëıĻ
ë¦¬ìĬ¤ íĥĢ
íĭĢ ëŀľëĵľ
Ġì¿ ¼íĦ°
Ġ19 78
ĠëĿ¼ ìļ´ì§Ģ
íģ ĺ
ĠìļĶ ìłķ
Ġëıħ ê±°
ĠëĨĵ ìĿ¸
ìķĦ ëĭĪ
ë¬´ ìĭľ
ìłĢ ê¸°
Ġíĺ¸ ìłĦ
ì¶© ìłĦ
ĠëĭĪ ìĭľ
Ġìĺ¤ ìĤ°
Ī į
ĠëĭĽ ìĤ°
Ġë°° ìļ¸
Ġíĺ¸ ì¹Ń
Ġì´Ī ëĭ¹
Ġê²½ ì´Ŀ
Ġë¯¸ ì£¼
Ġë©Ķ ëª¨
ĠíĽĦ ë°ĺê¸°
ĠìĤ¬ ìĭł
Ġê¹Ģ ìĽĲ
Ġë¦¬ ë·°
ëĶĶ ìĽĢ
Ġê°ľ ìłĲ
ģ į
ĠíĨł ë¥´
Ġd f
Ġë©´ ìĦ¸
ìĿ¸ëį° ëĭ¤
ì´Ŀ ê´Ħ
Ġê·¸ ëĬĺ
Ġê²½ìŁģ ìĤ¬
ë¶Ģ ìĥģ
ĠíĹĮë²ķ ìŀ¬íĮĲ
Ġê°Ħ ìĦŃ
ĠëĮĢêµ¬ ê²½ë¶ģ
ë¡ľ íĶĦ
ĠíģĲ ë¸Į
ìľĦ íĤ¤
ĠìĽĲ íĿ¬
Ġì§Ģ ì³Ĳ
ìĹ ī
ìŀĳ ìľĦ
Ġëĭ¨ ìłĪ
ĠìĤ° ìķħ
Ġë¯¸ìĦ± ëħĦ
Ġë¦¬ ê°Ģ
Ġíĺķ íıī
Ġìľł ìĦł
Ġë°ĳ ëıĮ
ë³´ ë³µ
Ġì´Ī ìĥģ
Ġâĳ ¡
ĠíķĻêµĲ ìĿĺ
ë¸Ķ ë¦¬
Ġìĭł ìĺģ
ĠíĽĶ ì¹ľ
Ġêµ°ìĤ¬ ë¶Ħê³ĦìĦł
ĠëıĮ íĴį
Ġë°¸ ë¥ĺ
ĠíĥĢ ìļ´
Ġë¬¸ ìłķ
ëłī íĦ°
Ġë¶Ħ ë§Į
Ġë©ĶìĿ´ ì»¤
Ġë§Ŀ ê°Ģ
ì¶ľ ìŀĲ
Ġíķľ ëĤ®
Ġê³µíĨµ ìłĲ
ĠìĶ Į
ìĺģ ë¦¬
Ġ17 00
íĮĮ ë¦¬
Ġë°Ģ ì°©
ĠëıĮìķĦ ìĦľ
ĠëĦĺ ê¸´
Ġì¡° ìĿ´
Ġa k
ì£¼ ê°Ħ
Ġì¤ĳ ìĦ¸
Ġìŀ¥ìķł ë¬¼
Ġê²½ ìĿ¸
Ġë§Ŀ ì¹ĺ
Ġë¶ģ ê·¹
ì§Ģ ì»¬
Ġíİľ ìĬ¤
Ġë³µ ìĦł
ë¬ĺ ì§Ģ
Ġë¯¸ ì³Ĳ
Ġëħ¸ìĤ¬ ìłķ
Ġíĳ ¼
Ġëª¨ ëłĪ
ĠíĹ¤ ì§Ģ
Ġíķ¨ ìĸĳ
Ġê°Ģ ì²ĺë¶Ħ
ĠìĪĺ ìĺģìŀ¥
Ġê²½ì°° ìĦľ
ìĹĲ ë¯¸
å ¼
Ġl te
ì¤ĺ ìĦľ
Ġíļ¡ ëĭ¨
Ġìĺ¤ íģ¬
Ġì¶Ķ ìļ´
ìłľ ê³µ
Ġëª° ëł¸
ìľ¼ ìĭł
ķ íĦ°
Ġy tn
ĠëĦ· ë§Īë¸Ķ
Ġê°Ģê¸ī ìłģ
ë¶ ĵ
ìĹĲ ìĿ´íĦ°
ê±´ ìĪĺ
Ġu h
Ġë¬´ ì£¼íĥĿ
Ġë¶Ģ ìĹ°
ĠìĪľ ì¡°
Ġ2 22
Ġíķľ ëĤĺëĿ¼ëĭ¹
ì§ģ ìĹħ
Ġê·¹ ëıĻ
æ ¯Ķ
ĠíĹĮ ìłķ
ë°Ķ ê¿Ī
Ġëĭ¨ ê°Ģ
ìĿ´ ìĺ¨
Ġëħ¸íĬ¸ ë¶ģ
ìłĦ ê³µ
ê³¼ë ª©
Īë ¨¸
Ġì²ľìķĪ ìĭľ
Ġë³´ ëĭµ
Ġëª¨ íĨł
Ġìłģëĭ¹ íŀĪ
Ġìŀ¬ íĺĳìĥģ
ë¹ ¨ë¦¬
ĠìĨĮëĵĿ ìĦ¸
ĠíĮĮ ëıĻ
ĠìĥĿ ìłĦ
Ġì¶©ìĭ¤ íŀĪ
Ġìłľ ìŀĲë¦¬
ĠìĤ´ ê·ł
ëĤĺ ìĬ¤
ĠìĿĺ ìĻķ
ìľĦ ìĥĿ
ĠìĬ¤ íĨ°
ìķĦì¹´ ëį°ë¯¸
ê³ł ê¸ī
į ¬
Ġëĺ ¥
ĠìłĢ ìĿĺ
Ġê³µ ë¬´
Ġë¶Ģ ìĿĳ
ìłĢ ê°Ĳ
Ġëĭ¤ê°Ģ ìĺ¨
ê²¨ ìļ¸
Ġì¤ĳ ëĤ¨
ĠëıĻ ê²½
Ġ' .
ĠìĦ± íĻĶ
ĠìĤ¼ìĦ± ê·¸ë£¹
Ġê¹Ģ ìłľ
f m
Ġíı¬ ê²©
ĠìłĦ ê´ĳ
Ġì£¼ ìĭł
Ġíķ´ ëĤ¨
ĠêµŃ ì±ħ
ëŀ ´
ĠìĽĲ ìĪĺ
ĠìĿĺ ìĿĺ
ĠìĥĿ ìĦł
ĠìĽĲ ìĭ¬
Ġê´ĳìĤ° êµ¬
ìĤ¬ ìĿ´ëĵľ
Ġì§Ģë°© ìĦ¸
Ġìŀħ ìĸĳ
Ġìłģ ìŀ¬
ĠìĿ¼ ë³Ħ
Ġì ¯¤
ë¡ľ ìĿ´ëĵľ
Ġìķ ħì·¨
ìļ© ê¸°
Ġ H
ì·¨ ìĹħ
Ġëª¨ ëįĺ
ĠìŀĲìĤ° ê´Ģë¦¬
Ġì¦ī ìľĦ
ĠìĪĺ ìĿĺ
ìľĦ ëĮĢ
ĠìŀĦìĭľ íļĮ
Ġê°Ģ ëĬ
íĶĮ ë£¨ìĹĶ
íĶĮë£¨ìĹĶ ìŀĲ
Ġìĥī ëĭ¤ë¥¸
ìļ´ ìĿĺ
ĠìĻķ ìľĦ
ìŀ¬íĮĲ ê´Ģ
ëıĦ ìłĦ
Ġíĸ¥ ìĪĺ
Ġíķľ ìĦ±
Ġê´ľ íŀĪ
ĠíıŃ íĮĮ
ĠëģĶ ì°į
ì¹´ ëĿ½
Ġìĺ¨ìĭ¤ ê°ĢìĬ¤
ĠíĨµ ìĤ°
ê³µ ìŀĳ
ĠíĪ ´
ìĭł íĺ¸
Ġd lc
Ġëĭ¹ ëĮĢ
ĠìĤ¬ ì¹´
Ġìļ¸ ì£¼êµ°
Ġw hen
ĠìĿ¸ ëį°
Ġh er
ĠìľĦ ìĬ¤íĤ¤
è ¦
ìķĦ ìķĦ
Ġëĭ¤íģĲ ë©ĺíĦ°ë¦¬
Ġë¨¸ë¦¬ ì¹´ëĿ½
ľì ĭ¤
ĠíĹ¤ ë¹Ħ
Ġê³µ ìłģ
ê´Ģ ìłĪ
Ġì¶ľê·¼ ê¸¸
Ġë°ĶëĢ Ķ
Ġë¬´ê¶ģ íĻĶ
ĠìľĦ ë¡Ģ
Ġì¶© ë¬´
Ġë¬¸ íĦ±
Ġì¹ľ ìĦľ
Ġìłľ ì²ł
ĠìĬ¹ ìŀĲ
ê³µ ê³ł
ìłĢ ëĦĲ
Ġì± ķíĦ°
íļ ¡
¨¼ íĬ¸
ĠëıĦ ìŀ¥
ì¡Į ìľ¼ë©°
ķì ¥Ĳ
Ġe d
ì½Ķ ëħ¸
ĠìłĦìĭľ ê´Ģ
Ġo st
u re
Ġìķ Įì½Ķìĺ¬
Ġ W
ĠíĽĪ ìŀ¥
Ġc es
ĠìłĦ ëıĦ
Ġìĺģ ìķĶ
Ġê·łíĺķ ë°ľìłĦ
ìĻ¸ ë²ĦìĬ¤
Ġì²Ń ëħĦì¸µ
Ġë¦¬ íĶĮ
h c
íķĻêµĲ ìĿĺ
ì²ł íķĻ
ãİ ¥
ĠëĬ Ļ
ì¸¡ ë©´
Ġëĭ¬ëŁ¬ íĻĶ
Ġê°Ģ ìĬµê¸°
íıĲ ì§Ģ
ĠìĹĲìĿ´ ì¹ĺ
Ġê±° ë¶ģ
e g
Ġìķ¤ ëĵľ
Ġëĭµ ë°©
Ġë¹Į ëĵľ
Ġê¹Ģíĥľ ëħĦ
Ġë³Ģ íĸĪ
íķ© ëıĻ
Ġc f
Ġne ed
Ġì¹´ ìĺ¤ìĬ¤
Ġê°ķ ìŀĲ
ĠëĨĢ ìĿ´íĦ°
Ġë¯¸ ëł¨
ĠìĿ¸ ìŀĲ
ĠìĤ´ ë¦°
e e
Ġê°ľíļĮ ìĭĿ
Ġêµ¬ ìĿ¸
êµŃ ìĪĺ
Ġ @
ĠëģĮìĸ´ ëĤ´
Ġê±° íĴĪ
Ķ ĺ
Ġë§ī ëĤ´
ĠìĽĮ íĤ¹
Ġë¿ ľ
ĠìĻĦ ì£¼
Ġã ıĬ
Ġê³¨íĶĦ ìŀ¥
ê³µíķŃ ê³µìĤ¬
Ġë¹łìł¸ ëĤĺê°Ģ
Ġëĭ Īì½ľ
Ġìŀħ ìŀĲ
Ġëıħ ë³´
Ġë¶Ģ íĨµëł¹
ļ ±
Ġê¸° ë¥´
Ġíħ ħ
Ġë¶ĪëŁ¬ ìĿ¼ìľ¼
ëıĮ ìĿ´
ĠìłĢì§Ī ëłĢ
ìĬ¬ ë§ģ
ĠìĪľ íļĮ
ë°ľ êµ´
Ġì¤ĳ ëŀĳ
ëłĲ ëĿ¼
Ġíĸī ë°©
Ġta ke
ĠìĿ´ ìĸ¸
Ġìį¨ ë¨¹
Ġëĭ¤ íĪ¼
lo ck
Ġìĭľ ìĬ¹
ĠíĶ¼ë ł¥
ĠíĨµìĭł ìĤ¬
ĠìĽĲ ëįĶ
ĠíļĮ ê³ł
¥ ľ
Ġê±¸ ë¦°ëĭ¤
ëª¨ ëĭĪ
Ġíķ´ ì¤Ģëĭ¤
Ġì¿ł íĮ¡
ëłĪ ìłĢ
Ġì¤Ħ ê³§
ĠêµŃìłľ ìĦł
ëł¤ ìķ¼
Ġë§Ī ëĥ¥
ĠìļĶê¸Ī ìłľ
Ġì²ľì£¼ êµĲ
ëĮĢ ìĪĺ
ĠëıĻ ìłĦ
ìĬĪ íĥĢìĿ¸
ãģ Ī
ĠìŀĲìĤ° ìļ´ìļ©
Ġìľł ë³´
ĠíķĦ ê¸°
Ġê°ķ ì²ł
ìĭ¤ íĥľ
Ġë¹Ī ë²Ī
Ġê±°ëĵŃ ëĤĺ
ëłĪ ìĺ¤
Ġì¹´ìŀĲíĿĲ ìĬ¤íĥĦ
Ġë°Ķ ë¦¬
Ġë²¨ íĬ¸
Ġê²¬ ê³ł
ë°Ķ ìľĦ
Ġìĸ´ ëł¸
Ġ12 1
ĠìĿ´ íĺ¸
Ġe ls
Ġì±ħ ìĥģ
Ġê³ł ê³ł
ĠìĹ¬íĸī ìĤ¬
ëıĻ ì·¨
ì¶Ķ ìĸ´
Ġìĸĳ ì²ľêµ¬
Ġj c
ĠíĨµ ì§Ģ
Ġì§ĳ íķĦ
ê°ķìłĲ ê¸°
Ġê¸´ìŀ¥ ê°Ĳ
ĠëıĦ ìłķ
Ġë§¥ ëıĦ
Ġì§Ģ ìŀĲ
Ġë°ĽìķĦëĵ¤ ìĿ¼
Ġì§ĳ ë¬´ìĭ¤
Ġì°¸ ìľ¼ë¡ľ
ĠâĦ ĥ
ĠëĦ¥ ìĬ¨
ĠìĬ¤íĥł ëĵľ
ìĹĺ ëĿ¼
ĠìĦ¸ ìľ¨
Ġëĵ¤ìĸ´ ìĦ¤
ĠìłĦë¬¸ ìĿĺ
ĠëĤĻ ìĦł
Ġìĭľ íģ¬
Ġë³¸ íĨł
Ġë§ī ìĥģ
Ġì¶ľ ê²©
Ġë°°ëĭ¹ ê¸Ī
íı¬ ìĭĿ
ĠíĥĪ ë°Ķê¿Ī
Ġì£Ħ ëĭ¤
Ġì¡° ìĥģ
ëįĶ ëŁ¬
Ġê·¸ ê±°
ĠëĤĺ ë£¨
Ġì¤ĳ ìĥģ
Ġêµ¬ ìĬ¬
Ġìłķ ìłľ
ĠìĿĺ ì´Ŀ
ĠíļĮ íĻĶ
ë¡ľ ë¦¬
ĠëıĦ ëĳĳ
Ġë°ķ ì°¬
ĠíĻį ì²ľ
ìĥģ ìĤ¬
ĠíĹ ¨ë¦¬
ĠíĻĺ ë¶Ī
ê²ĮìŀĦ ì¦Ī
ĠëĤ´ìłķ ìŀĲ
ëı¼ ìĦľ
ìĭ¤ ìĬµ
ê±¸ ë¦¬
k w
ìĦ¸ìĦľ ë¦¬
an t
Ġê°Ģ ì§Ħëĭ¤
Ġê³łìĦ± êµ°
ê¼ ´
Ġì§ĢëĤĺ ì¹ľ
ìłķ ë¦¬
ĠìĿ¸ ì¤Ģ
ìĭł ê²½
Ġkb o
Ġê°ķ ìķĦì§Ģ
Ġëĭ¬ëĿ¼ ì¡Į
Ġì°Į ë¥´
Ġë½ Ĳ
è ¡
Ġíĳľ ë°©
Ġê°ĢëĬ ł
ĠìĪĺ ëĤ©
ëĭ¤ëĬĶ ëį°
íķĺ ë©´
n l
ê±° ë¶Ģ
ì¼ĢìĿ´ íĮħ
Ġë¶Ģ íļĮ
ĠìłĦ ëıĻ
Ġíı¬ íļį
ëįĶ ëĿ¼ê³ł
Ġìķķ ìĪĺ
ëĤ´ ë¥Ļ
ìŀĲìĤ° ìļ´ìļ©
ĠëĲĺëıĮ ìķĦ
ĠëĮĢ ë§Ī
ìĦ± ëĭ¹
Ġìĵ° ìĺĢ
Ġê³ł ê³µ
Ġê°Ħëĭ¨ íŀĪ
ĠëıĻ íĺ¸
Ġë§Ĳ íĪ¬
Ġëª© ìļķ
Ġëĭ¨ ê±°ë¦¬
íĭĢ ëŁ¬
Ġp k
íı´ ë¦¬ìĬ¤
ë©´ ìłĳ
ê³µ ìķ½
Ġìłĳ ê²½
ı ´
Ġë³¸ ì²´
Ġìłĳ ì¢ħ
ĠìĨĮ ìĭł
ĠìĿ¼ ê³±
Ġê·Ģ ìĭł
ĠíĻĶë¬¼ ì°¨
Ġíŀ Į
ĠâĻ ª
Ġìĺģ ìĪĺ
ĠìķĦì¿ł ìķĦ
Ġìĭ¤ ê°Ĳ
ħ Ī
Ġæ ľ
Ġê°Ħìĭł íŀĪ
Ġãİį ãİ¥
Ġì±Ļ ê¸´
Ġê¼½ íĺĶ
Ġë°ĶìĿ´ ìĺ¬
ëĭ¤ ëĤĺ
ĠìĨ¡ íĻĺ
Ġëĵľ ë¬¸
Ġì»¤ë§¨ ëĵľ
íģ¬ ë¦¬íĬ¸
ëĲł ì§Ģ
Ī ã
Ġìĭ¤ ë¦°
¹ ľ
íĹ¬ ê¸°
Ġê·¸ ëł¸
Ġali gn
Ġê¸ī ë³Ģ
Ġíħį ìĤ¬ìĬ¤
íħĮ ìĿ´ìħĺ
Ġsp an
ĠìĿ¸ëıĦ ìłģ
Ġê°Ħ ìĨĮ
ĠíĬ¹ ê¸ī
ĠìĿĮìĭĿ ë¬¼
Ġê¸° ëĵĿ
h z
p lay
ĠìĹħë¬´ ìĥģ
Ġp lay
ĠìłĪ ìķ½
Ġ- -
Ġìĺ¬ëĿ¼ ê°Ī
ëĭ¹ íķľëĭ¤
Ġì¶© ëĭ¹
Ġìł Ģì
Ġíķ ı
Ġë§ī íŀĪ
ê°Ģ ë¡ľ
ĠíĥĲ íĹĺ
Ġb re
ìľ¼ ë¦¬
ê¸Ī ê³ł
ĠìłĦíķ´ ì§Ħëĭ¤
Ġë³´ê±´ ìĨĮ
Ġê¼¼ ìĪĺ
ëŀĢìĭľìĬ¤ ì½Ķ
ĠíļĮ ìĥī
Ġ11 8
ìŀ¥ ìĹĲ
Ġìĭ ¬ì
ìĺ¤ íĶ¼ìĬ¤
Ġíĺ¸ ë°ĺ
Ġë¯¸ ì¹´
Ġìłľ íĬ¸
ëĭ¹ íķ´
Ġì°¸ ê´Ģ
ë¨¼ íĬ¸
Ġì´Ī ê°Ħ
h y
Ġë¬ĺ ìĹŃ
ĠìĿ¸ ìĿĺ
Ġìĩ¼ íģ¬
Ġë¯¼ ìĨį
Ġê³¡ ìĿ´
ĠìĬ¤ íı¬
Ġë²Ħ ê±°
íĭ¸ ë¦¬íĭ°
Ġë£¨ íĥĢ
ĠìŀĶ ëĶĶ
ĠíĽĶì ³Ĳ
Ġê³ł ìĬ¤íĬ¸
f w
ĠëĤ¨ ê³¼
Ġê¹Ģ íĻį
ìĭľ ìķĪ
Ġìĭłìŀħ ìĥĿ
Ġëģ¼ ì¹ĺ
ĠìºĲ ìĬ¤íĦ°
ĠëĿ¼ ëĿ¼
ê¸° ìĿ¼
Ġìľł ìĿ´
Ġíķ´ ìļĶ
ĠìĸĳìĬ¹ íĥľ
ê·¸ ëłĪ
Ġ24 00
ìĿ¼ë¦¬ ì§Ģ
ĠìĦ¸ ìķ¡
Ġë ŀĳ
ì°¨ ê´Ģ
ëĭ¤ ë°ľ
´ë ±ĥ
ëģ ½
Ġëª¨ ì¡°ë¦¬
Ġm ore
Ġìłģ ê¸Ī
íĬ¹ ë¡Ģ
Ġë²Ħ ìĦ¯
íĥĢìŀĦ ìĬ¤
Ġë°± ìĿ¸
Ġ19 72
ĠìķĦ ëĭĺ
g f
ĠìłĦ ëıĻì°¨
ìĨĮ ìĹ°
ĠíĶĮëŀľ íĬ¸
Ġu s
Ġìĸĳ ìĿ´
ĠìħĶ íĭĢ
Ġìļ° íģ¬ëĿ¼
ĠìĻľëĥĲ íķĺë©´
Ġë°ķ ì§Ħ
Ġëĵ± ëĿ½
ĠíĶĦë¦¬ íģĲìĸ´
ĠìĨĲ ê¸¸
Ġê²°ìĿĺ ìķĪ
Ġ45 00
¹ ©
ĠìĽĲíĿ¬ ë£¡
j w
Ġë³ ¶
ĠíŀĪìĸ´ë¡ľ ì¦Ī
ìķĦ ìĬ¤
ëĵ¤ ìĸ´
ĠìĿ¼ ì¶ķ
Ġíķł ê¹Į
Ġìĭł ìķĪ
Ġë¶Ģ ëĳĲ
ê²¨ ëłĪ
ģ ĳ
Ġl u
Ġê°Ģ ìķ¼
ĠëĵľëŁ¬ ëĤ¸
ì² ¸
Ġë°° ì°¨
ìĹ¬ ëĭ¹
ìļ´ íĸī
ãĤ ¯
Ġ5 20
ĠìĿ´ ì¼Ģ
ë£¬ ëĭ¤
ĠíħĮ ëĭĪìĬ¤
ë°ķ ìĿĺ
Ġê²½ ì§ģ
ĠëĤ¨ê²½ íķĦ
ĠìľĦ ì¡°
Ġë¹Ħ ì£¼ìĸ¼
ĠíĮ¨ ëŁ´ë¦¼íĶ½
Ġê²°íĺ¼ ìĭĿ
Ġëª¨ ë¡ľ
Ġë£ ¬
Ġëª¨ ìĿĺ
Ġë§Ī ë£¨
ĠëıĮ ë³´
Ġëł Īì½Ķ
Ġê°Ģ ë£¨
ìŀĦ ìŀĲ
íķ´ ê²°
ì²ľ ìĤ¬
Ġê°ľ ìĭłêµĲ
ìĤ° ìĹŃ
Ġì¹Ń íĺ¸
ëŁ¬ ê·¸
ĠëĤ´ ê²Ĳ
Ġë§Į ëģ½
Ġê°ľ ìĻĢ
ad y
ĠíĿĲ ë¦¬
ì¡° ìĦ±
ĠìķĦìĿ´ ëĶĶ
ĠêµĲ ëĤ´
ëĭ¨ ê°Ģ
ĠìĹĲ ëĶĶ
Ġë¶Ļìŀ¡ íĺĶ
ĠëĨ Ķ
ĠíĪ¬íĳľ ìĨĮ
ĠëĤ´ ë°Ģ
Ġëĵ¤ìĸ´ ìĺ¬
ĠëĤ´ìĦ¸ ìĽĮ
Ġìĭ¬ íĺĪ
Ġt ra
Ġì§ģ ê²©
Ġê°Ģìĥģ íĺĦìĭ¤
ìĪľ ê°Ħ
Įì ĭ¤
Ġ19 75
ì¤ĳ ê°Ħ
ê³¼ ìĹ´
Ġë°Ģ ëıĦ
ĠìĪĺ ë°ķ
Ġê³µ ìĦĿ
ê±° ìĬ¤
Ġë¬´ ëĬ¥
ëį ®
F A
Ġë¦ ¬ì¸ł
ĠìĹĲ ë¦Ń
Ġì¢ Įì
ĠìķĶ ìĭľ
Ġì§Ģ ë¥´
ĠìľĪ ëıĦìļ°
ĠíĶĮ ëłĪ
ĠëĤ¨ ë§¤
Ġì¤ĳëĤ¨ ë¯¸
ĠíĴį ë¯¸
ì§Ģ ë°°
ĠíĮĮìĿ´ íĶĦ
Ġê³µ ì§ľ
ĠíĻĶ ëĳĲ
ĠìĨĲ íĺľìĽĲ
Ġê¹ĥ ë°ľ
Ġê²½ê¸° ëł¥
Ġë§ĮëĤľ ëĭ¤
Ġë¬¸ ê²½
ì°¨ ìĿ´
Ġìĺ¤ìĭł íĻĺ
Ġêµ¬ ëıĻ
Ġê·ł ìĹ´
Ġì°¾ìķĦ ìĻĢ
ĠìĿ´ ë§Ī
Ġìī¬ ìĽĮ
ĠëĤŃ ë§Į
ĠìĿ´íĺľ íĽĪ
ĠìĦ± íĻ©
Ġëĭ¤ ì¹´
Ġìĸĳ ëħĲ
ĠìľłíĿ¬ ìĻķ
ì¸ Ħ
ëĭ¤ ìĬ¤
æ Ħ
ĠìĽĢì§ģ ìĿ¼
Ġë°± ì§Ģ
Ġìĭľ ì¦Ī
Ġë©´ìĦľ ëıĦ
ìłľ ê³¼
ãģ ķ
Ġ12 2
ĠìĿĦ ì§Ģë¡ľ
Ġì¤ĳ ëł¥
ĠëĵĿíĳľ ìľ¨
ĠìĪĺ íıī
Ġìłľ ìĻķ
ĠìĨĶì§ģ íŀĪ
Ġì¡° ë¡±
ìĺĪìĤ° ìķĪ
ĠíĮ ģ
ë¯¸ ìķĦ
ê¶ Ī
ĠìĪľ ì°°
Ġê²½ìĿĺ ìĦł
ì¡´ ìĬ¤
Ġìļ°ìļ¸ ì¦Ŀ
Ġë² Ļ
ìł ¯
w m
Ġ19 74
ħ Ģë¡ľ
ãģ ĵ
ĠìłĢ ê·¸
Ġgt x
Ġê²° ìĦł
ĠëĮĢ ëł¹
Ġìļ¸ ëł¤
Ġë°© íķĻ
Ġs ome
Ġê±° ë¯¸
Ġìłķ ì£¼
íĶ¼ ìĭ±
ĠëªħìĺĪ íĽ¼ìĨĲ
ê¶Į ìĿµ
Ġk a
ëĵ¤ ìĺĢ
ĠíĺĦ ì¶©
ou ld
ĠíļĮìĤ¬ ì±Ħ
Ġëı¼ì§Ģ ê³łê¸°
ëĭ´ëĭ¹ ê´Ģ
Ġì£¼ ë¦Ħ
ìĸ´ ë§Ī
Ġíķľ ìĭľ
Ġ19 69
Ġë©¸ ì¢ħ
ëĬĶì§Ģ ëĿ¼
ë¶Ħ ê¶Į
ne y
Ġë īĺ
Ĩ Ī
ëĬĲ ë¦¬
ìľ¼ ìĭľ
ëĿ¼ ëĵłì§Ģ
Ġë³´ìĿ¸ ëĭ¤ë©°
ìĹ¬ ëĭ¨
ìĨĮ ìĪĺ
Ġd s
ĠëĤ¨ ìĿĺ
Ġì Ńī
Ġìķ½ ìłķ
ĠíĢ ´ì¦Ī
ĠìĨĮ ê´Ģ
Ġë¬´ ìĦŃ
ê·łíĺķ ë°ľìłĦ
Ġë©ľë¡ľ ëĶĶ
ĠëıĦ ëŀĺ
Ġë°©ìĤ¬ ìĦł
Ġë©Ķ íĬ¸ë¡ľ
Ġì§Ģ ê°ĳ
ĠëĦ¤ ìŀĦ
Ġë§ĪëĿ¼ íĨ¤
Ġ19 76
Ġë¶Ģ ìłľ
Ġp l
ì¤ į
Ġë°±ëĳĲ ìĤ°
Ġì¶Ķ ëıĦ
Ġë°° ìĽł
ĠìĦł ì²´
ìłĢ ìĿĺ
ìłĪ ëĭ¨
ì¦ Ļ
ê³µ ì£¼
ìŀ¥ ìĤ¬
ëŁ¬ ë¸Ķ
Ġha ve
ê°Ħ íĥĦ
Ġê³Ħ íĮĮ
= =
ì°¨ ê¸°
Ġìĵ° ìĿ¸
Ġê¸Ī ìłĦ
Ġê°ĩ íĺĢ
ĠëĪĪ ë¶Ģ
íķľ ëıĦ
Ġì°¨ ì°¨
íıŃ íĴį
Ġíķ© ì¹ĺ
Ġíĭ° ëª¬
ĠìĹ´ ëĮĢ
Ġë¶Īë²ķ íĸīìľĦ
Ġíķ© ì²´
Ġë§Ī ëĬĺ
ì²Ń ê³¼
Ġìłķê²½ ëĳĲ
ìłľ ìĿ´
Ġ19 20
Ġìŀ¥ ìłĦ
ìĸ ¸ì¸ł
ĠíĴĪ ê²©
Ġë°© íĻĶ
Ġs pe
ì£¼ ìĤ¬
ê³¨ íĶĦ
ìĿ´ëĤĺ ë§Ī
íĮĮ ìĿ¼
ĠìĹħ ë¡ľëĵľ
Ġì§Ī íĥĢ
ì£¼ ì²´
ë¶Ģ ìĬ¤
íĿ ł
ì½ ¥
ĠìĿ¸ ì§Ī
ë§Ī ë¥´
Ġëį ¥
ë¦¬ ëĤĺ
Ġìĸ´ëĶĺ ê°Ģ
Ġì į¸
Ġsk y
ĠíĮĮ ê¸ī
ëįĶ ë¦¬
ëĳĲ ë¦¬
Ļ Ħ
ë³ĳ ê¸°
ê²© ì°¨
ĠìłĦ ëŁī
ĠìĽĲ ë§Į
Ġë³Ģ ëªħ
Ġìµľ ìķħ
ĠíķĻìĥĿ ê³¼
Ġs he
ĠìĽ Įì»¤
ì½ľ ëĿ¼
Ġê°ķ ìłķ
Ġë¬´ ìłľíķľ
Ġê¸°ëĭ¤ ëł¸
Ġë°° ì¶Ķ
Ġo ver
Ġìł Ĳì
ĠíĬ¸ ëĿ¼ìĿ´
ëįĶ ë¸Ķ
© ¸
Ġê¸° ìĿĺ
g ht
Ġë¯¼ ì²©
ê°Ģ ê³µ
Ġì¡°ìĦł ìĿ¼ë³´
ì² ¼
Ġê¸° íķĺ
ëĵľ ë¦½
Ġêµ¬ ë³¸
Ġì¦Ŀ ê°ķ
Ġê³ł ë¶Ħ
Ġëĭ¬ ëł¸
Ġm d
Ġl cd
Ġìĺ¬ ëłĪëĵľ
Ġë¶Ģ ëıĦ
ĠëĮĢ ëįķ
Ġíķł ë¦¬
ĠìĬ¤ìľĦ ì¹ĺ
ë¥´ì ħĢë¡ľ
ì§Ģ íĸ¥
Ġì£¼ íĮĮ
Ġì£¼ë ²Ķ
Ġë¶Ģ ìľł
ìĸĳ ìĿ´
Ġëª¨ ì¹ľ
Ġë§ĪìĿĮ ê»ı
Ġê°ľìĿ¸ ìłĦ
Ġë£¨ ìĿ´ìĬ¤
Ġì£¼ ìĥģ
Ġìĭł ìŀĲ
ĠìŀĲ ì§Ī
Ġd ah
ģ °
Ġìļ° ìķĦ
v c
ëłĮ íĬ¸
ìĦ¤ ìłķ
ĠìŀĲ ë§ī
Ġìĥ ´
Ġê°ĢëĿ¼ ìķī
ĠíĤ¤ ìĽł
d v
ëĦ¤ ìĿ´ìħĺ
ëĤ´ ìĪĺ
ìķ¤ ëĵľ
Ġëī´ ëĶľ
ëĵľë¦° ëĭ¤ê³ł
Ġë¡ľ ì»¬
ìĨĮ ìľł
íĻ© ìĿĺ
ëĵľ ëĿ¼ë§Ī
Ġíķĺ ìĻĢìĿ´
Ġíķ´ìĻ¸ ìĹ¬íĸī
ĠìĺĪ ìĭľ
ĠëıĦ ë£¨
ĠìĺĪ ìĸ¸
Ġì½ľ ë¡ľ
Ġì§Ģì¼ľ ìķ¼
Ġíľ©ì ĵ¸
Ġì§Ģë¦¬ ìĤ°
ĠìļĶ íķľ
ëĭ¤ ìĿ´ìĬ¤
Ġìłķ ì¤Ģ
Ġê¹Į ëĭŃ
Ġ17 5
íľ´ ì§ģ
ĠêµŃë¬´ íļĮìĿĺ
ëĨ Ķ
Ġì²¨ ê°Ģ
Ġë¸Ķ ëĿ¼ìĿ¸
Ġê°ģë³Ħ íŀĪ
Ġíĳľ ìłĪ
Ġë¸Į ëłĪìĿ´
Ġst r
Ġìķ¡ ì²´
íĻķ ë³´
ĠíĨł ë§ĪìĬ¤
Ġìļ© ì§Ģ
Ġì¹ľ íĻĶ
Ġëį© ì¹ĺ
ê±´ ì§Ģ
Ġë¬¸ ìĦ±
Ġìķ¼êµ¬ ìŀ¥
ī Ĳ
ĠìĪĺìĹ¬ ìĭĿ
ĠìłĢ ìłĲ
Ġíĺ¸ íĻĺ
ìĽĲ ì§Ģ
Ġp os
Ġê±¸ ìĸ´ìĦľ
Ġìłķ ë¦½
ìĹĲë¯¸ ë¦¬íĬ¸
Ġì¢Ģ ì²ĺëŁ¼
Ġë¬´ ìŀĳìľĦ
Ġì§Ħ íķľ
ê¸° ìķĦ
Ġì¶¤ ì¶Ķ
Ġê²½ ìĦ±
Ġíĥľ ìĽĮ
Ġê¶Į ìĺ¤
ĠìĹ° ë§¹
Ġë°ĺ ê°Ĳ
Ġíĺ¸íĿ¡ ê¸°
ĠìĨĲ ëª©
Ġëĸłìĺ¬ ëŀĲ
Ġì¤ĳìķĻ ìĦł
ë¶Ī êµĲ
ìĸ´ ìĹħ
ê·¸ ë¦¼
Ġë§ĪìĿ´ ëĦĪ
ĠíĶĦëŀĳ íģ¬
ĠìĽĲ ëıĦ
ĠìĤ¬ëĿ¼ ì§Ħëĭ¤
Ġe ss
íĤ¤ íį¼
ë¶Ģ íļĮìŀ¥
Ġìļ¸ë¦ī ëıĦ
ĠëłĪ ìķĮ
Ġíķľ ìĿ¸
Ġì« Ħ
ĠíĻĺ ê¸°
Ġëıħë¦½ ìĦ±
Ġíķľ ê°Ģ
ĠìĿ¸ íĹĪê°Ģ
Ġìĸ´ëĸ ¡
ëĦĪë ¨¼íĬ¸
ĠìĿ´ìĿ¸ ìĺģ
íĥľ íĶĦ
¾ ì
Ġìļ° ìĽĶ
Ġë ĮĲ
ê°Ĳ ê³¼
ĠìĤ¬ë¬´ ìĨĮ
ê°Ħ ìłĳ
Ġê¹Ģë¬¸ ìĪĺ
ëĶĶì§Ģ íĦ¸
ìĿ¼ ë°ĺ
Ġìłľ ê°Ī
ì» «
Ġê²Ģ ì§Ħ
ê·¸ ëŁ¬
ëĭĪ ìĭľ
ĠìĿ¼ ì»«
Ġë°° ê¸°
ê³ł ë²ķ
é Ľ
Ġê´Ģ ìłľ
Ġìĵ¸ ëª¨
Ġìĺģ ëıĦ
ĠìłĢ íķ´
ĠìĦł íĴį
Ġì½Ķ ìĽ¨ìĿ´
ĠìĻĢ ìĿ¼ëĵľ
Ġê²½ìłľ ìĦ±ìŀ¥
Ġam in
ĠíĽĦ ìľł
ĠìĦł ë¡ľ
ĠêµĲ íĨł
ë¥ĺ íĥĦ
ĠìłĦë¬¸ ìłĲ
ìĥģ ê±°ëŀĺ
ĠíĻĺ ìĤ°
íĨł íģ¬
ìĸ ¼ë¯¸
Ġê³łê¸° ìķķ
Ġë³¼ ë³´
Ġëª¨ ìĪľ
Ġëĵ± ê·¹
Ġê²½íĿ¬ ëĮĢ
² ¡
Ġìĸ´ë§Ī ìĸ´ë§Ī
ëĮĢ ìĭł
ĠìķĦëŀį ìĹĲë¯¸ë¦¬íĬ¸
Ġì¤ĳ ìĤ°
Ġìļ´ëıĻ ìŀ¥
ne r
ê²° ìĭĿ
ë°Ķ ë¥´
Ġë¿ Ķ
Ġì¢ħ ìĹħìĽĲ
ìĸ¼ë¯¸ íĦ°
Ġp op
Ġl ine
Ġìĸĳ êµ¬
ìĸ´ ì¡Į
ìī Ĳ
Ġ12 4
Ġì±ħìŀĦ ê°Ĳ
Ġ%âĨ ĵ
ĠìĹĶ ì§ĢëĭĪìĸ´
ë¹Ħ íĬ¸
ë¬¸íĻĶ íļĮê´Ģ
Ġë¶ĢìĤ° ëĮĢ
å ¹
Ġíķĺ ì²Ń
æ ī
Ġê°Ģìł¸ ëĭ¤
ĠíĮ¬ íħĢ
Ġm us
ë°ķ ìĿ´
ëı Ĺ
Ġìļ© íĴĪ
Ġì¦Ī ìĿĮ
Ġëħ¸ìĽĲ êµ¬
Ġê²° íķµ
ģ ĵ
Ġìłķì¹ĺ ê°Ģ
Ġìº¡ íĭ´
Â ²
ĠìĨĮ ëĿ¼
Ġë¸ĶëĿ¼ìĿ¸ ëĵľ
Ġ6 50
Ġë¯¼ ìĤ¬
´ ´
ĠìĦ¸ì¢ħ ë¬¸íĻĶíļĮê´Ģ
ëĵľ ë¦´
ĠëĦ Īë¨¸
Ġìĺģ ì¢ħ
Ġë©¤ë²Ħ ìĭŃ
ìĤŃ ìĬ¤
ĠìĿĳ íķĺ
Ġê´ĳ êµĲ
º º
Ġë¶Ģ ìĺģ
Ġìĸµ ì§Ģë¡ľ
ĠìķĦ ëłĪëĤĺ
ĠìĿ¼ ê²©
Ġê±° ìĭľ
Ġm in
ìĺ¨ ëıĦ
ĠìķĦ ëĤ
ëĿ¼ ëĵłê°Ģ
íĥĿ ì§Ģ
ĠíĽĦê³Ħ ìŀĲ
ĠíĮĮë¦¬ ë°Ķ
Ġë°° ìļ´
Ġë¶Ī ë¡ľ
Ġë¦¬ ìĸ¼ë¯¸íĦ°
Ġy o
Ġêµ¬ ê°ķ
Ġë§Ĳ ê¸°
Ġëłī ìĬ¤íĦ´
Ġëħ¸ëıĻ ê³Ħ
Ġìĺ¤ ì§ķìĸ´
ĠìĪĺìĦ± êµ¬
ìľ¨ ìĿĺ
ì¤Ħ ê¸°
Ġ{ {{
Ġì´ Īì½Ķ
ë¦° ëĭ¤ëĬĶ
Ġ11 7
Ī Ļ
ë¥´ì ½Ķ
íĳľ ìĭľ
ãĥ¼ ãĥ
ĠìĹ¬ê¸° ìłĢê¸°
ĠëıĦ ëģ¼
Ġìŀ ¬ì
Ġê·¸ ëłĪ
s di
Ġj w
ĠìĹ° íĮ¨
ê¸Ģ ëŁ¬
Ġì´Ŀ ë¬´
Ġìľł ë¬´
Ġìĺ¤ ë°Ķ
? '
ĠêµĲ ìŀ¬
Ġ19 68
Ġa f
ë¦¬ ëĵľ
ì§Ģ íķĺ
Ġì»¤ ìł¸
Ġb c
al k
Ġìĭľ ëĭĪìĸ´
ê³µ ê³µ
ĺ Ĳ
ĠíĨł ìĬ¤
Ġë§ŀ ëĮĢ
ë¦¬ ì½Ķ
Ġì¹ľ ë¶Ħ
Ġë¹¼ ëıĮ
Ġíĸī ëł¬
ë¯ ¼ë
Ġì¹´ ì§Ģëħ¸
ĠìĿ´ ê²¼
Ġë³µ ìĿĮ
ĠíĻ ĭ
ĠìķĦê°Ģ ìĶ¨
Ġì° ľ
ëĭ¬ ìĿĺ
Ġìĸ´ì§Ģ ê°Ħ
ë Ľ°
ìĬ¤íĨł íģ¬
Ġê±´êµŃ ëĮĢ
Ġìŀ¡ íŀĮ
ĠìĿ¸ ëĤ´
Ġê±¸ ê¹Į
ĠÂ ²
ĠëĭĽ ì¼ĢìĿ´
Ġf w
ĠìĨį íķĺ
ĠìĦ± íĺķ
Ġdah ora
Ġ.âĸ ·
ĠëĲĺ íĴĢìĿ´
Ġíı¬ ì²ľ
Ġìľłê¸° ëĨį
f ul
Ġ $
Ġëĭ¤ ì¹ĺ
ĠìĦľ ìłķ
ê°Ģ ìĪĺ
Ġbe at
Ġëħ¸ íĻĶ
Ġíķ¨ ìĪĺ
ĠìķĦ ì¦Ī
Ġi r
ª »
ë³´ íķ©
Ġë¬´ìĥģ ê¸īìĭĿ
ìĸ´ë¦°ìĿ´ ì§ĳ
ê³ł ëŀĺ
ĠìĿ´ìļ© ìĦŃ
Ġìµľê²½ íĻĺ
íĺ¼ ìĿĺ
ĠìĬ¹ ìłĲ
ĠíĻĺ ìłĦ
Ġìĸĳ ëĭ¹
Ġë²Ħ ë¦°ëĭ¤
ê·¸ ë¡ľ
íĻ ī
ëĤĺ ìĿ´íĬ¸
Ġë§Ī ìĿ¼
ĠëĤ¨ë¶ģ íķľ
ë¥´ìħĢë¡ľ ëĤĺ
ĠëıĻìķĦ ìĿ¼ë³´
Ġ7 69
ì·¨ ìĨĮ
ìľ¤ ëª¨
Ġì£½ ìĿ¼
ìŀ ¼
ë£© ìĬ¤
ĠìĿ´ ë°Ķì§Ģ
ĠìĻ¸ ëŀĺ
íĨ łì
ë¬¸ ê³ł
Ġìķł ê²½
Ġì¤ĳìķĻ ëĭ¹
Ġ19 30
Ġw as
ì§Ħ íĺ¸
Ġìĸ´ íķĦ
ĠìĹ¬ ëĮĢ
Ġëıħë¦½ìļ´ëıĻ ê°Ģ
ìĭľ ìłĲ
ë ¼Ī
ĠìĽĲìĤ° ì§Ģ
Ġë§Ī íĤ¤
íĥĢ ì¹´
Ġì½ľ ë¡¬
ĠìłĲ ê±°
Ġë¶Ģ ìĭľ
íķľ ê°Ģ
å ¾
Ġì¡° ìĺģ
ìĬ¹ ë¶Ģ
Ġì¶ľ ìĽĲ
Ġë²Ĺ ìĸ´ëĤľ
Ġë£¨ ë¹Ħ
¡ í
ĠìĬĪ íĬ¸
Ġc s
Ġíıī ìĥģ
Ġì¶ľ ê³ł
Ġì£¼ê±° ì§Ģ
ï »
ĠìĹ¬ìĪĺ ìĭľ
Ġìĸ¸ë¡ł ìĿ¸
Ġíķĺëĵľ ìĽ¨ìĸ´
ìŀ¥ ìĿ¸
Ġì»¤ ìĦľ
ë¶Ģ ëıĦ
ìłĦìĭľ íļĮ
Ġbo y
ìĹ¬ ëıĦ
ë³´ ëłĪ
ĠëıĦìĭľ ë°Ķ
Ġì½ĺ íģ¬ë¦¬íĬ¸
Ġi ma
Ġë°© íĨµ
íķ´ ìĥģ
Ġì°© ë¥Ļ
Ġì´Ī ìĦł
Ġíĺĳ ëıĻì¡°íķ©
ĠìŀĩëĶ° ë¥´
ĠìĦ¬ ìĦ¸
ĠìĪĻ ëªħ
Ġìĩ¼ íĬ¸
ĠìĿ´ìĸ´ ë°Ľ
ĠìĦ¤ íĥķ
é Ģ
ĠêµŃìłľ ê¸°êµ¬
ĠìłĦ ìĭľìŀ¥
ĠìĿ´ìĤ° íĻĶ
Ġìĵ°ëŁ¬ ì§Ģ
ìĽĲ ê°Ģ
ĠìĤ¬ íĳľ
Ĩ ±
Ġíİĺ ìĿ´ì¦Ī
ë°Ķ ë¦¬
ĠìĹ¬ íĥĢ
Ġì¹¼ ëĤł
ìłĢìŀĳ ê¶ĮìŀĲ
Ġíķľ ìĺ¥
Ġë£¨ ìĪĺ
ì¡°ìĤ¬ ëĭ¨
ìĬ¤íĬ¸ ë¦¬íĬ¸
íİ¸ ì°¨
íĨł ëĭĪ
Ġìľłë°© ìķĶ
ĠíħĮë§Ī íĮĮíģ¬
Ġíĺ¼ ëĭ¤
Ġë°ľìĤ¬ ëĮĢ
Ġë¶Ī íĻ©
ê³ł ë¬¸
ĠìĪĺ ì§Ģ
ĠëĮĢë¦¼ ìĤ°ìĹħ
Ġìĸ´ ìĿ´
ĠìĹĶ ìł¤
Ġê°Ĳ íĸī
ľ Ļ
Ġë£¨ íĶĦ
Ġê¹Ģ íĿ¬
Ġìŀ¬ë¬´ ìłľíĳľ
Ġë°° ê¸ī
Ġ19 48
ĠìłģìłĪ íŀĪ
Ġë²łìĬ¤íĬ¸ ìħĢëŁ¬
h g
Ġë¶Ī ìĤ¬
Ġë°©ìĤ¬ ëĬ¥
ĠìķĮ ë¦´
ĠíĴį ëł¥
Ġì£¼ êµĲ
Ġë¶Īê±° ì§Ģ
Ġê²½ ì§Ħ
ìĸĳ íķ¨
ìĺĪ ìĿĺ
Ġìĭ¤ ìĥģ
ë©Ķ ëī´
ê´Ģë¦¬ ë³¸ë¶Ģ
Ġíķ¨ ë¶Ģë¡ľ
ìĿ¸ ìĪĺ
ìĺ¬ ëĿ¼
Ġì§Ģ ì¼°
Ġíĳ ¹
Ġìĭłì²Ń ìŀĲ
Ġ19 71
Ġë¶ģíķľ ìĤ°
is e
Ġìĺ¤ ê±°
ĠìĿ¼ìľ¼ íĤ¬
ìŀħ ì°°
íķ´ ê²½
Ġë¶Ħ ìĭł
ve n
Ġsho w
ĠëĬĲëĤĢ ëĭ¤
ìĿ´ ìķ¼ê¸°
ĠíĥĢ ìľ¨
Ġëĥī ìłķ
ë²Ķ ìĿĺ
Ġìĸ´ì§¸ ìĦľ
Ġëħ¸ ìĪĻ
ĠìĩĦ ìĭł
Ġì¶ľ íĺĪ
Ġìĺ¨ ëª¸
ĠëĿĦ ìļ°
Ġ12 7
ìľł ìĦ¸
ĠëĤľ ë°©
ĠëĤ¸ ëĵľ
Ġëģ ¼ì
Ġìĺ¤ ì¡´
ëª¨ íķ¨
ì İ
ĠíĬ ķ
ĠìłĢì§Ģ ë¥´
Ġì¡° ìĿĺ
ëĤ¨ ë°©
Ġê¸Ī ìłķ
ë¦¬ ì¹¸
Ġìľł ìŀ¬
Ġë¶Ħ ìŀĲ
ç Ļ
Ġë¬¸ ë¬´
ĠìĽĲ ì£¼ìĭľ
ëĤ¨ ëıĻ
Ġë©Ķë¥´ ìĬ¤
ĠíıĲ ë§ī
ĠìĦ± ìĿĺ
ĠìĪĺ íĺĳ
Ġë°Ķ ë¥´ìħĢë¡ľëĤĺ
Ġíĳľ ì¶ľ
ĠìŀĲìĿ´ ìĸ¸ì¸ł
Ġìļķ êµ¬
! '
Ġìĺ¬ëĿ¼ ìĦľ
Ġì´Ŀ ìķĮ
ìĭ¤ ì²ľ
Ġì¦Ŀ ìĺ¤
Ġë¹Ī ëıĦ
ê¹Ģ ì¹ĺ
íķĺ ë¥´íĬ¸
íĭ°ì »¤
Ġdis play
ìĭĿ ìĤ¬
ë³´íĺ¸ ë²ķ
Ġíķľ ë°ľ
íģ´ ë¡ľ
ĠìĿĺë£Į ë¹Ħ
ĠìĪľ ì§ģ
ìĨĮ ëĤĺ
ĠìłĦ ë³´
ĠìłĦ ëħĲ
ìķĺ ìĹĪ
Ġ19 77
ìĭ¤ ìĹĲ
Ġìĺģ ë³Ģ
Ġê¹ĢìĿ´ ìĪĺ
Ġê´ĳìĹŃ ìĭľ
Ġê³µ ìĺĪ
ĠìķĪ ì°©
ĠíĪ¬íĳľ ìľ¨
Ġìī ¼íĦ°
ë³´ ìĬ¤íĨłíģ¬
Ġìŀ¥ë³ĳ ìĻĦ
Ġìĥĺ íĶĮ
ìĸĳ ìĭĿ
ĠíĶ¼ ëĤľ
Ġê´ĳ ì§Ħêµ¬
ë¹Ħ ìĻĢ
ĠìĹ° ìĬ¹
ĠëıĦ ë§¤
Ġg re
ìĨĮ ìľĦ
Ġëĵ¤ìĿ´ ë°Ľ
ìĦ¤ ëªħ
ìº ī
Ġì§Ģìłķ íķĻ
ë¸Ķ ë£¨
Ġë³µ ìĤ¬
íĸī ê³¼
íĺĦ ì¶©ìĽĲ
Ġb u
ì²´ ìĸ´
ìłķ ê·ľ
Ġë¶ģ ìĥģ
ĠìĹħ ìĨĮ
ë© §
ë³´ ê´Ģ
ĠìŀĶ ìĿ¸
ĠìĪĻ ìłľ
ı Ĳ
Ġë²ķë¬´ ë²ķìĿ¸
İ Į
Ġâĸ ł
ìĦĿ ë¶Ģ
Ġê³µ ìĦ±
Ġon ly
ë´Ĳ ìļĶ
Ġê±°ì³Ĳ ìķ¼
ĠìłĦ ë©¸
ĠëĤ® ì·Ħ
Ġë§ ´
ë¹Ħ ìĸ´
ìĪĺ ìĹħ
ĠíĤ¤ ìļ¸
ĠìĭłëıĻ ë¹Ī
Ġë³´ ë¦Ħ
Ġst x
Ġì¶Ķ ë°©
Ġìĭ¸ ìĽł
Ġì£¼ë ¨¸ëĭĪ
ĠëĤ´ìĦ¸ ìĽł
ìķĦ ëĤĺ
Ġ2 18
Ġê±° ì¹ł
Ġmb n
Ġìłģ êµ°
o b
ĠëŁ¬ ëĭĿ
íĳ ¼
ìĹ° ê³Ħ
ĠíĮ ľ
Ġì²´íģ¬ ì¹´ëĵľ
ĺ ¼
Ġê·Ģ ìĪľ
íĺ¸ ìĪĺ
Ġì«ĵ ê²¨
ìŀ¥ ê°ĳ
ë³´ ëĿ¼
Ġëĭ´ íķ©
ĠìĹ¬ ë¶Ħ
ĠìĹ¬ ëŁ¿
ĠëĿ Īëĭ¤
¶ ¤
ĠìŀĲ ìĥĿ
ĠìŀĦì°¨ ìĿ¸
ĠìĬ¤íĬ¸ëĿ¼ìĿ´ íģ¬
Ġë´ īìĩĦ
Ġ2 12
Ġìĭľê°Ħ ëĮĢ
ĠíĥĢ ëĿ½
ĠìĦ¸ ìĹĲ
Ġ19 63
ãģ ¡
Ġë¶Īì Ķ¨
ëĭ¨ ìĨį
Ġëĭ¬ëĿ¼ ì§Ī
Ġì§Ħ ê¸ī
ĠìĿ´ë¤Ħ ìł¸
Ġë²Į ëłĪ
Ġs pc
Ġíķĺ ìķ¼
Ġê±° ê¾¸
íİ ĳ
Ġìłľ ëĦĪ
Ġë§ī ê°ķ
Ġìļ° ëŁī
ĠìĽĲ ëħĦ
Ġë¿Į ëł¤
Ġë¬´ ëĿ¼
Ġë©Ķ ìĿ¼
j i
ĠìķĦë§Ī ì¶Ķìĸ´
Ġë°©ìĨ¡ êµŃ
Ġc pu
Ġê¸° ë¥ĺ
ĠëĿ¼ ëıĪ
ĠíĨµ íĭĢ
ĠìĿ´ìĬ¹ ë§Į
ì§Ħ ë£Į
ĠìĹĺë¦¬ ìŀĲ
Ġg on
Ġë°ķìļ© ë§Į
Ġë§¤ ê°ľ
ĠìłĦê²½ ëł¨
ĠìĥĿê°ģ ëĤĺ
ĠëıĦ ë¯¸
Ġê¹Ģ ìĦ¸
ĠíĴį ê³Ħë¦¬
ìĿ´ ìķ¼ë§Ĳë¡ľ
ĠìķĮ ë¦¼
Ġê³ł ëıħ
ĠëıĦë§Ŀ ê°Ģ
ëŀĺ ëĵľ
ĥ ì
Ġìľµ ìŀĲ
ad e
ĠìĦ± ëıĻ
Ġë°© ì¤ĳ
Ġê³ł ëĤľ
ĠíĶĦë¡ľ íĨł
Ġìĭł íķĻ
ĠëıĻ ì°½
Ġë® Į
to r
Ġê²¬ íķĻ
ìĦ¸ ê°Ģ
ëĿ½ ìĿĺ
ìĺģíĸ¥ íıīê°Ģ
u f
ĠìŀĲëıĻ íĻĶ
ĠíĮĶ ëł¸
Ġì¶©ì²Ń ë¶ģëıĦ
ĠíĮ °
Ġsto p
ĠìķĪ ëĭ¤
ĠíĹ¤ ìĸ´ì§Ģ
Ġì¡° ìĹ°
ĠíĻ© ëĭ¹
ê¸°ìĥģ ì²Ń
Ġë¯¹ ìĬ¤
ĠìĦł ìĦľ
ĠíĪ¬ ìķ½
ĠìĽĥ ëıĦ
å ¸
Ġë ķ¡
ĠíĥĪ ëª¨
ĠìĹ¬ ê°Ģ
ĠëĦĺ ë²Ħ
ĠëłĪ ìĿ´ëĵľ
Ġ... ...
Ġëħ¹ ì§Ģ
ĠìĽĲ íĶ¼ìĬ¤
ì¤Ħ ê²Į
ĠìĿ¼ êµĲì°¨
Ġê³ł ë¡ľ
ìĦ¸ íĥģ
íķ´ ìļ´
ĠìĨ ľ
Ġìļ© ìĿĺìŀĲ
ì¹´ ë©ĶëĿ¼
Ġíķĺ ìĹ¬ê¸Ī
Ġë§Ī ìĿ¼ë¦¬ì§Ģ
ĠíĻį ìĤ¼
Ġì£¼ ìŀħ
Ġëĵ¤ìĹ¬ ëĭ¤ë³´
ĠìłĪ ë²½
Ġê°ĲìĹ¼ ë³ĳ
Ġë²Ħ íħ
Ġê°ķ ê°Ħ
Ġë¨¸ë¬´ ë¥´
Ġê³ł ëįķ
ìĭľ íĸī
ìŀħ ìŀ¥
Ġìĸ´ ìĹħ
ìļ© ìĪĺ
Ġìº¡ ìĬĲ
ĠíĹĮ íĺĪ
Ġìĭ¤ ëł¤
ĠìĬ¤ìľĦ íĬ¸
ìĭł ìłĢ
Ġì§Ģ ë£¨
Ġc ol
ĠìķĪíĥĢê¹Į ìļ´
ë°Ķ ìĬ¤
Ġ} }}
Ġíķĺ ì§Ģ
Ġì¿ł ëį°
Ġì£¼ ê¶Į
ĠëĬ¥ ëıĻ
Ġê·¹ íķľ
Ġ14 5
ì§ķ ê³Ħ
ĠíĥĲ êµ¬
Ġì§Ģ ë©´
Ġê¸°ìĹħ ê°Ģ
ĠìłĦ ìħĭ
ĠëĤ´ëł¤ ì¡Į
ĠìĥĿíĥľ ê³Ħ
Ġf ont
ĠìĦ¸ ìĿ´ë²Ħ
ìľł ë¦¬
ĠíĻĶ ìĪľ
ëŁ¬ ëĭĿ
Ġë³¼ íĦ´
Ġìĥģ ìĦ±
Ġë°ľ ë§ŀ
ë¦¿ ì§Ģ
ŀ ¼
Ġìłģ ìŀĦìŀĲ
Ġê¸ī íķĺ
ìĨĮ ìĭĿ
ìł¤ ëłĪìĬ¤
Ġìķ¨ ë¦¬ìĬ¤
ë¸Ķ ë¦°
Ġë²Ķì£Ħ ìŀĲ
Ġë³Ģ íķľ
Ġê±°ê¾¸ ë¡ľ
ì¤ĳ ì§Ģ
Ġíķľ ìĥĺ
ĠêµĲ íĸ¥
Ġìľł ìĸ¸
Ġì§Īë³ĳ ê´Ģë¦¬ë³¸ë¶Ģ
Ġë§¤ ë¦½
ĠíĨł ëĦĪë¨¼íĬ¸
ë³´ íĬ¸
Ġì´ī ë°ľ
ĠìĹ´ ëŀĮ
ĠìĤ¬ëŀĳ ê³¼
ë¹ ¡
ì¹ĺ ìķĦ
Ħ ¹
æĹ ¥
Ġëĵľ ëĿ¼
Ġ. ãĢ
Ġìŀ¥ íĿ¥
ĠìĸĳëıĦ ìĦ¸
ĠëĤ¯ ìĦł
Ġë¯¸ íĤ¤
Ġê½ ģ
k p
ìĤ° ë¶Ģ
ĠìĹ¬ ìļ°
ĠëĨį ìĭ¬
Ġë§Ī ì¤ĳ
Ġëĭ¨ ì¢ħ
Ġte ll
ëĿ¼ ë¹ĦìķĦ
Ġíıī ë©´
ëłĢ ëĭ¤
ìłķ íĻĶ
Ġï »¿
· Ħ
»¨ ëĮĢ
ĠìĥĿìĤ° ìŀĲ
ĠìĦ¸ ë²ķ
Ġë¹Ħ ê²°
ĠìľĦ íĹĮ
ĠìķĦìĽĥ ëıĦìĸ´
Ġëĭ¨ ìłķ
ĠíķĺìĿ´ íį¼
Ġp b
ë¦° ëĭ¤ê³ł
ê°Ĳ ì¹ĺ
Ġì§Ģ ì²´
Ġë³´ ìĦ±
ĠìĤ° ëĭ¤
Ġìļ© ëĤ©
ëª¨ ë°ĶìĿ¼
ìŀ¬ ë¬´
ĠìĦ± ì·¨
Ġê¸° ìĪĺ
íĶĮ ëŀĢíĬ¸
Ġìŀ¡ ìķĦë¨¹
Ġíĳľì¤Ģ íİ¸ì°¨
ìłĪ ê¸°
Ġê¸°ìļ¸ ìĹ¬
ĠëłĪ ê³ł
Ġê¸ Ģì
Ġë°ķìĥģ ê¸°
ĠíĮĮëŀĢ ìĥī
ĠìĤ¬ ìļ°ìĬ¤
ĠìĻĦ ê²°
ĠíħĮíģ¬ ëħ¸
ĠíĮĮëĿ¼ ëĭ¤ìĿ´ìĬ¤
ĠëĤ´ ë¦¼
Ġì½Ķ ë©ĺíĬ¸
ê²° íķ©
ìķĦ ìĤ°
ĠìŀĲ ë¹Ħ
Ġê³µ ìĨĮ
Ġëľ¬ ê¸Ī
Ġíķł ë¶Ģ
Ħ Ľ
Ġë§Ŀ ëªħ
Ġ43 21
Ġë¶Ļ ìĿ¸
Ġíı¬ìĬ¤ì½Ķ ê±´ìĦ¤
ĠìĨĮ ìĨĮ
Ġë¨¸ë¬¼ë Ł¬
ĠëŁ ¬ì
ëĤ´ ê¸°
ĠìĬ¹ ìĨĮ
ìļ° ë£¨ìĬ¤
ĠêµĲ íĽĪ
Ġë°ľìĤ¬ ì²´
íķł ìĪĺë¡Ŀ
Ġëª° ë¦°
Ġë¬´ì§Ģ ê°ľ
ĠíĮĮ ê¸°
Ġìłľì£¼ íķŃê³µ
Ġê³ł ì¢ħ
Ġê°ķ ìĿ¸
ìŀĲ ìľ¨
b le
Ġë©´ìĹŃ ëł¥
ĠíĺĦ ëªħ
ìĹ° ê¸°
u c
ĠëıĻ ìĦł
Ġìľł ìłķ
Ġ12 6
ìĪĺ ìłķ
ĠìłĦìħĭ ê°Ĵ
ĠìĬ¤ íĦ´
ĠìĿĮìķħ íļĮ
ìĿĺ ë¬´
g g
ĠìĹī ëį©ìĿ´
ĠëĪĦ ìĽĮ
ë¶Ģ ë¥¼
Ħì ±ħ
Ġë¶Ģëĭ´ ê¸Ī
ì§ķ ìļ©
ĠëĲĺ ìĥĪ
Ġê·¸ ë¶Ħ
Ġìĺģ ìĦľ
ĠìĦ± ìľ¤ëª¨
ĠìłĦ íıŃ
ĠëĤŃ ëıħ
ĠìĿ´ìĪľ ìĭł
ëĵ £
ĠìĦ± ì§Ģ
ìķ½ ìŀĲ
Ġ12 9
Ġë¯¼ ë³ĳ
ĠíķŃê³µ ê¶Į
ĠìĪĺ ëĿ½
íħĲ ëıĦ
ĠíĨł íģ°
Ġì¡° íĿ¬
ĠíĻĶ ìļĶìĿ¼
ë©Ķ ìĿ´íĬ¸
Ġë¯¸ íĮħ
Ġth ere
Ġêµ¬ ë¹Ħ
Ġìłķ ëħĦ
Ġê´ĳ ë¬¼
ëıĻ íı¬
ĠìŀĲ ìŀ¬
Ġë°ĶëĿ¼ ë³¸
is h
ĠëĤ´ë¹Ħ ì³¤
ĠëĤĺ ì¸ł
Ġmus ic
Ġêµ¬ì¶ķ íķ¨
Ħ ¨
ĠìĹ° íĥĢ
ĠìĹĺë¦¬ ìĹĩ
ĠëĿ¼ ìĺ¤ìĬ¤
ë¥ µ
Ġìļ° ì²´êµŃ
ì¹¨ íķ´
ĠíķĺìĿ´ ëĿ¼ìĿ´íĬ¸
ĠìĥĪ ìļ°
íĶĦë¡ľ ìłĿíĬ¸
Ġëį° ìĿ¼ë¦¬
ìĥģ ê³¼
ìĪĺ ìĤ°ë¬¼
Ġì¤ĳ ì¶Ķ
Ġë°ķ ì¤Ģ
Ġìłķ ì§ģ
Ġê¹Ģìĺģ ìĤ¼
Ġd c
Ġì£¼ íı¬
ĠíıīíĥĿ ìĭľ
ë§Ī ì¹ĺ
ê°Ģ ë¯¸
Ġë¦¬ ì²ĺ
Ġâĸ ²
Ġëħ¸ ëł¤
ĠìĥĿë¦¬ ëĮĢ
Ġë¹Ħ ìĬ¤
Ġë§Ī ê³¡
Ġëĺĳ ëĺĳ
ì°Į ê°Ĳì¹ĺ
ê°Ĳ ì°°
Ġê³Ħ ë£¡
ģ ķ
ĠëıĻ ëĵ±
Ġê²½ë¡ľ ëĭ¹
½ ©
Ġ16 5
Ġìĺģ ìĤ°
ë³Ģ íĺ¸ìĤ¬
Ġíį¼ ì¦Ĳ
ê³ł ìķ¼
Ġíķ´ ë³ĳ
Ġê²½ìĺģ íķĻ
Ġìĭł ì§Ħ
Ġê¸° ë¡ľ
Ġìĺ¬ëĿ¼ ê°Ħëĭ¤
Ġëĵľëŀĺ íĶĦíĬ¸
Ġd sr
ë°Ķ ë°Ķ
Ġìĭ¸ ìĿ´
ĠìĬ¤ì½Ķ íĭĢëŀľëĵľ
Ġê³µ ë²Ķ
Ġê°ľ ëħĦ
Ġê±°ì ĭ¤
ëĦĲ íĭ°
ë¯¸ êµŃ
ĠëĶĶì§Ģ ëª¬
ĠìłĦ ìĹ¼
Ġì§ĢìĹŃ ë¯¼
ìĨ¡ ìĿ´
ìĤ´ ìĿ´
Ġë°° ëĵľ
Ġë°ķ ì§Ģ
Ġl ight
ħ ìĬ¤
Ġíľ´ê²Į ìĨĮ
ë¬¸ ìĿ¸
ĠìĿ¸ ìĤ¼
Ġë§Ľ ë³´
Ġfu ck
íĮĲ ìłķ
Ġìķħ ëĭ¹
Ĥ ·
Ġì¹ľ ì²Ļ
Ġíı¬ ìĪĺ
ĠìĬ¤ ë§ĪìĿ¼
Ġì¡°ê±´ ë¶Ģ
Ġëĸ¨ìĸ´ ëľ¨
Ġi po
Ġë°ĺ ê°ĳ
ĠìĹ°íķ© êµ°
Ġì½Ķ ë¥´
ĠìĿ´ ê¸´
ĠìĿ´ëıĻ íķ´
Ġê¸° íĶ¼
Ġìķ½ íķ´
Ġê³µ ëĮĢ
Ġì¶Ķ ëĮĢ
Ġì¡° ì°¨
íĶ½ ìĬ¤
ìłľ ìĸ´
ë§Ī ëĵľ
ĠíĶĦëĿ¼ ìŀĦ
ĠíĮ½ íĮ½
Ŀ ł
ê°¤ ëŁ¬ë¦¬
ìĤ°ìĹħ ê°ľë°ľ
ëĨį ìĦ±
íĺĪ ê´Ģ
¤ ¼
íĨµ ìļ´
ĠëıĦ ë§Ī
Ġíħ ĥë°Ń
ĠìŀĦ íĮ©íĬ¸
Ġê³¡ ëªħ
Ġì¤ĳëıĦ ê¸Ī
Ġë¬¼ ì²´
ì¦Ŀ ëªħ
ë¬´ ê°Ģ
Ġëĭ¹ìĦł ìŀĲ
ê» ĳ
Ġìĭľ ëħ¸
Ġê°Ģì¹ĺ ì£¼
Ŀ Ĳ
Ġì¶ ¥
Ġë¬´ ë¶Ħ
ìĹ° ëł¹
Ġìĭł ë³ĳ
Ġìķ¡ ìĪĺ
pe c
ë£Į íĴĪ
Ġë ĸ´
ë°Ķ íĢ´
Ġìĺ¤ ì¹´
Ġìĸ´ íĥĿ
Ġì½Ķ ëĤĺ
Ġê°ĢìłĦ ìłľíĴĪ
ìłģ ìĭŃìŀĲ
ĠíĺĦíĸī ë²ķ
Ġê¹Ģìĺģ ì¶ĺ
Ġì§Ģìĥģ íĮĮ
ìĭ¤íĹĺ ìŀ¥
l ine
Ġìĭľë®¬ ëłĪìĿ´ìħĺ
Ġê·¼ ê±°ë¦¬
Ġì§Ģêµ¬ ìĿĺ
ìłĦ ìŀħ
ĠìŀĲ ê¶ģ
Ġíķľìĸĳ ëĮĢ
Ġìĭł ìĿ´
Ġíıī ìłĲ
Ġë ·Ķ
ì§Ģ ë¥´
Ġë³´ ë¦¬
ëª ¹
êµ¬ ì¶ķ
ìĹĲ ëĭ¤ê°Ģ
íĶĦ ëŀĢìĭľìĬ¤ì½Ķ
ë°© ê³¼
ëĵ± ìŀ¥
Ġê¹Įëĭ¤ ë¡ľìļ´
ìĪĺ ìĻĢ
ª ¹
ĠíĻĺ ìĽĲ
ìļ° ëĿ¼
íķ´ ìłľ
íĸ Ħ
Â ©
Ġê¹Ģ êµ¬
ìĹ¬ ë¡ł
´ë ¨¼
Ġro ck
ìĦł íĥĿ
ê²© ê¸°
ì± Ķ
ë²Ħ íĦ°
p le
Ġë¯¸ ëĤĺ
ĠëĤĻ íĥľ
ìłĳ ì´ī
Ġíķľ ê²¨ëłĪ
Ġë²¡ ìĬ¤ì½Ķ
Ġkk ss
ìĦľë¹ĦìĬ¤ ìĹħ
Ġê¸° ë³ĳ
Ġëª»ì§Ģ ìķĬ
Ġkkss mm
Ġê±° ìĦ¼
Ġëħ¹ íĻĶ
ìĦ¸ ìłľ
ìŀ¥ ëĭ¨
Ġìŀħ ê¸Ī
ê²Į ëģĶ
ì¡° ë¡Ģ
Ġëĳ ¬
ì´Ŀ ìĥĿìĤ°
Ġë³´íĺ¸ ìŀĲ
ĠíĬ¹íĹĪ ì²Ń
Ġì½Ķ ì¹´
ĠìķĮëłĪ ë¥´ê¸°
ë¨¸ ìĭł
Īì ¸ł
Ġì¤ĳ íĽĦ
ê° ¯
ĠíĽĦì¿ł ìĺ¤ì¹´
Ġê±°ì£¼ ìŀĲ
ĠìĿĢíıī êµ¬
Ġê¹Ģ íķľ
ìļĶ ìĸĳ
Ġì²ľ ëĳ¥
Ġêº ¼ë
ì¶ľ ìĹ°
o v
Ġíĥľê¶Į ëıĦ
ìķĦ ëŀĺ
Ġì£½ ìĺĢ
ĠìĹĳ ìĬ¤íĬ¸ëĿ¼
Ġê³µ íľ´ìĿ¼
Ġì¹ľ ê·¼
Ġm k
ê²½ ìļ°
Ġíĸĩ ë¹Ľ
Ġë¬¼ ìĿĮ
Ġìķħ ëª½
ĠëĲł ê¹Į
¾ ã
Ġë¯¸ ìĪĺ
Ġd gb
į ©
ìłķ ì°©
ë°° ìĿĺ
Ġìĸ´ëĸ¨ ê¹Į
Ġê²¬ ì¡°
Ġë¹Ħë¡ľ ìĨĮ
Ġëĭ¹ ì§ģìŀĲ
Ġê¹ ¨ìĸ´
ë³´ì¦Ŀ ê¸°ê¸Ī
ëĭ¨ ìĽĲ
ĠêµĲ ì°©
Ġë¶Ģìłģ ê²©
Ġ2 28
ê³Ħíļį ìĦľ
ì§ ¤
ĠìĥĮ íĶĦëŀĢìĭľìĬ¤ì½Ķ
ìłĦ ì§Ħëĭ¨
Ġê·¼ ê°Ħ
ê´ĳ ì£¼
ĠìĥģíĻ© ìĭ¤
Ġì¹´ ë¯¸
Ġë¬¼ ìĸ´
Ġ? '
Ġì¶ķ ìĤ°ë¬¼
ĠìīĲ ë³´ëłĪ
Ġë¯¸ ë¥´
Ġë³´íķ© ìĦ¸
ìĭ ¹
ì²´ ìĬ¤íĦ°
Ġë°ľ ë¦¬
ì£¼ ì°¨ìŀ¥
íĳ¸ ë¥´
ìłĦ ë°©
Ġëĵľ ë¡Ń
Ġëªħ ë§Į
Ġì²Ń ëĭ´
ĠìĦľ ë¶ģ
Ġ3 16
Ġg ive
ì§ĢìĽĲ ê¸Ī
Ġê°ķ íĺ¸
Ġëĭ¨ ìĦľ
Ġm f
ĠìĿ´ìĸ¸ ì£¼
ìĭľ ìĿ¸
ìłĦ ëĤ¨
ëĭ¹ ëıĦ
Ġë§Ľ ë³¼
Ġë¶Ħ ë¹Ħ
Ġê·¹ ìļ°
ĠìķĦìĿ´ íĮĮíģ¬
Ġë¦¬ ë¹Ļ
ĠíĿĶ íķĺ
è ¨
Ġë°ĺ ëıĻ
ĠíĢ Ģ
ĠíĨµ ì§¸
Ġëħ¸ëŀĢ ìĥī
Ġê´Ģ íķ´ìĦľ
ë§¹ ìĿĺ
Ġê°ķ ëĭ¹
Ġh ot
ĠìĬ Ľ
Ġk ai
Ġbor der
Ġê²½ ë¡Ģ
ĠìĬ¤ íĭ±
ĠìĪĺ ë¥ĺíĥĦ
Ġê¸°ê°Ħ ìłľ
ìĦ¸ ìĿ¼
Ġíĭ ¸
ì²ľ ìĸ´
F C
ĠìłĦìļ© ê¸°
ĠëıĮíĮĮ êµ¬
íĶĦ ë¦°
ì¦Ŀ ìĦľ
íĮĮ ê³ł
Ġê°ķ ëĵ±
Ġ3 40
° ¾
ĠëĮĢ ìĿĺìĽĲ
Ġíľ´ê°Ģ ì²ł
Ġì¤Ħìĸ´ëĵł ëĭ¤
© ¤
ìķ¨ ë²Ķ
ĠìĪĺ êµĲ
Ġíķ´ ìĺ¨
Ġì¹ľ íķľ
Ġìĺ¥ ìĪĺìĪĺ
Ġì¶© ìĽĲ
ĠìķĦìĤ¬ íŀĪ
Īë ¸Į
Ġë¹Ħ ìĽĥ
ìĺ ´
Ġì§ģ ì±ħ
ĠìĽĲ ìŀ¬ë£Į
íķĺ ìĿ¸
ĠìĿ¼ ëŀĮ
ĠìĿ¸ ë°©
c y
Ġë³´íĸī ìŀĲ
Ġìłķ íĺķ
ĠìĦ±ëªħ ìĦľ
ª ¸
ê°Ģ ë¥´
Ġë°ķìĪĺ íĺĦ
ìĿĢ íĿ¬
ĠëłĪ ëª¬
íļĮ ìĪĺ
Ġìķŀëĭ¹ ê²¨
ìĪĺ ìļ©
ëİ Ģ
ë¦¬ ê°Ģ
Ġìµľíĥľ ìĽĲ
Ġìĭľ ì°°
Ġìľł ìķĪ
Ġro a
ê³ł êµĲ
ìľ¼ëĿ¼ ê³ł
Ġì°¾ìķĦ ë³´
Ġìłģ ìĦ±
ë°ĺ ìĿĳ
ĠìŀŃ ìĬ¨
ĠìķĦ íĭĢ
ëıĻ ëĦ¤
Ġíľĺ ëĳĲë¥´
ĠíķŃ ë¡ľ
Ġf ly
t k
¸ì ħľ
ĠíĻį ë¬¸
Ġìĵ°ëŁ¬ ìł¸
Ġê¸° ìĿ¸
Ġìłľ ì§Ģ
Ġê³¡ ìĦł
ìĭľìĦ¸ íĳľ
Ġ23 00
ĠìĹ° íıī
ľ °
ĠëıĦ ìłģ
ĠìĨ¡ êµ¬
Ġì°¨ ë¦¼
ë·° íĭ°
Į Ł
Ġë®¤ì§Ģ ìħĺ
ê³ł ì§Ģ
ĠëĮĢ ê²Ģ
Ġd ance
ê¸Ī ì§Ģë²ķ
Ġ5 10
íķĻ ìĿĺ
ê¹¨ ë¹Ħ
Ġì¤ĳ ì²©
ĠëĤĺìķĦ ê°Ī
Ġë²ł ë¦¬
ĠíķĦ ëĳĲ
Ġì¹´ ëįĶëĿ¼
ĠêµĲ ëŁī
¼ ´
Ġì°¸ê³ł ìĿ¸
Ġë²Ħ ë¦´
ëĤł ìĿ¸
ìķĦ ë¥´
Ġ19 19
ĠíķĻ ìłĲ
Ġì§Ħ íĨµ
Ġì½Ķ ìļ°
ìĭ¤ ê³¼
ĠíĨł ë²Į
ĠìĨĮìŀ¬ ì§Ģ
Ġê²½ ì§Ī
ìķĪ íĥĢ
» í
ĠëĤ¨ ë¯¸
Ġê¹ĢíĺĦ ìłķ
íķľ ê²½
Ġì§Ħ ì²ľ
Ġëıħ ì°½
Ġê¸° ë¬´
ëĭ¤ ê±°ëĤĺ
íķĺ íķĺ
Ġê°Ī ìĥī
ìĭľ ê³Ħ
ĠìĤ´íİ´ ë³¼
Ġë¶Ģ ìĬ¤íĦ°
ĠìĤ¬ ìĿĢ
Ġë°ĺ ì°¬
Ġë¯¸ ìĵ°
Ġ3 80
å ·
ï ¿
ì¹¨ ëĮĢ
Ġìĺ¬ëĿ¼ ê°Ħ
Ġíı¬ ê·¼
Ġì¶Ķ ê¶ģ
ĠìĿ¼ ì°Įê°Ĳì¹ĺ
Ġê°Ģ ëĵł
ĠìĹŃ ìłĲ
ëĭ´ ìĿĺ
Ġê³¼ ê¸°
r m
Į ģ
ĠíĶĦë¡ľ ê·¸ëŀĺ
ë³Ģ ìĿ´
Ġì°¨ ëł¤
Ġë¸Ķ ëŁ¬ëĵľ
êµ¬ ìłľ
Ġë°ķ ëªħ
Ġëĭ¤ê°Ģ ìĻĢ
® ì
Ġ14 4
ĠìĿ´ ìĻĦ
íı´ ëłĪ
ĠìĬ¤ íĭ°ë¸Į
ur n
ìłķìĥģ íļĮëĭ´
ëŁ° íĬ¸
ĠìĻ¸ ìĥģ
b h
Ġìłķ ëª½
Ġë²Į ìĿ¼
Ġìĭ¬ì ¸µ
ìĸ´ íĮĲ
Ġìķ¡ ìĦ¸ìĦľë¦¬
íĭ° ìĸ´
Ġìĭ¤ ë¡ľ
ë°ķ ìĤ¬
Ġìĺģ ëįķ
ìľł ìĹħ
Ġìĺ¤ ëĿ¼
Ġê¹Ģê¸° ìĭĿ
º ¡
ĠìĻ¸ ìłĦ
Ġê³łëł¹ ìŀĲ
Ġë§¤ ìļ´
Ġê°ľ ê°ľìĿ¸
Ġì°¸ìĹ¬ ìĹ°ëĮĢ
ĠìĦľ ë¦¬
Ġy a
Ġê²© ì¶Ķ
ì§Ħ íĻĶ
ê·¸ëĿ¼ ìļ´ëĵľ
Ġëĭ¨ìĿ¼ íĮĢ
ĠìĻ¸ê³Ħ ìĿ¸
Ġê°ķ ìĨĮ
íĶĦëĿ¼ìĿ´ ì¦Ī
ãĢ į
ĠíĬ¸ ë£¨
Ġìĭłë¶Ħ ì¦Ŀ
ĠìĺĪ ë°°
ĠìĿµ íŀĪ
Ġì°¾ìķĦ ìĻĶ
Ġìĺģ ëĨį
Ġì§ ł
Ġ15 5
ìĤ¬ìĿ´ íģ´
Ġìĵ¸ ëį°
Ġëĭ¹ íķł
Ġë²Į ìĿ¸ëĭ¤
ĠíĹĪ ë¬´
Ġìĭľ ëł¥
Ġë°° ìĽĮ
Ġê±° ëĳĺ
Ġíĸ¥ íĨł
ĠìĹ´ëĮĢ ìķ¼
ĠìºĲ ëħ¼
ê±´ ì¡°
Ġìª¼ ê°ľ
Ġê²½ ìĤ°
ĠíķĻ íļĮ
Ġë¯¼ ìŀĲ
íĴĪ ëª©
ĠìĦ¤ ìĤ¬
Ġìĥģë¬´ ë¶Ģ
ìĤ¬íļĮ ëĭ¨ì²´
ìĪĺìĤ¬ ëĮĢ
ĠíĺĪ ìķķ
ĠíĶ¼ìķĦ ëĭĪìĬ¤íĬ¸
Ġì¤Ħ ìĿ¸
Ġê°Ģìł¸ ìĺ¨
ĠìŀĲ íıŃ
Ġê¾¸ ë¯¸
ëį °ì
Ġì§Ģì¼ľë´Ĳ ìķ¼
âĺ Ĩ
Ġíĺ Ģ
ĠëįĶ êµ¬ëĤĺ
s j
§ ±
ĠìĤ¬ ìĨĮ
¿ł ë¥´
Ġíİĺ ëĦĲíĭ°
ĠìĥĿ ëħĦ
Ġìľł ëĬ¥
Ġë§¥ëıĦ ëĤłëĵľ
ĠëĤ´ëł¤ ê°Ķ
Ġë³´ìĬ¤ íĦ´
ìłĦ ìĦ¤
Ġìłķ ìłķ
ë¯¼ ìłķ
ĠìĬ¤ ë¯¸ìĬ¤
Ġë°ľ ë°ľ
Ġëª©ìłģ ì§Ģ
íķĻ ëĮĢ
Ġë°ľ ìŀĲ
ë¡ľ ìĦł
Ġìŀł ê²¨
Ġ O
ĠìĹĲ íĶĦ
ë¦¬ ê¸°
Ġëĭ¤ íĪ¬
íĺĦ ì§Ħ
ìĤ¬ìĹħ ë¹Ħ
Ġë¹Į ëĿ¼
ìļĶ ì²Ń
Ġê°ģ ê¸°
ĠìĤ¬ ìĤ´
ìķĪ ëĤ´
ìłĳ ì¢ħ
Ġë°Ķ ì¹ĺ
ê°Ĳ ìłķìĽĲ
Ġëĳ¥ ì§Ģ
Ġíıīì°½ êµ°
Ġìĸ Ģ
ì´Ŀ ìĿĺ
ĠìĬ¤íĬľìĸ´ ëĵľ
Ġìµľê³ł ê°Ģ
Ġë³´ìľł ìŀĲ
ê³µ ìĦ¸
ĠëĵĢ ìĺ¤
Ġê»į ì§Ī
Ġì§ ±
ìĺ¤ ë¡ľ
Ġëĭ¤ ëĭĲ
Ġë°Ķ ëŀĺ
ìĪŃ ìķĦ
ĠìĿĺì¡´ ëıĦ
Ġì²´ ëĤ´
ê²Ģ ìŀ¥
ĠìĨĮë°© ìĦľ
Ġë¦¬ ëĭĪì§Ģ
ë©´ ìĿĢ
ĠìĿ¸ íĶĮëłĪìĿ´ìħĺ
ĠëĭĮ íħĲëıĦ
Ĺ ¤
ìĩ ł
êµĲ ëıĦ
Ġê³µ ëªħ
Ġìłķ ìĦĿ
Ġì¤ĺ ìķ¼
ĠìĤ¬ìļ° ëĶĶìķĦ
ĠíĬ¸ëĿ¼ ìļ°ë§Ī
ĠìĽĮ ëĦĪ
Ġéĩ İ
ĠíķľêµŃ ê°ĲìłķìĽĲ
ĠëĦĺìĸ´ ê°Ķ
ĠìĤ¬ìļ© ëŁī
Ġë²Įê¸Ī íĺķ
Ġì¤Ģ ê³µìĭĿ
Ġíĳ¸ë¥´ ì§Ģìĺ¤
ĠìłĪ ìłķ
Ġìĸĳ íĺķ
ëħ¸ ëŀĺ
Ġê¹Ģì§Ħ íĳľ
ĠìłĲ ì£¼
Ġëħ¸ ê³¨
ì¤Ģ ëĭ¤ëĬĶ
Ġì¡° ì²ĺ
ĠìĤ¼ ìĸĳ
ì¡° ë¥ĺ
Ġìļ°ìĬ¹ ìŀĲ
Ġê¸° ê´Ģì´Ŀ
ĠìľłëĭĪ íģ¬
ĠëıĻ ë°±
ìĨĮ ê°Ģ
íĪ¬ ë¦¬
ĠíĨł ìĸĳ
ê³µ íĮĲ
Ġìł¤ ë¦¬
ĠíļĮìĿĺ ìŀ¥
Ġë°ľ ìłľ
ëĤ´ ëł¤
ë¦¬ ìļ°ìĬ¤
Ġ19 62
ĠëıĦ ë¦¬
ëĭ ¿
Ġì£¼ ìĦ¸ìļĶ
ìĪĺ ìĺģ
ìĽĶ ìĿ¼
Ġë¦¬ì²ĺ ëĵľ
Ġíķĺ íĶĦ
ĠëłĪ ìĿ¼
Ġê³¨ íĤ¤íį¼
łĪ ìĿ´ëĵľ
Ġíį¼ë łĪìĿ´ëĵľ
Ġë¶Ī ë³µ
Ġ23 2
Ġìķħ ëªħ
ìĬ¤íĬ¸ ë¡ľ
ĠíĶĦ ëŀĢ
Ġì¢ģ íĺĢ
ê³ł ìĥĿ
n y
Ġíķľë¯¸ ìłķìĥģíļĮëĭ´
Ġëĭ¹ ë¡ł
Ġì§Ģíľĺ ìŀĲ
Ġíİ¼ì³Ĳ ì§Ħ
Ġë¯¸ ì¦Ī
Ġë¹ł ì§Ī
Ġê°Ģìł¸ ìĺ¬
Ġë§ŀ ë¶Ļ
Ġh ap
- >
ĠìĨĲê¼½ íŀĪ
Ġë®Į íĹ¨
ë°Ķ ëĤĺ
ĠëĶ° ìĺ¨
Ġì´Ī ìķĪ
ĠìŀĲ ëĵ¤
ìľł ìŀħ
ë¶Ģ íĮ¨
ĠìĻ ĵ
ĠìĹ° ìĨĮ
Ġíĺĳ ëıĻ
ĠêµŃ ìĺģ
í Ĳ
Ġêµ¬ ë¯¼
Ġë°©ìĨ¡ ìĿ¸
Ġì±ħ ìĿĺ
ì¶Ķ ìĦ¸
Ġs f
ĠìķĪ ë©´
Ġë´ī íĻĶ
Ġwh y
ĠíĮĮ ìĬ¤
ĠíĨł ì¢ħ
ĠíķĦ ì§Ģ
ìĹ°êµ¬ íļĮ
ì¶ķ ìĿĺ
ĠìĿ¸ ìĬ¹
Ġìļķ ë§Ŀ
êµ ¿
ĠëĦĺê²¨ ì§Ħ
Ġv i
ĠìķĪ ìĤ°ìĭľ
Ġ19 67
ç §
Ġë£¨ ëĤĺ
ĠíŀĪ ëĵł
íĤ¤ ë¥¼
Ġì²´ ìĿ¸ì§Ģ
Ġëĥī ìłĦ
ìĻĢ ëĿ¼
ëłĪìĿ´ ìĬ¤
Ġë§Ĳ ëłĪìĿ´
ĠìĿ´ ê°ķ
Ġíİĺ ë£¨
Ġíģ¬ ëłĪìĿ¸
Ġì§Ħ ë¦¬
ĠìĿ´ ë£¬ëĭ¤
Ġê¸ī ìĦ±ìŀ¥
ìĽĲ ìĦľ
ì¡° ìĦ¸
Ġìļ° ë²Ħ
Ġ Ð
ëª° ìĿ´
ĠìĿĦ ì§Ģ
Ġíľł ëĿ¼
ë¬´ ëĬ¬
ĺì ĭ¤
Ġìĥģ ìĹ¬ê¸Ī
ëª¨ íĦ°ìĬ¤
Ġëĸ¨ìĸ´ ëľ¨ë¦¬
Ġr pg
ĠìĬ¤íĥĢ ëĶĶìĽĢ
n m
ìĦłê±° ê´Ģë¦¬ìľĦìĽĲíļĮ
ê·ľ ìĸ´
Ġë°© ìłľ
Ġ- >
Ġê°ķ íĸĪ
Ġíĥ Īì·¨
ĠìĪĺìĿµ ê¸Ī
íŀ Īì½Ķ
êµ° ëĭ¤ëĤĺ
ĠíĽĦ ìĿĺ
ĠíĤ¤ íĬ¸
ĠìĬ¤ íĭ°ì»¤
Ġë¶Īì¶ľ ë§Ī
ĠìĤ¬ êµĲìľ¡
ĠìĻ¸êµĲ ê´Ģ
ĠìĤ¬ìłķ ê±°ë¦¬
ĠìĿĢíĸī ìŀ¥
ĠìĤ¬ìļ°ëĶĶìķĦ ëĿ¼ë¹ĦìķĦ
Ġì§Ī ì£¼
Ġ& #
ĠìĬ¤ íħĿ
Ġê¸Ī ìĤ°
ĠìķĮ ëĿ¼
ĠëıĮ ìĿ´
ĠíĻľ ì£¼ë¡ľ
Ġì²ľ êµŃ
ìĭľ ê²½
ëĭ¹ íķł
ë¬¸íĻĶ ìľłìĤ°
Ġê²© íĻĶ
Ġê²½ ëŁī
ìļ° íĬ¸
Ġë°ľ ìĿ¸
Ġê¹¨ ì§Ģ
ĠìĿĺ êµ¬
Ġíı¬ì¼ĵëª¬ ìĬ¤íĦ°
Ġë³´ ëŀĮ
ëª¨ ìĸ´
Ġëĭ¨ì²´ ìŀ¥
Īì ĩ¼
ĠìĤ¬ ëĭ¹
Ġëĭ¬ ìĦľ
Ġê±° ìķ¡
ı ã
ìĬ¤ íĶ¼
ĠìĦ± ëł¹
ĠíıŃ ìĸ¸
Ġíķĳ ê³Ħ
Ġì§Ī íĪ¬
ĠëĳĲ ê»ĺ
s v
Ġíıī íĸī
Ġga me
ê³Ħìķ½ ìĦľ
Ġì¤ĳ ëħĦ
ĠìĬ¤íĮĮìĿ´ ëįĶ
Ġëĭ¬ íķ´
or t
ìķ¤ ìł¤ëłĪìĬ¤
Ġì§Ģ ê°ģ
Ġê¸°ìŀ¥ êµ°
Ġê°Ģìł¸ ìĻĶ
ëıĻ ìĨį
ĠìĿµ ëªħ
Ġï½ ŀ
Ġë¹Ī ê³¤
ì¹´ë¥´ íĥĢ
ĠìĭĿ ì¤ĳëıħ
ĠíĻĭ ì¹´ìĿ´ëıĦ
ĠëĮĢ ë©´
íķĦ ëįĶ
ĠëĪĦ ì§Ħ
ê°Ĳ ìłķ
Ġì²ľ ì§Ģ
Ġìĺ¥ ì²ľ
íķ ¸
ìĦł ìĬ¤
Ġíķ© ì¹ľ
Ġì¹ĺëŁ¬ ì§Ħ
Ġê¸° ë¯¸
Ġthe y
ĠìĿ´íĻĶ ìĹ¬ëĮĢ
Ġì´Ī ìĹ°
Ġë¦¬ íĶĦ
ì¼Ģ ìĿ¸
ga in
ĠìĿĢ ìĭł
ĠíĺĦ íĮĲ
ĠìĺģíĻĶ ê´Ģ
ë§¤ ê°ģ
Ġë¹Ħ ê¸ĪìĨį
íĶĮ ëĿ¼ìĿ´
ĠìĿ´ ì²ľ
ĠíĴĪ ìĿĢ
ë³´ì¦Ŀ ê¸Ī
ìķ¼ ìĪĺ
ĠíĻķ ì§Ħ
ë²Ī íĬ¸
ĠíĻį ìĿµ
ĠìĽĲ ë£¸
ĠëĤ´ ì§Ħ
Ġê¸°ëħĲ ìĤ¬
Ġìĺ¤ ë©Ķê°Ģ
ĠíĻĶ ê¸°
ĥ ¼
Ġë´ ħëĭĪëĭ¤
Ġë²ł íħĮ
ĠìĹ°ì£¼ ìŀĲ
on li
Ġë³´ íĥľ
©ì ¿łë¥´
ìĺ¤ ë²Ħ
ĠíĬ¸ëłĪ ìĿ¼ëŁ¬
Ġh ard
ì°¸ëª¨ ì´Ŀìŀ¥
Ġì°½ ëħķ
Ġëį°ëł¤ ê°Ģ
Ġëĵ±ë¡Ŀ ê¸Ī
ì§Ħ ë³´
Ġíĺ¸ê¸° ìĭ¬
ĠìłĦëĭ¬ ìĭĿ
in t
Ġìĺ¬ ìĬ¤íĥĢ
Ġk cc
íı¬ ë¡ľ
Ġëį° ëª¨
ìŀ¥ ë²½
ä¸ Ń
Ġë¶ģ ìłģ
ĠìĿĺêµ¬ ìĭ¬
Ġê·¸ëŁ¬ ë¯Ģë¡ľ
ĠìĿĮ íĸ¥
ĠíĿ¡ ìŀħ
ìµľ ê³ł
ĠëĤ´ ìłĦ
Ġh ow
Ġë§Īì ½Ķ
Ġê¸Īìľµ ìĹħ
ĠìķĪ ìĥģ
ëĭĪ ì¦ĺ
ĠíķľëĿ¼ ìĤ°
ì¢Į ìĦĿ
ĠêµŃë¯¼ ìĹ°ê¸Ī
Ġìľł ìĦľ
ĠìŀĲ ë¦¿ìĪĺ
ĠíĨł ëª©
ĠìłľíĴĪ êµ°
Ġìļ¸ ì§Ħ
Ġìŀ¥ ë¡ľ
Ġìķķ êµ¬
íķ© ê²©
Ġíķľ ê²°
Ġìĭľ ì±ħ
Ġ3 10
ì²ł íĺ¸
Ġìĺģ ë¦¬
ĠìĻ¸ ë¡ľìĽĢ
ê½ ģ
ĠìĬ¹ ë¥ł
ĠíĺĦëĮĢ ê±´ìĦ¤
Ġìľł ìĺģë¯¼
ou s
ĠíħĮ ëĿ¼ìĬ¤
ĠìĬ¤ ë¦¬
Ġì¹ľ ë¬¸
ë§Ī ëĬĶ
ĠìĦľ ìłģ
ê²½ ìĹ°
ĠëįĶ êµ°ëĭ¤ëĤĺ
Ġìĸ´ëĵľ ë²¤ì²ĺ
ìĽĲ ìĹĲ
Ġë¬´ ìĥī
Ġê³Ħìķ½ ê¸Ī
Ġìĸ» ìĸ´
ĠìķĦë©Ķ ë¦¬ì¹¸
Ġ2 11
íıĲê¸° ë¬¼
Ġd vd
ľ Į
ëĬĶëį° ëĭ¤
Ġê³Ħ ë¥ĺ
· Į
íģ´ ë¦°
ĠíıĲ ìķĶ
Ġê³łë§Ī ìĽĮ
Ġê²© ìĥģ
Ġë§ĪìĿ¸ ëĵľ
Ġen m
ĠìĨį ìĤŃ
ìĦł ìĿ´
Ġë°¤ ìĥĪ
ì»¤ ëħķ
Ġìļ° ìĹ°
Ġìĺ¬ ëĵľ
ë¬¼ íĴĪ
Ġì·¨ íĸĪ
Ġt ru
ĠìĤ¬ë¬´ ê´Ģ
Ġë¶Ī ìĿĺ
Ġê³µ êµ¬
Ġë¹Į ë³´ëĵľ
ĠìĤ¬ ìĤ¬
Ġê°Ĳ íĥĦ
Ġë½ Ģ
Ġì¡° ë°°
ìĨĮ ë§¤
Ġë²½ íĻĶ
ĠíĥĪ ìĦ¸
ìŀ¥ íĦ°
ê³ł ë°ľ
Ġê¸° ë°Ģ
ì§Ħ ê³¼
ë¶Ī ëªħ
ë¬¼ ë¦¬
ĠíĤ¤ ìļ´
Ġë¯¸ìĦ±ëħĦ ìŀĲ
Ġ13 2
ëıĦ ëĿ¼
Ĭ ¼
ìĤ° ë¦¼
ìĹ¼ ìĿĺ
Ġkt b
íģ¬ ë¦¬
Ġì¹¼ë Ł¼
ĠìĻ Ī
at ch
Ġ4 20
ĠìĿĳìĽĲ ëĭ¨
ĠìĹĲìĸ´ ë¶ĢìĤ°
Ġê¹Ģìĺģ ë¡Ŀ
Ġw we
ĠìĬ¤íı° ìĦľ
Ġë¡ľìĬ¤ ìķ¤ìł¤ëłĪìĬ¤
ì°¸ ìĤ¬
Ġìŀ¬ ê·ľìĸ´
Ġì¤Ħê¸° ìĦ¸íı¬
¼ëĿ¼ ìĿ´
Ġê¸ ģ
Ġì§Ģ ëħĶ
ìķĪ ìĭ¬
Ġëĸłìĺ¤ ë¥¸
Ġì§Ģ ë¦Ħ
ìļ° ìĤ°
Ġë°Ķ ë¹Ħ
ĠìĦľ ìĽĲ
ĠìĤ´ìķĦ ëĤĺ
Ġíĸ¥ íĸĪ
ĠìĹ¼ ìĥī
ĠëĬĲ ëł¤
ĠìĦľ íķľ
íĶĮ ë¡ľ
íĨµ ìĹħ
Ġë¶ģ ìľłëŁ½
ë³¼ ê¹Į
Ġëŀĺ ë¯¸ìķĪ
Ġì¶Ķ ë¦¬
Ġë Ĳ¨
Ġh ere
ĠìłĦ ë³ĳ
Ġê²½ ë³µ
íķŃ ìŁģ
ĠìĦľì´Ī ëıĻ
ĠìķĪ ì£¼
Ġë¦¬ íĭĢ
íĺľ ìĿĺ
Ġìĸ´ ì´Į
Ġìłķ ê°ľ
Ġìĺ¬ëĿ¼ ìĻĢ
Ġë¯¸ëĵľ íķĦëįĶ
ĠìľĦìŀ¥ ìłĦìŀħ
Ġì§ ¸
ĠìĦ¸ ë¶Ħ
Ġíģ¬ë¦¬ ìĹĲìĿ´íĦ°
ĠëĨį ìŀĳë¬¼
Ġc he
Ġìĸ´ìļ° ëŁ¬ì§Ħ
ê²¨ ìļ´
Ġìŀ¬íĮĲ ê´Ģ
¾ °
ê°Ģ ìķ¡
ĠìĤ¬ìĹħ ì£¼
Ġh dc
Ġìŀħ ìĨĮë¬¸
Ġìŀ Ħìĭ¤
Ġë§ŀ ì·Ħ
íĮ© íĨłë¦¬
Ġëĭ¤ìļ° ì¡´ìĬ¤
ĠìĿ¸ ë³´
Ġíķĺ ìĭľ
Ġa ge
Ġì¡°ë°° ìĪĻ
Ġë¶Ģìĥģ ìŀĲ
Ġíķľ ìĥģ
Ġ2 14
Ġ2 200
Ġìĺ¬ ë¦°ëĭ¤
Ġê·¼ ë¦°
Ġì²ľ ëªħ
« ã
ĠìĬ¤ì¼Ģ ìĿ¼
ĠìŀĲë³¸ ì£¼ìĿĺ
Ġê°Ģ ëł¹
ìľĦ ìĦ±
Ġì¶Ķ ê¸°
Ġ... "
ìľł ëĭĽ
ĠìĽĲ íĸĪ
ì¢ħ ìĿ´
Ġìŀħìŀ¥ ê¶Į
ļ į
ĠìĤ° ë§¥
ĠêµĲì°¨ ë¡ľ
ìĭľ ê°ģ
ĠìĦľ ë¨¸
Ġë¥´ ëĦ¤
Ġr ed
ê¿ Ģ
ëħ¼ ìĿĺ
ê³µ íĻĶ
ĠíĹ¤ ë¥´
íĮ į
íķ´ ìĪĺìļķìŀ¥
ë²Ħë¦¬ ì§Ģ
ì£¼ìĿ¸ ê³µ
Ġì´Ī ìĿĮ
ç Ľ
ê°ķ ëĮĢ
Ġìĥģ ë°ĺ
j h
ìĤ¬ìĹħ ëĭ¨
ĠêµŃìłľ ê³µíķŃ
íĮĮ ìĿ¸
ĠêµĲëıĦ ìĨĮ
¼ëĿ¼ìĿ´ ìĸ¸ìĬ¤
Ġìŀ¥ ëĤ´
Ġê²Įìĭľ ë¬¼
Ġê·¸ ì¹ľ
ã ħĭ
íĶĮ ë¦ŃìĬ¤
íİĢ ëĶ©
ĠëıĮëł¤ ì£¼
Ġãģ Ĥ
ë§Ĳ ëĿ¼
æ ł
ĠíŀĪ íĭĢëŁ¬
Ġê´Ģ ë§Ŀ
ìĺģ ìĪĺ
k f
Ġê°Ģ ë§Ī
ĠìĥĿíĻľ ë¹Ħ
Ġë´ ĩ
Ġ13 3
e i
at a
Ġíı¬ íĦ°
ìłľ ë¦¬
ì£¼ ë¥ĺ
ĠìĨĮíĻĶ ê¸°
íĸĪ ìľ¼ëĭĪ
ĠìĿ´ íļ¨
Ġë§Ī ìļ°ìĬ¤
ëļľ ê¸°
ë¬¸íĻĶ ìĽĲ
Ġíĺ¼ ëıĪ
Ġì»¤ ëħķ
Ġc n
Ġ19 65
ë³µ êµ¬
Ġíĥľ íĻĶ
ĠìĽĲìŀĲ ìŀ¬
ĠìĹĩê°Ī ë¦¬
Ġê³ł ì¶©
ê±° ìłĲ
ĠìŀĲ ëŀĢ
Ġìĭ¬ ë¬¸
ë§Īì ¸ł
íķł ìĿ¸
Ġê³ł ì§Ī
ê°ľìłķ ìķĪ
ĠìĤ° ì²Ń
ĠíĮĮ íİ¸
ou l
Ġëħ¸ ë¦ĩ
ëĶĶ ìĬ¤íģ¬
ë¸Ķ ëŁ¬
ìłĦ ëĭ´
Ġìķ½ íĥĪ
Ġì¢ģ íŀĪ
ì§ĢëıĦ ìŀĲ
ĠìĺĪì »¨ëĮĢ
ë¹Ħ ìĭľ
ìĿ¸ ëĭ¨
ìłĢ ëŁ°
Ġf all
ĠìĬ¤ íĮĮíģ¬
ìĨ ¥
Ġë¬´ë¶Ħ ë³Ħ
ì§Ī ë¬¸
ĠêµŃ ë¬¼
íİ¸ ìĦ±
ĠíĻĶ ìĦĿ
ĠëıĻ ìłĲ
ëĭĪ ë°ľ
Ġìłģ ê¸°
Ġê¹Ģ ìĦĿ
Ġíķĺ ë§Ī
Ġì´ī ì´ī
Ġìĸĳ ìĪĺ
íĺ ¸ì
Ġì½ľ ëĵľ
íĿ ī
Ġìŀ¥ìłľ ìĽĲ
ìĺ Īì
Ġë©Ķ ìĭłìłĢ
Ġa gain
ĠìĦľ ìĹ´
Ġë¬´ ëĬ¬
Ģì ´Į
ĠìĦ¸ ë¦¬
ĠìĤ¬ ê·Ģ
ëĭ¤ ëĵľ
ĠëĤ¨ìĸĳ ì£¼ìĭľ
ì°½ ìĿĺ
Ġë°©ìľĦ ë¹Ħ
íĭ° ëĦ¨
Ġìĭľ ëĿ¼
ĠìĪĺ ëĩĮ
ĠíĬ¹ ê¶Į
ìĪĺ ë¦½
ê³µ ìĺĪ
ĠìĪĺ ëıĹ
Ġëĭ¬ ìĿ¸
ĠëĦ¤ìĿ´ ì²ĺ
r n
Ġë¹¨ê°Ħ ìĥī
Ġë²Ī ìĭĿ
ë¯¸ ê²½
ê°Ģ ìĬ´
ìĳ ¤
Ġï¼ Į
Ġê·Ģ ìĹ½
ãĤ ģ
Ġê°Ħ ê°Ħ
Ĵ į
ëłĪ ëĶ§
Ġ769 1
Ġë§Ī ìĺ¤
ìķĦ ë©Ķë¦¬ì¹´
ĠìłĢ íĥĿ
Ġê°ĢíĮĮ ë¥¸
ĠëĨĢ ëŀį
Ġê°ľ êµ¬ë¦¬
ĠìľłëĿ¼ ìĭľìķĦ
Ġbla ck
ê·¹ ìĿĺ
ìĬ¬ ë¦¬
ĸ Ħ
ĠíħĮ ìĿ¼
ĠëĤľ ìŀħ
ìĬ¬ ë¡ľ
ëĦĪë ľ¨
Ġë©ĺ íĥĪ
Ġëıħ ê°Ĳ
ĠìķĮ ëľ°
ìĬ¬ ë¦¼
Ġë°ľ ìĥģ
ĠìĥĿëħĦ ìĽĶìĿ¼
Ġë¬´ ëĦĪëľ¨
Ġê³µìĤ¬ ë¹Ħ
Ġë¬´ëĦĪ ì§Ħ
Ġíĺ¼ ìŀ¡
Ġê°ľ íı¬
ìĿ¼ ê¸°
Ġc e
ìĽĮ ì§Ħ
ĠìķĦ íĨł
ìĤ¬ ìĺ¥
ĠëıĻ ìĤ°
Ġìľł íľ´
Ġíİ¸ ë²ķ
Ġì¿łëį° íĥĢ
ĠìķĦìĿ´ìĬ¤ íķĺíĤ¤
ĠìĨĮ íĴĪ
Ġìĥ¤ ìĿ´
Ġ19 40
Ġì¹¼ ë¦¬
Ġìķłì į¨
n u
Ġ19 64
íĥĢ ìĬ¤
ëĤ ¸ìħľ
Ġê±°ì ·¨
ĠìıŁìķĦ ìł¸
ĠëĮĢ ê²Ģì°°ì²Ń
Ġë¶Ģ ìĭľìŀ¥
ê±° ì§Ħ
ë©Ķ ìĿ´ëĵľ
ĠëĮĢíĳľ ìŀĲ
ĠëĨĢ ëŀĲ
Ġë³µ ì§ģ
Ġì¿ł ë°Ķ
ĠìŀĦ ê´Ģ
w r
ëĤĺ ë¥´
Ġì¡° ìŀ¥
ìĬ¤ íĬľ
ì¿ł íı°
Ġíİ¼ ì¹ľ
ĠíĹ ·
Ġ13 6
Ġê°Ģ íĺ¹
Ġë¦¬ ë²ł
ĠëĦ· íĶĮë¦ŃìĬ¤
Ġsu per
ëĭĪ ìĸ¼
ë°± ìĿĺ
Ġu e
íıīíĻĶ íĨµìĿ¼
Ġìĺ® ê¸´
Ġt on
Ġm r
Ġìļ° íĮĮ
ê´ĳ ë¬¼
íı¬ íĦ¸
ëĤĺ ë¬¼
Ġê·¸ ëŀľ
Ġå ®
ĠëĤĻ ë§Ī
ĠìĹĲë²Ħ ëŀľëĵľ
ĠìĬ¤ íĥľíĶĦ
Ġëľ¬ ëĭ¤
ĠìĹ¬ ë°°ìļ°
Ġê·¸ ëŀĳ
íĮ¨ ëĵľ
ê· Ħ
Ġíĸĩ ë³ķ
ëħĦ ê¸°
Ġë²Ħ ë¸Ķ
ĠìĦ± ê¸ī
ìĦ ¹
Ġë°ľ ìĿ´
ĠëģĿ ëĤľëĭ¤
Ġëĭ¹ ë¬´
ł ´
ë°ķ ê³Ħ
ĠìĭľíĹĺ ìŀ¥
ëįĶ ëĵľ
ì²´ ê°Ģ
ĠìĬ¤ìºĶ ëĵ¤
Ġëĵ¤ìĸ´ ìĦ°
ĠíĻĺê²½ ìĺģíĸ¥íıīê°Ģ
ĠìĿ´ ë¸Į
ĠëŀĦ ëĿ¼
Ġìĭ¤ ìĸ´
íį¼ëłĪ ìĿ´ìħĺ
Ġíħ Ģ
Ġêµ° íı¬
ĠìĪĻ ìĦ±
Ġê°Ģ ëĶĶìĸ¸
ĠëĤ Ģ
; &
Ġê²Ģ ê²½
ĠìĿ¸ íĮĮ
ĠìıŁìķĦ ì¡Į
Ġìłķ íĥľ
Ġëħ¸ ë¦°
ĠìŀĲë³¸ ê¸Ī
íĬ¹ ìĤ¬
ĥ ¯
ĠìĶ¨ íĭ°
Ġê²½ìŁģ ìŀĲ
ĠìĨĮë°© ì²Ń
Ġì²¼ ìĭľ
Ġíĺ¸ ì¶ľ
ĠìĦ±ê³¼ ê¸ī
ĠìĦł ëıĻ
ì§Ģ ìĭľ
Ġìĺģ ì§Ģ
¬ µ
Ġê¸° ìĦ±
ëŀĢ ëıĦ
Ġìĭł ìłĦ
ĠëĤľ íķŃ
ĠêµŃëĤ´ ìĤ°
ĠìĤ¬ íķĻ
ĠìĻĦ êµ¬
ĠíĽĦë³´ ì§Ģ
ĠìľĦ íķ¨
ëį ķì
Ġëª© ìĿ´
ìŀ¥ êµ°
ì¼Ģ ìĿ´ìĬ¤
Ġìłĳ íķł
Ġê³Ħìķ½ ìĦľ
ëĵł ëĭ¤
Ġíĳľ ë¥ĺ
Ġê°Ģ ìłĲ
ìºĲ ìĬ¬
Ġë¦¬ íĬ¬
ĠëłĪì½Ķ ëĵľ
ĠìĻ¸ ë¡ľìļ´
ĠìĪĺëıĹ ë¬¼
¸ì ³¤
Ġíķ¨ ê²½
ĺì ĩ¼
ìĪĺ ëł¥
Ġìĺ¤ê±° ëıĪ
Ġíİ¸ ëıĦ
ĠêµŃ ìĿµ
ĠêµŃ ìľł
Ġd u
Ģì ¸ł
Ġë¨¸ ë¦¿
ìĬ¤íħĮ ìĿ´ìħĺ
Ġìŀ¡ íĺĶ
ë¦¬ ë²Ħ
ĠìĦ¸ ìłķ
ìł ĵ
Ġab out
ĠìłķíĻķ ëıĦ
íĶĮëŀľ íĬ¸
ç «
Ġë°Ķìģ ĺ
ëĵ¤ ë¦¬
Ġì¡°íĺķ ë¬¼
ê¶Į ë¦¬
ìľĦ íķľ
ĠìĿ´ë£¨ ìĸ´
íı´ëłĪ ìĺ¹
ì§Ģ ìĻĢ
¸ì ĵ¸
Ġë§Ī ìĬ¤
ì½Ķ ë¥´
ìĪĺ ìĹĺëĿ¼
ĠíĪ¬ ìĭł
ĠíĹ¤ ë§¤
ĠíĶ¼ ìĦľ
Ġëĭ Ĳ
ĠíĽĦìľł ì¦Ŀ
Ġì¤ į
êµŃ íĮĲ
Ġìĭł ì§Ģ
Ġê°ķ ë³Ģ
ëĭĪ ì¹´
Ġ! '
ìħ ĺìĩ¼
ĠìķĦ ë¶Ģ
Ġìĭ¬ìŀ¬ ì²ł
ĠíĽĦ ìĿ¸
ĠëĿ¼ ë©´ìĦľ
Ġìĺģ ì²ľ
ĠìĿ¸íĶ¼ ëĭĪíĭ°
Ġìĺ¨ ìłĦíŀĪ
»¤ ìĬ¤
Ġìķ½ ê´Ģ
ìĺĪ íĶĦ
Ġìĺģ ìľĦ
Ġì¹ĺ ë°Ģ
Ġë³¸ ëĭ¤ë©´
Ġê²© ëł¬
Ġì¡° ìļ°
ĠìłĢ ëłĩ
ĠìĻķ ìĭ¤
Ġëĭ´ ìķĦ
ë¶Ģë¬¸ ìŀ¥
ë³´ ë¦¬
Ġëªħ ìĭ¤
ĠíĺĦëĮĢ ìłľì²ł
íĸĪ ìĸ´ìļĶ
Ġê°ľ íļĮìĤ¬
Ġë³´íĺ¸ ë§ī
Ġë§Ī íĭ´
ĠëĤĺ íı´ëłĪìĺ¹
Ġa way
ìĦ± ìłģ
ĠìĽĲ ìĦľ
Ġ à
ë°ĶìĿ´ ëŁ¬ìĬ¤
ĠìĽĲ ìĭľ
íĻľ ëł¥
ĠíĿ¡ íĺĪ
ĠìłĪ ëıĦ
Ġìĵ ¸ìĵ¸
ĠìľłìĤ° ê·ł
Ġíķł ë¡ľ
Ġë°° ìĦĿ
ĠìŁ Ī
Ġc nn
Ġë°Ķ ìĹĲ
Ġ J
êµ¬ ì²Ń
Ġìĭł ì¢ħ
ë¬´ ìĬ¤
ĠìŀĲ ì¹´ë¥´íĥĢ
ìĬ¤ íĭ¸
ë§Ī ëĭĪìķĦ
Ġìľ¤ìĺģ ì°¬
Ġêµ¬ ë¥´
Ġë¹Ħ íĭĢ
Ġë¡ľ ë¹Ī
ĠìĦł íļĮ
ë²ł ë¦¬ìķĦ
ê´Ģë¦¬ ë²ķ
å¤ §
ë¬¸ ìŀĲ
íĥĢ ëĤĺ
ëĶ ¤
Ġìıĺ ëĤĺíĥĢ
ĠìĽĶ ìĬ¤íĬ¸ë¦¬íĬ¸
Ġë¯¸ ìĭĿ
Ġë¸Į ëłĪ
Ġíķł ëĭ¹
Ġë¹Ħ ëĭ¨
ĠíķĦ ëĿ¼
Ġìŀ¬ íĤ·
Ġëª¨ ëĭĿ
ëĤĺ ëĵľ
ìľ Į
ìŀ¥ ìłĦ
Ġì§Ģ íĮ¡ìĿ´
ìľł ëıĦ
Ġíģ´ ëŀľ
ĠëĤĺ ë¥´
ĠëĲĺ ê²Į
Ġ2 29
Ġì£¼íĮĮ ìĪĺ
Ġë°°íĬ¸ ë§¨
Ġíĺ¸ ìĬ¤
Ġê¹Ģ ìĪľ
ĠíĥĢ ìĪĺ
ê°ľ ë¯¸
íĶĮëŀĺ ìĭľ
Ġíķľ ë¦¼
ĠíĥĪ íĶ¼
Ġíĥľìĸĳ ìĿĺ
Ġë¶Ģ ëıĻ
Ġë³¸ ì§Ħ
íķ© ì°½
ĠìĹ¬ê°Ŀ ìĦł
Ġê³ł ìĺ¨
Ġìĭľ ì¡°
Ġê±° ëĳ¬
ĠíĻį ìĪĺ
ĠìĿ¼ ìĥĿ
Ġru by
Ġì²ĺ ì°¸
ĠìĤ°ìĹħ ìļ©
Ġì¹ĺ ëłĢ
ĠìĹ¬ ê¸´
Ġì§Ī ìłģ
Ġs ong
Ġk or
ìłľ ì£¼
Ġìĺ¤ìĬ¤ ë§Į
ĠíĶĦëŀĳìĬ¤ ìĸ´
Ġì¡°íķ© ìŀ¥
Ġì¹ľ ìĿ¼
ìķ½ ìĦľ
Ġì¤ĳ ê±°ë¦¬
ë¡ľ íİĺìĿ´
ĠíĶ¼ ê³¤
ĠëĮĢ ìļ©ëŁī
Ġë¶Ģ ìĿĺ
Ġìĥ ¹
Ġë¯¸ ëŁ¬
Ġì¤ĳ ìĽĲ
¦ ī
Ġê¹ĢìĪĺ íĺĦ
ê²Į ìĿ´ìħĺ
Ġë²ķ ê³¼
Ġì¹´ íĥĢë¥´
Ĥ Ļ
Ġìŀ¬ ê¸°
ĠìĽĲ ë§Ŀ
ĠíŀĪ ê°Ģìĭľ
ĠìĿ´ ëŀľëĵľ
Ġê¸°ê´Ģ ìŀ¥
Ġì§Ģ ì§Ī
İ Ļ
Ġe bs
ĠìĤ¼ìĦ± ìłĦê¸°
Ġì§ģ ê±°ëŀĺ
ëĬĲ ëĭĪ
Ġë¬´ ìĿ´ìŀĲ
íĥĢ ë§Ī
ĠìĬ¤ì¼Ģ ì¤Ħ
íĬ¹ë³ĦìŀĲì¹ĺ ëıĦ
Ġc ha
ĠìĻ¸ ë²½
Ġìĸ´ ë¢°
ì°¨ ë¦¼
Ġêµ°ìĤ° ìĭľ
Ġë³Ħ ìĿĺ
Ġ10 20
Ġìľł ìĿµ
Ġê´Ģ ì²ł
Ġìĭ¬ íĶĮ
ĠìĦ±ë¶ģ êµ¬
Ġ13 8
Ġìłķê°ľ íĬ¹ìľĦ
Ĥ ¥
Ġë§Į ëĳĲ
ìĦ¸ ëĿ¼
Ġìķ¼ ìĭ¬
ĠëĤĻíķĺ ìĤ°
Ġâĸ ¼
êµŃ ìķħ
Ġìķ½ êµŃ
Ġë§ī ê±¸ë¦¬
Ġë¶Ħ íĻį
ê±°ëŀĺ ìĿ¼
ĠìĦłë³´ìĿ¸ ëĭ¤ê³ł
ĠìºĲ ì£¼ìĸ¼
ìłĦ ëıĦ
ĠíĮĶ ëłĪ
Ġì§ĳìĸ´ ëĦ£
ì¿ł ëĿ¼
ì¦Ŀ íĽĦêµ°
ëĵ¤ ìĸ´ê°Ģ
ĺ ¹
ĠëĤ¨íķ´ êµ°
Ġ2 27
ĠíĽĦ ë©´
å ĩ
Ġë¬» íĺĢ
ĠíķŃê³µ íİ¸
ìķ¼ ìĬ¤
Ġê¶Į ìĿĺ
q m
Ġìľł íĿ¥
ìŀĶ ëŁī
Ġìĵ°ëŁ¬ ì§Ħ
íı¬ ìĬ¤íĬ¸
Ġì¢ħ ìĨį
Ġíŀĺì į¨
Ġê¹Ģíı¬ ìĭľ
Ġë²łíħĮ ëŀĳ
Ġë²łëĦ¤ ìĪĺìĹĺëĿ¼
ë¦ ħëĭĪëĭ¤
Ġë³µ ê¶Į
Ġë°© ìļ¸
Ġê°Ģ ìĦ¤
Ġìľłì¹ĺ ìĹĲ
ìĭľ ë¡ľ
ìĿ´ ë§ĪíĬ¸
ĠìĽĶ ë¡ľ
ìĦł ìľĦ
â ĶĢ
Ġu sb
Ġíİ ĮíĶĦ
ĠìłĲì ³Ĳ
ìĺĪì ¸¡
ĠìŀĦ ìĤ°ë¶Ģ
Ġêµ¬ ìĿĺ
ĠìĬ¤íĥł ëįĶëĵľ
Ġêµ´ ëŁ¬
T V
ë¦¬ ëįĶ
ĠìĪĺ ê³ł
ĠìĤ¬ëł¹ ë¶Ģ
Ġë¬´ëĦĪ ìł¸
Ġëį° ëª¬
ĠìĿ¼ ë¦¬
Ġê¶Ĳ ëł¨
ìĭľ íķľ
Ġë°ķ ë³ĳ
Ġìľł ê²©
ĠìĤ°ì±ħ ë¡ľ
Ġë³´ ìĿ¼ëŁ¬
íĺĦ ìķħëĭ¨
Ġë¡¯ëį° ì¹´ëĵľ
Ġë°ľ íĺĦ
ĠíĥĦ ì°½
Ġì½Ķ ë¯¹
Ġì°° ìĬ¤
æ Ģ
ëıĦë¡ľ ê³µìĤ¬
Ġëģ¼ ìĽĮ
i z
ìĻ Ī
ĠëĳĲ ëĵ¤
ĠìĨį ìĿ´
Ġê·¸ë¦¬ìĬ¤ ëıĦ
r g
Ġ2 15
ë°° ìĨ¡
ĠíİĢ ì¹ĺ
ë£ ½
Ġë¬¸ ëĭ¨
Ģì ¦Ī
Ġëıħ ìĦ±
ĠíĥĢìĿ´ê±° ì¦Ī
ĠëĽ ´
Ġ3 14
Ġë£¨ ë¨¸
ĠêµŃ íķľ
Ġì±ħ ë¬´
å ½
Ġì½ §
Ġìĭłìļ© ì¹´ëĵľ
Ġë³¼ ë¥¨
Ġr a
Ġ19 53
¼ê¼ ¬
Ġê°ľ íķĻ
Ġì¤ĳíĻĶ ë¯¼êµŃ
Ġë°Ķê¿Ķ ìķ¼
Ġëªħ ëĭ¹
Ġå į
ëĮĢ ì£¼
Ġê¹Ģ ëĳĲ
íĤ µ
ë³¼ë £¨
ĠìķĦë¬´ ëłĩ
ĠíħĮìĿ´ íĶĦ
ĠìĿ¸ ìĸĳ
Ġìĺ¤íĤ¤ ëĤĺìĻĢ
ĠëıĻ ì¡°
Ġìĭ¤ë¬´ ìŀĲ
ëĭ¤ ê°Ħ
íĺķ ìłľ
Ġê¸° ê°ĳ
íĮĮ ê´´
ë¬¸íķĻ ìĥģ
l m
ĠìĽ ľ
ĠìĤ° ìŀħ
Ġì¦ĿìĹ¬ ìĦ¸
ëĤĺ ìĺ¨
Ġìĺ¤ë°Ķ ë§Ī
Ġ? ??
ê°ľ ë°©
ĠìĿĺ ê±°
ëªħ ìĿĢ
ĠìĦľ ë°©
ìĭľ ì¦Ī
Ġìĺ¤ìĦ¸ íĽĪ
ĠíĶ¼ ìĬ¤
ìŀ¬ ìĽĲ
íģĲ ë¸Į
ëłĪìĿ¸ ìłĢ
Ġëĭ¤ ë°©
ĠíĻĶ ë³´
Ġì²© ë³´
ë©Ķ ë¥´
Ġìłľì£¼ íĬ¹ë³ĦìŀĲì¹ĺëıĦ
ĠìĪĺ ìĪľ
ĠìĪĺ ë°ĺ
Ġìĭľ ë§Ī
ëŁŃ ìĬ¤
Ġì§ĢëĤĺ ê°Ħ
Ġê·¸ë¦¬ ìļ´
Ġíıī íĮĲ
ĠìĪĺ íĥģ
ĠíĿ¡ ìĤ¬
Ġê¸°ìĹħ ì²´
Ġêµ¬ë¡ľ êµ¬
ĠìľłìĦ± êµ¬
Ġd r
Ġìłķ ìĤ°
ì§Ħ ëĭ¤ëĬĶ
ĠíĮĮ íĤ¤ìĬ¤íĥĦ
ì³Ĳ ìĦľ
ìŀħ ë²ķ
ì°½ íĺ¸
Ġì°¨ ë¦¬
ĠíĨµ ìĹŃ
ĠìĦ± ìĶ¨
íĻ© ê³¼
Ġê¸¸ ê±°ë¦¬
ī ã
Ġìĺ¤ ìĨ¡
ìŀ¥ëł¤ ê¸Ī
ìł ¼
Ġìĥģ ìĪł
Ġì¡° ê·¸
Ġì²ľ ìłķ
ëĮ ĵ
ĠíĥĪ íĻĺ
Ġìĭ¶ ìĸ´ìļĶ
ĠìĿ´ ìĸĳ
Ġëª¨ ê¸°
Ġë§ Įì
ĠíĤ¬ ëŁ¬
Ġì«ĵ ìķĦ
ĠìĿĺ íĸ¥
st art
Ġìŀ¥ íİ¸
Ġìŀħ íķŃ
Ġëľ» ê¹Ĭ
ĠíĨµíĸī ë£Į
Ġë¬µ ë¬µ
Ġê°Ħ ìĤ¬ìĿ¸
ĠëĤ´ ë³´ëĤ´
Ġì¹ĺë£Į ë²ķ
ìĦ¸ ìļ°
Ġë¯¸ ì§Ģ
Ġt ae
Ġìĺ¤ ëļľê¸°
ì²ľ ë¦¬
ĠìĤ¬ ê´Ģ
Ġê°Ħ ì§Ģ
Ġë§ ·
Ġ... ..
ãĤ ¿
Ġe nd
Ġëĭ´ ìŀĦ
Ġìıł ë¦°ëĭ¤
ĠìĿĢ ë©Ķëĭ¬
ìĦ¸ ë¬´
Ġì¹ľ ìĦł
Ġì²ł ìĥĪ
ĠëĩĮ ì¡¸
Ġë¶Ģ íĿ¥
ĠìĻ¸ ì£¼
Ġx x
ëŁ¬ ìĽĢ
ĠìĽĲ íķľ
Ġë´Ħ ì²ł
ìĥģ ë¶Ģ
Ġìľł ëŀĮ
ì½Ķ íĬ¸
ĠíĿ¥ ë¶Ħ
ì¤Ģ ëĭ¤ê³ł
Ġê¸°ê´Ģ ì§Ģ
Ġ; &#
ìĻľ ëŀĢ
ĠíĶ¼ì ¼ĵ
Ġ15 2
ìĽ¨ ìĿ´íĬ¸
ĠëĤ´ëĭ¤ ë³´
ëĤľ ë°©
Ġì§Ģ ì¤ĳ
íļĮ ëıĻ
ĠìĤ¬ìĿĢ íĴĪ
Ġëĭ¬ëĿ¼ ì§Ħëĭ¤
Ġê¸°ëħĲ íĴĪ
Ġí ıĦ
ëħ¸ ë¦¬
Ġë¡ľ ëĺĲ
ãģ ¤
Ġì²ľ íķĺ
Łģ ìĿ´
ĠíħĮ ëŀĢ
ĠìĬ¤ëħ¸ ìļ°
ì¹ĺ ëĬĶ
Ġìŀ £
Ġìļ° ë¥´
Ġt y
íİĺ ë¥´
Ġê±°ì£¼ ì§Ģ
ëª© ìĽĲ
Ġë©Ķ ìĿ´ëĵľ
ìłĢ ëŁŃ
ê²½ìłķ ìĺĪìĤ°
Ġëĭ¨ì§Ģ ë¡ľ
Ġi d
ĠìĿ´ ìĬ¤íĥĢ
Ġë°Ķëĭ· ê°Ģ
ì¶© ëıĮ
Ġê·¸ ëŁŃ
ë¬´ ì§Ģ
Ġë¶Ī ë¹Ľ
Ġíİ ľìħĺ
Ġë¯¸ ìĥĿë¬¼
ìŀĲì¹ĺ ëĭ¨ì²´
ĠìĽĶ ëĵ±
Ġë¬¸íĻĶ ìľłìĤ°
Ġìŀ¬ì ·¨
Ġìĭ¤ ì±ħ
Ġìµľ ë¬¸
Ġìĥģìĥģ ëł¥
Ġê¸°ëĭ¤ ë¦´
ĠìĹ¬ ì§Ħ
ë¿ Į
ë£ »
ĠíĮĮ ìļ¸
Ġê·Ģ íķľ
ĠêµĲ ìĸĳ
ĠìĿ´ëłĩ ê²Į
ë§Ī ìĤ¬
Ġê½ĥ ìŀİ
³ °
Ġíİ¸ íķľ
Ġìĸµ ë¥ĺ
ëįķì ħĺ
ĠìĽĶ íĺ¸
ĠìĦ¹ ìħĺ
Ġë³µ ëıĦ
Ġë°ķ ê´ĳ
ĠìķĦìĿ´ ëŁ¬
Ġê°Ģ ìĹ´
Ġ13 4
ĠìĻ ¼ìĨĲ
ĠëĮĢ ì§Ħ
ê³¼ ìĿ´
ĠìĿ¼íļĮ ìļ©
Ġìļ´ ìļ´
êµ¬ íĺ¸
Ġì¶© ì£¼ìĭľ
ëª¨íĦ° ìĩ¼
Ġf t
Ġê³łìľĦ íĹĺ
ĠëłĮ íĦ°ì¹´
Ġíľ´ ìĹħ
ĠìĤ¬ ê³Ħ
Ġê°Ģ ë¯¸
Ġê´ĳë³µ ìłĪ
Ġìŀĳ íĻĶ
Ġì¶Ķê°Ģ ê²½ìłķìĺĪìĤ°
ì ¨
ĠíĻĶ ì²ľêµ°
Ġë¦ ¼
ëıĻ ê³¼
Ġìŀħ ìĦ±
Ġì¤ĳ ê³¼
Ġê·¸ëł¤ ì§Ħ
ĠíĸĦ ë²Ħê±°
ìĥĿ ìłľ
Ġë°©ìĸ´ êµ¬
ëĶ ´
g w
ë§ī ìĿ´
Ġìŀ¥ ìķĪ
ĠëĤ´ë¹Ħ ê²ĮìĿ´ìħĺ
Ġëª°ìķĦ ì£¼
Ġê²Ģ ìĹ´
Ġlo ok
Ġê¸°ëıĻ ìĦ±
ĠìĭĿ ìļ©
ĠìĨį ì¶ľ
ëĭ¨ ëĭ¤
ĠìłĦíĻĺ ìĤ¬ì±Ħ
ìľĦ ë°ĺ
Ġìĵ° ë¦¬
íĮ¨ íĦ´
ĠìĪľ íķŃ
ëĥ Ħ
ĠëŃ īì
ĠìĻ ¼
Ġìłģ ì¤ĳ
Ġëĭ¨ ìĸĳ
Ġê·¸ëŁŃ ìłĢëŁŃ
ĠìĹ´ ë§Ŀ
ĠíĽĦ ìĪł
Ġte am
Ġê·¹ ëıĦ
ĠìĹ° ëĭ¬
ìłķ íĨµ
ĠìĹŃ íķĻ
Ġë§ī ìķĦëĤ´
ìļĶ ë²ķ
íľ´ ìĸĳ
ëĨį êµ¬
¤ ã
íķĻ ëł¥
ì Ĳ
ĠìĦ¸ íĮħ
Ġìı ľ
¹ Ķ
Ġìĭł ëį°
Ġëĭ¤ êµŃìłģ
ĠëĶĶ íħĮìĿ¼
Ġìħ Ķì¸ł
Ġêµ ¶
ĠìĹŃ ìĿĺ
Ġ13 1
ìĹħ ìĿ¸
ì¹´ ëĿ¼
Ġë©ĶìĿ´ íĶĮ
Ġw to
ëª¨ ìĸĳ
¢ Ģ
º Ķ
ìłģ ìļ©
Ġë¹Ī íĭĪ
ìĬ¤íĬ¸ ë¦¼
ĠìĨ¡ìĺģ ê¸¸
Ġë¡ľ ìĿ´
ĠìĿ´ ìĺ¨
Ġê¹Ķ ëł¤
Ġê²½ë¶Ģ ê³łìĨįëıĦë¡ľ
Ġìłķ ë°ľ
- .
ar e
Ġì²ĺ ìŀ¥
ĠìŀĲ ì²ĺ
Ġë³´ ìĬµ
Ġì²´ ìĺ¨
¼Ģ ë¯¸ì¹¼
Ġì§Ģ ìĦł
Ġê°ķ ê¸°
Ġìĭľ ëĦ¤ë§Ī
Ġê³ł ìĨĮëĵĿ
¹ Ģ
Ġì¡´ ìĬ¤
ë°° ìłķ
ĠíĮĶ ìŀĲ
Ġìĺģ ìĺĪ
Ģ į
Ġìŀ¬ ëŀĺ
Ġë¶ģ ëĤ¨
Ġë¬¸ ìĭł
ĠíķŃ ìĿ¼
Ġê²½ ìķħ
ĠíĨł ë¦¬
Ġ19 66
ĠìĦľ ê±°
Ġíĥľ ìĦ¸
ĠêµŃë°© ìľĦìĽĲíļĮ
ĠíķĦ ë¡ľ
Ġìłľ ëıħ
ĠìĦ¸ìĿ´íĶĦ ê°Ģëĵľ
Ġìĸĳ ìĿĢ
Ġë§Ŀ íĸĪ
Ġì²Ń ê°ģ
Ġíľł ì²´ìĸ´
Ġìķ¡ ë©´
Ġìĥģ ìĪĺëıĦ
ĠìłĦê´ĳ íĮĲ
Ġê°ģ ëıĦ
½ Ģ
ë²Ī ìĿĺ
ìĺ¥ ìĿĺ
ìĤ° ìĦ±
Ġë¯¸ ë¹Ħ
ĠëĿ¼ìĿ´ ìĦłìĬ¤
Ġë°ľë§ŀ ì¶°
ê¸Ī íļĮ
Ġìłķ ìĪĺê¸°
Ġê°ķ ëĮĢ
ìĦ¼ ìĦľìĬ¤
ë²ł ë¥´íģ¬
Ġìĺ Īë
Ġíķĺ ìĤ¬
Ġ3 15
ĠëıĮëł¤ ë°Ľ
ìĺ Į
ëŀ ı
Ķ ķ
Ġê³Ħ ìĸĳ
Ġì°© ê³µìĭĿ
Ġëª©íĳľ ì¹ĺ
ĠìļĶ ê²©
Ġë§Īì ħĶ
ìĥģ ìŀĳ
q l
ì¡° ìķ½
ìĦł ë¯¸
Ġìłľ ëĮĢ
ê°ķ ìĹ°
ìłĦ êµŃ
ĠìłĦíĨµ ë¬¸íĻĶ
ĠìŀĦì§Ħ ìĻľëŀĢ
ĠíĹĪ ë¬¼
ĠìĦ¼ ìĬ¤
ĠìĹ° ìłľ
Ġë¡¯ ëį°ì
é ĸ
Ġìĭł ìłķ
Ġë»Ķ íķľ
Ġãģ Ŀ
ĠíĮĮ ìĽĶ
ëį° ëĵľ
ĠëĨį ìķ½
Ġíĩ´ ìĤ¬
Ġue fa
ëıĻ ìķĦë¦¬
ĠíĮ¨ ìĨĮ
Ġ2 17
ĠëĤĻ íĽĦ
ĠìĦ¸ ìŀħìŀĲ
Ġìĭ¤ ì¡´
Ġíķĺ ì¸ł
ĠìĨĲ ìĿµ
ĠìĽĲ ì£¼ë¯¼
Ġë°° ëĤĺ
íĭ° ìĺ¤
Ġë°ĶìĿ´ìĺ¬ ë¦°
ĠìĬ¹ ë§Ī
ĠìĿ¼ëłī íĬ¸ë¡ľ
Ġ30 40
ĠìķĪìĸĳ ìĭľ
Ġìłķ ìŀ¥
Ġq m
ìĤ¬ íĩ´
ĠìĤ¬ ë°©
Ġë¹Ħ ëªħ
ë¯¸ëĭĪ ì¦ĺ
Ġc b
ľ »
ĠìķĦ ìĦľ
ĠìĥģìĨį ìĦ¸
Ġëª¨ ìĿĮ
ì¹¨ ì²´
ĠìĦ¤ íĻĶ
¼Ģ ìĿ´
Ġì°Ķ ëŁ¬
ìĬ¤ íĶĦ
ĠìĿĺ ëĮĢ
Ġì´Ī ì¤ĳ
Ġro e
Ġê¹Ĭ ìĪĻ
Ġìļ°ì ¸¡
ĠìłĪ ë°ķ
Ġë³´ ëĤ¸ëĭ¤
Ġêµ¬ë¯¸ ìĭľ
ê³ł ë£¨
Ġë§¹ ìĦ¸
Ġê°ģ ìĿ¸
íĭ°ëĦ¨ íĥĪ
® ã
Ġìĭ¤ ìĹħìŀĲ
ëĿ¼ ëį°
Ġê²© ë¦¬
Ġìķŀ ëĴ¤
Ġìłķìĭł ê³¼
Ġh g
ĠëĳĲ êº¼
Ġë§Īë²ķ ìĨĮëħĢ
Ġëĵ¤ìĹ¬ ëĭ¤
Ġê³µ ìĤ¬ìŀ¥
ĠëĶĶë°Ķ ìĿ´ìĬ¤
ĠëłĮ íĥĪ
ĠìĿĮ ëŀĢ
ł ¼
Ġìŀ¬ íļĮ
íī ģ
ĠìĦľ ë²ĪíĬ¸
ĠëĳĲ ì§Ģ
Ġgon na
ĠëıĻ ìĤ¬
Ġëª¨íĦ° ìĩ¼
ëĭĪìĬ¤ íĥĦ
Ġìłľ ìĤ¬
Ġëł Ļ
Ġë³¸ìĤ¬ ê°Ģ
Ġr un
Ġë§Īì ĭ¤
ìĬ¤ íĥ
Ġì¡°íĿ¬ ìĹ°
ĠíĨ ¨
Ġë¶Ģê°Ģ ê°Ģì¹ĺ
Ġê°Ģìłķ ìļ©
ĠíĮĮ ìĹ´
Ġë°© ëĮĢ
ë§¤ íĬ¸
Ġìĥģ ìĩĦ
ĠëĤ¨ ì§ĵ
ëıĮ íĶĦ
ê°ľ ìŀħ
ĠìłĦ íķľ
Ġêµ° ëį°
å Ľ
ìľ¡ ìĿĺ
Ġë¹¼ë Ĩĵ
ĠìĬ¤íħĶ ìĬ¤
Ġë²Ļ ì»¤
Ġëª¸ ë§¤
Ġì°¨ ì£¼
ãģ Ĥ
ĠìĤ ¿
ë¶Ģ ë¦¬
o g
ë¬´ ê²Į
Ġìľł ëĤľ
ê²½ ê³¼
Ġb pm
ĠëŁŃ íĤ¤
ĠìĻ¸ ìĿ¸
ëĮ ĦìĬ¤
ĠëĨį ì§Ģ
íħĮ ëŁ¬
ë®¤ ì§ģ
íĻĶ ìĽĲ
Ġì²´ ë¦¬
ìĪĺ ìĹŃ
Ġë¬´ íĺķ
Ġê°ľ ë¯¸
ëįĶëĿ¼ê³ł ìļĶ
Ġëº ¨
Ġ2 26
ĠìĹ¬ íĺ¸
Ġíĸī íķĺ
Ġê´´ë¡Ń íŀĪ
Ġ14 8
Ġëļľ ê»ĳ
Ġì¤ Į
ĠíĤ¤ ë³´ëĵľ
Ġ19 61
ê°ĳ ëĭĪëĭ¤
ĠëıĻíķ´ ìĦł
ëĿ¼ ëĶĶìĺ¤
ĠìĨĮ ìĸĳ
Ġ2 16
ëĤĺ ë¹Ħ
Ġë¡¯ëį° ìłľê³¼
Ġë¶Ģìłģ íķ©
Ġì¡¸ìĹħ ìĭĿ
ĠëıĦ ìļ¸
ĠìĹ°ë£Į ìłĦì§Ģ
Ġë¶ĢìĤ° ìĿĢíĸī
Ġê´Ģìķħ êµ¬
Ġp ar
íķ´ ìĨĮ
ĠìĨĲ ìĺ¤
Ġìŀ¬ì·¨ ìĹħ
ëıĮ íĮĮ
ĠíĬ¸ ë¡¤
ìķ¼ ìĭľ
ëĤľ ìĿĺ
íĨł ë¯¸
ĠìłĦë§Ŀ ëĮĢ
Ġëı Ķ
ë°© ìĹŃ
Ġê°Ģë¡ľ ìĪĺ
ìŀĶ ì¹ĺ
ĠìĹ¬íĸī ìŀĲ
ëĿ¼ ìļ´ëĵľ
ĠëŃĶ ì§Ģ
ĠìĦ± ì°°
ĠëĤĺ ëŃĩ
Ġëª¨ ìĺĢ
Ĭ ã
r ight
Ġì¹´ ëłĪ
ĠíĻĢ ë¦¬
ħë ±ħ
Ġì²ľìĹ° ê°ĢìĬ¤
ê¿ Ķ
ĠíĻ© íĥľ
ĠëĮĢê´Ģ ëł¹
Ġp t
ĠìĽĲ ìĪŃìĿ´
ĠëĿ¼ ê·¸
ìĨ¡ ê¸Ī
Ġì°© ìķĪ
Ġ13 7
ìĬ¤ ì¹´ìĿ´
ĠìĦľ ëĳĲë¥´
Ġë¶Ī íİľ
ĠìĽĲ ìĻ¸
Ġn i
ĠêµĲíĨµ ë§Ŀ
ìĿ¸ê°Ģ ìļĶ
Ġíķľ ì§Ģ
ì±Ħ ë¬´
Ġìĵ° ìĿ¼
Ġìłķ ìŀĲ
Ġê¹ Ĳ
ĠìĬ¤íħĮ ìĿ´íģ¬
ëĸ ł
Ġìĸĳ ë°ĺ
ĠìĤ´íİ ´ë
ìľł íĺķ
ĠëĳĲ ëĵľë¦¬
íĬľ ë²Ħ
Ġê³ł ìļ´
ëª «
ë¬¸ ëĭ¨
Ġìĺ¤ ë¹Ħ
İ «
ĠìĪĺ ìĿ¸
êµĲê³¼ ìĦľ
ĠìĦŀ ìĿ¸
Ġë°ĺ ë¡ł
Ġì»¬ ë§ģ
Ġëħ¸ëıĻ ë¶Ģ
Ġì²ľ ë¬¸íķĻ
Ġê²¸ ìŀĦ
ìĨĮ íĺķ
Ġë³´ê³ł íļĮ
Ġìĸĳ ìĨĲ
Ġc p
ìĦł ê¶Į
ìĦ±ìŀ¥ ë¥ł
Ġíķĺ ìĿ¸
Ġìłľ ë¹µ
ë¶Ī ê°Ģ
ĠìĦ± ëıĦ
Ġë±Ģ íĮĮìĿ´ìĸ´
ĠìĹī ëļ±
Ġìĭľ ëģĦ
Ġì§ģ ê¸ī
ê°ķ ë³Ģ
Ġ16 8
Ġì¡° ë¯¸
Ġë°ķ ëª¨
ê» į
íģ¬ ëłĪìĿ¸
ĠëĤłì¹´ ë¡ľìļ´
íĻķ ìŀ¥
íĮ¨ ìĿĺ
ĠìĦ¸ ìĭ¬
ĠìĪľ ì²ľìĭľ
Ġíĺķ ë²ķ
ë³¶ ìĿ´
Ġê¹Ģ ìĿ¸
ìĸ´ ìĿĮ
Ġì½Ķ ëĶ©
Ġëŀĺ íį¼
Ġë¬¸ íķŃ
ĠìĦ¸ ë¸Į
ĠâĹĭ âĹĭ
Ġë³ĳ ë¬´
êµ¬ ë¯¸
ĠìķĦíĤ¤ ëĿ¼
Ġìĺ¤ ì§Ģ
íħ Ł
âĸ ¡
Ġì¶Ķê¸° ê²½
Ġìłģ ìĭŃìŀĲ
ëĦ¤ ìĿ´
Ġì»¤ ìĬ¤
Ġë¡Ŀ ë§¨
Ġë°© ìłĲ
ĠëĴ¤ ëį®
Ġ21 00
Ġìļ¸ ìĿĮ
Ġì²Ń ëĤĺëĿ¼
ĠëĤĺ ê°Ħëĭ¤
êµ¬ ìķĪ
ĠìĥĲ ëŁ¬ëĵľ
Ġ.âĸ ¡
Ġìĥģ ë¶Ģ
ëħ ĺ
ìĭľì¼ľ ìĦľ
ĠíļĮ ê²¬
Ġíİ¸ íĸ¥
Ġìĥ¤ ìĺ¤
Ġê³ł ê°ķëıĦ
ĠìľłëĭĪ ì½ĺ
Ġìĭľ ìĻ¸ë²ĦìĬ¤
ĠëĤ´ ë¦°ëĭ¤
Ġíĵ¨ ìłĦ
* *
ĠìŀĲ ì·¨
íķŃ ê³µìĤ¬
ĠìĿ´ì²ł ìļ°
Ġëħ¸ ìĿĦ
x i
Ġìŀ¬ ìĭ¬
Ġë¦¬ë²Ħ íĴĢ
ĠêµĲ ëĭ¨
ìĿĳ ë°©
ìĤ¬ ìĸĳ
ĠìķĦ ì¸ł
ĠíĿ¬ ìĨĮ
ĠìķĪ ì¤ĳ
Ġìŀ¬ ê°ĢëıĻ
ĠíĮ Įì¸ł
Ġë¦¬ ìĸ´
Ġëĳĺ ëłĪ
Ġê¸Ī ì²ľêµ¬
ìĽ ¹
Ġë°ķ ê¸°
ë§ ·
Ġb et
Ġìłľ ë°ĺ
ĠìĬ¤ ëª¨
y g
Ġì§ĢìĹŃ ìĿ¸
Ġê¸ī íĸī
ê°ľ íĺ¸
Ġê³ĦìĹĦ ëł¹
íĬ¹ íĻĶ
ĠíĮ¨ ëĶ©
³ ½
Ġê¹Įëĭ¤ ë¡Ń
ĠìĻĦ ë§Į
Ġê°Ģ íķł
Ġêµ¬ íķľ
ĠìĤ° ëĭ¨
Ġê³ł ìļĶ
Ġc ra
ëł¤ ëĭ¤ê°Ģ
B S
Ġë¬´ ê³ł
ĠìĹĲ ë¦¬
ì§ĢìłĲ ìŀ¥
Ġíķ´ ê³¨
ĠìĻ ¸ì³¤
è ª
ĠìĤ¬ ìĦ¤
Ġì½ľë¡¬ ë¹ĦìķĦ
ì°© ë¥Ļ
ê²° ìĬ¹
ĠìĦŀ ìĹ¬
Ġof f
ìľł ì´Ŀ
íķĺ ìĭľ
ä¸ Ģ
ĠìĥĮëĵľ ìľĦì¹ĺ
ĠìĤ¼ìĦ± ì¹´ëĵľ
ìĻĦ ìłĦ
c tion
Ġ18 5
íĹ ĺìĭ¤
ĠëıĻ ëĳĲ
Ġë¶Īì Įį
ãĥ ¬
ĠìĭĿ ìĿ´
¿ ¨
ĠìĨĮ ëıĻ
ĠìĥĪ ê²¨ì§Ħ
ĠìĽ¨ìĿ´ ë¸Į
Ġìľ¤ ìĥģ
ĠìĤ¬ëĿ¼ ì§Ī
ĠíĹ· ê°Ī
æ Ļ
Ġì²ł íıĲ
Ġê°Ģ ìĹħ
ì½ °
ìº £
Ġë µ
İ ĺ
Ġê°Ĳ ê¸Ī
ëĵľ ëł¤
Ġìĺ¤ ë§Ī
ĠëĬ ª
Ġë¬´íļ¨ íĻĶ
ë³¼ë£¨ ìħĺ
ê°ķ ì¢Į
ĠëıĦ ìĻĶ
Ħì »´
ĠëĵľëŁ¬ ëĤľëĭ¤
ĠìĤ´ ë¦¼
Ġë§Į ìĿ´
íģ´ ëĿ¼
ê¸° ìłģ
Ġíķ´ ì»¤
êµ° ìĿ¸
ĠíĨµ ì¹Ń
Ġì§Ģì§Ģ ë¶Ģì§Ħ
Ġì¹ ¼ëĿ¼
ĠìķĮë¦¬ ë°Ķë°Ķ
ĠìĤ¬ ê°ľ
ĠëĦĺê²¨ ì¡Į
íħĮíģ¬ ëĨĢë¡ľì§Ģ
Ġìĸ´ ìĭľìĬ¤íĬ¸
ĠíķŃê³µ ëª¨íķ¨
ĠìĻĢìĿ´ íĮĮìĿ´
ĠìłĪ ëĭ¨
íĶ¼ ìŀĲ
Ŀ ¥
ĠíĥĢ ìĿ¼
Ġì´Ŀ ì§ĳ
ĠìĽĲ íķ´
Ġìŀ¥ ìĦ¸
Ĩ ã
Ġë²Ī ë§Į
Ġíķ¨ ëĿ½
Ġë¶Ļ ìĺĢ
Ġf o
Ġìŀī ìĹ¬
Ġtae ho
ĠìŀĶ íĺ¹
ê¸° ìĻĢ
ĠìĤ¬ ìĪĺ
Ġëĭ¤ ì¼Ģ
ĠìĤ¬ ì´Į
ìĬ¤ì½Ķ íĬ¸
Ġtaeho onli
Ġtaehoonli mnewsis
Ġë¹Ħ ë°©
Ġãİ ¢
Ġ8 50
Ġìĳ ¥
ĠìĬ¬ ëĿ¼
ĠìĨĮ ê³łê¸°
Ġëĭ¤ ë³Ģ
Ġâĸ ¦
Ġëĸł ëĤľëĭ¤
k l
Ġì½ľëĿ¼ë³´ ëłĪìĿ´ìħĺ
Ġë°ĽìķĦëĵ¤ ìĺĢ
¹ì ·¨
Ġì¡´ ìĨį
Ġë§Į íļĮ
Ġê°¤ ëŁ¬
ĠìĿ¸ ìľĦ
Ġìķ¼ì ¿ł
ĠìĿ¸ ê³¼
ĠìĨĮ ìĤ¬
ĠëĤł ëł¸
ĠìĿ´ ê°ľíĺ¸
Ġëĭ Īì
Ġíıīìĥģ ìĭľ
ł Ļ
ì½Ķ íĶĦ
Ġìĸĳ íıī
ĠëĿ¼ìĿ´ ìĸ¸
ìĺģ ìĽħ
ĠìĤ° ìłģ
ou gh
ìľĦ íģ¬
a se
ĠìĻĦ ìĪĺ
Ġë¹Ħ ìĸ´
Ġë§Įìŀ¥ ìĿ¼ì¹ĺ
íĸī ìŀ¥
ĠíĪ Ń
ĠíĢ Ħì»´
Ġë¡ľ ìĿ´íĦ°
Ġì¢ħ ìŀĲ
Ġíİĺ ë¯¸ëĭĪì¦ĺ
Ġì¶Ķ ìĥģ
ĠìĹ° íĿ¬
ìĹ¬ ê²¨
ìĬ¤íĥĢ ìĿ¸
Ġì´Ī ë¹Ļ
ĠíĿ¬ë§Ŀ ìŀĲ
ê°Ī ë¹Ħ
ĠíķŃ ì²´
ìĭ ¯
ë§Ŀ ìĿ´
Ġìĺ¤ë¥¸ ìĨĲ
ì´Ī êµĲ
æ µ
ìĤ° ì§Ģ
Ġê°Ģ ê¾¸
Ġë³µ ìĪŃìķĦ
Ġë» ¥
å ĳ
ìĸ´ ë¹ĦìĬ¤
Ġë¶Ħ ìĤ¬
Ġìĸ¸ íĸī
Ġpart y
Ġë¸ĶëĿ¼ëĶĶ ë¯¸ë¥´
Ġê°Ģìł¸ ìķ¼
§ ã
ĠíĢ µ
Ġëĭ¨ ê³¨
Ġ2 19
ĠìĦ±ìĭ¤ íŀĪ
ĠíĿĶëĵ¤ ë¦¼
Ġê³¨ ê³łë£¨
ĠìĦĿ ë©´
íķ´ ëĿ¼
ĠìŀĲ êµ¬
Ġë¶ģ ëıĻ
íĽĪ ìĿĺ
Ġìĭľ ì´Ī
Ġë¹Ħ ë¹Ķ
as on
ìĹ° ë°©
ĠíĽĦ íıŃíĴį
ĠëĦ· ì§¸
Ġì°¬ ìĬ¤
Ġíĺ¸ ë¥´ëª¬
ĠìĬ¤ ì³Ĳ
ë³´ê³ł íļĮ
Ġ99 00
ê³µ ì²ľ
Ġìķł ìĻĦ
Ġë°° ë¶Ģ
Ġíģ´ ëłĪ
Ġìļ° ë£¨
ĠíĶ¼ ê²¨
Ġì§Ī ëŁī
x c
ĠìĿĳê¸ī ìĭ¤
Ġê³¼ê±° ìĤ¬
r f
ìľĦ ìķĪ
ê²¹ ìĤ´
ĠìĿµ ìĤ°ìĭľ
ĠëĤ® ì¶ĺ
Ġë§ŀ ì¶ľ
ìŀ¥ ì£¼
ĠìĹ°ìŀ¥ ìĦł
ëŁ´ ëĵľ
ĠìĿ¼ íĴĪ
Ġê¹Ģìĺģ ëĤ¨
ì§ ĸ
Ġìĭľ ëł¨
ĠìĤ¬ ì¹ĺ
ĠíĶĦ ë¡ł
ĠìĭĿ ë³Ħ
ë¶Ģëĭ´ ê¸Ī
Ġë¬´ëįĶ ê¸°
Ġíĺ¸íħĶ ìĭłëĿ¼
Ġë¬¼ëł¤ ë°Ľ
íĭ° ëħ¸
Ġ2 24
Ġw on
ĠíĴĢ ë¬´ìĽĲ
Ġì¹´ìļ´ íĬ¸
Ġì¶ľ íķŃ
Ġì²Ń ëĿ¼
¤ §
Ġë§ĲëłĪìĿ´ ìĭľìķĦ
ìĤ° ë©´
Ġíı¬ íĻĶ
ĠìĿ¸ê¶Į ìľĦ
ĠëĪĪ ìĹ¬ê²¨
Ġë¹Ĺ ë°©ìļ¸
Ġê³µê³µ ìĦ±
ĠíĻĶ ì§Ī
Ġíİĺ ë¦¬
ê³ł ìľĦ
ëłĪ ìĬ¤íĬ¸
ĠìĿ´ íİĻíĬ¸
Ġìŀ¥ íĦ°
Ġì¹ĺ ë¥¸
ìłĦ íĨµ
ìĹĲ ë¡ľ
Ġê¾Ģ íķĺ
Ġ5 30
Ġ4 80
ëĮĢíĳľ ëĭ¨
ĠìĿ¼íļĮ ìĦ±
Ġë©ĭ ì§Ģ
ĠëĤ´ì ħĶëĦĲ
q r
ç ľ
ĠìĦľ ê²½
ĠìĦł êµĲìĤ¬
Ġê¸° ë¬ĺ
ĠìĤ´ ë¦´
ĠìłĪ ìłľ
Ġf f
Ġë°° ìĹŃ
Ġton ight
Ġ14 2
ê¸°ìĪł ìĦ¼íĦ°
Ġíķĺë£¨ ì¹´
Ġë¶Ī íĹĪ
» Ķ
ìĬ¤ íĤ¨
Ġëĭ¹ ê·¼
ë²Ħ ìĦ¯
ìĽĲ ì¹Ļ
ĠíĮ Ł
ê¸° ìĸ´
Ġë§ĪìĿĦ ë²ĦìĬ¤
Ġíıī ë¡łê°Ģ
ĠìĻķ ë¹Ħ
Ġê°ķ ìłĦ
Ġíķ´ ìłĢ
ĠíĿĺ ëł¤
Ġë¬¸ ìĸĳ
ìĿ´ìĬ¤ íĦ°
ìĿ´ ë¦Ħ
Ġë± ī
Ġex p
Ġìĭ¤íļ¨ ìĦ±
ê¸° ìķ¼
o newsis
ļ Ŀ
ìłĪ ê°Ĳ
Ġ15 1
Ġê²° íĪ¬
Ġìķł ìĿ¸
Ġì§Ģ íıī
ĠìĽĲ ëıĻëł¥
Ġm u
te xt
Ġëħ¸ì¡° ìĽĲ
Ġë°± ìŀĳ
Ġë²Ħíħ ¨
ìĿ¸ ëıĦ
íĻĶìŀ¥ íĴĪ
ĠìĹĲëĵľ ìĽĮëĵľ
Ġë¹Ĺ ë¬¼
Ġì§Ħ ìĪĺ
ĠìĹ¬ íĥľ
Ġìĭľ ì¼°
Ġë¦¬ ë³¸
ë© ¤ë²Ħ
Ġp ow
ĠìĿ¸íĦ° ëĤ´ìħĶëĦĲ
Ġê³ł ìĺģ
Ġb ye
Ł ì
ĠìŀĲ ëł¥
Ġê¹Ģ ìļ°
Ġìŀĳ ë¬¼
Ġth ink
ìłĦ ìĨĮ
Ġê·¸ ì³Ĳ
Ġê°ĢíĮĮ ë¥´
ĠíĻĶ ëŀĳ
Ġì½Ķ ëģ¼ë¦¬
Ġë¬¼ëŁ¬ ëĤ¬
ĠìĦ¸ì¢ħ ëĮĢë¡ľ
ĠìĺģìĪĺ ì¦Ŀ
Ġp pl
íĶĦ ìĬ¤
Ġê° Ń
Ġìľ¤ ìĨĮ
Ġ55 00
Ġq r
Ġë¯¸ ëĤĺë¯¸
ĠìķĮëł¤ ì¤Ģëĭ¤
ĠìŀĲìĹ° íĻĺê²½
ìķĻ ìĿĺ
Ġìĺ¤ ìħĺ
ì½Ķ ì¹ĺ
ë¶Ī ìķĪ
ĠìķĦ ëŀ«
Ġìķ Ĺ
ë³´ì¡° ê¸Ī
ìĦ± ìĿ´
ĠíķĦ ìĬ¹
Ġìļ´ìĺģ ë¹Ħ
íĥĦ ìĥĿ
ĠëĩĮì¡¸ ì¤ĳ
Ġìłľ ìĨĮ
Ġëŀ łë¦¬
ĠíĨł ë§ī
Ġê³¨ëª© ê¸¸
Ġex t
ìĹĲ ë¥¸
Ġê±° ëŀĢ
ë¦¬ ëĭ¤
Ġìłķ ìĺĪ
ĠìĪĺ ìĿĢ
ĠìĤ¬ ëĤĺ
Ġì§Ģ ëĤł
Ġ2 23
ĠìĹ° ë¡Ģ
ìŀĲìľł êµ¬ìĹŃ
Ġìĭ¤ ìĨį
Ġíķĺ ê¸ī
Ġì½ĺ ìĨĶ
Ġë¶Ħ íĸ¥
Ġê´ĳ ìķĪ
ì´Į ìĿĺ
Ġíı¬ íģ¬
êµ¬ ë¡ľ
ĠìĬ¤ íĮħ
ì§ĳ ìĿĺ
ĠíĢ ´
ĠíĺĦ ì¡´
Ġë³Ģ ìĿ´
íľ´ ê²Į
ìĹĪ ìĹĪ
Ġìľł ìĭł
ìŀĳ ìłķ
Ġì¦Ŀê±° ìĿ¸
Ġj a
Ġê³ł ë¹Ħ
ĠíĮ¨ ìħĺìĩ¼
ĠìĿ´ ìĻĢ
Ġë©ľ ë¡ł
ĠìķĪ ë§Ī
Ġì¹ľ ìłķ
Ġìľł ì°©
ĠìĦ¤ ìĿ´
Ġë¬´ìĭľ ë¬´ìĭľ
Ġë²ł ìĸ´ìĬ¤
Ġìļ°ì£¼ ìĦł
ĠìĥĿëªħ ì²´
Ġê³¤ ëĳĲ
Ġì»¨ ëĶĶìħĺ
Ġë°© ë¥ĺ
Ġìĭ¤ ê±°
íİĺ ìĬ¤íĬ¸
íĺ¸ íĿ¡
ĠëĿ¼ìĿ´ìĺ¨ ì¦Ī
ĠìĹ¬ ë¯¼
Ġìĸµ ì§Ģ
ìĭ¤ íĺĦ
ĠìĽĲ ë¬¸
íĻķ ë¥ł
Ġìĭľ íķ©
Ġëħ ¹ì·¨
Ġì¿łì ħĺ
Ġc r
ìĺ¤ ëĬĺ
Ġì§ģ ì¢ħ
Ġë§Ī ë¥¸
ëĮĢ ë¶Ģ
Ġ? âĢĻ
ĠìŀĲ ì±ħ
ĠìĹĶ ëĵľ
ìĦ¤ ìĿ´
ìļĶ ìĿĺ
Ġke ep
Ġì½Ķ ëĶĶ
ĠìĬ¤ íķĢ
Ġì¡°ëĭ¬ ì²Ń
Ĭ Ľ
Ġë©´ ëıĦ
Ġëª¸ íĨµ
ìºĲ ìĬ¤íĬ¸
ëħ¸ íĶĦ
Ġêµ´ ìļķ
Ġ13 9
ĠëłĪ ë¯¸
Ġë¶Ħ ê¶Į
Ġëħ¸ ë°Ķ
Ġê²¬ ëĶľ
ë¶Ħ ë°°
Ġq u
Ġìĭł ê³¡
ìłķ ìĪĺ
ĠìĿ´ ìļ°
ìĹĺ ë¹Ħ
ĠëĪĪ ëıĻìŀĲ
ĠìĹĲ íĶ½
ĠìĦľ íģ´
Ġë§ĪìĤ¬ ì§Ģ
ìĭĿ ìĿ´
ë¸Į ìĬ¤
Ġë²Ħ íĭ¸
ìłĢ íķŃ
ìľĦ ì£¼
ì¿ł ìĬ¤
Ġb ig
ĠìºĲ ì¹ĺ
Ġëĭ¹ ë©´
Ġ14 6
ì¶ľ íĮĲ
ë¹Ħ ì¦Ī
ĠêµŃ íĻĶ
Ġë¡¤ ëŁ¬
Ġìĸ´ ë²¤
Ġëĭ¬ ìĿĺ
Ġ19 46
Ġêµ¬ ë¡Ģ
ìĽ ¬
ìĥģ ìĬ¤
ëłĪìĬ¤ íħĮ
Ġëĭ¹ ê³¼
Ġë²Ħ ìĬ¤íĦ°
Ġì´ī ê°ģ
© Ģ
ĠìĽĲìŀĲ ë¡ľ
ìĺĪ ë¹Ħ
ģ ¡
st r
Ġìĺ¤ ëĭ¤
Ġï¼ Ī
Ġì¹ľ ìĪĻ
êµ¬ ìĿ´
ĠëĤ´ ë¡ľ
Ġbre ak
ĠìĿ¼ ì§Ħ
ì·¨ ìķ½
ìĤ¬ ê°ģ
Ġì¡°ìĦł ìĨĮ
Ġd ti
Ġë²Ĺ ìĸ´ëĤł
Ġ15 3
Ġb l
Ġblu e
ĠìĤ¬ìĥģ ìŀĲ
Ġë°ķ íĻį
ë°° ì¶ľ
ĠíĬ¸ëłĪìĿ´ ëĭĿ
í Ĳģ
ĠëıĦ ëĭ¹
íĭ° ìĬĪ
Ġíĥ Ń
ĠìĦ¸ìĽĮ ì§Ħ
ĠìĤ´ìķĦ ìĺ¨
Ġê·¸ëĮ Ħ
è Ń
ĠìķĦ ë¦¬ìķĦ
Ġ2 13
ëŀĺ ìļĶ
Ġì¶ĶëıĦ ìĭĿ
at er
ìĿ¸ íĺķ
ç Ħ
Ġìĩł íĩ´
ì§Ģ ëĤľ
Ġë¦¬ íĥĢ
Â °
Ġpos co
Ġs we
Ġr adi
Ġâĺ İ
ìłģìĭŃìŀĲ ìĤ¬
Ġìĭľ ë¦½
ìľł íĭ¸ë¦¬íĭ°
Ġìŀł ìŀħ
Ġê°Ģ ìľĦ
Ġ15 4
Ġìŀ¡ ìķĦ
ĠíĽĦì¿ł ìĭľë§Ī
h r
ĠíĶĮ ëĿ¼ìĿ´
ĠìķĦ ìĿ¸
Ġëĭ¤ê°Ģ ìĻĶ
Ġë°Ģìĸĳ ìĭľ
ĠíĽĦ ì§Ħ
ĠìŀĩëĶ° ë¥¸
Ġì§Ħ ì£¼ìĭľ
ĠíĶ¼ ëĭīìĬ¤
Ġê¸°ëħĲ ìĿ¼
Ġê³µ ê³¼
Ġìŀĩ ëĭ¨
ĠíĽĶ ì¹ĺ
íĥĢ íİĺ
ĠíĬ¸ ìľĹ
íĺĪ ì¦Ŀ
ê±° ìŀ¥
ĠìĺĪ ë¯¼
ĠëĳĲëĵľëŁ¬ ì¡Į
ëı ķ
Ġíķ´ ë°ľ
Ġê¸Ī ìĥģ
Ġìŀ¥ ìĭł
ĠìĦľ ì§Ģ
Ġë±ħ íģ¬
Ġìĭłëį° ëłĲëĿ¼
ì£¼ë ¨¸ëĭĪ
ĠëĬ¦ ì¶°
ĠìĹĲ ê²Į
ĠëıĻ ìļĶ
f ta
Ġìĭľ íĺ¸
Ġe y
ë¡ľ ìĿ´
Ġìĸ´ ëķĮ
ĠìķĦìī¬ ìĽĮ
Ġëª¸ ë¬´ê²Į
Ġë§Ī ìłĢ
ĠìĦ¤ ëł¹
Ġì¹ĺ ìļ°
ĠìĪľ ì°½
ĠìĹĲ ë°ĺ
ĠìĪĺíĺ¸ ìŀĲ
ĠëĴ¤ì ª½
Ġìŀ¥ íĥĦ
Ġì§ľ ë¦¬
Ġë¬¸ë¬´ ìĿ¼
ĠìĦ¼ íħĢ
ë¯¸ ìĿ¼
Ġâĳ ¢
ëį° ë¥´
íĮĮ ìĬ¤
Ġì¤ĳ ìĦ±
ic a
Ġ25 6
ĠíĿ¬ ë¯¸
ãĤ ¢
Ġì´Ŀ ëıħ
ĠêµŃëĤ´ ìĦł
ĠìĹ¬ ê²¼
Ġë¯¸ ì¿ł
Ġì¡´ ìĬ¨
Ġìļ° ìĿµ
ë¯¸ íĬ¸
Ġê³µ ìķĪ
Ġê°Ħ ìŀ¥
Ġì¤Ħ ê±°ë¦¬
Ġê³ł ë¥¸
ĠíķĻ êµ°
Ġê³µìĭľ ì§Ģê°Ģ
Ġë°ķ ë²Ķ
íİľ ìĬ¤
ĠìĨ¡ ì¶ľ
ìķ¡ ìħĺ
ìĦł ìŀĦ
Ġì½ĺ ìĬ¤íĥĦ
Ġë¶Īê±° ì¡Į
íĤ´ ìĿ´
íĹ¤ ìĿ´
ĠëĮĢ ìĭľ
Ġëŀ¨ íĶĦ
ĠìĦłíĴį ê¸°
ê¸° ìŀ¥
Ġì§Ģ ê·¹
Ġê³¼ ìĸ¸
ĠíĬ¸ë¡ľ íĶ¼
Ġìŀ¬ ì¡°ëªħ
°ì ³Ĳ
ë¸Ķ ë¡Ŀ
Ġë¡¯ëį°ì ¼Ģë¯¸ì¹¼
ĠìĦł ê¸ĢëĿ¼ìĬ¤
ĠìĦľ íı¬íĬ¸
Ġë¡ľê·¸ ìĿ¸
ĠìĨĲ ë°Ķëĭ¥
Ġì²Ń ìĤ¬ì§Ħ
ëĬĲëĥĲ ë©°
b d
Ġì½¤ ë¹Ħ
ĠëıĻëĮĢë¬¸ êµ¬
Ġë§Į ëĬ¥
ĠìľłëŀĮ ìĦł
Ġë¬´ìĦľ ìĽĮ
Ġ14 3
Ġìļ´ ìŀĦ
ig n
ĠìľłëĤľ íŀĪ
Ġsi ze
ĠìļĶ ëıĻ
ĠíĬ¹ ìĤ°ë¬¼
ĠëĤ© ìĦ¸ìŀĲ
Ġì§Ħ ìŀĳ
ìĦĿ ì°¨
ì¶ľ ìŀħ
¥ Ļ
Ġë¹Ħ ê´Ģ
ĠãĢ ĥ
ĠíĺĪìķ¡ íĺķ
Ġëª©ê²© ìŀĲ
ĠìĦ £
Ġë°° ìĿĺ
Ġì¿ µ
ìĬĪ íį¼
Ġë²Įìĸ´ ì§Ī
Ġë¬¸ íĹĮ
Ġìĭ¬ íıĲ
Ġëį¸ íĥĢ
Ġ3 70
ĠíĮĲ ëĭ¤
ĠìĤ¬ ë¦¬
Ġê¸° íĿ¥
Ġìľ¤ ê³½
ìĽĮ íĤ¹
ĠíĶ¼ ì¹ĺ
íĬ¹ ìĦ±
ì²´ìľ¡ íļĮ
ë³¼ íĬ¸
ê¸Ī ìŀĲë¦¬
Ġ26 00
Ġë²Ķ ìļ©
ëª© ìŀ¬
Ġs ing
Ġ~ ~
ë¶Ħ ëªħ
ĠëĮĢ ìľĦ
ë¦¬ ìĸ¸
Ġë¹Į ë¯¸
Ġì¦Ŀ ì¶ķ
Ġìĵ°ëŁ¬ ëľ¨
ê¸° ìĽĲ
ĠëıĮìķĦ ê°Ħëĭ¤
ĠìĨį ìĹ¬
Ġ75 00
ìĬ¤íĬľ ëĶĶìĺ¤
ë¶Ī ë¦¬
Ġë¯¸ ì²ĺ
ĠëĮĢíĺķ ì£¼
ĠëıĦ ê¹¨ë¹Ħ
ĠíĥĦ íĻĺ
ĠëĳĲ ëĩĮ
ĠëıĮ ëł¸
or m
Ġíı¬ ë¥´ì
ĠíĶ½ ìĹħ
Ġìŀ¬ ì§Ī
Ġì²ŃëŁī ë¦¬
âĨ Ĵ
Ġê³¨ëĵľ ë§Į
ĠëıĦ ìŀĲê¸°
ìĺ¤ ëĵľ
ĠëĶ± ëĶ±
Ġë©´ ì¹ĺ
Ġ- .
Ġëį°ìĿ´íĦ° ë²łìĿ´ìĬ¤
ĠìĨ¡ ìłķ
Ġëª¨ ê±´
ĠíĶ¼ íĸĪ
ê¸°ë³¸ ë²ķ
Ġb it
ìĿ¸ ì²ľ
Ġë°Ķ ìļ°
Ġìļ¸ íĶĦ
ĠìĿ´ ë¶Ī
Ġë§Ī ì¹´
Ġd ra
ë²ł íĬ¸
æ ³
Ġl p
ĠíĽĪ íĽĪ
Ġìĥī ìĿ´
ë¬¸íĻĶ ìĺĪìĪł
ê²½ ëł¥
ìĬ¤ ë§ĪíĬ¸
Ġë³Ħ ê´Ģ
ì§Ģ ìĬ¤
ĠëĬĺ ë¦°
Ġì£¼ ìĬ¤
ĠìłĦ ë°ĺê¸°
ìĦľ ìŀ¥
Ġë§Ĳ ë¯¸
Ġìµľ ìĬ¹
Ġ19 49
Ġíķ¸ ëĵ¤
ìŀ £
Ġìľł ë³ĳ
Ġìļ© ìķĶ
ìłĦë¬¸ ìłĲ
Ġë§Ī ìĬ¤ì½ĶíĬ¸
Ġå Ĳ
ìĺ¤ ê°Ģ
ĠëĶ° ìĬ¤
Ġìľł ëª¨
Ġì¹´ ë¦¬ìĬ¤
ĠìĹĶ íĬ¸ë¦¬
Ġ3 13
ìĦ¸ ë¯¸ëĤĺ
ĠíĺĦ ìłĢíŀĪ
Ġ17 8
ĠìĦľ ë¬¸
Ġy ul
z y
Ġì£ Ħì±ħ
íķ´ìł¸ ìĦľ
ĠëĮĢ ì°¨
Ġë¬µ ëħĲ
ĠëĤ´ëł¤ ìĻĢ
ĠìĹŃ ìĤ¼
ëĭĪê¹Į ìļĶ
ĠëıĦ ì¿ł
Ġê·¸ëŀĺìĦľ ìĿ¸ì§Ģ
Ġíķĺ ëĦ¤
Ġë° ľì
Ġì§Ģ ìĦ±
Ġìľł íķĻìĥĿ
Ġëħ¸ëŀĺ ë°©
ĠíķĺëĤ¨ ìĭľ
Ġê¸°ëħĲ ìĤ¬ì§Ħ
ãĥ³ ãĥ
ĠíĥĦ ìĤ°
ĠìĹ°ìĬµ ìĥĿ
ëħ¸ ìĨĮ
Ġìĺ¤ íĥĢ
Ġê¶ģ ìłĦ
Ġì»¤ ì§Ħëĭ¤
íģ´ ëŁ¬ìĬ¤íĦ°
ĠìĹĺë¦¬ìŀĲ ë²łìĬ¤
ìĦł ë°ķ
Ġë²łìĿ´ ì»¤
íĻĶ ë©´
ĠìĿ´ ìĦł
Ġì»¤ ë¦¬
ìºĲ ë¦ŃíĦ°
ĠìĺĪ íĥĢ
ĠìĽĮíģ¬ ëŀĺíĶĦíĬ¸
Ġíļ¨ ìŀĲ
Ġìĭľ ë©ĺíĬ¸
Ġë¶Ģ ê²Ģ
ìĿ¸ ëĵ¤
Ġ0 51
ĠëıĮìķĦ ê°Ħ
Ġë°© ì½ķ
ìĺ¤ ë£¨
ĠìĿ´ ë¶Ħ
ĠëıĻ ìłķ
ĠëıħìĿ¼ ìĸ´
Ġìĭľ íĤ¨
Ġì¹´ì ¸ł
ë¯¸ ìĬ¤íĬ¸
Ġsu n
Ġìľł ì¾Į
Ġê³µ ìĭł
ìĬµ ìĿĺ
ĠíĮĮìĿ´ íĮħ
Ġì´ĪìĿĮ íĮĮ
íķĺ ìŀĦ
ìłķíĨµ ë¶Ģ
Ġë§¨ ì²´ìĬ¤íĦ°
Ġìĵ°ëŁ¬ ëľ¨ë¦¬
Ġì¶Ķ ëıĮ
Ġì§ģê²© íĥĦ
ìĦ¸ ìľ¨
ĠìĹ° ìĸ´
ë¦ ¼ì
ĠìĬ¤ íĢĺìĸ´
Ġì¦Ŀ ê¸°
ĠëĤ¨ íķĻìĥĿ
ëĵĢ ìĬ¤
ê²½ ìĥī
Ġë³´ íĬ¸
Ġê´´ ìĪĺ
ĠìĪł ì§ĳ
ĠìķĮ ìĦł
Ġë³´ ìĤ´
Ġíķµ ê³¼
íķľëį° ëĭ¤
ĠìĦ±íĻ© ë¦¬
ìĽ¨ìĿ´ íķŃê³µ
ë°± ê³¼
Ġìĺ¤ ì£½
ëįĺ ìĬ¤
Ġìĸ´ë¦¬ ìĦĿ
ĠF C
ĠíĬ¹ ê°Ĳ
Ġë§ŀ ë²ĮìĿ´
ëĦ ĺê¸°
k u
Ġìĸ´ê¸ĭ ëĤĺ
ĠëĭŃ ê³łê¸°
Ġin line
Ġêµ¬ë§¤ ìŀĲ
Ġv ol
ìĪĺ ëł´
Ġìĭ¤ ëł¸
Ġê³¼ ì²ľìĭľ
ĠìĿ´ìĥģ ìĿ¼
ĠìĤ¬ ëĤĺìĿ´
ìĭľ íĥĢ
ìĿ´ ë¡ł
ëŀ¨ íĶĦ
ëĤĺ ìĻĶ
íĶĮ ëŁ¬
Ġ15 7
ĠìĿ´ ëıĦ
íĻľ ìķ½
ĠíĴį ìļĶ
Ġë¬¼ ìŀĲ
Ġë¦¬ ë¹ĦìķĦ
ì¡°ìĦł ìĨĮ
Ġê¹Ģíĥľ ìļ°
Ġíĺ¸ íĶĦ
ĠíĭĪ ìĥĪ
Ġíķľ ëª«
Ġìŀ¬ ê²ĢíĨł
ĠëĮĢ ìĻķ
Ġë½ĳ íĺĶ
ĠìĤ¬ìĿ´ ì½Ķ
íĺķ ìĤ¬
Ġì¢ħ ìĸĳ
ìĿ¼ ê°Ģ
į ã
ĠíĥĢ ë¥´
Ġêµ° ë¶ĢëĮĢ
ĠìĿ¼ìĸ´ëĤľ ëĭ¤
Ġê³µ ìĸ¸
Ġì½Ķ ëĤľ
ĠìķĮ ëłīìĬ¤
Ġìĭ¤ì¢ħ ìŀĲ
ĠíĺĦ ìĨ¡
ë³´ ìļ°
ĠíĦ° ì¡Į
ê¸° ëıĻ
ìĺ¤ íĽĦ
ĠíĨł íĥĪ
¼ë ¹Ħ
ĠìĬ¤ ì¦Ī
Ġíĩ´ ì¹ĺ
ĠëĬ¦ ì¶Ķ
íĶĮëłĪìĿ´ ìĬ¤
ìķĦ íĭ°ìķĦ
ìĬ¤íħĮ ìĿ´
Ī Ķ
ĠíķľíĻĶ ê·¸ë£¹
ë¸Į ìĿ´
Ġëħ¼ ìĤ°
ë¶Ħ ëĭ´
ê²½ ê´Ģ
ł ã
Ġìŀħ ê°ģ
ĠíĽĦ ëĵľ
íĿ¥ ë¯¼
ĠëĿ¼ìĿ´ íĶĮ
Ġê¹ĢìĿĢ ê²½
ĠíĮ© íĦ°
ĠíĪ¬ ìĪĻ
Ġìĥ ¬
Ġê¹ĢìĹ° ì²ł
g ic
ì§Ģ ë¦¬
Ġë§Īì ĵ°
ç ¥
ìĿ¸ íķĺ
Ġê²½ë³µ ê¶ģ
ĠìĹ° íļĮ
ĠíĮĮìĿ´ ëĤ¸ìħľ
Ġ7 37
ĠíĮĮ ë©¸
Ġëª© ê±¸ìĿ´
ĠìĦľ ìĺģ
ê²ĮìĿ´ ë¨¸
Ġíĭ° ìĽ¨ìĿ´íķŃê³µ
ĠìķĪ ëĿ½
Ġìķ¼ ìĪĺ
ëłĪìĿ¼ ë¦¬ìķĦ
ìĤ ¿
Ġíķłë¡ľ ìľĪ
Ġíķľ ìŀĶ
Ġë°° ìĸĳ
ĠìĪĺ íķĺ
ĠìĤ´ìķĦ ê°Ī
ë° Ł
êµ¬ ëıĻ
ĠÂ °
ìľĦ ìĦ¸
ĠíĺĪ ì¤ĳ
ĠíĨł íĬ¸
ìŀ¥ íĮĲ
ĠìĤ¬ ìĥĿíĻľ
Ġëį§ë¶Ļ ìĹ¬
Ġm ic
ĠìĿ¸ ì¶ľ
Ġt k
ìĺģ êµŃ
Ġbb q
ĠìĪĺë¹Ħ ìĪĺ
ìŀĲ ìłĦê±°
ãĥ Ń
Ġíķ¸ëĵľ íı°
ĠìĥĿ ìĪĺ
Ġb gf
ĠìĿ´ ê¸ĢìĬ¤
Ġê°ľê·¸ ë§¨
Ġì½Ķ íĮħ
ĠìĤ¬ íĥķ
» Ĳ
Ġìŀ¬ìĤ° ìĦ¸
ë£¨ ìķ¼
Ġíĺ¸ ìĹĲ
ĠìĪĺìĬµ ê¸°ìŀĲ
Ġì²ĺ ëŁ¼
Ġë¶Ģ ìķĪ
ëĤ ļ
ĠìłĦ ìĤ¬ìŀĲ
Ġì°¸ ìĭł
Ġle ft
íĨł ë¦¬ìķĦ
ĠìĪ¨ ìł¸
ĠìĽĲ ëĳĲ
ĠíĹ¤ ëĿ¼
ĠìĤ¬ìĹħ ì²´
íĺ¸ ìļ°
Ġ14 1
Ġë§Į ìĹ¬
ĠìĨĲ íĿ¥ë¯¼
Ġì¢ħ ìĭĿ
Ġradi us
Ġìĭľëĵľ ëĭĪ
ìĨĮ ìĥĿ
Ġë¯¸ ìĪĻ
Ġ.âĢ Ļ
ìĿ¸ ë¨¼
ìŀĲ ë¥´
Ġy g
Ġ19 58
ê°Ģ ìĿ´ëĵľ
Ġl ea
Ġhap py
ĠíĹĪ ëĭĪ
Ġì¤Ħ ì§Ģ
Ġê¸´ ì¶ķ
íĮĲ ê²°
ëĭĪ íĬ¸
ë¹ĦìĦľ ìĭ¤
ĠëĤĺ ê¸°
Ġë¶Ī ë¦´
Ġë§ŀì¶° ìĦľ
ĠíĥĢ ìĦł
ĠìłĢ ë¦¬
Ġìĥ¤ ìĽĮ
ë¯¸ ê°Ģ
Ġì¹ µ
ĠìĬ¹ ìĦł
Ġë¬´ ìĪł
íĤ¤ ë¦¬
Ġ15 6
ëłī íĬ¸
Ġìµľë¬¸ ìĪľ
Ġì¡° ëł¥
Ġëıħ ì£¼
Ġë³´ ìĺ¨
Ġê²½ ì¶ķ
ĠìłĦ ê°Ģ
ĠìĪĻ ìĽĲ
Ġë¯¸ëŀĺ íĺķ
ãĤ ·
ĠëģĿ ëĥĪ
Ġëĥī ë°©
Ġê³ł ì¦Ŀ
Ġë°° ë¦¬
Ġë²Ī ê±°
Ġì¢ħêµĲ ìĿ¸
ĠëĪ Īì
Ġë¸Į ëĿ¼ìĿ´ìĸ¸
Ġê» ´
Ġìĭľíģ¬ ë¦¿
ë§ĪìĿĦ ê¸Īê³ł
Ġìĭľ ìĭĿ
Ġìĸ Ħ
Ġ6 40
Ġë§Į ìĿĦ
Ġìĭľ ëª¬
Ġê¸°ìŀĲ ëĭ¨
Ġ14 7
Ġê±´ì¶ķ ê°Ģ
ĠíĨł ìļĶíĥĢ
Ġì±Ħ êµ´
Ġf da
ĠìĺĪ ìļ°
ĠìĺĪìĪł ìĿ¸
ìłĦìĭľ ê´Ģ
~ !
Ġì¦Ŀê¶Į ê°Ģ
Ġì´Ī ê³Ħ
ë³Ħ ìĿĺ
íĥĢ ê¸°
Ġì¹´ ì¹´
ĠëıĦ ëĵľëĿ¼
á Ĩ
ì£¼ ê±°
ìĥģ íķľ
Ġìľł ë¨¸
ĠìķĪ ë°©
Ġë¬ ¼ê¼¬
ìķĦ ìļ¸
Ġìĺ¥ ìħĺ
íļ ŁìĪĺ
ìķĦ ìĿ¼ëŀľëĵľ
Ġëª¨ ëĶĶ
Ġì¶ľìŀħ êµ¬
Ġj e
Ġë¬¶ ìĹ¬
Ġë¶ģ ìĦľìª½
ìŀħ ëĭĪê¹Į
Ġì´Ŀ ì²´
Ġcn bc
ë§Ī ê·Ģ
ë³´ ëĥĪ
Ġìĸ¸ ëį°ëĵľ
íķĦ íĴĪ
ë¡ľ ìļ¸
ê°ľ ì²Ļ
Ġë¦¬ìĸ¼ íĥĢìŀĦ
Ġê°ľ ëªħ
Ġì¡° ìľ¤
ĠìĤ¬ ë²Ķ
ĠëĦĺ ê¸¸
Ġê´Ģ ë¡Ģ
ĠíĺĦ ê´Ģ
ĠëıħìĿ¼ êµ°
ê°Ħ ë¶Ģ
¤ì ³Ĳ
ì¡Į ìľ¼ëĤĺ
ĠíĥĢ ìĦĿ
ìĿ´ íĥĪ
Ġíķľ ìĨĶ
Ġê·¸ ë¦½
Ġìłľ ìĸ¸
Ġë°ľ ìķĶ
ĠíķľêµŃ ìĤ¬
ĠìĨĲ ìĪĺ
Ġê²½ë¹Ħ ìĽĲ
Ġìłķ íķ´ìł¸
Ġê±´ ê°Ģ
Ġì§ķìĹŃ íĺķ
Ġëĵ¤ ìľ¼ë©°
ãģĹ ãģ¦
ìŀ¥ ëıĦ
ìĦľ ê¸°
Ġë© §
ëĭ´ëĭ¹ ìŀĲ
Ġê±´ ëĦ¨
ëī´ íĥĢìļ´
Ġë°ĶìĿ´ ìĹĲë¥¸
ì¢ħ ê¸Ī
Ġãģ ĵ
ë¬¸ ìŀ¬ìĿ¸
ë°Ģ ëıĦ
Ġê±´ì¡° ê¸°
Ġê°ķë¶ģ êµ¬
Ġë§Ī íķĺ
ĵ ´
ê¸° ëĮĢ
j b
Ġë§ŀ ìŀ¡
Ġï¼ İ
Ġê´ĳ íķĻ
ĠìŀĲ ìĪĺ
æ Ķ
Ġs ha
ĠëĮĢ ìľł
ì²Ń íĥģ
ĠìĬ¤ íĥĪ
ĠìºĲ íĶ¼
ĠêµĲìľ¡ ë¹Ħ
¹ ħ
Ġp ak
ĠëĮĢ ìĬ¹
ëłĪìĿ´ ì¦Ī
Ġ29 0
Ġìľ¡ ì§Ģ
Ġëĭ¨íĸī ë³¸
Ġê·¸ëłĪìĿ´ íĬ¸
ĠëĤĺ ëĤł
Ġê°Ħ ìĦł
ĠìĪĺë¹Ħ ëł¥
ĠìĻ¸êµĲ íĨµ
Ġë§Ī ì§Ģ
ĠìĿ¼ ìĨĲ
Ġìłģ ìŀĸ
ê°Ģ ìļ´ëį°
ìĤ¬ ìļ°ë£¨ìĬ¤
Ġì¶ľë°ľ ìłĲ
ìķĪìłĦ ë§Ŀ
ĠìķĦìĿ´ëŁ¬ ëĭĪ
Ġëħ¸ ëŁī
ë¯¼ ìĽĲ
Ġìĭ¬ ìĭł
Ġì»´ ë°±
Ġìłķ ìĺ¤
Ġë§Ī ì§Ħ
Ġê³µê²© ìĪĺ
ìłľ ì¶ľ
Ġ16 2
Ġìľł ìĭľë¯¼
Ġìķ¼ë§Ī íĨł
Ġq led
íĬ ¿
ìĦ¤ ì£¼
© ľ
Ġíķ©ë³ĳ ì¦Ŀ
Ġíķľ ìĬ¹
ĠíķĻìĥĿ íļĮ
j y
íŀĪ íĨł
Ġë§Īì£¼ ì¹ĺ
Ġë©Ķ ë¦´
ç ļ
ĠíĥĢì ¿ł
Ġê°¯ ë²Į
âĸ ł
Ġë°ľ ìĹ´
Ġa a
ĠìĹ¿ ë³¼
Ġë¬´ ìĬ¬ë¦¼
Ġë²Ī ê°Ī
Ġì´Ŀì§ĳ ê²°
Ġëĭ¤ëĭĪ ìĹĺ
ĠìķĦìĿ´ ìĺ¤
Ġìĭ±íģ¬ íĥ±íģ¬
Ġì¶Ķ ëħĲ
Ġst ay
ìłĢ ìŀ¥
ĠìłĢ ëĦĲ
Ġëĭ¨ ìĹ°
Ġìĥī ì±Ħ
ĠìłĦ ìĨį
ìķĦ íĤ¤
ë¡Ŀ ìĿĺ
ëª¨ ë³ĳìĽĲ
Ġëĭ· ìĥĪ
ĠìŀĲ ìŀĳ
e z
ĠìĥĿ íķĦíĴĪ
ëĮĢë¡ľ íħľ
Ġë©Ī ì¶ľ
ĠìĤ¼ ê²¹ìĤ´
Ġëĭ´ íĮĲ
ĠìĦ¸ ë°Ģ
Ġìĭ¼ íĥĢíİĺ
Ġìŀ¬ íķĻìĥĿ
Ġíķľ ìĭł
ĠëĦĺìĸ´ ê°Ī
ì¸ł íĤ¤
Ġìłĳ íķľ
Ġê°ķ íĥĢ
Ġë·Ķ íİĺ
ĠìĻ¸ ë¡Ń
Ġê¿ ĩ
íĤ¤ íĬ¸
ĠíĪ¬ ì²Ļ
ë° ı
Ġë²ķ ê·ľ
Ġê±´ ëĦ
Ġëª° ëĳĲ
Ġë£¨ ë§ĪëĭĪìķĦ
ìļ° ìĪĺ
ĠìĿ´ ìĦ¸
ê² ¬ìĭ¤
Ġê´ĳ ê²½
Ġêµ¬ ìłĪ
ĠìĬ¹ ëł¤
Ġì°¸ íĮ¨
Ġ' ''
Ġì§ĳíĸī ë¶Ģ
Ġì£¼ ì¤ĳ
Ġ19 5
íĬ¿ ëĤł
Ġë§Ī ìļĶ
Ġs y
Ġë¡ľë§¨ ìĬ¤
ãĤ ĥ
Ġë³´ ê¸ĪìŀĲë¦¬
ê±¸ ë¡ľ
ëĵľ ë¦Ħ
ı ķ
Ġê¸° ê³ł
ç ķ
ĠìķĪ íĨłëĭĪ
ĠìĿ¼ ëª°
ëĿ¼ ëĵľ
ĠìĿ´ íĬ¿ëĤł
ĠìĽĲ ìłĲ
Ġìľł ê¶Į
ëĭ¤ ë¹Ħ
Ġì§Ģ ìļ¸
Ġì§Ħ ìĹ´
Ġë§ŀ ìĦ°
Ġëĭ¤ë£¬ ëĭ¤
ĠíĭĢ ë¦°
Ġc t
Ġ28 00
ĠëıĦ íĶ¼
Ġìµľ ìĦ±
Ġê°Ģ ìĺ¤
ĠìĿĺ ìĦ±
Ġë¦¬ ìĺ¤
! â
e f
ĠëıĻ ë©Ķëĭ¬
Ġìłģë¦½ ê¸Ī
k y
ĠìĨĲ ì§Ī
Ġìŀ¥ ëŀĺ
ĠìĹĦ ì§Ģ
ë³ĳ ìĪĺ
ĠëĶ° ëıĮ
ĠëĤĺ ìĹ´
Ġë³´íĹĺ ìĹħ
ĠìĦ¸ ìļ¸
Ġì¶ľ ë£¨
ë²ł ë¥´íĬ¸
Ġë£¨ íģ¬
Ġëĭ¨ ë°ľ
íĬ¸ ë¦°
ë¹Ħ ìĥģ
ĠìĿ´ íĨł
ìŀĲ íļĮ
ìŀĦê¸Ī ë²ķ
Ġê·¸ ìª½
ĠìĿĢ ìĤ°
Ġì¿ ¼
Ġíľ´ëĮĢ ìļ©
ĠíĻį ìĹŃ
Ġì§ĳ ê²°
ĠëĤĺ ê³łìķ¼
ĠìĦľìĭĿ ì§Ģ
Ġìŀ¬ë°° ì¹ĺ
ìĥģ ê¶Į
Ġë©Ī ì¶ĺ
ìĭľíĤ¨ ëĭ¤ëĬĶ
Ġìķł ì¹Ń
Ġë¨¸ë¦¿ ìĨį
Ġb ad
íģ¬ ë£¨
ì§Ħ ëĭ¤ê³ł
ë¦¬ íĥĢ
Ġë¶Ħ ê²½
ê¸°ìŀĲ ëĭ¨
ìĸĳ íĸī
Ġê°Ģ ê¸Ī
Ġìłľ ë¬¼
ĠìłķìĿĺ ìĦł
m h
ı Ķ
ĠìĨį ìĺ·
Ġë§ī íŀĮ
Ġh ug
Ġíģ¬ë¡ľ ìķĦíĭ°ìķĦ
Ġë¬´ ìĬ¹ë¶Ģ
ĠìŀĦëĮĢ ì°¨
ĠìĪĺ íį¼
¬ ĺ
ë³´ ìĺĢ
ĠìĹŃ ëĤ´
ĠíĬ¸ëłĪìĿ´ ëĦĪ
ĠìĿ´ê±¸ ë¡ľ
ĠìĥĮëĵľ ë°ķìĬ¤
ĠëĤ® ì¶ľ
Ġë³´ëĿ¼ ìĥī
Ġë°ķ ìĿ¸
ĠìĿ´ìĬ¤íĥĢ íķŃê³µ
ìļ° ì§Ģ
ro w
ìļ° ìľł
ìĦľ ìķ¼
Ħì ½Ķ
Ġë´ī íĪ¬
Ġë°Ķëĭ· ë¬¼
ì¹ĺ ì¦Ī
Ġìļ° ëĵľ
Ġê²¸ ë¹Ħ
ģ ã
íĺ¸ íĻĺ
Ġê±° ë£©
Ġìŀ¡ ìķĦëĤ´
ê°Ħ ê²©
as s
ì¹´ íĥĢ
Ġëĳ ł
Ġë§Ŀ íķĺ
Ġìŀł ë³µ
ĠìĨĮë°© ëĮĢìĽĲ
· ì
ĠìĿ¸íĦ° íİĺìĿ´ìĬ¤
Ġëħ¼ ìĪł
å ¯
Ġë¶Ģì¶Ķ ê¸°
Ġíķĺ ë²Ħëĵľ
íĥľ ê·¸
Ġë¸ĶëŀĻ ë°ķìĬ¤
Ġê´´ ë¦¬
íĳ ľìĭ¤
ĠìķĦ ëĭ´
Ġíĺ¸ ë°ķ
ĠíĦ¸ ìĸ´ëĨĵ
ë³¼ ë¦¬
ĠëŃīì ³Ĳ
Ġíģ¬ëĿ¼ ìļ´
Ġìļ° ìĬ¤
Ġê¸°ìĤ¬ ëĭ¨
íİ Į
ìĬ¤ëŁ¬ ìĽĢ
ìĤ° íĴĪ
ë§Ī íĤ¹
Ġì§Ģíķĺ ìĪĺ
ĠìķĪ ìŀ¥
ĠìĥĿë¬¼ íķĻ
Ġp m
ì¡° íļĮ
Ġê¶ģê¸Ī ì¦Ŀ
Ġë©Ķ ìĭľ
ëį Ł
ar y
Ġs pa
ĠíļĮ ìĭĿ
ĠíĮ ¡
Ġê³ Ħì
ĠíĺĦ ëĮĢë¡ľíħľ
Ġê°Ģ ëĿ½
ĠíĶ¼ íģ¬
Ġ9 99
ìĦł ëĮĢ
Ġê³ł ì¸µ
Ġíĺ¸ ìĭľ
Ġìµľìłģ íĻĶ
ĠìĿĮìķħ ê°Ģ
ĠíķŃ ìĥĿìłľ
ĠìĿĮ ëł¥
Ġ V
ĠíĥĢ ë§Ī
ĠëĤ ±
Ġkor ea
ëĬĲ ëĭĺ
Ġíĥľ ìĥĿ
Ġë²Ħëł¤ ì§Ħ
Ġê¹ĢíĺĦ ì¢ħ
ĠìĿ´ íķĻ
an ge
Ġíģ¬ ë¡¬
ĠìĨĮì ĭ¤
ë³´ ê¶Ĳ
Ġëĭ¤ëĭĮ ëĭ¤
ì§Ģíķĺ ì²ł
ĠìĹĲìĿ´ì¹ĺ ìĹĺë¹Ħ
íĮĮíĬ¸ ëĦĪ
ĠíķĦ ìĤ¬
ĠíĮ¨ ìłĦ
Ġëªħ ìĤ¬
Ġíŀĺ ì°¨
Ġëĭ¤ ëĵ¬
Ġê¸°ë³¸ ê¸ī
Ġë°ĺì§Ŀ ìĿ´
ê° ĵ
ãģ ¿
ĠíĻĺ íķĺ
ëıĭ ìĽĢ
Ġìłľ ëķĮ
ĠìŀĶ ì¹ĺ
ìĨĮ íĻĺ
Ġm ind
ë²Ħ ìĬ¤íĦ°
ìĸ´ ëĥĪ
Ġìłķ ìļ´
ĠìĿ´íĿ¬ íĺ¸
íĻĶ ì§Ī
Ġìķ¡ íĻĶ
Ġì§Ħ ê²©
Ġìłķ ë°ĺëĮĢ
ë°ľ ëłĪ
Ġa kb
è Ģ
Īìĩ¼ íķĳ
ĠìĦł êµĲ
Ġíı¬ íĥĦ
Ġë¯¸ìĬ¤íĦ° ë¦¬
Ġì§ķ íĽĦ
Ġë¸Ķ ë¡ľ
Ġì¼Ģ ë¹Ī
ìķĦìļ¸ ëłĽ
ê¸° ë²ķ
Ġìĥ¤ ë¥¼
Ġë¦ Ń
z a
ê³łìľĦ ê¸ī
ĠêµŃ ë³´
íİ Ħ
ĠìĽĶ ìĿĢ
ĠìĿ´ êµŃ
Ġê¹¨ìĸ´ ëĤĺ
ĠìķĦ ì§Ģ
ë§Ī ì§Ħ
Ġíķĺ ìĬ¤
Ġk i
ĠëĶĶ ëłīíĦ°
Ġìĭł ìĥģíĴĪ
ĠìĦł ë¹Ħ
Ġëª¨ ë°ľ
ìĭĿ ìĪĺ
Ķì »·
Ġëħ¸ ê³ł
íĪ¬ìŀĲ ì¦Ŀê¶Į
ĠìķĦë¦Ħëĭ¤ìĽĢ ìĿĦ
ì¤Ģ íĺ¸
Ġ16 3
ìĤ¬ê´Ģ íķĻêµĲ
ë¶Ģ ìĤ¬
Ġíĥľ ìļ´
Ġíĩ´ íĸī
Ġë¦¬ ì¦Ī
ëĶĶì »¬
Ġ19 54
íĶĦ ëłĮì¦Ī
ĠíĽĦ ìĿ¼
ìĨ Įì´Ŀ
ìĬ¹ ìŀ¥
Ġìĺ¨ ìĹ´
ë°ĶìĿ´ ìłĢ
ĠíĮĶ ëł¤
ĠìĬµ ì§Ģ
Ġë¦¬ ìļ©
Ġíķ´ ë¦¬ìĬ¤
Ġë¬´ ê³µ
Ġ20 2
Ġì ģĺ
Ġë¬´ì ĭ¤
Ġê³¨ ìłĪ
ĠëłĪìĿ´ ë¸Ķ
ĠìĭĿ íĥģ
ĠìĦ± íĥĦ
Ġë¯¸ ë¡ľ
ê¸°ê´Ģ ìŀ¥
ëĳ ĺê¸°
Ġíĺ¸ ì°Į
Ġë°ĿíĺĢ ìķ¼
Ġf ate
ĠíĨ¡íĨ¡ íŀĪ
Ġíľ ´ë¨¼
Ġìį¬ ëįĶ
Ġìľł ìĪĺ
Ġê³ł íĴĪì§Ī
ĠìĺĪë »Ĳ
ĠëĳĲ ë¶Ģ
Ġm iss
Ġ19 56
ë§¹ ìłĲ
Ġíķĺ ëĬĲëĭĺ
ĠìĥĿê²¨ ëĤĺ
¼ë ²Ħ
Ġìļ´ìĨ¡ ìŀ¥
Ġë§ī ì§Ģ
ì´Į ëıĻ
Ġíıī íĺķ
ĠìĿ¼ ì¡±
Ġë¬´ê¸° íķľ
Ġf in
ìĹ° ìĨĮ
ĠìĿĺìĤ¬ ìĨĮíĨµ
Ġë§Ŀ ìĽĲ
ìĭľ ë©ĺíĬ¸
íĶĦëłĪ ëĵľ
ĠìĬ¤ ìľĻ
ĠìĽĶ ê²½
ĠíĴį ê¸°
ì» ¤ë®¤ëĭĪ
ĠëĦĺìĸ´ ìĦ¤
ĠìĿ´ ë¥Ļ
íķ´ ëĭ¹
Ġê³µê³ł íŀĪ
Ġíĺ¼ ìĦł
Ĺ ½
ëıĦ ëĭ¤
Ġë°Ģ íģ¬
Ġê²Ģ ëĭ¨
Ġë°ľ ëıĭìĽĢ
íķ´ ìĦ±
ĠêµĲ ë¦¬
Ġìŀ¬ ìķĻ
Ġ10 30
ìķĮ íĮĮ
Ġìĸ´ ìĦ¤
ĠëıĻë§¹ êµŃ
ìĸ´ ë¨¸ëĭĪ
Ġf m
ĠíĹ ¨
Ġì´ ĺ
ê°Ģ ìĿĦ
Ġë³´ìĥģ ê¸Ī
Ġíģ¬ ëĿ¼ìĿ´
Ġãħ £
íĬ¸ ë¥¨
Ġë² ħ
Ġë³¸ ìŀĳ
Ġêµ¬ ìķł
êµĲìĦŃ ëĭ¨ì²´
Ġk db
Ġì´Ī ëĿ¼
ĠíĺĦ ë¬¼
ĠíĺĪ ëĭ¹
Ġê¸ī íŀĪ
Ġ19 44
é Ļ
ë§¤ ëĭĪ
Ġêµ° ì²Ń
ĠìĨĲìĺ¤ ê³µ
Ġ19 2
n f
Ġ19 59
Ġíģ´ ëłĮ
ìļ° ê°Ģ
ĠìĦ¸ê³Ħ ìľłìĤ°
Ġl it
Ġëªħìĭ¤ ìĥģë¶Ģ
Ġê°ľ íķŃ
ĠìĿ¸ íķ´ìĦľ
ĠíĽĦ ë¬¸
ĠíİĢ ëĶ©
ĠìĬ¤íĥĢìĿ¼ ë§ģ
ìĭł ìķ½
ëĥ ħ
Ġï¼ ī
ĠìĦ¤ëĵĿ ëł¥
Ġê²¬ ì§Ģ
ĠìłĦ ìŀħ
Ġìĭ¤ ê¸°
ĠëĤ¨ëħĢ ëħ¸ìĨĮ
ĠìĿ¼ íķľ
ìĦłê±° êµ¬
ìĸ¼ ë¦¬
Ġíİĺ íĬ¸
Ł Ń
ì¶ľ ìĭł
ĠìĹ´ ìĤ¬
ĠëıĻ ê±°
Ġìłķ ìŁģ
Ġëĭ¤ ìłķ
ìłķ ìĤ°
Ġì§Ħ ì²Ļ
ĠíĶ¼ ëĵľ
ê´Ģ ìĤ¬
íĶĦ íĦ°
ìĹ° ê²°
Ĭ ľ
Ġìĺ®ê²¨ ì¡Į
Ġë³Ģ ìĨįê¸°
æ ´
ĠìĪĺëıĦ ê¶Į
Ġëĭī ëĦ¤ìŀĦ
Ġìĸ´ìļ° ëŁ¬ìł¸
e S
ĠíĦ° ì§Ħ
Ġìķķêµ¬ ìłķ
Ġëĭ¤ê°Ģ ìĺ¬
Ġê³µ ë²ķ
ĠìĦ¬ ê¸°
Ġëª¨ ìķĦìĦľ
ĠíĬ¸ëłĮ ëĶĶ
ĠìłĢ ë³Ģ
ĠìĪĺ ìŀĲìĽĲ
ì¸¡ ê·¼
ĠìķĦ ê»´
ĠìĬ¤íĬ¸ë¦¬ ë°į
h n
ĠêµĲíĸ¥ ê³¡
ê²½ ë¡ľ
Ľ ħ
Ġfor e
Ġë¶Ģ ìĹĲ
Ġìĥģ ê³Ħ
Ġìŀ¬ ëŁī
ĠêµŃ ì§Ģ
ĠëĮĢìŀ¥ ìķĶ
ĠìĿ´ ì¶ĺ
Ġê¹ĢíķĻ ìĿĺ
Ġë° ĺì
íıī ë¡łê°Ģ
Ġë¶Ħ íĻĶ
ë³¸ ìłĲ
ë³ĳ ìļ°
Ġì¹¨ ì°©
Ġêµ´ ë¦¬
ìĹ° ê·¹
Ġìŀ¬ ìĪĺ
Ġìŀ¥ ëĭ´
êµ¬ ìĦĿ
ĠìĿĺ ë³ĳ
ê¶¤ ëıĦ
Ġì°¨ ê°ĳ
ìĬ¤ íİĺìĿ´ìĬ¤
ëįĺ ëį°
Ġì·¨ìŀĦ ìĤ¬
íĵ °
Ġëĵľ ëłĪ
Ġë°Ģìĸ´ ë¶ĻìĿ´
ëıĦ ì§ĢìĤ¬
Ġìľ ¼ë
ìĿ¼ ê°Ħ
ë©Ķ ìĬ¤
Ġì§Ģë°° ëł¥
Ġë°ľìłĦ ê¸°
ĠëĦ¥ ìĬ¤íĬ¸
ì° ľ
ãĤ ı
ë³¸ ìĿ¸
ë§ ¡
ĠíĶĦë¡ľ ê²ĮìĿ´ë¨¸
ë£¨ ê°Ģ
Ġìŀ¥ íķĻìĥĿ
Ġc all
ìĿĺ ë¯¸
ê°Ĳ ëıĦ
ĠíĮ¨ ê¶Į
Ġì½ °
Ġë¬¸ìłķ ìĿ¸
ĠìķĦ ëŀĺì
Ġb i
Ġë¶Ģ ìĽĲìŀ¥
Ġê¹Ģìļ© ê·ł
Ġë°ķ íĥľ
Ġ5 40
ëĮĢ ëıĦ
ĠìĨĮë¹Ħ ìŀ¬
ìĪĺ ìķĦ
ìĹŃ ìĦ¸ê¶Į
le s
Ġì¦Ŀ ìŀĲ
ì±Ħ ìĿĺ
ê³ł ê°ľ
ĠëĳĲ ëłµ
Ġë¶Īì ¾Į
Ġê·¸ëŀĺ ìķ¼
g y
ëĿ¼ ë¯¸
Ġìĺ¬ ë¦¼
Ġê²¸ ì§ģ
Ġê¹Ģ ê·ľ
íĻ Īìĩ¼íķĳ
Ġë¬¸ ìĿ¸
Ġë²Ķ ì£¼
íĨµ ìĪĺ
Ġê´Ģë¦¬ ë¹Ħ
Ġ65 00
ì¹´ ê°Ģ
Ġê°Ģ ëĭ¥
ìĽĲ ìĤ¬
Ġë¸Ķë£¨ íĪ¬ìĬ¤
ì¹´ ë¯¸
Ġh an
ëŀĳ ì¹´
Ġìĸµ ìķķ
Ġíķĺ ë¶Ģ
ĠëĤ´ ìĭł
Ġi oc
² ³
Ġì¡° ì°¬
ê¸° ì¡°
ĠìĬ¤ ë©°
ì¡° íķŃ
Ġb at
ĠìĿ´ ê·ľ
ìĭ¬ ìŀ¥
Ġëĭ¹ëĭ¹ íŀĪ
ìĹ¬ ìĿĺ
ĠìľĦ ë°°
Ġìľł ë¡Ģ
Ġê³¡ ë¬¼
ĠìĽĲë¦¬ ê¸Ī
p j
Ġê³µìĤ° ì£¼ìĿĺ
Ġìķ¼ ìĤ°
ĠëĬĲê»´ ì§Ħëĭ¤
ĠìĦ¸ ë¯¸
Ġë²Ħ íĦ°
ĠìĥģíĻ© ëıĦ
íĥĲ ìłķ
Ġëĭ´ ìĸĳ
íĿ Ļ
ìĦľ ìĽĲ
Ġì½ ķ
ĠìĤ¬ ì§Ģ
ì¿ ¤
ĠìľĦ ìª½
ç ´
Ġìĺ¤ìĬ¤íĬ¸ ëłĪìĿ¼ë¦¬ìķĦ
Ġíķĺ ìĿ´ëĵľ
Ġë©ĭ ëĮĢë¡ľ
ĠìĭľíĿ¥ ìĭľ
Ġì°¸ ëĭ´
Ġì´Ī ë¡ľ
ìĦľ ë¡ľ
Ġìĥģ ë¥ĺ
Ġë³¸ê²© íĻĶ
Ġê°ķ êµŃ
Ġìķ¼ì ±Ħ
ìĿ¼ ìŀĲ
ĠíĮĲ ì´ī
ĠìłĦ ë§¤
ĠìĪĺ ë³Ģ
Ġë¯¸ ìĿ¸
Ġê¸° ë³´
Ġìķ Ķì»·
ĠëĶ° ìĻĶ
ĠìĿ´ íıī
ë¶ Ĳ
Ġ17 4
Ġìķķ ë¥ĺ
ĠìķĦ ëĶĶ
ì§ĢëıĦ ë¶Ģ
Ĥ Ĭ
ì£¼ë ¹Ħ
Ġi co
Ġì²¨ ë¶Ģ
Ġê°Ĳ ìĤ°
Ġê¸ī ê¸°ìķ¼
è ¿
ê¸¸ ëŀĺ
Ġìĸ´ëĳ ¡
Ġë²¤ì¹ĺ ë§ĪíĤ¹
ëĤ µ
Ġê±¸ ëŁ¬
ĠìļĶ ë¯¸
Ġc ry
Ġa u
Ġ.âĸ ³
v ing
ë¯¸ ëĵľ
ĠìĿ´ ë©´
Ġê² ¬ë
íĦ° ì¹ĺ
ëłģ ìĿ´
Ġì¡° ëĮĢ
Ġìľ¤ìĨĮ íķĺ
Ġì½ ©ì¿łë¥´
Ġë©Ķ ìĿ´ì§Ģ
ë¹Ħ ì¦ĪëĭĪìĬ¤
Ġíı¬ë¥´ì īĲ
Ġì¶ľ ëĭ¹
ë§Ī ë¹Ħ
ìĦ¼ ìĦľ
Ġíķĺë£¨ íķĺë£¨
Ġë¶Ħëĭ´ ê¸Ī
Ġê³µ íĹĪ
Ġëĵ¤ ëŁ¬
Ġê²½ìĺģ ìŀĲ
Ġìłķê´Ģ ìļ©
Ġê³łêµ¬ ë§Ī
Ġê°ķ ë¯¼
ĠìĤ° ê°Ħ
Ġn d
ëįĶ ëĿ¼ë©´
ĠíĹ¬ ë©§
¬ì ©į
Ġê³ł ìķĦ
ĠìĪĺ ìĦľ
Ġë³ĳ ê³¼
ĠíĦ° ì§Ī
Ġ4 30
ê³ ¼ë¬¸
Ġì§ĳ ìĤ¬
Ġë³µ ë¶Ģ
Ġê±´ ëĵľë¦¬
Ġìĸ´ ê¸°
ĠíĿ¬ë§Ŀ íĩ´ì§ģ
Ġka ist
ìĭľ ëĵľ
ë³´ ì¡´
Ġì§ĳì¤ĳ íĺ¸ìļ°
Ġê³µ êµĲ
ĠìĬ¤íİ ł
ëĭ¤ ìĺ¤
Ġë²ł íĨł
ë³´ê±´ ìĨĮ
ĠìĿ´ ëĤ¨
ëį° ëłĪ
ĠëıĻ ê¸°ê°Ħ
Ġë°© íĻ©
Ġìł ĵ
Ġìĭł ìłĢ
ìĪĺ ìĨ¡
ëªħ ìĨĮ
Ġã Ħ´
a newsis
Ġíİĺ ìĿ¸íĬ¸
ìĦľ ìłĦ
ĠìĦ±ìłģ íĳľ
Ġ4 70
Ġìĥģ íģ¼
ĠìĽĲ ìĸ´
Ġì¶© ê³ł
Ġê²Į ë¥´
Ġwh ere
ëĵ¤ ëª©
ì°½ ìĹħìŀĲ
íĹ¤ ëĵľ
Ġë£¨ íĶ¼
Ġì´Ī ìĿ¸
Ġu nd
ìķµ ì»¤
ë§¤ ë¬¼
Ġíĩ´ì§ģ ê¸Ī
ĠìľĦ ê°Ģ
ê³ ¶
ìĺ¤ ë¦Ħ
ci al
ĠêµĲ ëŀĢ
Ġg c
Ġp h
Ġê¸°ëĤ´ ìĭĿ
ìĤ´ ìĿ¸
Ġê³ł íĴĪ
ĠìĬ¤ ì¦ĪíĤ¤
ĠìĽĲ ê³¡
Ġë³µ ë¦¬
Ġêµ° ë¶Ģ
Ġ14 9
Ġì°¨ìŀħ ê¸Ī
Ġê·Ģ ì¤ĳ
ì§Ģ ì§Ī
íĭĢ ë¦¬
Ġë²Ī ë³µ
Ġë³Ģ ì§Ī
ĠíĿĲ ëł¤
ĠíĬ¸ìľĪ ìĬ¤
ĠìĮĢ ìĮĢ
ĠëĮĢ ìĹŃ
ìĤ¬ìĹħ ìĨĮ
Ġë¥´ëĦ¤ ìĥģìĬ¤
Ġì¦Ŀ ìĭĿ
ĠìĤ° íĻĶ
íģ¬ ë¡ľìĬ¤
Ġë²ķ ìĿĺ
Ġëįķ ìĪĺ
Ġê³¡ ìĦ±
ì²Ń ê¸°
Ġch r
ĠìĪĺ ìĹ¼
Ġìĺ¬ëĿ¼ ìĦ°
ĠìĹ¬ê°Ŀ ê¸°
ĠëĳĲëĵ¤ ê²¨
íĭ°ì ½ĺ
Ġì»´ íį¼ëĭĪ
ĠëĤĺìĦł ëĭ¤ê³ł
ĠìĬ¤ ë¯¸
Ġëıħ ìĪĺë¦¬
Ġìĺ¤ ìĿ¸
Ġíĥľ ì¢ħ
Ġì²ł ê¶Į
Ġì¡° ìĪĺ
Ġì²ľ ë§ī
Ġìľł íĻĶ
ĠìĨĮë°© ì°¨
Ġì¦Ŀ ë°ľ
Ġë§¤ ê¸°
ĠìĬ¤íı¬ ìĿ¼ëŁ¬
Ġ19 55
ĠìĨĮ íļĮ
ëį° ê¸°
ãĤ Ń
ĠâĶ ģ
Ġìļ° ë¦´
ìĤ¬ìĿ´ ìĸ¸ìĬ¤
ìĻĶ ìľ¼ë©°
ìĤ¬ ê³¼
ĠíĦ°ëľ¨ ë¦¬
Ġì Ń
ĠìĤ¬ìĹħ ê°Ģ
íĬ¸ ëłĪìĿ¸
Ġê³ł íĺķ
ĠíĹ ¥
íĬ¸ ìĿ¸
Ġa v
Ġìĺ¨ íĨµ
Ġ15 8
ĠëıĦ ìĤ°
ĠìĦ± ìķħ
Ġìķ ¼ë
æ Ľ
ĠìĦľ ê°ķëĮĢ
Ġ71 30
ĠíĶĦ ëŀ
Ġìĭ± íģ¬ë¡ľ
ĠìĦ± ëĮĢ
íĮ¨ ëŁ´ë¦¼íĶ½
Ġë°ĺì ª½
Ġì¹´ë¦¬ìĬ¤ ë§Ī
Ġë°¥ ìĥģ
ë§Ī ëł¨
Ġíķ´ ì¤Ģ
ĠëįĶ ëŁ½
mm er
Ġì§Ħ ê³µ
ë°Ķ ëĿ¼ê¸°
ĠìĿ¸ì²ľ ê³µíķŃê³µìĤ¬
Ġë¹ ħë±ħ
y p
ĠìŀĲ ìĦł
Ġìĭł ìĿ¼
Ġëĵ± êµĲ
Ġì»¤ìĬ¤ íħĢ
Ġê´ Ħ
ĠìĻĦë²½ íŀĪ
ĠìķĪìĥģ ìĪĺ
Ġê°Ģ ëĳĲ
ĠìĤ¼ ìłķ
ĠëĤ´ ë²Ħëł¤
ĠêµĲ ë¶Ģ
ĠìĿ¸ ê³Ħ
Ġê³ł ìķĪ
ŀ ´
íļį ê´Ģ
Ġê°ľ ê°ģ
ĠëıĮìĹ° ë³ĢìĿ´
ì£¼ìĭĿ íļĮìĤ¬
íĭ° ë¹Ħ
Ġìĺ¤ ëįĶ
Ġìķħ ë§ĪìĿĺ
Ġë°¤ íķĺëĬĺ
Ġë°ĺ ì¶ľ
ì¹´ íĬ¸
er o
Ġëħ¹ ìĹ¬
Ġm on
ìĦľ ë¦¬
ĠíĶĮëĿ¼ ìŀĲ
ĠìĬµ ëıĦ
f n
ĠìĿ´ìŀ¬ ê°ĳ
Ġì²ĺ ëħĢ
Ġíĥľ íıī
ĠíĶĦë¦° ìĦ¸ìĬ¤
Ġêµµ ì§ģ
ĠëĦĺìĸ´ ì§Ģ
Ġb ro
Ġp i
ìļ ĺ
Ġâĺħ âĺħâĺħ
Ġ20 3
ëłĪìĬ¤íħĮ ë¡¤
Ġê±° íĸī
Ġì§Ī ìĨĮ
ĠìķĦë¬´ íĬ¼
ĠëĤľ ìĤ¬
Ġë²ķ ë¦¬
ëĮ Ķ
ìĹŃ íķł
ĠìĬ¤íĥĢ ìĽĮì¦Ī
Ġì§ģ ê´Ģ
Ġë¬¼ ëĵ¤
Ġê³µ ìĭ¤
Ġë§¤ ëĵŃ
Ġk di
Ġìĺ¬ ëłĪ
ĠìĨĮ ë³Ģ
Ġj sa
ìłķ ìĿĢ
ì¡° ê¸°
Ġì¤Ģ ê²°ìĬ¹
íĸ¥ ìĥģ
n ing
Ġíĩ´ ê°ģ
Ġå¤ §
ëįĶ ìľĦ
ĠíĮĲ ë¡Ģ
Ġê°ķ ë¬¼
Ġ7 20
é ĥ
ĠìĬ¬ íĶĦ
Ġëĭ¤ ì³¤
Ġ16 7
Ġë¶Ī ë¬¸
ìĪĺ ëĿ¼
ìĿĮìķħ íļĮ
æ ĥ
ĠìĦľ ìŀ¬
ĠëĤĺ ëĵ¤ëª©
ì½Ķ ë¦¬
Ġê´ĳëªħ ìĭľ
ëłĲ ë£¨ìķ¼
Ġppl jsnewsis
ĠìŁ ģì
Ġì¡° íıŃ
Ġê·¸ëł¤ ìł¸
Ġëĭ¤ìĬ¤ ë¦¬
Ġíģ¬ ëłĪìĿ´
Ġì§Ħ ìĦłë¯¸
Ġìĸ´ ë²Ħ
Ġ4 10
Ġì¹ĺ ì¤ĳ
Ġë¹ħ íĨłë¦¬ìķĦ
Ġë³´ ë£¨
ë°Ķ íĬ¸
ê³¨ ëĵľ
ĠìĦ± ë²½
ìĸĳ ìĪĺìĤ°
ĠìĤ° íĥĦ
ìłĲ íı¬
ĠìķĦ íĻī
ĠìĤ¬ ê³¼ë¬¸
wa ys
ë¶Ī íĺ¸
Ġty pe
ë¬´ íĺķ
Ġb hc
¿ Ī
Ġìĸ»ìĸ´ ë§ŀ
Ġë¶Ī íĻĶ
ĠëĮĢ ëıĦ
Ġë°° ì§Ģ
Ġëĥī ë©´
ìĪĺ ìĨĮ
Ġíĺ¸ ë¶Īíĺ¸
ĠìĿĺ ê³¼
ë³´ ìľ¡
Ġìĭ¤ ìĦ¸
ìŀĲ ë©°
Ġì²¨ ìĺĪ
ë´ī íĪ¬
Ġìĸ¼ë £©
Ġê³ł ìĤ°
ĠìĨĮ íĮĮ
ìĿ¸ ì²Ļ
° Į
Ġp le
íı ĲìĿĺ
íĮ¨ ëĶ©
ëıĻ íĺ¸
Ġê°Ģì¹ĺ ê´Ģ
Ġ15 9
ĠìĻĢ ì¹´
ĠìĦ¸ ëĩĮ
ĠëĤ¨ ê·¹
ìĭł ëĭ¤
ë°° ì¶Ķ
Ġíį¼ë ¸Ķ
Ġì¤ĳìķĻ ìķĦìĭľìķĦ
ĠìŀĲ íĸī
Ġt bs
Ġë¯¸ ìĭľ
åŃ Ĳ
ëŃ Ĳ
ĠìĤ¼ì²Ļ ìĭľ
Ġë²Ĺ ê²¨
ĠëĤĺ ìķĦì§Ģ
Ġìĥī ìĨĮ
Ġê¶Į ìĺģì§Ħ
ĠíĻĺìĺģ ìĤ¬
Ġëĭ¹ ì§ģ
ĠëĤ´ ëª°
Ġê¸°ìĪł ìŀĲ
ĠíĹ¬ ë¡ľ
ĠëıĦ ë°°
Ġë½Ĳ ëĤ´
íĬ¸ ëłĪìĿ´
íķ į
Ġêµ¬ ìĽĮ
ç ī
ë¯¼ ìĨį
Ġê¹Ģ ëĤ¨
ì¹´ì ¸ł
ê²½ ëĮĢ
Ġíİ¸ ì°¬
Ġêº¼ ë¦¬
l lo
Ġì¦Ŀê°ķ íĺĦìĭ¤
ê»ĺ ëģ¼
Ġìĭľ íĮĲ
Ġê²° ìłĦ
Ġê°Ĳ ê³ł
ë§¤ ìŀħ
ĠìłĦ ë¦½
Ġëľ¬ê¸Ī ìĹĨìĿ´
Ġf ree
Ġëľ °
Ġgr adi
ì§Ģ ë¶Ħ
Ġìľł ìĨĮëħĦ
Ġë¬ĺ íķĺ
ë³´íĹĺ ìĿĺ
Ġìĸ´ë¦° ìķĦìĿ´
Ġå¤ ĸ
ì¹´ ë¥¼
Ġì±Ļ ê²¼
Īì ±ħ
ë°ľ íĸī
ĠìĤ¬ ì¹Ń
Ġë§Ĳ ìĿĺ
Ġê³¼ê°Ĳ íŀĪ
ìĿĦ ê±°ë¦¬
ĠìĿ´ ìĬ¤íĬ¸
Ġë©Ķ ìĦ¸
Ġê¸° ë§Į
ìĵ° ëłĪê¸°
Ġëª¨ëį¸ ë§ģ
å º
Ġe a
Ġ16 4
ĠíĥĢìĿ´ íĥĦ
Ġëªħ ëĤĺëĿ¼
íĮĮ ëĿ¼
Ġìŀ¥ ìĽĲ
ë§Į ëĵ¤
Ġìłľ ë§ī
Ġëĵ± ëĮĢ
Ġr ap
Ġëĭ¹ íĹĮ
ĠìĪĺìĪĺ ê»ĺëģ¼
ĠëĦ¤ íĬ¸
íŀ Ļ
a ge
Ġë³¸ ëĬ¥
Ġëħ¸ ëŀĳ
Ġìŀĳ ìľĦ
ĠìĦ± ìĦľ
Ġìłķ íķł
ë¶ĢëıĻìĤ° ìĦ¸
Ġê²ĮìĿ´ ë¨¸
Ġê²¸ ìĨĲ
Ġê°ķëĤ¨ ìĹŃ
Ġë¦¬ ìĦ¤ì£¼
ì¶ľ ìŀ¥
ĠíĮĮ ëŀĳ
Ġs ol
ĠíĽĦ ìŀĲ
ìĭľ ëĦ¤ë§Ī
om c
ĠìľĦ ìĹĦ
Ġëĵ¤ëł¤ ì£¼
Ġëªħ ì§Ģ
ìľ¼ ìħ¨
Ġìłķ ëªħ
ëľ ©
ĠëĮĢìĿĳ ì±ħ
Ġë§ŀ ë¨¹
Ġê³µ ìĿ´
ëĥĲ ë©´
Ġwh ite
Ġì²ľ ë¬¸
Ġê°Ģ íıī
Ġë¬´ ì£¼
ĠëĤľ ê´Ģ
ĠìĿ´ìŀ¬ ìłķ
ĠìµľìłĢ ê°Ģ
Ġëª©íı¬ ìĭľ
ĠëĪĦë¦¬ ê¾¼
Ġêµ° ìłķ
Ġima ge
Ġë°± ìĹħ
Ġìŀ¥ ëĭ¨
ì¤ĳìĨĮ ê¸°ìĹħ
ĠëĮĢ ìĦ¤
ìĤ¬ ìłĪëĭ¨
ĠìłĢ ìĪł
Ġì¹ľ íķĺ
ĠìĨĮ ê³µëıĻ
Ġìĥģ ìĿ´
ĠëĿĦ ìĽĮ
Ġì¢ħíķ© ë¶ĢëıĻìĤ°ìĦ¸
êµŃ ë©´
ĠíĶĦë¡ľê·¸ëŀĺ ë°į
Ġë¬¼ë¦¬ ì¹ĺ
Ġë°© ìĭ¬
Ġc hi
ê¼ Ń
ĠìľĦ íĥľ
Ġìľłë§Ŀ ì£¼
Ġë¬´ ê±°
Ġëª¨ìĿĢ ëĭ¤
ìĹĲ ìĬ¤íĭ°
Ġì´Īë¡Ŀ ìĥī
Ġbe au
ì£¼ ê³¡
ìķĦ ëĭĮ
Ġê°ĳìŀĳ ìĬ¤ëŁ¬ìļ´
Ġr ain
ì²ŃìĨĮ ê¸°
ľ ´
ĠìĮĵ ìķĺ
¿ ¼
ëĮĢ ëĮĢ
Ġëłī ìĦľìĬ¤
ĠëĤĻ ìĿ¸
Ġë²łíĨł ë²¤
Ġêµ¬ ìŀĲ
Ġfi re
ĠíĥĢ ì§Ģ
Ġë¯¸ ìłķ
ëĵľ ê°Ģ
Ġìĺ¨ ìłĦ
ti ful
ë°ĶìĿ´ ë²Į
Ġì¢Įì ¸¡
Ġ16 6
Ġìĥģ ìļ©ì°¨
Ġï ¿
ìĦł êµĲ
Ġ20 24
Ġê³ł ëĨįëıĦ
ĠìĿ´ê±´ íĿ¬
ë¿ ľ
Ġì¶ľ ìłĲ
Ġgradi ent
é Ĭ
ĠìĤ¬íļĮ ê´Ģ
ĥ ĺ
Ġê¿ °
Ġìŀħ íŀĮ
Ġë§Į ëħĦ
Ġíĺ¸ ëŁ¬
ĠíĥĲ ìłķ
Ġë°ķë²Ķ ê³Ħ
Ġgo d
Ġë³ĳ íķ©
Ġíı¬ ì§Ħ
Ġë§ŀ ëĭ¿
ĠëĿ¼ ë²¨
ĠìĺĪê³ł íİ¸
íĳ¸ ë¥´íĬ¸
Ġìļ´ìłĦ ê¸°ìĤ¬
ìĤ¬ ìĿ´ë²Ħ
ë°± ìĭł
Ń ê·Ħ
Ġì§Ģ íĶĦ
Ġê³ł ìķķ
ĠëĤľ ë¦¬
ĠíĻķìŀ¥ íĮ©
ëłĮ ëĵľ
ĠìĹĦ ìĦł
êµĲ ìĽĲ
Ġì§Ģ ìĿĮ
Ġëĸł ëıĮ
Ġê°Ģë¥´ ì¹¨
ê°Ħ ëĭ¤ëĬĶ
ê´Ģ ìłľ
Ġê¶ģ ì¤ĳ
ëª© ë¡Ŀ
êµĲì°¨ ë¡ľ
ĠìĿ´ ëĭĪ
Ġê±°ìłľ ìĭľ
ĠìĪĺ ìĸµ
Ġ17 3
ĠÂ ©
ê³Ħ ë§Ŀ
Ġë°° ìĹ´
ĠëĤ´ êµŃìĿ¸
ëıĮ ë´Ħ
Ġê³µ ë§¤
ĠìĦ¹ ìĭľ
Ġê·¼ë ł¥
Ķ Ī
Ġì´ī ë§¤
ĠìķĮëłīìĤ° ëįĶ
ëª¨ ë¹Į
ħ ¹
Ġíķľ ë¯¼
ĠëĴ¤ ëıĮ
ìºł íİĺìĿ¸
ì´ ĺ
ĠíıĲ ìĤ¬
Ġì§ Īì±ħ
ê³ł ìĸĳìĿ´
Ġìĭľ íĤ¬
ĠëĲĺëıĮ ëł¤
Ġíıī íĸĪ
ĠìĪĺ ì»·
Ġì°¬ ìĨ¡
Ġ4 40
Ġë°ľ ê°ģ
Ġê²½ìĥģ ëıĦ
Ġê²½ ëıĻ
ëŁ¬ ìĭľ
Ĺ ì
ĠíıŃê²© ê¸°
ãĥ ŀ
Ġê¸°ìĪł ìĿ¸
ë°Ķ ìĭľ
ìĥģ ëĮĢ
l b
ŀ İ
ĠìłĢ ìĦ±ìŀ¥
ĠëķĮ ë¡ł
ë¡ľ ë¡ľ
ë°Ķ ìļ´ëĵľ
ĠìĨĲìŀ¡ ìĿ´
Ġë³Ħ ì¹Ń
íĶĮëŀĺ ëĭĽ
ì¼ĢìĿ´ ë¸Ķ
Ġs cc
Ġìĸ´ ê·¸
ĠìĤ¬ ìķ¼
Ġë²ł ëĵľ
ë§¤ ê¸°
Ġp la
Ġìĭľ íĻ©
ĠíĬķ ê²¨
ĠëĮĢì¶ľ ê¸Ī
ëłĪ ìķĦ
Ġ18 2
ì¸ł ì¹´
Ġíľ´ ìłĦ
Ġë¬¼ë¦¬ íķĻ
ë©ĶìĿ´ ì»¤
Ġë§Ī ì¹´ìĺ¤
ìĺģ ìĭĿ
Ġíĥľ ì¡°
ĠëıĻ ìĿĮ
Ġ16 9
ĠìĬ¤ ë¬´
Ġíĺ¸ êµŃ
Ġê³ł ë¸Ķë¦°
ëıĻ ëŁī
Ġëłī ìĬ¤
ĠíķľíĻĶ íĪ¬ìŀĲì¦Ŀê¶Į
Ġbe st
êµ¬ ëĭ¨
Ġë³´ ë¥´
Ġê³µ íıī
ë± ī
Ġìłķ ë°ķ
Ġë¯¼ ìĺģ
Ġë°ķìļ© ì§Ħ
Ġpow er
ìĤ¬ ëĥ¥
å ĭ
ìĸ¸ íĬ¸
a o
Ġìļ° ë°ľ
Ġf omc
Ġì³Ĳ ëĭ¤ë³´
Ġìĭ¤ ë£¨
ëĤļ ìĭľ
Ġê¹Ģ ë¯¸
į ¹
ìĭľ ê³µ
êµŃ ê³¼
Ġê¸° ëł¥
ĠëıĦ íĻĶ
Ġíķ Ńì
ĠìķĦ ìĬ¬
ĠìķĦ ê¼Ī
Ġì±Ħ ìļ´
Ġì¤Ģ íķĺ
Ġê¹Ģ ì²ł
ë³Ģ ìĨįê¸°
ĠëıĻë¬¼ ìĽĲ
Ġìŀ¡ ìĿĮ
ĠìĹł ë¸Ķ
Ġëª¨ íħĶ
ĠìĬ¤ ëĤĺìĿ´
ĠíķŃì Łģ
ĠìķĦíħĮ ëĦ¤
ĠìķĮ ë¦°
ĠìķĦ ë¡ľ
Ġìĭł íķĺ
Ġ=" -
ìĹ° ì£¼
ë§Ī ëĿ¼
Ġì£Ħì±ħ ê°Ĳ
Ġë°ĺê¸° ë¬¸
ĠìķĶìĤ´ ìŀĲ
ë¦¬ ìĦľì¹ĺ
ĠëıĦ ìĥī
Ġ27 00
Ġê³ł ëħ¸
ĠìºĲ ë¦¬ìĸ´
Ġì´ĺ ì´ĺ
íĳľ ê°Ģ
Ġì²Ļ ìĿĺ
Ġìŀħ ì¶ľ
Ġg ra
ìķł ëĤĺ
Ġìĭľ ë°Ķ
ë¶ģ ìŀĲ
Ġëĺ ĺ
Ġëħ¸ ë¸Ķ
Ġíĸ¥ ìĿ´
Ġìĸĳ ì§Ģ
Ġê³µ ê´Ģ
ìŀ¥ ìĭ¤
Ġìĭłê²½ ìłĦ
w j
Ġíį¼ ìĦ¼íĬ¸
ĠíĮĲ ê¶Į
Ġìŀ¥íĥĦ ìĪĺ
ĠìĿ´ë¦¬ ìłĢë¦¬
» į
ĠíĮĶ ëĿ¼
ĠëıĮ ë°ľ
ĠìĿ¼ ë¡Ģ
Ġìıł ë¦¼
Ġì°½ ê°Ħ
Ġëªħ ìĭ¬
ĠìļĶ ê°Ģ
ĠìĤ´ íı¬
Ġì¦ī ìĤ¬
Ġê½ĥ ëĭ¤ë°ľ
ç µ
ĠìĬ¤íĥĢ ë¦¬ê·¸
ĠíļĮëĭ´ ìŀ¥
ê¹Ģ ìĹĨìĿ´
ĠëįĶ ìļ´
Ġì¹´ íĨ¡
Ġë°ķ íķ´
Ġíľĺ ëĳĺ
ìĺģ ì²ł
ĠíŀĪë¡ľ ìĭľë§Ī
Ġê²Ģ ìĹŃ
ìĺ¨ ëĿ¼ìĿ¸
íķ´ êµ°
ĠëĨĢ ëŀĢ
¶ ĺ
Ġê¸Ī ìĦ±
ë¯¸ ëĦ¤
Ġì½ĶìĬ¤ íĬ¬
ĠëĳĲëĵľ ëŁ¬ì§Ģ
Ġìĭ¸ ìļ´
ĠëģĮëł¤ ê°Ģ
Ġ18 3
ë´ ħëĭĪëĭ¤
ħ Ł
Ġê³¼ ê²©
Ġë§Ī ëĭĲëĿ¼
ĠìĦł ìĿ´
Ġê¸° ì¹¨
ìŀ¬ íĺĦ
íħĮ ëĿ¼
ĠìĦł ë´ī
íĶĮ ëłĪ
íķĺ íĬ¸
Ġì¸ Ħ
Ġo s
ì²ľ ë©´
ĠìľłëĮĢ ìĿ¸
Ġìº £
ĠëĤĺìĻĢ ìķ¼
ìĦľ ìĸĳ
Ġê·¸ íĨłë¡Ŀ
Ġíģ¬ë¦¬ìĬ¤ íĭ°
Ġì²ľ ì²´
Ġë§Ī ë¥´íģ¬
Ġê´Ģ ì§ģ
ĠìĬ¤ ëª°
ĠìĤ¬ê³Ħ ìłĪ
ìķħ ê¸°
Ġë¶Ī ìĥģ
ĠìĿĺ ìķ½
Ġê°ĳìŀĳ ìĬ¤ëŁ½
ĠìĹ¬ê²¨ ì§Ħëĭ¤
Ġê´ĳ ìłĢìļ°
ĠìĹī ë§Ŀ
ĠëĨĴ ìĿ¸ëĭ¤
Ġ17 7
ĠìĿ´ ë§Į
íķĻ ëħĦ
Ġì± Ĺ
Ġíķ¨ ìĦ±
Ġì¹´ êµ¬
ìĿ´ ëĭ¤
ve l
Ġì§Ģ ë§Į
ĠëĤ¨ìķĦ íĶĦë¦¬ì¹´
ì¡°ì§ģ ë²ķ
êµŃ ìĦ¸
Ġëļ ±
ĠìĽĶ ìĦ±
Ġëĭ¹ íķľëĭ¤
Ġë¶ĢëģĦ ëŁ½
Ġê±° ìĬ¬ëŁ¬
Ġh t
Ġ20 40
Ġ17 2
Ġëį© ìĸ´ë¦¬
ĠëĶ Ľ
ìŀĦ ìĽĲ
Ġë¶ Ħìĭ¤
ìĺģ ìĤ¬
ë¸Į ë¡ľ
ĠìĤ¬ë¬´ êµŃ
Ġê³Ħ ìĪĺ
ĠìĦ¤ ìķħìĤ°
ìŀĳ ê³¼
ĠíĿ© ìĸ´ìł¸
íĪ¬ ìķĦ
¿ µ
Ġë³Ħ ë¹Ľ
ëŀ Ĺ
Ġê¹Ģ ìĨĮ
Ġë°ķ íĺĦ
ìĦľ ìłĲ
ë¯¼ë ĮĢ
Ġ% âĢ¦
Ġì§ĢëĤľ ë²Ī
Ġë°Ģìĸ´ ëĤ´
Ġ á
Ġê¸¸ ëŁ¬
Ġal ways
ëĭ¤ ëĭĮ
ĠìĺĪ íĥģ
Ġë°Ķ ì§Ŀ
Ġë§Īíģ¬ ë¡±
ìłľ ê±°
ĠìĹ £
ĠëĤľ ê°Ĳ
ê°ķ ìĦ¸
Ġíİ¼ì³Ĳ ì¡Į
Ġë²ķ ìĤ¬
Ġë¬´ìĭ¤ ìłĲ
ĠëħĦ ê²½
íķĻìĥĿ íļĮ
ĠëĬ¥ ê°Ģ
ìĥģ ëıĦ
ìĭł íĻĶ
ĠìĪĺ íķ´
Ġì¤ĳìķĻ ìĿ¼ë³´
Ġì¢ħ ê·¼
Ġt ri
Ġìħ §
ĠìĪľ ìłķ
ĠíļĮ ë¶Ģ
ĳ ã
ĠíĨµ íĴį
Ġê·¸ ëŀĢ
Ġíį¼ ë¶Ģ
Ġe mp
Ġbeau tiful
Ġë¦¬ ëĶ©
Ġë§¤ ëĵľ
ëĨį ìĤ°ë¬¼
ĠíĨł ìļĶ
Ġê¼´ ì°Į
Ġìĸ´ ë¯¼
Ġìĺģ ìłĳ
Ġëĭ¤ëħĢ ìĺ¨
Ġë°ķ ìŀĲ
ĠíĻĶ ìĤ¬
Ġëĭ¤ ì³Ĳ
Ġë°° ìĽĢ
Ġë°ĺ ìŀ¥
ĠíĺĦëĮĢ íĻĪìĩ¼íķĳ
Ġëĭ ´ë±ĥ
ĠìłĦë³ĳ íĹĮ
ë²Ħ ëł¤ìĦľ
Ġê´ĢìłĪ ìĹ¼
ĠëĮĢíĳľ ìŀĳ
è ī
ĠìĬ¤íĬ¸ëĿ¼ìĿ´ ì»¤
íĶĦ ëŀĳ
ing s
Ġìĸ´ ë¨¸
Ġ20 5
Ġna ver
ì¹ĺ ìĽł
ë§Īë ĥ¥
Ġìŀ¬ëĬ¥ ê¸°ë¶Ģ
Ġv oc
ĠíĻĶ ìĿĺ
Ġf re
íķĦ ë¦Ħ
ĠìĽĶ ì´Ī
Ġë¶Ģ ìĤ¬ê´Ģ
Ġì¿ł ìĽ¨ìĿ´íĬ¸
ìĿ¸ ëĵľ
ĠìĤ´ ëł¸
ĠëĤ´ ë±ī
Ġê³µ ìłĦ
ĠìĿ´ ë£©
ĠìĪĺ ìĭĿ
ĠíĬ¸ ë¦Ń
íħĮìĿ´ ë¸Ķ
ë¯¼ ìĦĿ
Ġìł ¬
Ġìķ¨ ëŁ°
Ġs er
± Ģ
Ġìĸ´ìĿ´ ìĹĨ
ĠìĬ¤ ì¼ĢìĿ´íĮħ
ĠìĤ¼ ê°Ģ
Ġì§ķ ë²Į
¦ ĭ
Ġì¤ĳëŀĳ êµ¬
ĠìĿ¼ ìĸ´
ì ¸°
Ġë°© ìĪĺ
Ġëį© ëĭ¬
ĠíĶĮ ëŁ¬ê·¸
íľ´ê²Į ìĨĮ
ĠìĥĿ ê¹Ģ
ëĭ¨ ê¸°
Ġê¹Ģ íĺ¸
Ġnh k
Ġì§ĳì¤ĳ ëł¥
am p
Ġìłľ ê°ģ
Ġêµ¬ ìŀ¥
¼ ¬
Ġíķłë¦¬ ìļ°ëĵľ
Ġë¬ĺ ìĨĮ
ĠíķŃìķĶ ìłľ
Ġì°¬ ë°ĶëŀĮ
ëĤ´ ìŀ¥
Ġìĸ´ë²Ħ ìĿ´
Ġëª° ìŀħ
Ġìłĳ ìłĦ
ĠìĦľ ì²ľ
Ġìłķ ê°Ģ
ĠìľĦ ê¶Į
ê³łìĨį ëıĦ
ìĭ¤ ë¡ľ
Ġë¡ľ ìļ°
ĠìĿ´ ë²łìĿ´
Ġë°ĺëĮĢ íĮĮ
Ġê¸°ìŀĲ ìŀ¬
Ġì°¨ ëĤ¨
ìłķ ë¥ĺìŀ¥
ĠëģĮìĸ´ìĺ¬ ëł¸
Ġë³Ģ ëª¨
Ġâĸ ¶
Ġ16 1
ë§Į ì°¬
ĠìĿ¸ ìĬ¤
Ġê²¬ë İĮ
" .
ë²łìĿ´ ê±°ìĬ¤
íĽĦë³´ ìŀĲ
g k
ĠëĵľëĿ¼ìĿ´ ë¹Ļ
ìĺ¤ íĶĪ
Ġìĸ ¼ëĿ¼ìĿ´ìĸ¸ìĬ¤
Ġì¶ľìŀħ ë¬¸
ĠìĿ¸ìłľ êµ°
ĠìĬ¤ ë¦´
ĠíĤ¬ ë¡ľ
ì°½ ìŀĳ
Ġì°¨ ìĿ´ëĤĺ
Ġë´Ĳ ìļĶ
ĠìĿ¸ ì¹Ń
Ġëĭ¤ ì¹ľ
ĸ Ģ
ĠëįĶ ìĥµ
ĠìĽĶ ìĿ´
Ġíķ´ íĥľ
Ġì²Ń ìĨ¡
ĠìĹĺ ëłĪ
Ġëª° ì¹´
ĠëĪĪë¶Ģ ìĭł
ĠìĪĻ ì²Ń
Ġìĸ´ íļį
ĠìĹ¼ ìĨĮ
ìĭ¤ ë¬´
¦ Ļ
Ġê¸°ë¡Ŀ ë¬¼
Ġìį¨ ëıĦ
Ġë¸ĶëŀĻ íĻĢ
ëĮĢíĳľ ë¶Ģ
Ġíķĺìĸ Ĺ
Ġì¤ĳ ì§ķê³Ħ
Ġo cg
Ġíķ« ëĿ¼ìĿ¸
Ġê°ľ ëıĦ
ĠëĴ· ë©´
ĠìĬĪíį¼ ë§¨
Ġë¹Ħ ëĳĺê¸°
ì¤ĳ ë°ĺ
Ġìķ¼ ìłĦ
Ġìŀ¥ ë³¸ìĿ¸
íķĺ ëĿ½
Ġë¯¼ë ²ķ
ĠìłĦìĽĶ ìĦ¸
Ġì²ľìłķ ë°°
ê³µ ìĤ°
ë¬ »
Ġë§Ī ëĭĪìķĦ
ĠìĿ´ìłľ ìķ¼
ľì Ķ¨
Ġê·¸ëŀĳ íĶĦë¦¬
Ġì¶ľ ìĤ¬
ĠêµĲ ìĭľ
Ġìĺ¤ ëĶĶ
Ġ19 47
Ġë³´ ìļ°
Ġst ation
Ġ19 41
Ġë°Ģ ëĿ¼ëħ¸
Ġìī´ ëĵľ
Ġë§Ī ìĦ¸ìļĶ
ĠìĮ Ī
Ġì¹µ íħĮìĿ¼
ìķ¼ ìłķ
Ġëĵľ ë¡ľ
Ġëģ¼ ì¹ľ
Ġê³ł ì·¨
Ġê¹Į ìĿ´
ĠëıĦëĵľëĿ¼ ì§Ģ
Ġë°ĺ ê°Ĵ
Ġ19 52
ë¹Ħ ìĹĶëĤłëłĪ
ĠëĤĻ ìĹ½
íķ©ì°½ ëĭ¨
ĠìłľëĦ¤ ë°Ķ
Ġp u
ëıĦ êµ¬
ĠëıĦ ìļĶíĥĢ
Ġìŀ¬ ìĹ°
ì£¼ë ĮĢ
ĠíĶĦ ëłĪìĿ´
Ġìļķ ìĭ¤
ì§ ļ
ĠëıĦ êµĲ
ĠìķĦ ìķĦ
ìĿ´ìĿĺ ìĸ´
Ġscc ho
Ġsccho onewsis
ĠëĿ¼ìĬ¤ ë²łìĿ´ê±°ìĬ¤
ĠìĦ¤ ìłĦ
ĠìľĪ íĦ°
ê¸° ëıħêµĲ
ic al
Ġì¹¼ ìĬĺ
ìĿĺ ë¥ĺ
Ġw jr
ìĨĮ ìľĦìĽĲíļĮ
Ġêµ° íķ¨
Ġwjr newsis
ĠìĿ¸ ë§¥
íĻĶ íķ©
ĠìķĦëĤ Į
ì§Ī ìĪĺë¡Ŀ
ĠëĿ¼ ìĬ¤íĬ¸
Ġë¬´ëĦĪ ì¡Į
Ġë§¤ ëª°
ĠìĭĿ ëĭ¨
Ġëĭ¬ë¦¬ ê¸°
ĠìļĶì½Ķ íķĺë§Ī
ìķĦ íĶĦë¦¬ì¹´
Ġê¹Ģíĥľ íĺ¸
ĠìĹ° ìłķ
Ġ17 6
ĠìĦ¤ ëĤł
ĠíĮĶ ë¦°
Ġ18 9
Ġìłĳ ê²¬ìĭ¤
ĠìĻĢìĿ´ ë²Ī
ĠëıĻ ì¢ħ
Ġìľł ê³ł
Ġíķĺ ê°ķ
¿ Ģ
Ġm ang
ìĿ´ ìĺ¤
ìĿ´ ìĭĿ
Ġê²° ìĤ¬
ĠìłĪ ì¹ľ
Ġblu es
íĻĺ ìľ¨
h k
Ġ19 39
Ġì¡°ì§Ģ ìķĦ
Ġíį¼ íİĻíĬ¸
Ġìĭ¤ë£¨ ìĹ£
Ġê±° ì¹¨
Ġê°Ģ ëĦ¤
ìĿ´ì¹ĺ ë¡ľ
ìĻķ íĽĦ
ĠìĤ¬ ìķħ
Ġëª¨ íĥľ
ĠíħĲ íĬ¸
ĠìĨĮ ëł¹
ĠìķĦìļ¸ ëłĽ
Ġìłķ ìļ©
ãģĭ ãĤī
Ġë´ī íķ©
ĠìľĦ ëĵľ
Ġì¡¸ ìĿĮ
ĠìĿ¸ì²ľ íķŃ
Ġì²ĺ íĸĪ
ĠëĭĪ íĬ¸
ë°Ķ íĤ¤ìķĦ
ĠíĥĿ íĸĪ
ìħ ¸
Ġs rt
or d
ĠëĮĢ ëŀĢ
Ġë¶Ī ë¶Ħëªħ
Ġìķħ ìĪľíĻĺ
Ġì°¨ ìļ©
ĠìĪĺíĸī ìĽĲ
Ġì£¼ ìķĪ
Ġëĵľ ë¦½ëĭĪëĭ¤
Ġl d
ĠëıĮìķĦ ìĺ¨ëĭ¤
Ġë§Į ìĹ°
Ġì¶Ķ ìĽĶ
Ġë»Ķ íķĺ
Ġíĭ° ìłĢ
u v
Ġìĸĳ ìłķ
Ġë¸Į ëłĪìĿ¸
Ġë§Ī ëª¨
Ġì¦Ŀ ê°Ĳ
ìĿ´ ê°Ģ
ìĥģ ê¸Ī
Ġìľł ë¯¸
Ġì§Ģ ë¶Ģ
Ġê°Ĳ ìķ¡
ĠìĨį ë³´
íĿ¬ ê²½
ë¡ľ ëĭ¤
Ġìļ© ìłģ
Ġë¯¼ ê²½
ĠìĤ° ìĿĢ
ĠíŀĪ ë©Ķ
Ġíı¬ íĥĪ
ìĨĲ ë³´
ĠëģĬìŀĦ ìĹĨ
Ġëªħë°± íŀĪ
ĠìĭĿ ìĪĺ
Ġê³ł ì¡¸
ĠìĽĲ ëĭ¨
ĠíĥĿ íķĺ
Ġêµ¬ íĸĪ
Ġíķľ ê»ı
Ġìķķ ìĬ¹
ĠìķĮëłīìĤ° ëĵľ
ĠìķĦ ëĤł
ëĭ¨ ìłĪ
å Ĭ
ĠëģĿ ìĹĨìĿ´
ĠìľĪ ëĵľ
Ġê°ķ ìĪĺ
ë²ł ëĵľ
Ġê³łëł¤ ìĿ¸
íĤ¤ ì¦Ī
ìĬ¤ëŁ¬ ìĽł
ĠìĿ¸ íı¬
ìľł ë°ľ
ë¶Ģ ê³¼
Ġì¡°ê³Ħ ì¢ħ
Ġì¶© ìłĦê¸°
ìĹŃ íķĻ
ë¹Ħ ëī´
Ġì´Īìĥģ íĻĶ
Ġë¬¸ ìĺĪ
p f
ĠìĹ´ ë³ĳ
Ġìķł ìļ©
Ġê¹Ģìĺģ ìļ°
ê³ ģ
ĠìļĶêµ¬ ìĤ¬íķŃ
ãģ£ ãģŁ
ĠìĬ¤íĥĪ ë¦°
ê°Ī ìĿ´
ĠíĹ¬ ë¦¬
ĠìĥģìĦ¸ íŀĪ
Ġìĺģìĸĳ ìĨĮ
Ġíĥľ ìķĦ
ĠìĹ´ íĺĪ
ĠíıŃ íı¬
Ġëĭ¤ ì¡Į
Ġì¡° ìĬ¹
Ġå ı
ìļķ ìĿĺ
ìĦ± ëª¨ë³ĳìĽĲ
ë¯¸ ìķ½
ìĪ ´
ĠíĶĦëŀĳíģ¬ íĳ¸ë¥´íĬ¸
Ġp v
Ġyul net
Ġyulnet photonewsis
Ġëħ¸ ìĺģë¯¼
ĠìĽ ¨ìĸ´
Ġìļ° ìĹ¬
ĠìĹĦ ìĹ°íŀĪ
Ġë²½ ë©´
Ġê±´ëĦ ¸
Ġ19 42
ìľ¼ ë¦¬ëĿ¼
ë¨¸ íĭ°
K B
Ġì½ĺ íħĮìĬ¤íĬ¸
ë¹Ħ ë¡ľ
ìļ´ëıĻ ê°Ģ
Ġë§Ŀ ìĥģ
Ġ17 1
Ġê¸° ìķķ
íĥĦ ëĳĲ
Ġì¦Ĳê±° ìĽĮ
ë¦¬ íŀĪ
ĠìķĪ ëĭ¤ê³ł
ìķĦ ì¹ĺ
Ġëĭ¹ ëĤĺëĿ¼
r b
it ion
Ġë§ ı
mb er
ìĺģ ìłľ
ĠìľĦ ìķĶ
¶ ©
íĨł ìĭľ
Ġì§Ģ íĤ¨
Ġìĺ¤ë¸Į ìłĿíĬ¸
ĠìĿ´ íķľ
Ġìµľìĥģ ê¸ī
Ġê°ĸì¶° ìķ¼
ĠìĹ°ê¸° ê¸Ī
ĠëıĻìĿĮ ìĿ´ìĿĺìĸ´
Ġë¬¸ ë²ķ
Ġê°ľë§ī ìłĦ
ĠìŀĲ ì¹Ń
ĠíĤ¤ ìĽĢ
ĠëĨį ê¸°ê³Ħ
Ġë¶Ī ëł¤
Ġl tv
ĠíĶĦë¡ľ ìĦ¸ìĦľ
Ġë§¤ íĭ°ìĬ¤
ë°° ê¸°
Ġì¶ľêµ¬ ì¡°ìĤ¬
ê³¡ ìłĪ
ĠëĶĶ ìĭľ
Ġëĵľ ëł¸
ĠíĶ¼ëĵľ ë°±
Ġìľł ìĬ¤
ë³´ ìĤ¬
ĠìĦľ ë³ĳìĪĺ
Ġì²´ ë¶Ī
© Ĳ
ìĤ¬ ë²Ķ
ë¦¬ ì¸ł
ĠìĦ¸ ê´Ģ
Ġëħ¹ ì°¨
ĠìĿĢ ìĿĢ
ĠìĦ¤ë¦½ ìŀĲ
Ġì°½ìĹħ ì£¼
ê´Ģê´ĳ ê°Ŀ
Ġê°ľ ìĹ°
ĠìĹ° ê³¨
ĠíĺĦëĮĢ ìĿ¸
Ġc au
íĺĢ ìĦľ
ì°© ìĺ¤
ĠëĮĢìłĦ ì°¨
ĠíĻķê³ł íŀĪ
Ġì´Ŀ ëıĻìĽĲ
ĠëıĦ ìļĶ
¸ Ĭ
Ġë§Īì½Ķ íĨł
íĶ¼ë ĶĶ
ĠëĤĺê°Ħ ëĭ¤ëĬĶ
ĠëĤ¨ ëıĻìĥĿ
Ġë²Ħ ëĵľ
íŀĪ ë©Ķ
ĠìŀħíķĻ ìĭĿ
ĠìĥĿ ìĨĮ
Ġë¸Ķ ëŁŃ
Ġë²ł ìĿ¸
Ġë©ĭ ìŀĪ
ĠìĿ´ ìĨĮ
Ġë°¤ ìĤ¬ìĿ´
Ġì°¾ìķĦ ë³´ê¸°
Ġë²¡ íĦ°
íĦ´ íĬ¸
ĠëĶ°ëĿ¼ ìŀ¡
ĠíĮ Įì
Ġh is
ìĦ¤ íĦ´íĬ¸
Ľ Ī
ı íĬ¸
Ġíķĺ ë°©
Ġëĭ¹ íĺ¹
Ġì²Ńê³Ħ ì²ľ
Ġ! âĢĻ
ĠìĹĲ ë¡ľ
½ í
Ġswe et
ë¹Ħ ìķĪ
ìĬ¤íĥĢ íĬ¸
ä ¿
Ġr es
Ġë³ĳë¬´ ì²Ń
Ġë³Ģ íĥľ
ëª© ëıĻ
ìĭł íķŃ
Ġìĭ¤ ìĻ¸
êµ¬ ìĿ¸
Ġì§Ģê·¹ íŀĪ
y m
Ġf ri
Ġê¸ Ģë¡ľ
Ġkc gi
ê³ł ëł¹
o a
Ġst ill
ĠìłĦ ìłĦ
Ġê°ľ ìĿ´
ĵ ¨
Ġì½Ķ ë¦¬
ĠëĤ¨ ëĭ¤ë¥¸
Ġëª¨ ëĤĺ
ë³´ íĨµ
ìĽ Įì»¤
ĠìĹ° ì²ľ
Ġë°Ķ íĭ°
ĠìĤ¬ìļ© ë£Į
Ġìļ°ìĹ¬ ê³¡ìłĪ
ìŀĲì¹ĺ ë¶Ģ
ĠëģĮìĸ´ ëĵ¤ìĿ´
Ġíķł ëłĲë£¨ìķ¼
ĠìĦł ë°©
ëĶľ ëĿ½
ê²½ ê¶ģ
ĠíħĢ ë¸ĶëŁ¬
Ġmang ust
Ġìĭ¤ íģ¬
Ġì´Ŀ ë¬´ìĽĲ
ì°½ ìĪĺ
Ġìŀ¥ ëħĢ
Ġmangust anewsis
Ġë¡ľìĬ¤ ì¿¨
ì¦Ŀëªħ ìĦľ
Ġë³Ħ ìŀĲë¦¬
Ġì¿ł íİĺ
íĪ Ń
ĠëıĦë´ī êµ¬
ìŁ Ī
ì¤Į ë§Ī
ĠëĤ© ìĦ¸
ìĦ¤ ë¦½
Ġì¶ľíķĺ ëŁī
ĠìĤ¼ ê³Ħ
Ġì¡°ìĽĲ ëĮĢ
ìĪ¨ ìĹĲ
ë°Ķ ìĿ¸
Ġíķĺ ë¦¼
Ġìĸ´ë²¤ ìł¸
ìĿ¼ ë¡ľ
ĠìľłëĭĪ ë²ĦìĬ¤
ì¶ľ ëıĻ
Ġëĭ¨ ìĪ¨ìĹĲ
ìĹ´ ìĿĺ
Ġì§Ģ ìĺ¤
Ġline ar
ë¦¬ ëĭĪ
Ġ3 90
ì¶ľ ìĨĮ
ë ¾
Ł Ī
Ġê°Ĳ íŀĪ
ĠìĻ¸ìĭĿ ìĹħ
Ġíĵ ¨ìĸ´
ĠëĮĢíķľ ìłľêµŃ
ĠíĴį ìĨį
ìµ ¸
ĠíļĮ ê·Ģ
ĠíĨµìĭł ìĹħ
Ġë§Īì¤ĳ ë¬¼
ĠìĽĥ ëıĪ
ì£¼ë ¬¸
» ¥
íĨµíĻĶ ê¸°ê¸Ī
Ġê°Ī ë¹Ħ
Ġl f
íļ¨ ìĥģ
ì¹ĺ ìĨĮ
ê³Ħíļį ìķĪ
Ġì§ģ íĸī
Ġë¶ĢëĶª íŀĪ
ì²´ íģ¬
Ġìĭľê·¸ ëĦĲ
ì° Ķ
íı¬ ê°Ģ
ı ł
Ġìľł ìĺģ
Ĩ ¨
ìŀĲ ë¹Ħ
ĠíĨµ ì°°
ĠêµŃíļĮ ë²ķ
ê³µ êµ°
Ġíĸīìłķ ìŀĲì¹ĺë¶Ģ
ë¦¬ ë¸Į
ĠëĤ¯ ìĦ¤
Ġì°¨ ì¸°
ì²Ń ìłķ
ìĽĲ ë¦¬
ĠìĹĲ ìĿ´ì§Ģ
ĠìĬ¹ íĮ¨
Ġëĭ¹ ëıĦ
ê¸° ìĬ¤
ìĭł ëıĦ
ë¦¬ ìĭľ
ìĽĮ íĦ°
Ġìĩ¼íĬ¸ íĬ¸ëŀĻ
Ģë¡ľ ë¡ľ
ĠìĦ± ì§ģìŀĲ
Ġê¸° ìĻĢ
Ġë¯¸ëĦ¤ ëŀĦ
Ġê°Ħê°Ħ íŀĪ
Ġì§Ģê¸Ī ê»ı
Ġëª¨ ì²ĺëŁ¼
Ġì¿ ¡
ĠìľĦê¸° ê°Ĳ
Ġê¾¸ ë¦¬
Ġ20 35
ìĥ Į
ìĺĪìłķ ìŀĲ
Ġìłķê¸° ìĺĪê¸Ī
ĠëĪĦì§Ħ ìłľ
Ġì¶Ķ íĸī
Ġìķħ ìĦ±
Ġn sc
ĠìĻĦ ì£¼êµ°
ëŁ¬ ë¸Į
ĠëıĮìķĦ ìĦł
Ġu ni
ĠêµŃ ë¯¼ëĮĢ
Ġë³Ģíķ¨ ìĹĨ
ĠêµŃìłľ íĨµíĻĶê¸°ê¸Ī
Ġì²Ń ëıĦ
Ġìłķ ì·¨
Ġíĵ¨ ì²ĺ
Ġìļ° ëļĿ
Ġì´Ī ìĦĿ
Ġa bc
ìĿĢëį° ìļĶ
Ġëª¨ë¥¸ ëĭ¤ê³ł
ìĤ¬ ì§Ģ
ĠìĪĺ ë¬¸
Ġì±Ħ ìļ¸
ĠëĶ ĺ
Ġê²© ìĿ¸
Â ±
ĠìĺĪ ê²¬
ĠëģĿ ìŀ¥
Ġìķł íĶĦíĦ°
ë§Ĳ ìĿĺ
Ġê¶ģ íķ©
ç ©
ĠìĬ¤ì¼Ģ ìĿ´íĬ¸
ĠìĬĪíį¼ ë§Īì¼ĵ
Ġlit tle
Ġìłľ ëĭĪ
ĠìĬ¬ ëĿ¼ìĿ´ëĵľ
ëĬ¥ ìĿ´
Ġì¢ħ ìĭł
Ġê´ĳìĸĳ ìĭľ
ĠìĿ´ ìŀ¥
Ġì¢ħ ìĺģ
ĠëłĪìĿ´ ëĶĶ
Ġë§Į íĺ¸
ĠìłĦë¦½ ìĦł
Ġëĳ¥ ê¸Ģ
ìŀ¬ ê°ľ
ĠìĤ¬ìļ© ë²ķ
ĠìķĦë°Ķ íĥĢ
Ġì§Ĳ ìĬ¹
ë¶ĢìĿĺ ìŀ¥
ĠìķĮíĮĮ ë²³
ĠëĤ¨ ìĿ´
ĠìĿ´ ì§Ģë§Į
ĠëıĮ ë¦´
êµ¬ ë©į
Ġm ay
Ġì£¼ìłĢ ìķī
Ġëª© íļĮ
Ġëĭ¨ ì¶Ķ
ĠëĶĶ ëĶ¤
íķŃê³µ ìļ°ì£¼
ĠìĦľ ìŀ¥
Ġë©´ ë°Ģ
ĠíĻĶ ìķ½
Ġë¸Ķë¦¬ ìŀĲëĵľ
Ġë§ĪìĪł ìĤ¬
ìĹĶ ëĶ©
ê¼¬ ë¦¬
Ġìĺģ ìľł
ĠíıĲ êµĲ
ëĭ´ ìĤ¬
Ġí Ĥ´
Ġëĵľëŀĺê³¤ ë³¼
ĠíħĮ ìĿ¼ëŁ¬
ç Ł
ĠìĬ¬ ë¦¼
ĠëĿ¼íĭ´ ìĸ´
ĠìķĦëĤł ë¡ľê·¸
ĠìºĲ ëĶľëĿ½
ĠêµŃ ìĪĺ
ĠíĿĶ ëĵľ
ĠìĦĢ ëıĦìļ°
Ġê²Ģìĥī ìĸ´
Ġìĥģ ë²ķ
íıī ìĥĿ
ĠìĹŃ ìĬµ
Ġë¹Ħ ìĪĺê¸°
ìłĦ íĬ¸
Ĥ Ĥ
ìĬ¤ì½Ķ ë¦¬ìķĦ
ĠìĿ´ìļ© íĺ¸
Ġê°Ĳ ìĿ´
Ġíķĺ ë¦¬
ĠíĥĦ ëĳĲ
Ġê³¨ ëłĺ
ì¶Ķ ê°Ģ
ë¦¬ ìĦ¸
Ġê¸°ìŀĲ ìĭ¤
ĠìłĬ ìĿĮ
Ġê¸°ëħĲ ê´Ģ
ê³ł ë¡ľ
ë¬´ ëĭĪ
Ġë¬´ ìĪĺ
ĠíķŃ ìĤ°
Ġ18 7
ê°Ģ ê²Į
Ġë°Ķ íĿĲ
Ġê°ĸ ì¶ľ
ĠëĦ¤ ê±°
ãĤ «
ë³¶ ìĿĮ
F I
Ġë¸Į ë¡ľëĵľ
ëĤĺ ê°Ħëĭ¤
ĠìĪĺ ìĹĲ
Ġê²½ íķ©
Ġíĺ¸ì°Į ë¯¼
ĠìĻĶ ìľ¼ë©°
ĠëĳĲêº¼ ìļ´
ĠìĤ¬ ìĹ´
Ġc i
ĠëĤ¨ ê²¨ì§Ħ
ê¶Į ìĹŃ
ĠìĿ´ ì°¬
Ġë°Ľ ëĵ¤
ĠìķĦíĨł íĶ¼
Ġì¢Į ìĿµ
es s
ĠìĿ¼ íĦ°
Ġìŀ¬ ì¡°ìĤ¬
Ġat m
Ġìĭłíĺ¸ íĥĦ
Ġë°ľíĳľ íļĮ
Ġ18 8
Ġìļ°ìĥģ íĺ¸
íķľ ê°ķ
ìĽĶëĵľ ì»µ
Ġìļ° ë¬¼
ì·¨ ê¸ī
Ġê¸° ì§Ī
ë°Ķ ëĶĶ
Ġë¯¸ ëģ¼
Ġs et
ĠíŀĲ ëŁ¬
Ġ19 57
en ce
Ġê´ĳ ìĦł
Ġìłľìŀĳ ë¹Ħ
ĠíıŃ ìĦ¤
ìĦł ìłķ
Ġì¤Ģ ëĭ¤ëĬĶ
ĠìĤ¬ ìĻĢ
Ġì±ħ ìŀĲ
ë§¤ ëĭĪìķĦ
Ġë°Ķ ë¡ł
ĠíĮĮ ëĤĺ
ĠìĹ° ê½ĥ
ĠìĭĿ ê¸°
Ġë³´ ëĶĶ
ĠìĦ¸ê³Ħ ìĿ¸
Ġ19 36
íķĺ ì§Ħ
Ġìĺģ ìŀ¬
Ġíķ´ìĥģ ëıĦ
Ġì§Ħë£Į ë¹Ħ
ar s
Ġì½Ķ íĶ½ìĬ¤
Ġìł¸ ìķ¼
ĠìĿĺìŀ¥ ëĮĢ
Ġë¡ľ ëłĮ
Ġìŀ¬ íħĮíģ¬
ĠìĹŃ ìĦ¸
Ġê¶Į ìĦ±ëıĻ
Ġìľ¡ ë¥ĺ
Ġë°ķ ìĿĢ
Ġê°Ģ ëľ©
ĠëĴ¤ ì§Ģ
íĮ¨ íĤ¤ì§Ģ
Ġìŀ¥ë¡Ģ ìĭĿ
ĠìĹħ ì£¼
ĠëĮĢ ëĤ¨
ĠâĢ ĭ
ìĥģ ë´ī
Ġê½ģ ê½ģ
ì¹ ¼ë
íħĮ ëĤĺ
ĠìĽĲ ì¹ĺ
ĠìĦ¸ ì²Ļ
Ġìĭ± ìĸ´
Ġë°ķ íķľ
ë§Ī ëĭĪ
ëĦĮ ìĬ¤
ë©Ķ ëĶĶ
Ġë¬´ê¶ģ ë¬´ì§Ħ
ĠíĬľ ëĭĿ
ìĨĮë°© ë³¸ë¶Ģ
ĠíĮĲ ìĨĮë¦¬
Ġë°ľ ê´ĳ
Ġìĥģ ìĸ´
ĠìĤ¬ ëĭ¤ë¦¬
ĠëĦ¤ê±° íĭ°ë¸Į
Ġì½ĶìĬ¤ ëª¨ìĬ¤
ëħ¸ìĬ¤ ì¼Ģ
ĠíĨµ ê´Ģ
Ġnh n
Ġê°Ģëľ© ìĿ´ëĤĺ
ìķĦ ë¨¸
Ġêº¼ ì§Ģ
ìłĢ ì§Ģ
Ġë¶Ģ ìŀĳ
Ġê´Ģ ê³µ
ìĬ Ľ
ĠìĹĳ ìĨĮ
ĠìĹĲ ìĦ¼ìĬ¤
Ġê¸ī ë¶Ģìĥģ
ĠíĽĦ ë¯¸
ëĭ¹ ìĦł
Ġìĺ¨ íĻĶ
Ġíķĺë£¨ ë¹¨ë¦¬
ĠìĹĦ ë°ĢíŀĪ
Ġìĭľ ìķĪ
Ġìĥģ ê·¼
ĠT V
ìĦł ëıĦ
ìļ¸ ìĤ°
ëª© ìĨĮë¦¬
ĠìĦľ íĤ·
íĸī ìĿ¸
ë¨¸ ìĿĺ
ĠëĮĢ ëĤĺë¬´
Ħì ĩĦ
Ķì »¤
ì¤ĳ ê¸°
ĠìĤ¬ ì²ľ
ë¹Ħ ëĤĺ
ìĿ¸ íļĮ
ìĦ¤ ì¹ĺ
å §
Ġì²ľ íĻ©
Ġtv n
Ġì¡° ì»¤
ìŀĲ ìĭĿ
Ġë°Ģ ë¦°
b er
ĠìłľëĦĪ ëŁ´
æ ª
ĠìĿ´ ë¹¨
Ġìļ¸ ì§Ģ
Ġëª¨ ë°©
Ġc re
Ġë³´ìĿ¸ ëĭ¤ëĬĶ
Ġì½ĶìĬ¤ íĶĦëłĪ
Ġ4 60
íĺĪ ë³ĳ
Ġì¤Ħ ìĹ¬ìĦľ
Ġì¤ĳê°ľ ìĹħ
ĠìĹ¬ ëįŁ
Ġì¶ľìĹ° ì§Ħ
Ġì¡°ìĤ¬ ëĭ¨
Ġc l
o ne
Ġl cc
Ġìŀ¥ ëıĻ
ĠëłĪ ë²Ħë¦¬ì§Ģ
íĭ° ëĦĺ
Ġìķ¡ ìĥģ
Ġìŀħìŀ¥ ë£Į
Ġì¶ľ ìłķìĭĿ
êµ¬ ìļĶ
Ġìĺ¨ ê¸°
ëħ¸ëıĻ ëĭ¹
ĠíĮ© íĨłë¦¬
Ġ20 4
Ġ18 4
Ġìłķ ì¢ħ
ĠëĶľ ëłĪìĿ´
Ġë¹¨ ëŀĺ
ê¸°ìķĦ ì°¨
ĠìĤ° ìŀĲ
Ġe s
Ġê³µ ìĬµ
Ġì¹ľ ë°Ģ
Ġìŀ¥ ë§Ľ
Ġì¶ľ íĨł
Ġë§¤ íĻĶ
ãģ Ľ
Ġìĭ¤ë¦¬ì½ĺ ë°¸ë¦¬
Ġn ba
Ġëªħ ìĥģ
ë° ķì¥Ĳ
Ġìĥģìŀ¥ ì£¼
ĠëĮĢëªħ ìĤ¬
ĠìĤ° ëª¨
Ġì·¨ ì§ģ
ĠÂ ±
ëª¨ ëĭĿ
ìĿ¼ë ĮĢ
ëĭ¤ ì§Ģë§Į
Ġê³µìłķ ìĦ±
ĠíĿī ëĤ´
ar i
ì§Ģ ëĿ¼
Ġì°¸ ì¹ĺ
ĠìłĪ ì¶©
Ġìĭł ê´Ģ
Ġê³Ħ ëªħ
Ġë ¾°
Ġìľł ë°°
íķĺ ê³ł
ëĿ¼ ì§Ģ
êµ° ì²Ń
Ġëł Ľ
r r
ĠìĦ¸ ë¡Ģ
t m
íĬ¹ë³Ħ ë²ķ
ĠìĽĥ ê¸°
Ġê°ĸì¶° ìł¸
ëĤ¨ ë¶ģ
Ġíķ´ ìĭľ
Ġìŀ¥ ì¶©
ç¾ İ
Ġì¶Ķëª¨ ìĭĿ
Ġï¼ ļ
Ġ18 6
Ġêµ¬ëıħ ìŀĲ
ĠìĦ± ê¸°
b f
Ġëĭ¨ ìĪĺ
ĠìłķìĦł êµ°
Ġìĸĳ ì£¼ìĭľ
Ġãİ ĸ
Ġê°ľ ëĭ¹
---- ----
Ġìĩł ê³łê¸°
Ġi os
ĠíĴį ëŀĳ
ë¨ ¸ì
ë³´ ë¡ľ
Ġíķ´ ëıħ
ëħ¸ ëĿ¼
ĠëĶĶ ìĺ¤
Ġìłķ ìĿ¸
Ġê¸ī ìĨįëıĦ
íĳ¸ ìĬ¤
Ġëª¨ íķĺ
ĠíĮ¨ ìŀĲ
ìŀ¬ ë°°
Ġì±Ħ ë³´
ĠíĻķ ìĹ°íŀĪ
Ġëĵ¤ìĸ´ ìĺ¨ëĭ¤
ĠìķĪ êµ¬
Ġë§Ĳ ëł¤
Ġì¶ľ ìĨĮ
ĠìĽĮ ëĿ¼
Ġì´Ŀ ê²©
íıŃ ë°ľ
ĠìŀĲì£¼ íı¬
Ġë¹Į ë¦°
ë¶Ģ íĦ´
ĠìĬ¤ì¹´ ìļ°íĬ¸
íĥĪ ìĿĺ
ê¸° ë¡ľ
ĠíĺĦì¶© ìĿ¼
ĠìĬ¤ ìĻĢ
ĠìĨ¡ ìĿ´
Ġê°Ĳ ê·¤
é «
ĠíĨł ìĿ´
Ġìĭľ ê°Ģì§Ģ
Ġìĭľ ê²Į
Ġê¸ī ìĪĺ
ëĤ´ ê³¼
Ġìĸ´ì©Į ëĭ¤
ĠíĥĢìĿ´ ìĻĦ
Ġ18 1
ĠìĬ¹ê°ķ ê¸°
ë£¨ ê¸°
Ġìłķ ë³ĳ
Ġíķľ ìĹĨìĿ´
íĵ° ë¦¬ì¦ĺ
ê³ĦìĹ´ ìĤ¬
B C
ĠìĦ° ëĭ¤
Ġë³¸ ëĭ¤ë©°
Ġëª¨ ìĹ¬ìĦľ
Ġê±´ëĦĪ ê°Ģ
Ġì´Ī ëĬ¥ëł¥
Ġê· ĵ
z i
Ġë§Ŀ ê³ł
ìĺģ ìĸ´
Ġë°Ķ ë¦¬ìĬ¤íĥĢ
Ġì§Ģ ì¹ĺ
ìĭ¤ ìĤ¬
ìŀħ ìĭľ
ë¶Ģ ì§ĢìĤ¬
Ġíķ´ ë¨¸
ĠìļĶ íĬ¸
Ġë»Ķ íĸĪ
ê¸°ëħĲ ë¬¼
ĠëĳĲ íĦ°
ê³¨ ëª©
ìĿ´ ìĦ¼
ìľł ìĤ¬
Ġìłģ ìĥī
íĶĦëłĪ ìĭľ
Ġì¹´ ìĻĢ
Ġë§¤ ì½¤
ĠìĦ±ìŀ¥ ê¸°
Ġæĸ °
ĠìĨĮ íĸī
ãĢ ĭ
ĠìŀĲ ê¸į
Ĥ ã
ì¹ĺ ìľł
ĠìĦ¸ ìŀħ
Ġê°ĦìłĪ íŀĪ
ìĿ¸ íķ´
Ġíĺ¼ ëıĻ
Ġìŀħ ìķĪ
ĠìĿĺìĦĿ ìĪĺ
ì§Ħ ìŀħ
Ġb oo
Ġë¬¸ ëĵĿ
Ġëª¸ ì§ĳ
Ġíķ´ ìĤ°ë¬¼
æ ģ
Ġìŀł ëĵł
ĠìĬ¤ ëĥħ
ĠëĤ´ëł¤ ìĺ¨
Ġëģ¼ì ³¤
ĠF I
íĶĦë¦¬ ë¯¸
Ġíı¬íķŃ ìĭľ
Ġìĺ¤ ëħ¸
ĠìĪĺì²ľ ë§Į
ĠíĮĮ ë³ĳ
Ġêµ¬ ìĦ¸
ĠíķĻ ìŀĲê¸Ī
Ġt wo
Ġíĳ¸ ì¡°
Ġê²½íĸ¥ ìĭłë¬¸
Ġ19 43
ĠìĹĲ ë¯¸
ĠìĤ¬ ëĵ¤ìĺĢ
ĠìĿ´ ë¬¸
Ġê³Ħìķ½ ìŀĲ
ì§ĳ ì¤ĳ
Ġê°ķ ìĬµ
Ġìĭľ ìłľíĴĪ
ĠìĬĪ ì¦Ī
Ġì²´ íĺķ
Ġë°©ìĤ¬ ìĦ±
ĠíĨłíĬ¸ ëĦĺ
Ġíĩ´ ìĽĲ
ĠëĺĲ ëŀĺ
Ġíİ¸ íŀĪ
Ġëħ¹ ì¡°
íĳľ ì§Ģ
ĠìķĦ ì¤Įë§Ī
Ġp ri
ìĹ° ìĨį
ĠìĹ° ëªħ
ĠíĶĦ ëŀŃíģ¬
ĠìĦłëĮĢ ìľĦ
Ġë§Ľ ìĿĺ
Ġê¾¸ ë¯¼
ë¦¼ì ±ħ
Ġìĥ· ê±´
ìĭ¤ ë¦¬
Ġê°Ģ íĸĪ
ĠíĬ¹ ìķ½
Ġto o
ëĵľ ê¸°
Ġë°© ëªħ
Ġë¡ľ ë¦¬
ê²Ģ ìĿĺ
ĠìķĦ ë¦¬ìĬ¤
ë¬¸ ëªħ
yu ng
Ġë°Ķ ìĬ¤
Ġì¹ ´ë
ĠëĦĵ ìĿ´
ĠìĤ° íĸī
Ġë°ĶëĿ¼ ë³¼
ãģ ĺ
ì´Ī ê¸°
ìĻ¸ êµŃìĿ¸
ĠìĽĲ íķľëĭ¤ë©´
ĠìĤ¬ ìľĦ
Ġ23 5
ĠëıĦ íĬ¸
Ġê³µ ë³´
Ġíģ¬ë¦¬ìĬ¤ íĨł
Ġì´Ī ìĭ¬
Ð °
Ġìĸ Į
Ġì£¼ íľ´
Ġë¬¼ ëıĻëŁī
ëĭ¹ ìĭľ
Ġì¡° ê°ķ
Ġë²½ ëıĮ
« ĵ
ĠêµĲë³´ ìĥĿëªħ
íļį ëĭ¨
Ġìĸ´ ëĶľ
Ġê²½ ìłĦì²ł
ĠìĤ¬ ìĬ´
ìĸµ ìłľ
ĠìĭłìĦ¸ê³Ħ ê·¸ë£¹
ĠìĹ¬ ì§ģ
ëĭ¤ íĪ¼
ĠìĹ° ìĦ¸
ĠìĨĮíĻĢ íŀĪ
ĠìĬ¤íİĺìĿ¸ ìĸ´
Ġê´Ģ ìłĦ
ĠìĦł ì²ľ
Ġì´Ŀ íķ©
ĠìķĦ ëŀĳ
Ġì¦Ŀ ë¹Ļ
Ġë¶Ī ìĭĿ
íĺĦ ìĪĺ
% ]
ì¹ł ìĦ±
Ġìŀ£ ëĮĢ
Ġ% ]
Ġt u
íĬ ł
Ġìĭ¤ íĹĺìĭ¤
ìłľ íļĮ
Ġëĭ¤ ìł¸
ĠìļĶ ëł¹
Ġíİ¸ ì¤ĳ
Ġê´Ģ ìłĢ
ëªħ ìĿ´
ãĤ¤ ãĥ
ĠíĮĲë§¤ ìŀĲ
Ġì§Ģ ìĹ´
íĬ¹ ìĪĺ
ĠëĲĺëıĮ ë¦¬
ĠìķĦ ìĬ¤íĬ¸
Ġì¹¨ êµ¬
Ġë¯¸ íĺ¼
é Ń
Ġê¸¸ ëª©
ìĦľ ë²Ħ
Ġì¦Ĳ ê²¼
ìĽĲ ë£Į
ĠìĿ¸ íĶĮë£¨ìĹĶìŀĲ
Ġì§ĵ ë°Ł
Ġíĺķ ëŁī
ĠíĹĪë¦¬ ì¼ĢìĿ¸
Ġê°Ħ ê³¼
ĠëĮĢíĥĢ íĺĳ
Ġìĸ ķ
íİ ľìħĺ
ìĹĶ ëĵľ
ë «
Ġê³łìĨį ë²ĦìĬ¤
ìĿ´ ì²´
ë¨¹ ìĿ´
ê³ł ë¥´
ĠìłĦ íķĻ
íĮ¨ ëĦĲ
Ġëį° ë¹Į
Ġì¹ĺ ë§Ī
ĠíŀĪë¡ľ ìĭľ
Ġëĸ ¨ë¦¬
ĠìłĦìĦ¸ ê°Ģ
ãĤ ¸
Ġì¤ĳ íĿ¥
Ġë¦¬ íĶĦíĬ¸
Ġ19 10
ìĭ¤ íŀĪ
ĠâĢ ķ
ĠíĶ¼ ì§Ģ
ĠëĤ¨ ì¡°ìĦł
Ġë³´ìĺĢ ìľ¼ëĤĺ
Ġë¬´ ëıĦ
ìĿ´ ìĬ¬
ìĹĲ íĬ¸
ĠìŀĲê¸į ìĭ¬
Ġìľł ê³¨
Ġëĭ¤ëħĢ ìĻĶ
Ġíĭ¸ ëŁ¬
ĠíĶ¼ìĦľ ê°Ŀ
Ġí ĭ´
ê³ł íĮĮ
Ġë°© íĺ¸
Ġë²ł ìĿ¼
ĠìĦ¸ë¥´ ë¹ĦìķĦ
Ġëĭ¤ ë¬¸íĻĶ
íĹĮ ë²ķ
ĠìľĮë¦¬ìĹĦ ìĬ¤
Ġíı¬ ë§·
Ġh ome
Ġd ps
Ġìµ ¸
Ġë³´íĥ ¬
Ġê²½íĺ¸ ìĽĲ
íĭ°ìĺ¤ íĶ¼ìķĦ
ĠíĻĺ ìĨ¡
Ġêµ¬ íĨł
êµŃ êµ°
ìŀ Ń
Ġì¢ħê·¼ ëĭ¹
Ġê´ĢíĨµ ëł¥
ìĬ¤íĦ´ íĬ¸
ì²ĺ ìĹĲ
ëª¨ ìŀĲ
êµ¬ ê°Ģ
Ġë¹Ħ ìķĦ
Ġë§Ī íĥĢ
Ġsu mmer
Ġëĸ ¨ì
ĠìĻ ¸ì³Ĳ
ĠíĨł ë¯¸
Ġìķŀ ë©´
Ġê¸īìĨį íŀĪ
ĠìķĦ ë¹Ħ
ĠìĪĺëĩĮ ë¶Ģ
ĠëĨį ê²½
Ġë°ķ ìĬ¹
ëĮĢì±ħ ìľĦ
ê°Ģ ëĵł
ĠìĿ¸ ëį±ìĬ¤
ĠëĮĢë¦¬ ìĿ¸
Ġ19 51
Ġë¬¼ëŁ¬ ëĤľ
ë°© ì¹´
Ġíĥľ ìĺģ
Ġì§Ħ ìķĪ
Ġíķľ ìĤ°
Ġêµ¬ ê°Ģ
ĠìĿ´ìĥģ ë¯¼
ĠìĹĲ íĭ°ìĺ¤íĶ¼ìķĦ
ìł¸ ëıĦ
Ġë¨¹ íŀĪ
ëĶĶ ìķ¼
ëĮĢ ìĿ¸
ĠìĦľ ìĺĪ
Ġë°© ì¡°
ĠíĶĮëŀĺ íĭ°ëĦĺ
ëįĶ ìĬ¨
ĠêµĲ êµ¬
ĠìŀĶ ìŀĶ
Ġì¹ĺ ëĭ«
ìļĶ ëł¹
Ġìłķ ìĿĢ
Ġìĺ¬ ìĿ¸
ģ ¿
Ġìłł ëįĶ
ë¸Į ë¡ľëĵľ
Ġë°©ëªħ ë¡Ŀ
Ġk of
ĠìĬ¤íĶ¼ ë¦¿
Ġê·¸ë¦° ë²¨íĬ¸
ìĿĢ ê°Ģ
Ġë§Ī ë¥´ì½Ķ
ê¸° íĽĦ
ĠìĿ´ëıĻ ìĭĿ
ê¸ī íĸī
Ġst e
Ġë³Ģ íķľëĭ¤
ë¯¸ ìħĺ
Ġë¹Ħ ì°¸
li e
ĠìĭĿ ìŀĲìŀ¬
ç ¬
Ġ30 1
Ġp jh
ĠìĿ¼ ìĤ¼
Ġìłľ íĶĦ
Ġìĥģ ê²½
Ġìŀ¥ë§Ľ ë¹Ħ
ĩ º
Ġë¡ľ ìĬ¤íĬ¸
íĻĺ ìĬ¹
Ġì¥ Ķ
ľ ¸
Ġê¶Į íĺģ
ìĸ´ ëĤ¸
Ġì¹´ ëĦ¤
ĠëģĿ ëĤ¸
ê³µ ê´Ģ
ĠíĥĢ ê°ľ
ĠìĺģëıĻ êµ°
ĠêµĲ ëĳĲ
ĠëĮĢ ê¶Į
Ġh s
Ġì¹´ ëĭĪë°ľ
ĠìŀĲ íĮĲ
ìĦ¸ ê´Ģ
ë²Ħ íĬ¼
Ġëĵ¤ì į©
íķĳ íģ¬
Ġi so
Ġê°ĩ íŀĮ
ĠìĿĺ ìķĪ
Ġì§ģ íĨµ
Ġê³ ¶
é ĬĢ
Ġë²Ħ ê¸Ī
Ġ50 1
Ġì£¼ ìĦł
Ġë¶Ģíıī êµ¬
Ġb bc
Ġwin do
ì¦Ŀ ëĮĢ
ë ¢
ĠìĦ¹ íĦ°
Ġëĸł ëĵ¤
Ġì¹´ íĶ¼
ì§Ģ ìĹĲ
ĠìµľìĦł íĿ¬
ê¹ ¡
ìĿ¸ íĶĮë£¨ìĹĶìŀĲ
ĠìĿ´ ëħ¸ë²łìĿ´ìħĺ
ë¶Ģ ë¥´
¿ Į
Ġë§Įì ·¨
Ġê²½ ê°ģ
Ġêµ¬ê¸ī ëĮĢ
Ġíķĺ íĸī
íķ´ ë°©
ĠëıĦ ìĪĺ
ĠìĿ´ì¼Ģ ìķĦ
Ġê°Ģìł¸ ê°Ķ
ĠëĪĦ ë¹Ħ
Ġ3 33
Ġëª¹ ìĭľ
ìĻķ êµŃ
âĨ ĺ
ĠëĮĢ ëĵ±
ìĤ¼ ì§Ħ
ë²Ħ ëĦĮìĬ¤
ĠìĹĲ ëĦĪ
Ġëĭ¨ êµŃ
Ġìĸĳìŀ¬ ëıĻ
Ġë°Ģ ê°Ģë£¨
Ġi ii
ĠíĦ¸ ìĸ´
ĠíķŃ ìĦ±
ëįĺ íĬ¸
ë¬´ ëł¥
Ġì¢ħ ê³¼
Ġìľł íĥĦ
Ġ33 00
Ġêµ°ìĤ¬ ëł¥
ĠìĬ¤íĮĮìĿ´ëįĶ ë§¨
Ġë¦¬ ë¸Į
Ġa fc
ĠìķŀìĦ¸ ìļ´
Ġë°° êµ¬
ëįĶ ë§ģ
Ġëħ¸ëıĻ ëł¥
ë²ł íĬ¸ëĤ¨
ĠìĭĿ êµ¬
Ġíķ´ ë°ĶëĿ¼ê¸°
ĠíıĲ íļĮ
ĠêµŃë¦½ ëĮĢ
ĠìľłëĭĪ ë²Ħ
ĠìļĶë¯¸ ìļ°ë¦¬
ĠìĤ´ê·ł ìłľ
ê³Ħ ìĤ°
Ġìķ½ ìĤ¬
Ġì½ľ ëłĪìĬ¤íħĮë¡¤
ĠëĦĵ íĺĶ
ëįĶ ë¯¸
Ġíı¬ íĵ°ë¦¬ì¦ĺ
ĠìĶ ģ
ëĤĺ ìĺ¨ëĭ¤
å £
Ġì¹ĺë£Į ë¹Ħ
Ġì ·Į
ëłģ íģ¬
ë¸Į ë£¨
ê²½ ìĭĿ
Ġë£¨ ì¹´
ĠíķĻìĪł ì§Ģ
Ġf an
Ġíģ´ ë¡ł
ĠìĬ¤ ëĤµ
Ġêº¾ ìĿ´
ìłľ ë¥´
Ġì§Ģì¼ľ ë³¼
de x
Ġê¸°íļį ìĤ¬
Ġê³łì°½ êµ°
ëĵĿ ìłĲ
Ġíı¬ ìĺ¹
Ġe le
Ġíķ¨ íıī
ĠíıŃë°ľ ë¬¼
ì¦ ī
Ġ17 9
Ĥ ĭ
Ġê³ł ë£¨
Ġì°¨ê´Ģ ë³´
ĠìŀĲ ìĨĲ
Ġëĸ¨ìĸ´ì§Ħ ëĭ¤ëĬĶ
ĸ ¡
ĠëĤ´ ìĦľ
ĠëĦ ¬
Ġìļ° ì¹ĺ
íķ´ ìķĪ
Ġë§Īë¦¬ ëĤĺ
ìĿĮ ìĿĺ
Ġíĺķ ìĿĺ
ĠìĤ¼ ì§ĢìĹ°
ĠìŀĲ ëŀĲ
íĬ¹ íĹĪ
ĠíĮ¨ ëĵľ
ĠíĬ¹ êµ¬
Ġ19 38
Ġì¹ Ļ
íĿ¥ ì²Ń
ë§ģ íĦ´
å ĥ
ĠìĶ ¬
Ġëĭ¬ìķĦ ëĤĺ
ìĥģ ë¸Ķ
ĠíĶĦ ë¡¤
ê°ľ ìµľ
ì¸¡ ìłķ
ĠìķĮ ë§ŀ
íİ ĮíĶĦ
ĠìŀĲìĹ° ìŀ¬íķ´
Ġì§Ħ ìĦ±
Ġì¶© ì¹Ń
Ġìļ© ê°Ĳ
Ġìĥ¤ íĶĦ
ĠìľĦ ë¬¸
Ġë©° ëĬĲë¦¬
Ġìĺ¤ ì¦Ī
ĠëĤľ ë¬´
ĠìķĦ ìĪĺëĿ¼
ê¹ ľ
ĠìĤ°ëŀĢ ê³Ħ
ìľł ëĭĪ
ĠìĨĮìľł ì£¼
ãĤ £
ļ Ħ
ĠìĹ¬ ê³łìĥĿ
Ġì£¼ ë§Į
Ġ4 25
ĠìķĦ ìĬ¤ì¹´
ĠíĹĪ ìĪł
ìĤ° íĻĶë¬¼
Ġë§Ī ë¬¼
Ġì¶Ķ ê³Ħ
Ġë¬¸ ìĸ´
ĠëĤ´ëł¤ ìķī
Ġì§ĳ ìĿĺ
Ġma ster
Ġë°ķ ì£¼ë¯¼
Ġë§¤ íģ¬ë¡ľ
Ġê´´ ë¡ľìĽĮ
Ġê¸°ëħĲ ìĤ¬ìĹħ
Ġìŀĩ ëª¸
Ġìĭ¬ íŀĪ
íĤ¨ ìĬ¤
Ġë¶Ģ ìĭĿ
Ġì¹¼ ë¡ľë¦¬
ĠìĥĿê²¨ ëĤ¬
Ġì£¼íĥĿ ê°Ģ
ĠëıĦë¡ľ ê³µìĤ¬
ĠìĬ¤íĮĮ ë¥´
Ġë°ķ ëĤ¨
ê¿Ī ì¹ĺ
Ġê¸°ëħĲ ë¹Ħ
ĠìĦł êµ¬
íĥľ ìĸĳ
ĠíĤ¤ íĥĢ
Ġple ase
Ġë¸Į ìĿ´
ç İ
Ġëĭ¤ê°ģ íĻĶ
ĠìĹ¬ ì¢ħ
Ġìĭ¬ ê²½
Ġë¹Ħ ìĽĮ
íĮ ģ
è ĩ
Ġìľł ê¸ī
Ġì¡° ë¥´
ĠìĤ° ìĿ´
Ġey es
ê³µ ë¶Ģ
Ġë¹Ħ ìĬ¤íĬ¸
Ġë ī
Ġê°Ĳ ìĭĿ
ĠìŀĲìĿ´ ìĸ¸íĬ¸
ìĶ ½
ĠìĭĿ ìĿĮë£Į
ĠíĶĦëŀĢ ì¹ĺ
Ġê¸ī íķľ
Ġíŀĺ ëĤ´
Ġê¸Ī ëħĦ
Ġê´´ë¡Ń íŀĺ
ëıĦ ìķ½
Ġê±¸ ì¦Ī
Ġe t
ë°ķ ìŀĲ
Ġìĺ¥ ì²ľêµ°
Ġíĳ¸ ì§Ĳ
Ġê´ĳì£¼ ìĿĢíĸī
Ġì§ľ ë¦¿
ĠìĿ´ë£¨ìĸ´ ì§Ħëĭ¤
ìŀ¬ íĻľ
ìľł ìłģ
ë² Ĺ
Ġìĭ¬ íĸĪ
Ġìľł ìľł
Ġìĺ¤ ë§ĪìĿ´
Ġìķ½ ë³´íķ©
ê¸°ëħĲ ìĿ¼
Ġ.ãĢ Ĭ
ĠíĶĮë¡ľ ë¦¬ëĭ¤
ëĶ Ľ
ĠìĹĲ ë©Ķ
Ġëĭ¤ ìĿ´ìĬ¤
Ġíĥľ íģ´
Ġìķ½ ì¹Ń
ĠìĬ¤íĤ¤ ìŀ¥
ìĪĺ ëª©ìĽĲ
íĭ°ì ¼ĵ
¼ë Ŀ½
ĠìĬ¤íĥł ëĭ¤ëĵľ
ĠìĹ¬ ëĬĲ
íı¬ íķŃ
ĠìĿ´ ëĨĪ
ìĺģ ìĸĳ
ìĦĿ íĿ¬
o da
Ġê¸ī ìĥģìĬ¹
ĠìĹĳ ìĭľì¦Ī
Ġ19 6
°ì »´
ê³µíķĻ ë¶Ģ
ëĬĶ ì»¤ëħķ
ĠíĪ¬ ë¥´íģ¬
íĢ ¸
ĠíıĲ ëł´
Ġãģ Ħ
ê¶Į íķľ
Ġë¬´ ìĦ±
Ġê·¼ë¬´ ìŀĲ
Ġì»¤ ë¨¸ìĬ¤
Ġsu nc
Ġl ong
ë´ī ì£¼
Ģë ĥĲ
ĠíĶĮëĿ¼ ìĽĮ
Ġë³Ģ ë¡ł
Ġì£¼ ìłĲ
Ġhe llo
ê±° ëĭĪ
ê°Ģë¥´ ëĵľ
ìĤ¬ ì²´
Ġë°ľ ìĤ°
Ġkr x
ëª¨ ìķĦ
Ġw m
ĠìķĪ ëĵľëłĪ
Ġìłķ ìķ¡
ìŀĲ ë£¨
ì²Ń ìķ½
¶ Ļ
Ġëķħ ì½©
Ġìłķ ê±°ìŀ¥
ì¹ĺ ìļ°
íį¼ íĬ¸
Ġë³´ìĪĺ ê°Ģ
ìĹ° ìĥģ
ĠìķĮìķĦ ëĤ´
ëĵ± ìĤ°
ry u
ĠëĬĺ ë¦°ëĭ¤
Ġìĥģìŀ¥ ì§ĢìĪĺ
ĠìºĲ ë¦Ń
Ġìķķ ê¶Į
Ġê·¸ ë¦¼ì±ħ
Ġì§Ħ íĿĻ
ìĬ¤ ë¦¬
ĠìĿ´ ëĭ¨
Ġë¡ ¬
ê´Ģ ìĭ¬
ĠìĦ¤ ë§Ī
ĠëĤĺíĥĢ ëĤ¼
Ġìĭľ ëª¨
ê´Ģë¦¬ ìĤ¬
¨ ã
ëĭ¤ ëĵ¬
w d
Ġ6 60
Ġëª¸ ìĭ¸ìĽĢ
ĠíĺĦëĮĢ ê·¸ë£¹
Ġë£¨ íĦ°
êµ¬ì¹ĺ ìĨĮ
ĠìĹ°êµ¬ ìĭ¤
Ġë°Ķ ëĭĲëĿ¼
Ġo ur
Ġìĸ´ë²¤ìł¸ ìĬ¤
Ġíĸīì§Ħ ê³¡
ĠìļĶë¦¬ ìĤ¬
Ġsunc ho
ĠìĦł ìĿ¸
Ġr end
ĠìĥĿê¹Ģ ìĥĪ
Ġìŀł ìŀĲ
ê¸°ê´Ģ ë¦¬
f b
Ġìĥī ê°Ĳ
Ġse ason
ĠíĽĦ ìĺĪ
ĠíĪ¬ê¸° ì§ĢìĹŃ
Ġë¡ľë§¨ íĭ±
ëħ¸ëıĻ ì²Ń
Ġë¬¸ ê³¼
Ġ85 00
Ġíķ© ì²ľ
ĠìĪĺ ëª©
Ġë¶Ģ ëĶĶ
ê°Ĳ ë¦¬
Ġê·¼ ìĨį
ĠìĿĺ ìķĦ
Ġê¹Ģì¢ħ ë¯¼
Ġn ll
Ġê±°ë¦¬ ìĿĺ
ìķĦ ìĺ¤
Ġëĭ¬ ìĹ¬
Ġëĭ¤ìĿ´ ìĬ¨
ĠìĿ¼ ìłĪ
Ġëĳ¥ ê·¼
ĠíĬ¸ ëłģíģ¬
ĠíĺĪ íĨµ
¿ ¡
Ġíĸīìłķ ìĨĮìĨ¡
Ġë§Ĳ ìĹĨìĿ´
Ġê°Ħ íĸī
ìļ´ ë°ĺ
Ġìĸ´ëĵľ ë°´
ìĭłì²Ń ìĦľ
Ġb lo
ìĿ´ ë²¤íĬ¸
Ġëĭ¤ ëĭ¤
ë§¤ëĭĪ ìłĢ
Ġst and
ĠíĻĶ ìĭł
Ġìĺģ ê²°ìĭĿ
Ġë°° ê´Ģ
ĠìĽĢì§ģ ìĹ¬
Ġë¹Ī ìŀĲë¦¬
Ġìĭľê°Ħ íĳľ
Ġíľĺ íķĺ
Ġë¬´ ëĵľ
Ġì¹´ ë©Ķ
Ġìķŀ ìĦ°
Ġë§Īì ħ¨
ĠíĬ¸ ëŀ¨
i es
ĠëĪĦ ì¶ľ
Ġë°ĿíŀĮ ëĭ¤
ê°ķ ìĽĲ
ìĨĮë¹Ħ ìĦ¸
ĠëĴ¤ ëĶ°
Ġíķĺ ë¹Ħ
ĠëĮĢì¹ĺ ëıĻ
ê°± ìĿ´
ĠìĤ° ìĤ¬íĥľ
Ġë°© ë°°
íĺĦ ë¯¼
Ġë¶Ģ ìĪ´
Ġr start
Ġê·¸ëĿ¼ ìļ´ëĵľ
Ġìĸ´ ìĽĲ
ëıĦ ìĦľ
Ġcau se
ĠëĤ´ê²Į ë¡ľ
Ġíĥģ êµ¬
Ġìĭ¬ë¦¬ íķĻ
Ġê´ĳ ëıĻ
ìĿ¼ ê³¼
ĠìĻ¸ íĪ¬
Ġì¡°ì§ģ ìĽĲ
Ġi lo
ë¯¸ ìĤ¬
ê²Ģ ëĭ¨
Ġì°½ìŀĳ ë¬¼
Ġë° ķì¥Ĳ
ì¹ĺ ëıĦ
ĠìĦł ìĦł
Ġëª¨ ìĿĦ
ĠëĨį ë¶Ģ
ĠìĽĢì§ģ ìĺĢ
ĠìĹĶ ì§ĢëĭĪìĸ´ë§ģ
Ġ36 00
ìļ´ íķŃ
Ġìĺ· ì°¨ë¦¼
ĠìĦł ë¶Ī
Ġ19 37
ìĻ¸ ê³½
ĠìĻĢ ìĿ´ì¦Ī
ĠìĤ° íĽĦ
íıĲ íķ©
Ġå ħ
ëħ¸ ë°Ķ
ë°Ķ ë£¨
ĠìĿ´ì§Ģ ìĬ¤
Ġìļ° ìĹĲ
Ġ5 60
Ġì¡° ìłľ
íķŃ ìķĶ
ĠëĤ´ ë¿ľ
Ġë°© ìĸ¸
Ġ. âĢĿ
Ġíļ¨ ìĨĮ
ĠêµĲëĳĲ ë³´
ì§Ī ê¹Į
ĠìķĦëŀĺì ª½
ĠìĿ´ ë°©
Ġê³µ ìŀĲ
ĠìĤ¬ ì²´
Ġíĺ¹ íıī
ìĦ± ìĤ°
ĠìĿ¼ ìļ©
Ġbj ko
Ġì£¼ ê³µ
Ġë°ķ ìĦł
ê´Ģë¦¬ ìŀĲ
ĠìķĦ ìĽĮ
Ġhg ryu
ì¹ĺ ìĺ¤
» ĳ
ê³¡ ë¦¬
ê°Ģ ëĭ¤
êµŃë¯¼ ì¹´ëĵľ
Ġëĭ´ íĻĶ
ìºĲíĶ¼ íĦ¸
êµŃ ë°©
Ġëĭ¨ íķ©
ìĹŃ íķĦ
ĠìĽĮ ë¦¬ìĸ´
ĠëĿ¼ê·¸ ëĤĺ
Ġì§Ħ ìľĦ
Ġíķľ ëĤ¨
Ġë³´ ìĿĢ
ĠëĤĺ íĬ¸ë¥¨
ì²ł ê°ķ
Ġë¶Ģ ìĦ¤
Ġë°Ģ ìĪĺ
ĠìĹ° ëª»
ë¶ģ ëĭ¨
Ġìĸ´ ë¯¸
Ġê²Ģ ìĪł
ª ¢
ĠìłĦ íķł
Ġì§Ģì¼ľ ë³¸
Ġë§ī ë¡ł
ĠíĨł ìĿĺ
Ġë¨¹ ìĹ¬
íĶ¼ ìĸ¸
ìļ° íļĮ
ëĿ¼ìĿ´ ëĦĪ
Ġë¦´ ë¦¬
ëĿ¼ ìļ°
Ġë§¡ ê¸¸
Ġëĭ´ ìŀ¥
Ġë¸ĮëĿ¼ ìļ°
Ġê²½ìĺģ ê³Ħ
è ¡Į
Ġì§ģ êµ¬
Ľ ¹
ĠìŀĦ ìłķ
íĮĲ ê³¼
ĠíħĮ ìĺ¤
ĠëĬĺ ìĸ´
ìĺģ ìŀħ
Ġmy jsnewsis
ĠìķĦë©Ķë¦¬ì¹´ ëħ¸
Ġìĭ¬ ê¸°
Ġë§ģ ì»¨
Ġë¬´íķľ ëıĦìłĦ
Ġ9 50
ĠìĻ¸ ìŀ¥
Ġâĸ ¡
al o
ëĭ¤ ë§Į
ĠíĿī íĦ°
ë°Ģ ì°©
ĠíĻķìĭ¤ ìĭľ
Ġìĺ¤ë¡ľ ëĿ¼
ä¼ ģ
íķĺ ë¦¬
Ġbjko newsis
Ġìłķ íļĮ
Ġíı¬ ë³ĳ
Ġìłľ ìĬ¤
ĠìŀĲ ìľĦ
Ġìļ° ë¯¸
ĠìĨĮëª¨ ëŁī
ĠëĮĢ ë³¸
ĠìķĶ ìĦ¸íı¬
Ġë¹Ļ ê·¸ëłĪ
ĠìķĪ ê³¼
Ġë±ħ ê°Ģëĵľ
ì²ľ ìĹŃ
Ġì¹ľ ëª©
Ġì£Ħ ìĿ¸
Ġê²Ģ ìĤ¬ìŀ¥
ĸ ĩ
Ġê¸°ëĵĿ ê¶Į
ĠíĹĺ íķľ
ĠëĤ¨ ëıĻêµ¬
ĠíĿ¥ ëįķ
ĠìĻķ ì¡±
ĠìĦ¤ê³Ħ ëıĦ
ĠëłĪ ìĬ¤
ĠëıĻ ìĿ´
ĠíĬ¸ ëŁ¬ë¸Ķ
Ġë¶Ī ë¦°
ìĦł ì§Ģ
ì¶ §
ë¶Ģ ìĸĳ
ë³ĳ ëıĦ
Ġê°ķ ë¦¼
ĠìĹ¬ ìłĲ
Ġfore ver
Ġëĭ¤ ìĭł
Ġë³´ ì²Ńê¸°
Ġë¹Ī ìĦ¼íĬ¸
Ġë°ľ íı¬
ìĺ¨ ìĬ¤
ìĨĮ ëª¨
ì§Ģë§ī ì§Ģ
Ġíķ´ ëĤ´
ĠìĹ¬ë¦Ħ íľ´ê°Ģ
ĠëĤ¨ ë°ľ
Ġíķµ íĥĦëĳĲ
ĠìĦłìĸ¸ ë¬¸
Ġë¬´ ì§Ģë§īì§Ģ
ì¡´ ì¤ĳ
Ġìłķ ìĬ¹
ĠìĬ¤íİĻ íĬ¸
Ġ20 9
ìĹŃ ìĿ´
ĠëĤłìķĦ ìĺ¤
ĠìľłìĤ¬ ìĭľ
Ġê°ľ íĻĶ
Ġëª°ìķĦ ëĦ£
ìĵ ´
ĠìķĦ ê¹Ŀ
ìŀĲ ëıĦ
Ġëĭ¤ ìĤ°
ĠìĹĩê°Ī ë¦°
ĠìķĦ íı´
ĠëĤĺ ë¯¸
ì§ķ ìĹŃ
Ġì¡° ìĭĿ
Ġe z
ìĭł ê¸°
ĠíķľêµŃ êµ°
Ġë°© ê¸Ī
ĠìľłëĭĪ íģ´ë¡ľ
Ġìļ¸ íĥĢë¦¬
Ġë§¡ ê¸´
ëıĦ ìĬ¤
ĠìĿ¼ ëıĻ
Ġc lo
ë³ĳ ëł¥
Ġëį° ìĬ¤íģ¬
Ġìĸ´ íķĻ
ë¯ Ī
Ġê¸° íĭĢ
ĠíĻĪ ê²½ê¸°
Ġë§¡ ê²¼
Ġëĵľ ë¦°ëĭ¤
íĥľ ìĺģ
Ġê²° ë³Ħ
Ġè »į
ê²° ìĹ°
ìłľ ìĿ¸
Ġë³ĳ ìĺģ
Ġar t
ì¤Ħ ëŀĺ
ê¸° ì´Ī
Ġì´Ŀë¬´ìĽĲ ìŀ¥
Ġ19 4
ĠìĪľ êµĲ
Ġê³ł ê¸Īë¦¬
Ġêµ¬ ëªħ
Ġìĺ´ ëĭĪ
ĠëıĦìļ° ë¯¸
ĠìĿ¼ ì¶ľ
Ġëª¨íĹĺ ê°Ģ
Ġk iss
ĠìĺĪë¹Ħ êµ°
p n
Ġì¹¨ ë²Ķ
ĠëłĪìĿ¸ ë³´ìļ°
ĠìĿ´ìļ© ì£¼
Ġë¯¸ ì¹ľëĭ¤
ìĭ¤ ëĤ´
Ġíį ½
Ġ3 200
Ġê±° ë¨¸ì
ìľł ìĨĮ
ĠìĪĺë°± ë§Į
Ġê³ł ìĨĮìŀ¥
¦ ĺ
Ġë¶Ħ ëıĦ
ĠëĤ´ëł¤ ìĻĶ
° Ĺ
Ġê¹Ģ ë°¥
ë¹Ħ ìĹĲ
ĠíĴĢ ë¦°
ĠìĨĮ ê°ķ
Ġë¯¸ ëħĢ
Ġêµ¬ì¡° ëĮĢ
Ġì§Ģ íĥ±
ê°Ģ ë¹Ħ
ĠìĿ¼ë³¸ ìĭĿ
Ġì¼ĢìĿ´ íĶĦ
ìķĦíĬ¸ íĻĢ
Ġíı¬ìĥģ ê¸Ī
ìĦł ì§Ħ
ê¸° íĥĢ
Ġê°Ħ ì²©
Ġë°± ë¯¸
ĠìĬ¤ íĦ°
ĠíķĦ ìĹ°
ĠìĬ¤ íĥĿ
ĠëĶĶ ìĹĲ
ìĺģ ì£¼
Į ¡
Ġì¼Ģ ìĿ¸
Ġê°Ħ ìķĶ
ë£¨ íĶĦ
ĠìĽĲ ìĥģ
ĠìķĮ ì§ľ
Ġë©į ì²Ń
ë¦¬ ìĤ¬
ìŀĳ ìĿ¸
ĠìĤ ¼ì
Ġê²° ìĨį
ì§Ī ëŁ¬
ĠíĥĢ ì§Ħ
ĠìĿ´ëıĦ íĽĪ
ĠëĲľ ìŀ¥
Ġìŀł ìŀł
Ġíķľ ìĭ¬
Ġìĺ¤ë¦¬ ìĹĶ
Ġê· Ģì´Į
Ġìķħ ìĸ´
Ġìŀĳ ë³Ħ
Ġë°¸ ë¸Į
íļĮ ìĥĿ
Ġì¹´ íĥĢ
Ġì°¨ íĽĦ
ì²´ íı¬
Ġblues oda
Ġbluesoda newsis
Ġìľłë¦¬ ì°½
Ġ5 17
ìĬ¤ ëĭĺ
ĠìĺĲ ë¡ľ
Ġíĸ¥ ëħĦ
ë¦½ ìĬ¤
Ġì¡°ëªħ ëŀĺ
ĠìŀĲ ë°±
ĠìĨĮ ëŀĢ
ìĬĪ íĬ¸
ĠìĪĺìĭŃ ìĸµ
ĠìĨį ëĤ´
ĠìĦ¸ ìĦ¸
Ġê¶Į ìĿĢíĿ¬
ĠìĨĲ íĨ±
ìľ ½
% .
Ġë°ķ ìĦ¸
Ġìĭ¬ ë¶Ģ
ĠíĺĦ ìłĢ
ĠìĥģëĮĢ ìĭĿ
Ġ5 12
ë²ķë¥ł ìķĪ
íı¬ ë¨¸
ìĬ¤ ëĤĺ
Ġíķĺ ìĨĮìĹ°
Ġê²½ê°ģ ìĭ¬
Ġ~ !
ĠëĲĺìĥĪ ê¸°
íĴ ĭ
Ġë°ĺëĮĢ íİ¸
Ġë©§ ëı¼ì§Ģ
çļ Ħ
íĥĢì ¿ł
ĠìŀĲ ê°ģ
ìĺ¥ ìħĺ
ìķ½ êµŃ
ë¶ģ íķľ
ĠìĦľ ë°ĶìĿ´ë²Į
ĠìĤ¬ íĤ¤
z z
Ġë²Ķ ìĸ´
ë¦¬ ì¹ĺ
Ġë°ķ íĺķ
ì°¨ íĬ¸
Ġsk c
Ġë¶Ģ ë¡ľ
ìłĪ ë²½
ê¶ģ ìĿĺ
ĠìĦľ ìĭł
Ġe l
Ġìĭł íķŃ
Ġë²¨ ëĿ¼
ëķĮ ë¡ľ
Ġì¶Ķì¶ľ ë¬¼
íı¬ ëıĦ
ìĿĺ íĺ¹
ĠíĶĦëŀĢì¹ĺ ìĬ¤ì½Ķ
ê´Ģ ì°°
ĠíĺĪ ìĦ¸
ĠìĥģìľĦ ê¶Į
Ġmo ney
Ġe c
Ī °
Ġì°¬ ëŀĢ
Ġêµ¬ ëĤ´
ĠëįĶ ëŁ¬ìļ´
Ġë¬´ ëªħ
ê°Ģ ë°©
Ġë§¤ìŀ¥ ìĿ´
Ġf la
Ġ37 00
ĠìĤ¬ë¬´ ì²ĺ
ìĿ¼ ê°ģ
Ġc or
ìłĦ ê³¼
ĠìķĦ ë°ĺ
Ġìŀ¥ ëª¨
Ġê³ł ê°Ī
Ġê°ľìĿ¸ ë³Ħ
ĠëĮĢ êµŃ
Ġâħ °
Ġg w
ìĿ´ ìľł
ĠëĶ° ëŀĲ
Ġìļ¸íĬ¸ëĿ¼ ë§¨
ëĿ¼ìĿ´ íĦ°
Ġíĥľë°± ìĭľ
ìĪĺ ì£¼
ĠíĭĢ ë¦¼
ĠìĪĺìĺģ ë³µ
ìĤ¬ ìĿ´ì¦Ī
å Ĩ
ĠìļĶ ë¥´
Ġëĭ¬ìķĦ ëĤľ
ĠìĪĺìĨ¡ ê¸°
Ġëħ¸ ë©´
Ġ8 10
ìłĦë§Ŀ ëĮĢ
ì£¼ ìĨĮ
Ġs oul
íĻĪ ëŁ°
ìĿĺ ë¡Ģ
ĠìľłíĨµ ë§Ŀ
ĠìĹ°íıī ëıĦ
ĠìĺĪ ìĬ¤
Ġevery thing
ĠìĿ¼ëŁ¬ìĬ¤íĬ¸ ëłĪìĿ´íĦ°
ĠìĻĢ ìĿ´ìĸ´
êµĲ ëĮĢ
ìĤ´ ëłĺ
ĠìĻ¸ ìķķ
ĠìĪŃ ìĭ¤
ĠìĤ¼ ì²Ń
Ġíķĺ ìļ°
ĠìĤ¬ë¬´ ëĿ¼ìĿ´
Ġê·¸ëŀľ ìłĢ
Ġë³ĳ ìĥģ
íĻķ ìĤ°
ĠëĶ°ë¥¸ ëĭ¤
Ġê°Ī ëŀĺ
Ġì§Ģ ë°ĺ
Ġêµ´ ë³µ
Ġê³ł ë°°
ĠìĨĮ ìĥĿ
Ġê°ľìµľ ì§Ģ
ĠìľłëĭĪ ìĺ¨
ĠëĭĪ íĺ¼
Ġê°Ģë¡ľ ì±Ī
ìľĦ íĥģ
ëŁ¬ ë¯¸
Ġê¹Ģ íļ¨
ë¸Į ë¦¿ì§Ģ
ĠíĦ± ìĹĨìĿ´
íħĮë§Ī íĮĮíģ¬
Ġëĭ¬ëł¤ ëĵ¤
Ġë§Į ë£¨
ëį §
Ġê¸° íĨµ
ĠëĶ° ëĤ´
Ġë¡ľìĹ´ íĭ°
ĠìĦ¸ìĿ¼ ì¦Ī
ìĬ¹ ìļ©
ê³µ ë°©
Ġë¬´ ëª¨
ìĨĮ ìĿĮ
Ġíİ Ńê·Ħ
ĠìĹ´ë³ĳ ìĭĿ
ĠëĤł ëĽ°
Ġì´Ī ìĨį
Ġëĸ¡ ë³¶ìĿ´
å¥ ³
ì¹´ì ¿ł
¿ į
ĠíĻľëıĻ ê°Ģ
Ġê¸°ë³¸ ê¸°
Ġp vp
Ġìłľ ê³¼
Ġìĥģ íĸī
Ġ38 00
ê³µ ìĭł
ĠíĮ ¥
Ġë°ĽìķĦëĵ¤ ìĿ¸
ĠìĬ¤íħĶ ëĿ¼
ĠìĤ¿ íı¬ë¡ľ
ìĸ´ ìĺ¨
ĠíķŃ ëª¨
ĠíĬĢ ê¹Ģ
Ġê²Ĳ ì§Ģ
ĠíĶĮ ë£¨
ëŀĳ ìĿĺ
ì¹ ´ì¦Ī
ĠëĮĢ ì¡¸
ĠFI FA
º ī
Ġê¸° ê»ı
ë§¹ ìĿ´
ëĮĢ ê²°
êµŃ ìĤ¬
ëıħ ìŀ¬
Ġì¹ĺ ìĤ¬
Ġì¤ĳ ë¡ł
íĴį ëł¥
íĴį ìĦł
Ġìłķ ìĿ´
ĠìĿ´ìĸ´ íı°
ĠìĻķ ìĦ±
Ġìĭľ ì°¨
ìĺĪ ìĦł
ê¸° ë¦Ħ
ĠìĬ¤íĥ ¬
Ġãģ Ĭ
ĠìĭĿ ë£ĮíĴĪ
Ġëĵ¤ìĸ´ ìĻĢìĦľ
ĠëıĻ ìľłëŁ½
ìŀ¥ ìĪĺ
Ġë¬µë¬µ íŀĪ
Ġæ ª¢
ë£¨ ìĤ´ëłĺ
ĠíĴĢ ê¸°
Ġë¬´ìĿ¸ ê¸°
Ġê¸° ê¶Į
Ġëĭ´ ê·¸
Ġìŀħ ìĥģ
ìĤ¬ ëł¥
ĠëĮĢ ìĨĲ
ĠëĿ¼ íĮĮ
Ġëģ¼ ìĸ´
Ġë§Į ë¥ĺ
ì²ĺ ì¹ĺ
Ġêµ¬ ìĿ´
ĠìĬ¤ë¦¬ ëŀĳì¹´
ĠìºĶ ëĶĶ
Ġìłĳìĸ´ ëĵł
Ġa in
Ġëħ¸ íĥľìļ°
ĠìĪĺ ì¤į
ëĤł ë¦¬
se d
ĠìĿ¼ëłī íĬ¸ë¦Ń
ĠìłĢ ëªħ
ê²Ģ ìĥī
ĠíĻ Ģëĵľ
Ġì¹ł ê³¡
ìĪĺ ìľĦ
ê´Ģ ëŀĮ
Ġo va
Ġd ark
ĠìķĪëĤ´ ë¬¸
Ġ19 3
Ġìĭł ë³´
Ġìłķìĭł ëł¥
Ġíİĺ ë¯¸
ĠíķľíĻĶ ê±´ìĦ¤
Ġíı¬ ëĭĪ
Ġëķħ ê°Ĵ
ĠìĿ¼ ìĸ´ìĦľ
ĠìĬ¤íĬ¸ ëłĪ
ìķĦ ì¹¨
ĠëĿ¼ ìŀĦ
ĠíĿĺ ëł¸
ĠìĹŃ íĸī
Ġë¬´ ë§Ī
Ġê¹ ¬
Ġìľł êµĲ
m or
ĠìĿ´ ì±Ħ
ëĨį ë¯¼
Ġíķ´ ìłĦ
Ġë¶ģ ê²½
ĠìŀĳìĹħ ìŀĲ
ĠìĨĲ ë°ľ
ëĿ ¤
Ġê¸° íĶĦíĬ¸
Ġ20 8
ë¯ Ģ
Ġê¹ĥ íĦ¸
Ġì§ĳ ìķ½
ir st
ĠìĺģëĤ¨ ëĮĢ
ìłĦ ìłģ
Ġëĵ¤ ë¦°ëĭ¤
Ġê³¼ë ĮĢ
ĠìĿ´ ìĺ¤
Ġë©Ķ ìļ°
ëķ Ģ
Ġìĥģ ëıĦ
Ġë¶ ĦìĩĦ
ìĤ° ìķħ
Ġì£¼ê¸° ëıĦ
[...]
